<?xml version="1.0"?>
<MethodSetup Method="MLP::MLPBNN">
  <GeneralInfo>
    <Info name="TMVA Release" value="4.1.3 [262403]"/>
    <Info name="ROOT Release" value="5.30/04 [335364]"/>
    <Info name="Creator" value="kreplin"/>
    <Info name="Date" value="Mon Jun 24 16:14:53 2013"/>
    <Info name="Host" value="Linux lxbuild148.cern.ch 2.6.18-194.26.1.el5 #1 SMP Wed Nov 10 09:45:46 CET 2010 x86_64 x86_64 x86_64 GNU/Linux"/>
    <Info name="Dir" value="/auto/sigma0/work2/kreplin/TMVA-v4.1.2/test"/>
    <Info name="Training events" value="30000"/>
    <Info name="TrainingTime" value="2.59307898e+03"/>
    <Info name="AnalysisType" value="Classification"/>
  </GeneralInfo>
  <Options>
    <Option name="NCycles" modified="Yes">600</Option>
    <Option name="HiddenLayers" modified="Yes">N+8</Option>
    <Option name="NeuronType" modified="Yes">sigmoid</Option>
    <Option name="RandomSeed" modified="No">1</Option>
    <Option name="EstimatorType" modified="Yes">CE</Option>
    <Option name="NeuronInputType" modified="No">sum</Option>
    <Option name="V" modified="Yes">True</Option>
    <Option name="VerbosityLevel" modified="No">Verbose</Option>
    <Option name="VarTransform" modified="Yes">N,D</Option>
    <Option name="H" modified="Yes">True</Option>
    <Option name="CreateMVAPdfs" modified="Yes">True</Option>
    <Option name="IgnoreNegWeightsInTraining" modified="No">False</Option>
    <Option name="TrainingMethod" modified="Yes">BFGS</Option>
    <Option name="LearningRate" modified="No">2.000000e-02</Option>
    <Option name="DecayRate" modified="No">1.000000e-02</Option>
    <Option name="TestRate" modified="Yes">5</Option>
    <Option name="EpochMonitoring" modified="No">False</Option>
    <Option name="Sampling" modified="No">1.000000e+00</Option>
    <Option name="SamplingEpoch" modified="No">1.000000e+00</Option>
    <Option name="SamplingImportance" modified="No">1.000000e+00</Option>
    <Option name="SamplingTraining" modified="No">True</Option>
    <Option name="SamplingTesting" modified="No">False</Option>
    <Option name="ResetStep" modified="No">50</Option>
    <Option name="Tau" modified="No">3.000000e+00</Option>
    <Option name="BPMode" modified="No">sequential</Option>
    <Option name="BatchSize" modified="No">-1</Option>
    <Option name="ConvergenceImprove" modified="No">1.000000e-30</Option>
    <Option name="ConvergenceTests" modified="No">-1</Option>
    <Option name="UseRegulator" modified="Yes">True</Option>
    <Option name="UpdateLimit" modified="No">10000</Option>
    <Option name="CalculateErrors" modified="Yes">True</Option>
    <Option name="WeightRange" modified="No">1.000000e+00</Option>
  </Options>
  <Variables NVar="11">
    <Variable VarIndex="0" Expression="log(k_p)" Label="log(k_p)" Title="log(k_p)" Unit="units" Internal="log_k_p_" Type="F" Min="7.60094261e+00" Max="1.21393108e+01"/>
    <Variable VarIndex="1" Expression="log(k_pt)" Label="log(k_pt)" Title="log(k_pt)" Unit="units" Internal="log_k_pt_" Type="F" Min="4.14420938e+00" Max="9.20156765e+00"/>
    <Variable VarIndex="2" Expression="log(abs(k_ipsig))" Label="log(abs(k_ipsig))" Title="log(abs(k_ipsig))" Unit="units" Internal="log_abs_k_ipsig__" Type="F" Min="-4.25592852e+00" Max="7.96925783e+00"/>
    <Variable VarIndex="3" Expression="log(abs(k_ip))" Label="log(abs(k_ip))" Title="log(abs(k_ip))" Unit="units" Internal="log_abs_k_ip__" Type="F" Min="-7.53862190e+00" Max="4.84136343e+00"/>
    <Variable VarIndex="4" Expression="log(k_lcs)" Label="log(k_lcs)" Title="log(k_lcs)" Unit="units" Internal="log_k_lcs_" Type="F" Min="-1.44058633e+00" Max="1.09851742e+00"/>
    <Variable VarIndex="5" Expression="log(k_ghost)" Label="log(k_ghost)" Title="log(k_ghost)" Unit="units" Internal="log_k_ghost_" Type="F" Min="-1.28660212e+01" Max="-6.94363177e-01"/>
    <Variable VarIndex="6" Expression="k_diff_eta" Label="k_diff_eta" Title="k_diff_eta" Unit="units" Internal="k_diff_eta" Type="F" Min="-3.03868389e+00" Max="6.62345362e+00"/>
    <Variable VarIndex="7" Expression="k_delta_phi" Label="k_delta_phi" Title="k_delta_phi" Unit="units" Internal="k_delta_phi" Type="F" Min="-3.14150119e+00" Max="3.14153361e+00"/>
    <Variable VarIndex="8" Expression="log(B_pt)" Label="log(B_pt)" Title="log(B_pt)" Unit="units" Internal="log_B_pt_" Type="F" Min="2.30112004e+00" Max="1.10098963e+01"/>
    <Variable VarIndex="9" Expression="log(cands)" Label="log(cands)" Title="log(cands)" Unit="units" Internal="log_cands_" Type="I" Min="0.00000000e+00" Max="3.78418970e+00"/>
    <Variable VarIndex="10" Expression="no_vtx" Label="no_vtx" Title="no_vtx" Unit="units" Internal="no_vtx" Type="I" Min="1.00000000e+00" Max="8.00000000e+00"/>
  </Variables>
  <Spectators NSpec="0"/>
  <Classes NClass="2">
    <Class Name="Signal" Index="0"/>
    <Class Name="Background" Index="1"/>
  </Classes>
  <Transformations NTransformations="2">
    <Transform Name="Normalize">
      <Selection>
        <Input NInputs="11">
          <Input Type="Variable" Label="log(k_p)" Expression="log(k_p)"/>
          <Input Type="Variable" Label="log(k_pt)" Expression="log(k_pt)"/>
          <Input Type="Variable" Label="log(abs(k_ipsig))" Expression="log(abs(k_ipsig))"/>
          <Input Type="Variable" Label="log(abs(k_ip))" Expression="log(abs(k_ip))"/>
          <Input Type="Variable" Label="log(k_lcs)" Expression="log(k_lcs)"/>
          <Input Type="Variable" Label="log(k_ghost)" Expression="log(k_ghost)"/>
          <Input Type="Variable" Label="k_diff_eta" Expression="k_diff_eta"/>
          <Input Type="Variable" Label="k_delta_phi" Expression="k_delta_phi"/>
          <Input Type="Variable" Label="log(B_pt)" Expression="log(B_pt)"/>
          <Input Type="Variable" Label="log(cands)" Expression="log(cands)"/>
          <Input Type="Variable" Label="no_vtx" Expression="no_vtx"/>
        </Input>
        <Output NOutputs="11">
          <Output Type="Variable" Label="log(k_p)" Expression="log(k_p)"/>
          <Output Type="Variable" Label="log(k_pt)" Expression="log(k_pt)"/>
          <Output Type="Variable" Label="log(abs(k_ipsig))" Expression="log(abs(k_ipsig))"/>
          <Output Type="Variable" Label="log(abs(k_ip))" Expression="log(abs(k_ip))"/>
          <Output Type="Variable" Label="log(k_lcs)" Expression="log(k_lcs)"/>
          <Output Type="Variable" Label="log(k_ghost)" Expression="log(k_ghost)"/>
          <Output Type="Variable" Label="k_diff_eta" Expression="k_diff_eta"/>
          <Output Type="Variable" Label="k_delta_phi" Expression="k_delta_phi"/>
          <Output Type="Variable" Label="log(B_pt)" Expression="log(B_pt)"/>
          <Output Type="Variable" Label="log(cands)" Expression="log(cands)"/>
          <Output Type="Variable" Label="no_vtx" Expression="no_vtx"/>
        </Output>
      </Selection>
      <Class ClassIndex="0">
        <Ranges>
          <Range Index="0" Min="7.6022467613220215e+00" Max="1.2100781440734863e+01"/>
          <Range Index="1" Min="4.4321670532226562e+00" Max="9.1715717315673828e+00"/>
          <Range Index="2" Min="-3.5852229595184326e+00" Max="7.9692578315734863e+00"/>
          <Range Index="3" Min="-7.2056374549865723e+00" Max="4.5343523025512695e+00"/>
          <Range Index="4" Min="-1.2140033245086670e+00" Max="1.0951299667358398e+00"/>
          <Range Index="5" Min="-1.1068643569946289e+01" Max="-8.4801113605499268e-01"/>
          <Range Index="6" Min="-2.6177926063537598e+00" Max="5.8638257980346680e+00"/>
          <Range Index="7" Min="-3.1413917541503906e+00" Max="3.1415336132049561e+00"/>
          <Range Index="8" Min="3.2120118141174316e+00" Max="1.1009896278381348e+01"/>
          <Range Index="9" Min="0.0000000000000000e+00" Max="3.6635615825653076e+00"/>
          <Range Index="10" Min="1.0000000000000000e+00" Max="7.0000000000000000e+00"/>
        </Ranges>
      </Class>
      <Class ClassIndex="1">
        <Ranges>
          <Range Index="0" Min="7.6009426116943359e+00" Max="1.2139310836791992e+01"/>
          <Range Index="1" Min="4.1442093849182129e+00" Max="9.2015676498413086e+00"/>
          <Range Index="2" Min="-4.2559285163879395e+00" Max="7.8843865394592285e+00"/>
          <Range Index="3" Min="-7.5386219024658203e+00" Max="4.8413634300231934e+00"/>
          <Range Index="4" Min="-1.4405863285064697e+00" Max="1.0985174179077148e+00"/>
          <Range Index="5" Min="-1.2866021156311035e+01" Max="-6.9436317682266235e-01"/>
          <Range Index="6" Min="-3.0386838912963867e+00" Max="6.6234536170959473e+00"/>
          <Range Index="7" Min="-3.1415011882781982e+00" Max="3.1415030956268311e+00"/>
          <Range Index="8" Min="2.3011200428009033e+00" Max="1.0863457679748535e+01"/>
          <Range Index="9" Min="0.0000000000000000e+00" Max="3.7841897010803223e+00"/>
          <Range Index="10" Min="1.0000000000000000e+00" Max="8.0000000000000000e+00"/>
        </Ranges>
      </Class>
      <Class ClassIndex="2">
        <Ranges>
          <Range Index="0" Min="7.6009426116943359e+00" Max="1.2139310836791992e+01"/>
          <Range Index="1" Min="4.1442093849182129e+00" Max="9.2015676498413086e+00"/>
          <Range Index="2" Min="-4.2559285163879395e+00" Max="7.9692578315734863e+00"/>
          <Range Index="3" Min="-7.5386219024658203e+00" Max="4.8413634300231934e+00"/>
          <Range Index="4" Min="-1.4405863285064697e+00" Max="1.0985174179077148e+00"/>
          <Range Index="5" Min="-1.2866021156311035e+01" Max="-6.9436317682266235e-01"/>
          <Range Index="6" Min="-3.0386838912963867e+00" Max="6.6234536170959473e+00"/>
          <Range Index="7" Min="-3.1415011882781982e+00" Max="3.1415336132049561e+00"/>
          <Range Index="8" Min="2.3011200428009033e+00" Max="1.1009896278381348e+01"/>
          <Range Index="9" Min="0.0000000000000000e+00" Max="3.7841897010803223e+00"/>
          <Range Index="10" Min="1.0000000000000000e+00" Max="8.0000000000000000e+00"/>
        </Ranges>
      </Class>
    </Transform>
    <Transform Name="Decorrelation">
      <Selection>
        <Input NInputs="11">
          <Input Type="Variable" Label="log(k_p)" Expression="log(k_p)"/>
          <Input Type="Variable" Label="log(k_pt)" Expression="log(k_pt)"/>
          <Input Type="Variable" Label="log(abs(k_ipsig))" Expression="log(abs(k_ipsig))"/>
          <Input Type="Variable" Label="log(abs(k_ip))" Expression="log(abs(k_ip))"/>
          <Input Type="Variable" Label="log(k_lcs)" Expression="log(k_lcs)"/>
          <Input Type="Variable" Label="log(k_ghost)" Expression="log(k_ghost)"/>
          <Input Type="Variable" Label="k_diff_eta" Expression="k_diff_eta"/>
          <Input Type="Variable" Label="k_delta_phi" Expression="k_delta_phi"/>
          <Input Type="Variable" Label="log(B_pt)" Expression="log(B_pt)"/>
          <Input Type="Variable" Label="log(cands)" Expression="log(cands)"/>
          <Input Type="Variable" Label="no_vtx" Expression="no_vtx"/>
        </Input>
        <Output NOutputs="11">
          <Output Type="Variable" Label="log(k_p)" Expression="log(k_p)"/>
          <Output Type="Variable" Label="log(k_pt)" Expression="log(k_pt)"/>
          <Output Type="Variable" Label="log(abs(k_ipsig))" Expression="log(abs(k_ipsig))"/>
          <Output Type="Variable" Label="log(abs(k_ip))" Expression="log(abs(k_ip))"/>
          <Output Type="Variable" Label="log(k_lcs)" Expression="log(k_lcs)"/>
          <Output Type="Variable" Label="log(k_ghost)" Expression="log(k_ghost)"/>
          <Output Type="Variable" Label="k_diff_eta" Expression="k_diff_eta"/>
          <Output Type="Variable" Label="k_delta_phi" Expression="k_delta_phi"/>
          <Output Type="Variable" Label="log(B_pt)" Expression="log(B_pt)"/>
          <Output Type="Variable" Label="log(cands)" Expression="log(cands)"/>
          <Output Type="Variable" Label="no_vtx" Expression="no_vtx"/>
        </Output>
      </Selection>
      <Matrix Rows="11" Columns="11">
        4.353135269517757e+00 -2.516105162361863e+00 1.047278692468940e+00 -1.004400027540897e+00 1.407852681670039e-01 -2.475101573562609e-01 2.402775024033155e+00 -3.322060491055900e-03 1.294306389073977e+00 -5.915478737417329e-02 5.607598021892168e-02 -2.516105162361864e+00 6.883548327022801e+00 -4.737058149843215e+00 4.443284167920746e+00 -7.707560191163687e-02 2.857411037188657e-01 -2.604201894922143e+00 -6.742875089933244e-03 -1.606658957246063e+00 7.389544446411406e-02 -1.249882009119997e-01 1.047278692468940e+00 -4.737058149843214e+00 1.659311959150251e+01 -1.289668277158218e+01 -1.453527607368513e-01 1.314217468444910e-01 -4.076963992206655e-01 -3.037137827678812e-04 -2.153132989495783e-01 -2.180557422067609e-01 -7.571502075323458e-02 -1.004400027540896e+00 4.443284167920744e+00 -1.289668277158218e+01 1.647717035867970e+01 9.541447663916768e-02 -1.847057360015718e-01 2.383452571431877e-01 -2.067672162855791e-04 1.840324970840325e-01 1.681763207835635e-01 4.134534326248012e-02 1.407852681670036e-01 -7.707560191163623e-02 -1.453527607368522e-01 9.541447663916844e-02 5.174148700454835e+00 -1.712625855376561e+00 -1.435211631016488e-02 -1.542407441142778e-02 -1.830398099366594e-02 -6.485427466449675e-02 -1.013455170883959e-01 -2.475101573562608e-01 2.857411037188657e-01 1.314217468444908e-01 -1.847057360015717e-01 -1.712625855376561e+00 6.177057448269311e+00 6.632873007743641e-02 -1.263113097051530e-02 5.111711941365219e-02 -1.297633941001837e-01 -1.434746995073630e-01 2.402775024033155e+00 -2.604201894922145e+00 -4.076963992206631e-01 2.383452571431857e-01 -1.435211631016464e-02 6.632873007743637e-02 8.452998303903154e+00 -3.382028947106264e-03 3.568267555437628e+00 1.681832170722110e-02 -7.444960778656087e-02 -3.322060491055901e-03 -6.742875089933245e-03 -3.037137827678780e-04 -2.067672162855822e-04 -1.542407441142779e-02 -1.263113097051530e-02 -3.382028947106264e-03 1.589695294672235e+00 -1.001325491012529e-02 -4.272185429904345e-03 9.319377627241112e-03 1.294306389073977e+00 -1.606658957246063e+00 -2.153132989495777e-01 1.840324970840321e-01 -1.830398099366552e-02 5.111711941365209e-02 3.568267555437628e+00 -1.001325491012529e-02 7.529286799647291e+00 -9.875327604987282e-02 -5.499101610734881e-02 -5.915478737417332e-02 7.389544446411409e-02 -2.180557422067609e-01 1.681763207835636e-01 -6.485427466449681e-02 -1.297633941001836e-01 1.681832170722126e-02 -4.272185429904345e-03 -9.875327604987277e-02 3.001115235334981e+00 -2.827600219728570e-01 5.607598021892171e-02 -1.249882009119998e-01 -7.571502075323434e-02 4.134534326247986e-02 -1.013455170883958e-01 -1.434746995073631e-01 -7.444960778656103e-02 9.319377627241106e-03 -5.499101610734886e-02 -2.827600219728570e-01 3.519563774300658e+00 
      </Matrix>
      <Matrix Rows="11" Columns="11">
        4.638001840811995e+00 -2.524593729444544e+00 4.537168896243366e-01 -3.519197150756498e-01 3.578867191199667e-02 -1.306355310880909e-01 2.601558257788068e+00 5.284721688212164e-03 1.444280868086425e+00 -1.833355556455121e-02 5.940982411304935e-02 -2.524593729444544e+00 6.451645013918452e+00 -2.740244624788544e+00 3.115361322583957e+00 1.559046149763139e-02 1.484412226872851e-01 -2.714798655619212e+00 2.537778514317364e-03 -1.579273069677696e+00 2.552808916932726e-02 -1.867770270333849e-01 4.537168896243374e-01 -2.740244624788544e+00 1.162264258361305e+01 -8.337075106425580e+00 -3.207028490003561e-01 -1.888363244460600e-02 -2.154781842688379e-01 -1.448559534003742e-02 -1.405309701164726e-01 -1.261917915588987e-01 -4.504577276026663e-01 -3.519197150756502e-01 3.115361322583957e+00 -8.337075106425580e+00 1.046883350709835e+01 1.575831767528687e-01 -6.348325308644314e-01 3.400416232450710e-01 1.137105877230207e-02 1.915847744332583e-01 1.042354646691532e-01 2.925124878964000e-03 3.578867191199644e-02 1.559046149763093e-02 -3.207028490003544e-01 1.575831767528668e-01 4.600851769454507e+00 -2.051079266311179e+00 -2.217528930278793e-02 -9.460899212147766e-03 -3.075560357388408e-02 -9.087069567437661e-02 -1.505037439157649e-01 -1.306355310880908e-01 1.484412226872852e-01 -1.888363244460648e-02 -6.348325308644309e-01 -2.051079266311179e+00 5.306335253207231e+00 1.078575806261130e-01 -5.091411970313102e-03 6.565313430706975e-02 -1.549301816151870e-01 -1.820794827499812e-01 2.601558257788068e+00 -2.714798655619212e+00 -2.154781842688394e-01 3.400416232450723e-01 -2.217528930278758e-02 1.078575806261129e-01 8.289825381057845e+00 -7.859224583268961e-04 3.564025248735455e+00 -6.066436299003239e-03 -7.619109677945797e-02 5.284721688212159e-03 2.537778514317373e-03 -1.448559534003743e-02 1.137105877230207e-02 -9.460899212147759e-03 -5.091411970313106e-03 -7.859224583269014e-04 1.682352455145519e+00 -1.200588245503832e-02 1.275053559784039e-02 -5.158005134804840e-03 1.444280868086426e+00 -1.579273069677696e+00 -1.405309701164731e-01 1.915847744332586e-01 -3.075560357388396e-02 6.565313430706970e-02 3.564025248735455e+00 -1.200588245503832e-02 7.479362125063974e+00 -9.526175528053531e-02 -2.944618223475612e-02 -1.833355556455131e-02 2.552808916932739e-02 -1.261917915588986e-01 1.042354646691533e-01 -9.087069567437656e-02 -1.549301816151870e-01 -6.066436299003584e-03 1.275053559784039e-02 -9.526175528053540e-02 3.107293094204407e+00 -3.021780479274290e-01 5.940982411304949e-02 -1.867770270333852e-01 -4.504577276026663e-01 2.925124878963984e-03 -1.505037439157648e-01 -1.820794827499814e-01 -7.619109677945764e-02 -5.158005134804835e-03 -2.944618223475613e-02 -3.021780479274286e-01 3.331112734667973e+00 
      </Matrix>
      <Matrix Rows="11" Columns="11">
        4.394273350927255e+00 -2.596275618603493e+00 5.487775542305673e-01 -5.817758984386688e-01 1.199000898434783e-01 -1.184990999498293e-01 2.463652291244680e+00 1.302107358196406e-03 1.354589105218228e+00 1.358915521251747e-02 7.804340952006879e-02 -2.596275618603492e+00 6.374228618160748e+00 -3.637144521059419e+00 3.535176106936560e+00 2.167885211475037e-02 3.244252415457375e-01 -2.705585671881244e+00 -3.796794841829259e-04 -1.605433694952013e+00 1.222979017297278e-01 -1.035841036167845e-01 5.487775542305678e-01 -3.637144521059420e+00 1.301798504716772e+01 -9.784446515804044e+00 -2.310112798804544e-01 1.634917698256128e-01 -3.365958091521878e-01 -6.952391646203517e-03 -1.826227993791819e-01 -7.079344553332770e-02 -2.536313198367608e-01 -5.817758984386693e-01 3.535176106936560e+00 -9.784446515804044e+00 1.232453917319521e+01 1.201629526497810e-01 -5.446989231172967e-01 3.098936533153965e-01 6.020455437352801e-03 1.804402476902880e-01 1.239485536006422e-01 1.999752345470029e-03 1.199000898434781e-01 2.167885211475037e-02 -2.310112798804538e-01 1.201629526497805e-01 4.824688228411882e+00 -1.967274522792510e+00 -3.953307563200406e-04 -1.220417634002666e-02 -1.858653932925072e-02 -9.850215452578652e-02 -1.439161462424600e-01 -1.184990999498292e-01 3.244252415457377e-01 1.634917698256120e-01 -5.446989231172960e-01 -1.967274522792510e+00 5.563029582278519e+00 1.249733758439085e-01 -8.902418116993306e-03 6.988605543080595e-02 -1.879859512915465e-01 -2.068223535295786e-01 2.463652291244680e+00 -2.705585671881245e+00 -3.365958091521882e-01 3.098936533153969e-01 -3.953307563201152e-04 1.249733758439085e-01 8.339834870323399e+00 -1.964762663377104e-03 3.552069663258635e+00 2.258452037187451e-02 -6.069885421276961e-02 1.302107358196407e-03 -3.796794841829255e-04 -6.952391646203520e-03 6.020455437352803e-03 -1.220417634002665e-02 -8.902418116993310e-03 -1.964762663377103e-03 1.633971462737215e+00 -1.106203087277907e-02 3.008665872138215e-03 2.036886742021520e-03 1.354589105218228e+00 -1.605433694952013e+00 -1.826227993791826e-01 1.804402476902887e-01 -1.858653932925085e-02 6.988605543080591e-02 3.552069663258634e+00 -1.106203087277907e-02 7.494451368262014e+00 -9.223020892816945e-02 -3.550998639679030e-02 1.358915521251742e-02 1.222979017297280e-01 -7.079344553332749e-02 1.239485536006420e-01 -9.850215452578641e-02 -1.879859512915464e-01 2.258452037187451e-02 3.008665872138213e-03 -9.223020892816954e-02 3.015795405573223e+00 -3.066615043797982e-01 7.804340952006882e-02 -1.035841036167845e-01 -2.536313198367607e-01 1.999752345469943e-03 -1.439161462424599e-01 -2.068223535295786e-01 -6.069885421276959e-02 2.036886742021519e-03 -3.550998639679025e-02 -3.066615043797986e-01 3.401285515737003e+00 
      </Matrix>
    </Transform>
  </Transformations>
  <MVAPdfs>
    <PDF Name="MLPBNN_PDFSig" MinNSmooth="10" MaxNSmooth="10" InterpolMethod="2" KDE_type="1" KDE_iter="1" KDE_border="1" KDE_finefactor="1.0000000000000000e+00">
      <Histogram Name="MLP_tr_S_original" NBins="100" XMin="3.1517922707280377e-06" XMax="9.9869197607040405e-01" HasEquidistantBins="1">
        2.00275931e-02 7.34345081e-02 7.34345081e-02 6.67586437e-02 1.13489694e-01 1.20165559e-01 1.73572474e-01 2.06951796e-01 2.26979389e-01 2.06951796e-01 3.47144947e-01 2.80386304e-01 3.73848405e-01 3.80524269e-01 2.80386304e-01 4.07227727e-01 3.93875998e-01 4.60634642e-01 5.20717421e-01 4.27255320e-01 4.73986370e-01 5.07365692e-01 5.07365692e-01 5.27393285e-01 6.07503658e-01 5.67448472e-01 5.00689828e-01 6.74262302e-01 5.94151929e-01 6.67586437e-01 5.40745014e-01 5.00689828e-01 7.00965759e-01 4.73986370e-01 5.34069150e-01 6.14179522e-01 4.20579455e-01 5.60772607e-01 6.07503658e-01 5.54096743e-01 5.67448472e-01 5.60772607e-01 6.00827793e-01 5.60772607e-01 5.27393285e-01 6.20855387e-01 5.14041557e-01 5.94151929e-01 6.00827793e-01 6.74262302e-01 5.67448472e-01 5.00689828e-01 6.40882980e-01 3.40469083e-01 5.54096743e-01 4.67310506e-01 4.53958777e-01 5.87476065e-01 5.34069150e-01 4.80662235e-01 5.27393285e-01 4.53958777e-01 4.87338099e-01 5.94151929e-01 5.94151929e-01 5.74124336e-01 5.60772607e-01 5.34069150e-01 5.87476065e-01 6.94289895e-01 6.27531251e-01 7.47696810e-01 5.54096743e-01 6.14179522e-01 6.54234708e-01 7.20993352e-01 5.34069150e-01 7.67724403e-01 6.87614030e-01 9.01241690e-01 7.47696810e-01 7.81076132e-01 8.67862368e-01 1.03475898e+00 1.04811071e+00 1.17495213e+00 1.15492454e+00 1.34184874e+00 1.48204189e+00 1.56882813e+00 1.74240060e+00 1.99608345e+00 2.54350433e+00 3.09092520e+00 3.30455286e+00 4.20579455e+00 5.77462268e+00 7.16320247e+00 9.80016890e+00 9.65329988e+00 
      </Histogram>
    </PDF>
    <PDF Name="MLPBNN_PDFBkg" MinNSmooth="10" MaxNSmooth="10" InterpolMethod="2" KDE_type="1" KDE_iter="1" KDE_border="1" KDE_finefactor="1.0000000000000000e+00">
      <Histogram Name="MLP_tr_B_original" NBins="100" XMin="3.1517922707280377e-06" XMax="9.9869197607040405e-01" HasEquidistantBins="1">
        6.82227854e+00 3.77828733e+00 3.19085043e+00 2.83705321e+00 2.26964257e+00 2.28299341e+00 2.48993140e+00 2.31637050e+00 2.17618670e+00 2.24961631e+00 2.15616044e+00 2.07605541e+00 2.47658057e+00 2.24294089e+00 2.30301966e+00 2.38980011e+00 1.93587160e+00 1.96924870e+00 2.09608166e+00 2.00262579e+00 2.12278334e+00 2.14280960e+00 1.80236321e+00 1.73560902e+00 1.92252076e+00 1.79568780e+00 1.48861851e+00 1.34843470e+00 1.35511012e+00 1.37513638e+00 1.24830341e+00 1.20157548e+00 1.16152296e+00 8.87830769e-01 1.22827715e+00 1.06139167e+00 9.41234123e-01 9.07857027e-01 9.34558704e-01 9.07857027e-01 9.07857027e-01 8.01050318e-01 7.87699479e-01 8.87830769e-01 6.87568189e-01 6.27489416e-01 6.67541931e-01 6.14138577e-01 5.74086061e-01 5.94112319e-01 5.47384384e-01 4.20551417e-01 6.40840254e-01 4.73954771e-01 4.60603933e-01 4.07200578e-01 4.20551417e-01 3.07069288e-01 3.20420127e-01 3.87174320e-01 3.87174320e-01 2.26964257e-01 3.07069288e-01 3.67148062e-01 2.87043031e-01 3.27095546e-01 3.13744708e-01 2.46990515e-01 3.20420127e-01 2.13613418e-01 2.46990515e-01 3.67148062e-01 2.53665934e-01 2.20288837e-01 1.73560902e-01 2.40315095e-01 1.40183806e-01 2.46990515e-01 1.73560902e-01 2.00262579e-01 2.20288837e-01 2.26964257e-01 1.60210064e-01 2.06937999e-01 1.66885483e-01 1.86911741e-01 2.60341353e-01 1.80236321e-01 2.00262579e-01 1.66885483e-01 1.66885483e-01 2.26964257e-01 1.53534644e-01 1.93587160e-01 2.33639676e-01 2.06937999e-01 1.46859225e-01 2.13613418e-01 1.00131290e-01 8.67804511e-02 
      </Histogram>
    </PDF>
  </MVAPdfs>
  <Weights>
    <Layout NLayers="3">
      <Layer Index="0" NNeurons="12">
        <Neuron NSynapses="19">
          -2.4778732270070891e-01 1.5210777318870148e+00 5.2126221689588881e-01 8.1311083063669454e-01 -6.0103157013325137e-01 -1.6749367652494558e+00 -9.3413157355502943e-02 1.5111727127130850e+00 -3.0287261716411784e-01 -9.7177621569496442e-01 -1.2496007061455330e+00 -1.5878096556857409e-02 -4.4835594614425778e-01 1.6688511712855642e-01 -1.5048229285831061e-01 6.5742621478060037e-01 -5.9796431726486521e-03 5.8316599872821029e-01 6.1429383429479978e-01 
        </Neuron>
        <Neuron NSynapses="19">
          -6.6345616387239692e-01 -8.0376971709117639e-01 -1.0536689823663627e+00 1.7825812881597694e-01 3.2101328143090235e-01 -1.2673898972844571e+00 1.0246235613096966e-01 -1.1083021604825016e-01 9.6896165263204104e-02 -7.6821434817605860e-01 -7.6063790889499050e-01 -6.2199502310966026e-01 -5.1241744499363118e-01 7.2294749491781093e-02 -9.7594843885145377e-01 -8.0579445478850087e-01 2.5553625855316964e-01 -7.4632905780717207e-01 -3.3170487296253098e-01 
        </Neuron>
        <Neuron NSynapses="19">
          -1.0221301917818588e+00 1.4165756393675888e-01 -1.4863140049538699e+00 4.0868953064935015e-01 1.0550456514573496e+00 -2.6572099603281912e-01 -2.7122389259367202e-01 -5.0436214679244940e-01 2.0079061403348331e-01 9.3503410115776386e-01 -5.5958276275775647e-02 1.4263585082591108e+00 -1.1459300172553220e-01 1.2618088000845548e-01 -3.1548967844697771e+00 1.1819098632820209e+00 -2.2051050630394129e+00 -1.0810697883297549e-01 -9.7894281661191085e-01 
        </Neuron>
        <Neuron NSynapses="19">
          -6.3747591932337155e-01 2.0546513516890377e+00 6.3026882478819712e-01 -1.4300351651453946e+00 7.4777753363098487e-01 -3.5636925826798505e-02 -4.2741341480545675e-01 1.3776179292761892e+00 -2.6512693789341435e-01 5.4987813815776054e-01 -7.5726522669461643e-02 2.2288220556526879e+00 -3.3193933954620808e-01 -1.0962854249651148e+00 -2.5717913414943974e+00 -2.9271407393593019e-01 -1.6847199769980683e+00 3.0303100195188937e-01 -1.1100155000365546e+00 
        </Neuron>
        <Neuron NSynapses="19">
          -8.4478057085009522e-02 6.1766662600779641e-02 -2.1002532033103419e-01 2.2427154039176728e-01 -9.5256572826336691e-02 -1.8965505959939988e-01 -7.9448843078652287e-01 -1.3131031253912209e-02 -8.5073601186145931e-02 -1.2566194984480075e-01 -3.5267221210980868e-03 2.1284793240944094e-01 -4.6824800997198379e-02 -5.9259823708142610e-02 -1.7127983746188899e-01 -9.2213601652299429e-02 1.6091750153446258e-01 -2.3706137493820884e-01 -2.0963661212915020e-02 
        </Neuron>
        <Neuron NSynapses="19">
          1.9748728682751379e-01 1.3583776392373259e-01 -1.3679187289635306e-01 -5.2344896829883449e-04 5.5902958719220486e-01 8.9220642875751141e-02 -2.1291242802923223e+00 -1.8795254868274189e-02 6.6400698131463687e-01 -3.7838252479670170e-01 1.1338735825918329e-01 4.4804825272142895e-01 2.6563140848128847e-01 5.9318752447784506e-02 -2.8438173086660057e-01 -1.6763728229299624e-01 6.5163643460155518e-01 -5.5679166775744117e-02 1.4215487275587260e-01 
        </Neuron>
        <Neuron NSynapses="19">
          -6.6724258554185800e-01 1.9100999465353007e-02 -1.7923428036584810e-01 -3.5764574987526193e-01 6.7660613345201501e-02 2.3155156735203566e-01 1.4167509238625797e-01 2.5583183899687850e-01 -3.5980817545912647e-01 3.3755911900110097e-01 3.7620185921743432e-01 -1.8620650868941846e-01 3.6649921577647943e-01 -1.7956012168463420e-01 -2.6902789057207327e-01 -8.2928893657290226e-02 -2.8309425857092968e-01 -1.1456695411612881e+00 -9.0725681176991690e-01 
        </Neuron>
        <Neuron NSynapses="19">
          -8.2567630126643022e-04 2.4992285158550289e-03 2.1901225838389538e-03 1.9760199089520493e-03 -7.2770148637227514e-03 1.4273076045471778e-02 -1.1813408821380730e-02 -1.9252158394327797e-03 -8.0103977648329490e-04 3.3254451873753143e-03 1.4497538404278362e-02 1.8847364525167668e-02 7.6066733714412506e-03 -1.1033331544401623e-02 1.2014954938693020e-02 -6.8669486758902087e-03 -9.7320148642323079e-03 2.6767407827500852e-04 1.5975300145554889e-02 
        </Neuron>
        <Neuron NSynapses="19">
          6.4259301960165394e-01 -9.8991534979777043e-02 -5.4150262929730919e-01 4.1636391168117715e-01 8.9197263503161081e-02 -3.2858218090962538e-01 -1.0352196578763445e-01 -7.8093191160736863e-01 -2.3190749183052944e-01 5.6369204501762493e-01 -1.1534823197115854e-01 -8.8443243248794677e-03 2.5187823762227696e-01 -4.4727016375981588e-01 -1.2956003983973421e-01 -9.0563550050308317e-01 6.5880514518217900e-02 -7.6490924340402430e-02 -3.9662614573033639e-01 
        </Neuron>
        <Neuron NSynapses="19">
          -1.9712863553780074e-02 -2.5941148813636172e-01 1.8855949572821643e-01 1.7613967749220760e-02 -8.5912295692254642e-02 1.7327681839122167e-01 -1.4956776053143428e-01 -2.3306490351609854e-01 1.4818745066931110e-01 -8.7120882476395517e-02 3.0567152845596468e-01 -1.4753555592203801e-01 -8.3840913321228827e-01 7.0222926498208299e-02 5.5014975550664542e-02 -1.6005712209735409e-01 7.7508497439615520e-02 1.4229912722635155e-01 1.8404165285770305e-01 
        </Neuron>
        <Neuron NSynapses="19">
          -1.9053043717111648e-01 7.7925785355551325e-01 2.3366133429193831e-01 -1.2206740121278120e-02 -9.2758816397327717e-03 2.2817495986550432e-02 -2.9960376760033264e-01 6.7531498330223438e-01 -1.5436760348550463e-01 2.1553841481537633e-01 7.5083859580711371e-02 2.8957343543047898e-01 4.1612112412214519e-02 -3.0337663813387411e-01 -4.2856837884468418e-01 3.1048953277649344e-01 2.6598941010148358e-01 1.5467444103288200e-01 3.9002338105075540e-01 
        </Neuron>
        <Neuron NSynapses="19">
          1.2387690446086270e+00 -7.4111696020409878e-01 -7.2931194347498729e-01 -2.5255715567618489e+00 -3.5348307974890186e-01 1.0560415336841191e+00 9.2274722259826820e+00 -3.9544313870936404e-01 5.5457537004925928e-01 2.4704036205331255e+00 -2.9175636358687496e+00 -3.2826100729856700e+00 -2.3322086990101074e-01 -2.7493767679243580e-02 -1.5137729257775805e+00 6.8651040359906690e-01 -1.7565387569539228e+00 -1.3437211881048534e+00 7.2204977693480610e-02 
        </Neuron>
      </Layer>
      <Layer Index="1" NNeurons="20">
        <Neuron NSynapses="1">
          -2.4813926108621618e+00 
        </Neuron>
        <Neuron NSynapses="1">
          1.9077919446662364e+00 
        </Neuron>
        <Neuron NSynapses="1">
          1.7535003494416930e+00 
        </Neuron>
        <Neuron NSynapses="1">
          -2.1123676426199487e+00 
        </Neuron>
        <Neuron NSynapses="1">
          6.3240419354954081e-01 
        </Neuron>
        <Neuron NSynapses="1">
          -3.3701023545462148e+00 
        </Neuron>
        <Neuron NSynapses="1">
          6.4059648045565289e+00 
        </Neuron>
        <Neuron NSynapses="1">
          -2.3547217317312810e+00 
        </Neuron>
        <Neuron NSynapses="1">
          8.7078495522341259e-01 
        </Neuron>
        <Neuron NSynapses="1">
          1.9397946083281059e+00 
        </Neuron>
        <Neuron NSynapses="1">
          -5.4787922850150288e+00 
        </Neuron>
        <Neuron NSynapses="1">
          -5.9296956131553795e+00 
        </Neuron>
        <Neuron NSynapses="1">
          1.7150927851905848e+00 
        </Neuron>
        <Neuron NSynapses="1">
          1.8172627105926455e+00 
        </Neuron>
        <Neuron NSynapses="1">
          -3.3614669774642030e+00 
        </Neuron>
        <Neuron NSynapses="1">
          -1.9494287517715465e+00 
        </Neuron>
        <Neuron NSynapses="1">
          -2.3344270252354398e+00 
        </Neuron>
        <Neuron NSynapses="1">
          -2.2177436087034810e+00 
        </Neuron>
        <Neuron NSynapses="1">
          2.1369638772411252e+00 
        </Neuron>
        <Neuron NSynapses="1">
          -1.6698367590202026e+00 
        </Neuron>
      </Layer>
      <Layer Index="2" NNeurons="1">
        <Neuron NSynapses="0"/>
      </Layer>
    </Layout>
    <InverseHessian NElements="61504" NRows="248" NCols="248">
      <Row Index="0">
        1.6513649813336087e-01 -1.6086853708879641e-02 -2.0368061358361483e-03 5.3096587097122006e-04 8.8003806278341857e-03 1.6817821833299482e-03 1.6405177539182889e-04 2.3594103464179377e-02 1.0362183721662853e-02 -2.3203655048151615e-03 2.5643658933610557e-02 -1.5435230010238336e-04 -6.6872779871616963e-03 9.2406321555010690e-03 2.1339104801261907e-03 -2.1239409036766611e-02 7.0627654044429135e-03 -5.0929820377097594e-04 1.1964470616066191e-03 6.5645309413842043e-02 1.3385366055161737e-02 8.0237143195134586e-04 3.7056091937173914e-04 9.2684922996187288e-03 8.5282302968730760e-03 -5.5543081969967444e-04 -3.0247881800696173e-02 -1.3490581788349609e-03 8.3901862376820459e-04 2.6443151232825653e-02 3.4500693816273604e-03 -1.0795698350495580e-02 6.3473104233007210e-04 -1.0706551923365280e-03 -2.9074141309355164e-03 3.0422840359236817e-03 -5.5616449124995804e-03 2.2295835265701376e-03 5.3361599124401075e-02 -1.8906274364923203e-03 -3.0332047277371633e-03 -6.0003032825797983e-03 -1.1596243855832005e-03 9.9608808403587046e-03 4.0104686961027480e-04 -5.2068498524144274e-02 1.5740180720893830e-02 6.2870301048319702e-03 1.5932102451605489e-02 -8.8520296180632022e-04 -1.1748671591167719e-02 4.8476755033135879e-03 -7.4811004398485249e-03 -3.9124795842730561e-03 -1.5694806156478693e-03 -1.2027580040252507e-02 1.2253976492107264e-03 5.9235617418440051e-02 -5.4057707757491210e-03 -2.3361168879740477e-03 8.2632774929511116e-03 -1.6535715501163888e-02 7.3019951661859577e-03 -1.2380116962670239e-03 2.7758490502061132e-02 -1.4010278946446712e-02 8.5207927192454767e-03 1.1038610986501633e-02 -3.0174909675553087e-03 -3.2337822691112252e-03 7.2106078464622102e-03 -4.6853462813892834e-03 -1.1121694776972935e-02 -6.4712834021968604e-04 -4.6343515781017133e-03 -4.4594511970563293e-03 7.8272569144480220e-04 1.7387824849096969e-04 1.3582783924672224e-03 -1.3035209341314502e-03 -1.4608608656250183e-03 1.4833488462417520e-04 1.8229856377314114e-04 -6.2495279934400016e-03 1.1906674678332230e-03 -3.2744639671265091e-04 1.3162617827462452e-03 -5.4502007485960615e-04 -6.8462498969258808e-04 7.9300848346861106e-06 -3.5765748209059319e-04 1.6756822291743817e-03 -1.3471809029348410e-04 9.9859887688346846e-04 2.0535934086506778e-03 -2.2563196183391650e-02 1.4705535771834932e-03 7.2176696711445144e-04 -7.2724669649381376e-04 -1.4672346803599256e-02 -2.0263084868462344e-03 4.0751999266243626e-04 6.8494026628369477e-03 1.1027601645239200e-03 -1.3486376851908337e-03 -4.7233749609745281e-03 -3.3062360232819377e-04 2.3281989424995637e-03 2.1194923213523533e-03 -8.2787801227179653e-04 -8.7597416322349880e-04 2.8867058053486626e-05 2.3455856328814767e-03 1.0869165972966477e-03 1.3995556057805385e-02 1.4382872381096716e-03 8.1719395957684238e-04 -1.3230452300292935e-04 2.5497928436231231e-03 3.4753860521031786e-03 -8.3798417222071046e-05 -1.5485990900847828e-02 -1.6925245479135889e-02 -2.0423734506191046e-03 1.2943013820105654e-03 1.1099568135534933e-04 -5.4015925455229612e-03 -2.1695981414174346e-03 6.7199990008755468e-04 5.6940898818940225e-04 -9.1950656856903674e-04 -1.2553471283161366e-03 1.0665764789682633e-03 -2.5872577023532636e-03 -9.5548162256729784e-04 -6.3544046184039094e-04 3.2978043347456533e-05 2.7350925444618425e-03 1.0029952492798003e-04 3.3940189155219820e-04 -6.9118182630981606e-04 1.9867869605897292e-06 -4.1399269166783603e-04 -4.9288667219141733e-04 -2.0828151651561334e-04 -5.8840587750233291e-04 -3.9663683600385633e-04 -2.5374625453636064e-04 -8.1621852893999170e-05 7.4603173065074225e-05 -5.1760825250482317e-04 -5.5469916694863186e-05 -4.5395240786536693e-02 7.0416458878263949e-03 2.3807034307877775e-03 5.4505073503077007e-03 -2.3914748996244017e-02 -4.8682021520530033e-03 -8.4410170761048376e-04 -1.1097917809132926e-02 1.9367657342292816e-03 2.4011760231285872e-03 -5.7383534475704805e-03 -1.0710139997264796e-05 9.7914411146483860e-03 3.1523871460419628e-03 -6.4927556812217045e-06 4.7811770788727019e-03 -1.2441406584267104e-03 7.6327478767350600e-03 -1.0956427106893821e-02 -1.9141601152961818e-02 2.1820335650777250e-03 -3.6049436190379591e-03 1.0661572477182399e-03 3.8934593925889563e-04 -1.0923067232158704e-03 2.3645339452621180e-04 -5.6112787142595238e-03 8.5128466950092352e-03 3.0933810658929257e-03 -4.7959311402833629e-03 -5.2011837858453392e-04 8.7937666766521698e-03 9.4678148062673183e-05 -1.4233265309245675e-03 -4.7010771018908392e-03 -1.1520419072594608e-03 3.5099139744602151e-03 1.4971184654729180e-03 2.0957732190094253e-02 -3.6447791905487958e-03 2.8633834866260673e-03 -6.2036558915366758e-04 -1.4400293575737005e-03 -1.2104494068387245e-03 -2.7095565738412188e-04 1.9817885569112934e-02 -2.4818199510989619e-03 -1.6707631258107004e-03 -2.0344929146360008e-03 -3.3782630549098044e-04 -1.9679306344385942e-03 -6.2805316399886933e-04 -1.2013719282852277e-03 6.0675996646658917e-04 1.4363994236151511e-04 -9.4725107122595794e-04 6.3013965305953098e-03 1.9229011127798534e-01 -3.3274779809308347e-02 -1.6535172717867960e-02 -5.2860317306722727e-03 7.5922984530857759e-02 2.6897903284972637e-02 -2.5376411350053023e-03 -1.0153330020978485e-02 -7.4307288392288229e-03 1.7048287412309553e-04 6.8279550519196403e-02 2.6233942070827410e-04 -3.7237007509441374e-02 8.5627605929703421e-03 -3.3933947892780553e-04 -1.5012999267699806e-02 8.1928648151696898e-03 -2.7011325987303023e-02 2.8756049306449920e-02 -1.4450973300799749e-01 1.7236335756472460e-02 1.4635601982513471e-02 -1.5868966786537635e-02 7.6369019639797838e-03 -6.5367797854234272e-03 -4.1470364516087675e-03 1.0566169383479512e-01 -1.1986919246442282e-02 2.4627099021204829e-03 -1.5152053351810091e-01 -1.5055846710139540e-02 1.1661548360233989e-02 3.2110006961650304e-03 1.1254509569513436e-02 3.2940424044358915e-03 2.2016876178897540e-04 -7.8402895685598939e-03 -2.3190347976855125e-02 1.7223657851759475e-01 
      </Row>
      <Row Index="1">
        -1.6086853708881181e-02 7.4377339157402178e-01 1.8505195915968092e-02 -3.1334302248656491e-04 6.2709324411185999e-03 4.7807572458842505e-03 -9.6859774104184938e-04 2.8221197327686737e-01 3.3139953505592498e-02 5.0059886742386921e-03 5.0644949170565202e-03 -1.6875144893232635e-02 7.7955271354957813e-04 -1.8393442385809235e-02 -7.1619071335244267e-04 -6.8373147507175634e-03 -4.3394262833989063e-04 -4.5170133443254920e-03 6.0485681194370243e-03 5.1740643182612940e-03 -3.6627364574139798e-01 -1.0958713786368019e-02 -3.3795736168919931e-03 -2.3192716730584373e-02 7.9126634819533075e-03 -1.2674525739656516e-05 -2.4806655522561061e-02 -5.1197403144439900e-02 1.4444230733168891e-02 -9.4340792624517372e-04 -1.6078562983065738e-02 -5.3048343887428934e-05 2.2482006452100446e-02 4.6353654932258410e-03 1.0691225034839526e-02 -3.4277975851000511e-03 -1.3563199757562839e-03 -4.9584150766477392e-03 -1.3956022814930639e-02 4.7750603722177883e-02 3.8933538165418335e-02 -1.3056164997806031e-03 -2.7304048919117158e-02 9.9611555746177971e-03 -4.0491372466451014e-03 -1.5121875296625631e-01 8.1347468856041258e-02 -2.4923292145415117e-02 7.4691847361881714e-03 5.4122477316852914e-02 1.0575717586059057e-03 -2.7817700593595469e-02 1.1095133889147384e-02 -4.2337380422888624e-03 9.3865055287585680e-03 2.6784661571803902e-03 -3.5769229695502801e-04 -2.0739742326790933e-02 7.6282783301583934e-01 3.1293825005470753e-02 9.5162869169093771e-03 1.9293173742596943e-02 3.3265788308170989e-03 3.3236895657311714e-04 1.6578534256533262e-01 1.7993823971230910e-01 -6.1457200765792008e-03 6.9919188726025013e-03 7.1318926573338270e-02 5.0852306219188390e-04 -1.4661192306249430e-02 6.1162913378742020e-03 -1.5269837599172331e-02 7.1848395373417476e-03 -1.7653504330167408e-02 2.8292645978175964e-03 3.0142851335010316e-04 1.2043367288964765e-02 8.1360276549975810e-03 -1.9018040111563337e-03 7.4801128249630550e-03 3.7612385845259512e-03 -9.2446037639539839e-03 -1.0155537858125622e-02 1.1397252213078114e-02 3.5264127513927566e-03 2.6353262230360917e-03 1.0266846897939873e-02 2.3258118195824060e-03 2.5650295783617924e-03 5.4481902691038537e-04 -2.8429329196739215e-03 7.5024066440938688e-04 -2.5050729423046151e-03 7.1827488748845954e-04 4.7166228225597132e-03 5.4441641437389186e-02 2.2999040776656262e-02 2.1741816495242055e-03 -1.2200763315622469e-03 -3.1805828955274668e-03 -3.0106093066693783e-02 -2.7317945802793349e-02 1.4312024239059520e-01 8.1858343473258828e-03 2.4853805534480445e-03 1.2515397800497863e-02 -8.4457951903052150e-04 -1.3084881541347118e-02 -2.9480528737269520e-03 6.1914560524690522e-03 -1.8473251473422074e-03 -1.0616392507479627e-02 3.3884126968757532e-05 -2.4299955047606701e-02 -2.7231589438294401e-02 -7.7039632634298412e-04 1.9499680271543003e-03 -8.0865841201177464e-03 -3.3352185595243410e-03 5.7276119309128916e-03 3.7154278381786893e-02 -4.0656480100342729e-02 -1.0801906604516055e-02 -4.0937384293938612e-03 -1.2211036870291046e-02 -1.0723771047871436e-03 6.2677576146314539e-03 1.4019265020874230e-03 -7.5631533095269418e-03 6.9763975619244190e-04 -2.5127143317928962e-02 2.2041083353322474e-04 8.1471105047759918e-04 3.1026738680347303e-03 1.4864426588699175e-03 -1.1404975628501279e-03 -1.8078238347445910e-03 3.7384780283349658e-05 -4.4331937340603034e-04 5.0152770536905956e-03 -2.1874476278502279e-03 -1.9768059501922681e-04 1.6668188814970001e-04 1.1806263370954429e-03 -2.5266828034989450e-05 1.9978200917039265e-03 -1.0109946931711068e-03 -1.3616541657927160e-03 1.1009939349137122e-03 -3.9035519277379364e-05 -1.2125347297650539e-03 1.6755072940237849e-02 -1.3843110556888756e-02 2.4006935111389509e-02 1.8024437508116203e-03 -1.3677096874986168e-03 6.6103796297164261e-03 3.4933038353304169e-03 -1.5390755897883407e-01 -2.1484665257482702e-02 -1.3672813292803704e-02 2.8285087617275686e-03 6.2212383236301145e-03 -5.3808485556748886e-03 2.0199183130344009e-02 -1.1685318861294146e-03 3.3402795700156543e-04 7.6680071622173664e-04 -5.4004326424009416e-03 1.6955018081347346e-03 -6.6371965701037122e-03 -1.1482720622907858e-01 -9.4474639225846681e-03 -1.9944119967941574e-03 -9.8147025135487259e-05 -2.9885423405796689e-04 -3.0547906888140179e-03 -3.4879941027717867e-02 4.3877357629101624e-03 4.7807116058374705e-03 -1.5898411054759030e-03 -5.2955602206152461e-03 -2.2012632028463944e-03 2.9501221497024431e-03 4.1987308149602810e-04 8.1365915527355608e-03 -1.6546087452928003e-03 5.7426830376768557e-03 -2.1448385751357706e-03 -1.3394131598267328e-03 2.9761896662424386e-01 1.4459799134352889e-02 5.0255229275465284e-05 -4.6959472477992531e-03 -1.6211842407880177e-03 8.4376978624530743e-04 8.6892044528774609e-02 4.1442997335809119e-02 -1.0202723054206895e-02 9.5876547306316458e-04 -1.5531588887636406e-03 -1.8244191047905021e-04 -3.4625662171298304e-03 -3.2405852647701726e-04 -1.8549449545646440e-02 -2.5849109580620101e-03 -1.0048855236801291e-02 3.9260404217541529e-03 -4.2747436682722850e-02 1.2518977834846978e-01 -1.1324914518704909e-02 9.3986973560532365e-03 -7.3798388170550362e-03 -1.3455721234469068e-02 1.0678557544515799e-01 1.3399432970394365e-01 1.7788081633571046e-01 -7.4815009118264691e-02 3.7867381466222556e-03 -1.3757976368494323e-01 9.1999035596804501e-03 -1.2430953161483307e-01 7.6934148391212794e-03 -7.4134224474930066e-02 -2.3332464495702991e-03 -4.8351992750292325e-02 1.6123859874385010e-02 1.5296525550740581e-01 -1.0875812339528825e+00 6.4514672069779705e-02 -1.7081704621890285e-02 1.4793271906265608e-02 -4.4815981097908131e-02 -1.1698380560601709e-01 5.7250580797011019e-01 -1.8034543690781160e-01 8.4531803062247973e-02 -2.6894845352166512e-02 3.5576402944779195e-01 -9.1798938041088712e-03 1.1810114333900287e-01 -8.2901634389204830e-03 -4.2004708462747328e-02 -1.2805916429983119e-02 5.6829220322261717e-02 3.8171661338999435e-03 5.0267932971084846e-02 
      </Row>
      <Row Index="2">
        -2.0368061358195851e-03 1.8505195915953846e-02 1.5531958021428940e-01 6.0978842035995153e-03 -1.3816219572633289e-02 -1.1100040766653141e-02 8.7534267959882414e-04 1.8387780245673613e-03 -4.2673377530609596e-02 -3.5848724592476566e-03 3.7044292996747034e-03 -1.3721858207465651e-03 -2.1480024383398041e-03 -3.9986836452793571e-03 8.3610845404097443e-06 1.5615888234534921e-03 1.9929231227925042e-04 4.7051229716697047e-03 6.5858676156441594e-03 5.1578622807217193e-03 -2.7052941233737110e-03 -8.5436889711889369e-02 -1.6147399502021560e-02 -6.5052304636508112e-03 -1.0315215312556216e-02 2.4522362216602978e-05 -1.7625743285958326e-02 -3.4416323499401671e-02 -3.6448742409434113e-03 1.1890949570303646e-02 -2.8922491156375789e-03 -9.7465283444931228e-04 1.8746288424118743e-03 2.3742918936472115e-03 -7.1748211031991346e-03 5.2073340708460713e-04 1.4225793072940932e-03 8.1557560777482420e-04 1.9014622378749953e-03 2.0668606304000775e-02 -1.1772378080306171e-01 -2.5593387461120234e-02 3.7554109443055185e-02 2.7396916060786272e-04 -3.0936643202236769e-04 9.0277698222848528e-03 -3.5211269876288670e-02 2.1211669482495907e-03 1.6883741517941538e-02 6.7716758512883168e-04 -1.1699008652796845e-03 2.7520155453592057e-03 9.8351675305177466e-03 1.4078658448322401e-03 -1.8381134460745997e-03 1.6862272369900434e-02 -4.8206172930070207e-04 6.6206251092006951e-03 3.0370052648573218e-02 6.9062337131857027e-02 -2.6423561217515604e-03 6.0801472329697751e-02 2.9648213697896445e-04 7.3825284336177799e-04 -2.0082273112677164e-02 1.4961593015458081e-02 7.9554434347719142e-03 -3.5619514719521950e-03 8.5045198028724060e-04 4.0048227573173494e-04 -1.9657341127042340e-02 7.5556703019951515e-03 -1.1922430454662514e-03 4.0649313939192244e-04 -6.5111150532435741e-03 7.4316766301456578e-03 4.5007618396554483e-04 3.7739160157866970e-03 -1.8360094015158156e-02 -3.3568656164639776e-04 -6.0363804832725063e-03 -1.1403035814048952e-03 -1.8648406767779143e-04 1.1688299088769005e-04 -3.7241189290365146e-03 -2.5874201716319101e-03 3.5714326618868442e-03 9.5411005456026883e-04 3.1501836115443494e-04 -9.8280683919667062e-04 6.7769779991963975e-04 -1.0637697756472524e-03 1.0619270872755263e-03 2.7834049239777205e-05 -1.2005259224808469e-03 -5.3741385990177613e-04 -1.4370207897119111e-03 -4.8349141001821205e-03 -3.5219935028287662e-03 3.9174589837032009e-02 3.2519894754098888e-05 -8.0297482898533667e-04 3.7592396469857958e-03 3.0417277833723444e-02 -4.1274203354849269e-03 -2.7449182987691213e-03 -1.4383471394297264e-03 -1.2590857964223674e-03 -3.5897341746154703e-03 -1.0994936198981994e-03 1.3825454029751071e-03 2.1371018260070403e-03 8.8866308920101771e-04 -3.5959139240757023e-04 6.0435660525863140e-03 2.0197789371655863e-03 -3.1315334651669802e-02 -7.3154677249171159e-03 -1.0234556447807058e-02 9.1499101052643908e-04 -2.7353231292124159e-04 -1.9309208110433154e-02 -3.0335397106193958e-03 2.6552806812639939e-03 1.8279510904034091e-03 -6.9918848900317031e-04 -1.8996807162458733e-04 2.8506337289460329e-03 1.0144135720419906e-03 -2.2823989419894957e-04 -3.1970538016667222e-04 -8.0302749464743334e-03 1.1388849959008554e-03 1.7907369136817622e-03 -1.2524091110063247e-03 -1.4130662722794415e-03 3.7526056240519623e-04 -3.8357918743503038e-03 7.2750530610255149e-05 1.0751367077276939e-04 -1.8510639709731810e-03 2.2439064000543854e-03 -6.6794188032563760e-04 3.1724635982133395e-05 4.0276975980419610e-04 1.0171264459221043e-03 -1.9521867215352049e-04 1.9214183004435563e-04 -3.1446985069580270e-04 5.4858459352154915e-05 -8.2422813282618840e-04 3.9196833133551883e-04 -7.6941921812155277e-03 -4.1771571670528229e-03 -5.3612771803260947e-02 -4.9460514985369452e-03 -4.4713273877102768e-03 -1.0323811055023195e-03 -2.4204067210044865e-04 1.1083701634742898e-02 -1.5724381721180247e-02 2.1854250429823282e-03 9.0492920102742715e-03 -8.6798509461220017e-04 -1.2834394844364362e-03 -7.1080284104750929e-03 -4.1067287837832315e-04 -3.4269721075931465e-03 -2.7610627912733705e-04 3.3483639378067438e-03 9.6360240968929988e-04 -8.3523506596658303e-04 -5.8466932149622841e-03 4.5674191911227457e-03 2.8137067083931488e-03 -7.4511912792158477e-03 -1.6978812871610641e-03 -1.6099758860130958e-04 6.6261941471602165e-03 1.6890572121870638e-02 -3.2580806802748816e-03 -4.2653807492205494e-03 8.7937127211329879e-04 -6.9172711862926922e-04 8.5245924780560315e-04 1.2187007903855173e-03 1.6391080579762976e-03 1.0151934765592965e-05 -2.0540392084992675e-04 -1.0950353342459058e-03 3.3741195358421780e-03 1.5201107291828980e-02 3.2259389792835026e-02 4.1584267245822482e-03 5.9214064688315532e-03 1.5609613629618678e-03 7.2583712172024229e-04 -4.7838321110620337e-03 2.1853861322214032e-03 1.4679250773752936e-03 1.6371858930973300e-03 1.8287846786331650e-03 -6.1011398098684581e-04 1.5471165426707420e-04 2.3469575975137921e-03 -2.2436641894138611e-03 -3.5936549658664198e-04 -1.9805481373005168e-05 -3.5450268161237222e-03 -3.1277276240098406e-03 4.6167767385225066e-03 1.0835521008029611e-01 2.1337581218610544e-02 8.2047994570656063e-03 1.2729424928433177e-02 9.5456266416769631e-03 2.8209049642015135e-02 -4.4998581977281960e-02 2.5022972083497248e-02 1.5361285513456821e-04 3.2384819774625012e-03 1.7342772796307389e-03 1.6414355483266401e-02 1.3628998498387571e-02 -2.4789784094245149e-03 -5.0783959389921300e-03 -1.7656915722348631e-02 3.0284613175607638e-03 -6.2164223753378017e-03 -1.0697918872729084e-02 -1.9725457065990482e-01 2.0525317008275947e-02 -6.9469398054442966e-02 5.5311912783894204e-02 9.0457624667244080e-03 -3.6075476343455315e-02 -4.5552225287997905e-02 -1.9086012475093825e-02 2.7944623808655606e-03 9.3158779722120368e-03 -1.4073215974724357e-03 -5.0136386112138095e-02 -1.8978054750361253e-02 7.7968120768048422e-03 4.3200408481342718e-03 2.8210437040121206e-02 1.2898351978491276e-02 1.0428863470267159e-01 
      </Row>
      <Row Index="3">
        5.3096587098913173e-04 -3.1334302252970792e-04 6.0978842036058245e-03 8.6574912092464776e-02 2.7710101731517410e-02 -1.7270667257081283e-02 -2.6848440211308701e-04 -1.2584957821364109e-02 -7.8065913047010577e-03 -9.2739875136518268e-03 7.1869185197948500e-03 5.5634728994713412e-04 -5.8192333657038943e-04 -7.8596742030612871e-04 -2.4932625613642762e-04 8.1902774806969642e-04 4.9473434776952426e-04 6.4595934377126903e-04 6.1153877616335556e-03 -2.7696213826583181e-03 -1.9483409138239711e-03 -8.5054560611794467e-03 1.4697302676512290e-02 -5.2245696977835758e-03 -1.2376697308619705e-02 -1.3991857581248618e-03 -1.7049868859053928e-03 -1.5575650715788786e-02 -6.9174622830308341e-03 3.4990456417515201e-03 6.9802266898515608e-04 -2.8444468419203933e-03 -6.8291260248899612e-04 5.1880102839061771e-04 -1.2762830317153497e-02 2.3419654686781567e-05 -2.2046661618518419e-03 -2.7934694616593078e-03 -5.7986395544103175e-04 1.8404713065192611e-03 -1.9627330588917247e-02 4.4702441756535496e-02 -2.4330217219178316e-02 -2.2397124076475299e-03 1.9119215414389878e-04 4.3548950960430703e-03 -1.1467530865095922e-02 1.3072068268175002e-02 4.6066679758778430e-03 -3.4154240919281099e-03 -1.6053417918995799e-03 4.5353522719570379e-04 -8.5758290481151300e-05 6.8413097684692468e-03 -3.0277591709985136e-03 1.3248964302259377e-03 -6.5560930903547608e-03 5.1640638870946720e-03 -4.8387007318132919e-03 -5.3532859645316413e-03 -8.8144941930185822e-02 -6.9154132678549132e-03 2.3791530413647495e-03 1.3714282726710169e-03 -2.7796125024398630e-03 5.2075654745446787e-03 5.9261344314561039e-03 -1.0864454290572881e-04 -2.5122115340765298e-03 1.9431817449173526e-03 -3.1601933742580982e-02 3.0984343326287498e-05 2.4099930777194533e-03 2.0506482839309365e-03 -2.0029936133772663e-03 -4.5648957431746323e-03 -1.1015075400415963e-03 6.6172541297007670e-04 1.5263078180785747e-03 1.5396934419804675e-02 -2.2592312965784098e-03 -1.9087507334378268e-03 7.5387446539608026e-05 -2.1893468435207897e-04 -5.4257516417369651e-03 -5.5643765405784164e-03 2.3823412722332122e-03 -1.5086711747939897e-03 -1.3066717912152157e-03 -7.4866204996038681e-03 -4.7848740616796438e-04 1.0330551675184494e-03 1.0155628372638509e-03 2.0283660219690483e-04 -1.0752429822609901e-03 -4.6697186023615753e-03 1.0558104184526067e-03 2.0139555224420362e-03 -2.0567580273933598e-03 -8.8319625485693172e-03 9.0823536153950262e-04 1.2856821145176751e-03 1.9889795237425095e-03 1.6282121810539580e-02 -5.9020019833862600e-03 -1.1152370314225068e-04 -2.3684572618344868e-03 1.9680621772578625e-03 3.3350301583055584e-03 -9.4137070551269034e-06 -1.0178517065847978e-03 1.4225721817360390e-03 -5.6026808185456094e-04 4.1889035143037948e-04 1.9756273220150732e-03 -1.9930870650151054e-03 -5.6783004762461994e-03 -2.4442185568340796e-02 3.7844796742893122e-03 6.9442093970340521e-04 7.8450913772726109e-04 1.9457322053430294e-03 -1.3372680080648545e-02 3.1959268858237988e-03 -1.3650091243636465e-03 1.1472805833581280e-03 3.2493755605083135e-03 -4.4271198063822910e-03 4.7658687275394353e-04 -1.9048722078838182e-03 6.6372605684247160e-04 -7.7272079705465735e-03 -5.0686363305090746e-03 5.4184303017981283e-04 -1.6451355485150917e-03 4.3293500747901910e-04 1.5876255932495729e-04 -1.9028262443926344e-03 -7.6096061035500762e-05 1.9577453558931559e-04 -1.6447387385279660e-03 1.9013233485921238e-03 -5.5157782140048163e-04 -1.4746851141795875e-06 1.4442644481548286e-04 2.6286096280713498e-04 -7.5119958036759895e-04 3.6247495803254294e-04 -5.6503764296408302e-04 -3.0741167005499917e-04 3.0058278221024620e-04 3.5475214527139198e-04 -8.3619613955330380e-03 2.8552961210862229e-03 -2.2926011234855881e-03 3.2862801018182883e-02 -1.7064680512087260e-02 -1.6646008286587560e-03 -7.1267401385165761e-04 5.7814898964874128e-03 -1.6947539925568630e-02 1.3214065410077185e-03 7.9444202326055622e-03 -2.1461394377154525e-03 -2.3810903980852720e-03 -3.0594548404736119e-02 -9.8454251939769665e-04 -4.6439829466438098e-03 -8.5728319831028022e-04 4.1864515413699774e-03 -5.3301217076789729e-03 2.4487457723858519e-03 2.6358461081223139e-04 1.9217061308501315e-03 -3.7413045650517597e-03 -2.0884796566883364e-03 1.3741930101186933e-03 3.5711208534211069e-04 5.0515474954841710e-04 1.0555630665826946e-02 -5.0465104620364930e-03 -1.1482410676788377e-03 6.3134950424004058e-04 -7.5334681269892782e-03 2.6206792918430696e-03 3.9777418485472912e-04 8.6436732280889637e-05 4.8589414120468700e-04 1.3705399978853020e-03 1.3542203372697102e-03 3.0460345312185028e-03 1.6357011117959785e-03 3.4504395405253797e-03 4.0549516569808137e-03 5.6267477788789384e-04 -7.0219661513595041e-04 2.1835319935844947e-04 -2.7117495415184029e-03 -4.9798359019550776e-03 -4.0187676914194828e-04 9.6171573311616405e-04 -8.4195681506478285e-04 -1.6971962887301665e-03 -1.6326909468744301e-02 -4.8541612824611741e-04 6.7627480704146523e-03 1.4883461315954769e-03 1.2025668096950291e-03 3.1887203386061552e-03 2.4494134752088049e-02 -9.5256195576281805e-03 -1.0367772449474911e-02 -9.5713531376721783e-02 7.1571769522049272e-02 2.2400488035310123e-03 -4.7926134508907443e-04 -8.5686075408406212e-03 2.0987643785071772e-02 3.0610889206096229e-02 3.9329037618597833e-03 1.2624023708707952e-02 4.1272722096172606e-03 3.6639552187510131e-02 1.5955041138738040e-03 1.8949554112244749e-02 4.0755384143798014e-03 -1.5539634984859196e-02 1.5741215158656688e-02 -1.2488031583959712e-02 9.0603768598493950e-03 -3.8316148906743910e-02 2.0449048589664515e-01 2.9493993154392016e-02 4.6833003199114515e-02 5.9848016960434985e-03 -1.5686367272969862e-02 -3.9877099621908545e-02 -3.4478493920288872e-02 -5.8189264212877238e-03 -1.7440587892974448e-02 -2.4111869639939207e-02 -1.5151410599950182e-01 -9.8777009668039352e-04 2.9436235797629103e-02 6.2184238829702150e-03 1.9457574014086647e-02 -2.5649362390672253e-02 5.7032036531322820e-02 
      </Row>
      <Row Index="4">
        8.8003806279678357e-03 6.2709324410449539e-03 -1.3816219572564875e-02 2.7710101731657097e-02 8.9842101728037915e-01 -2.3270264970141352e-02 4.3947244548670581e-03 -4.5129005495124219e-02 -5.5359716876559883e-03 -4.7346654918137290e-02 -3.5332872465826210e-03 -1.1627897589138424e-02 -4.6682657636343966e-03 -1.4459100859605334e-02 -4.7569134515878398e-03 -6.7120922130617655e-03 -6.5829018783525144e-03 8.3521402703283162e-03 -5.3375864867533054e-02 1.4601693861400649e-02 -1.3535656131333354e-02 5.9165827502907255e-02 1.6416694556602024e-02 -1.6972426702828386e-01 -1.7120501338343475e-02 -8.7438199757261959e-04 8.1950704354043502e-03 1.2301489848284825e-01 -2.9379026970013586e-02 1.5654248097344475e-02 -1.1191302237441334e-02 -8.6224341567825609e-03 -6.2760577908858375e-03 -9.4397334873092195e-03 -2.5980701162617720e-03 -1.1692222815022218e-02 2.3924279182667839e-02 1.3518649291542149e-02 -1.4646546616086869e-02 -1.4590516977882884e-03 2.5076627490765224e-02 3.6097144228645989e-02 -6.0107241648570420e-01 1.1509206761534562e-02 1.0519315697316126e-02 1.9614030608023338e-02 -1.3883429357800975e-01 2.1836886344060339e-02 3.8027649053078955e-02 1.1543458563562696e-02 -1.2689069173184062e-02 -2.5584042267257689e-02 -5.1963993371800285e-02 -1.6611869521826264e-02 1.2412080641543075e-02 1.8575512711522413e-02 4.2271005811988560e-02 -6.2443198546353607e-03 -5.9223119793218315e-03 -5.2284340044687350e-02 -1.3918671428714660e-02 -4.7024095772454666e-01 5.3644757605166710e-03 1.1721861597330768e-02 -2.0350418170639650e-02 -2.2599996294550523e-01 9.6899768174246934e-03 1.6349909053830804e-02 2.8042552818969856e-02 -1.2786630865817633e-02 -9.8293245919398725e-04 -5.5799765731921580e-02 -1.3043550399557846e-02 1.4266573881728972e-02 1.0251115640388497e-02 7.2540284610725814e-02 1.1755721137242325e-02 -2.8718313699260811e-03 9.0261239201379143e-03 8.5345714559808758e-04 7.9530761162128469e-02 -3.3222190883133735e-03 8.2661658976097112e-03 -7.4427999516119003e-03 -4.2072671161606234e-02 7.0018610716760799e-03 -6.0804348748610751e-03 4.8234993400766979e-03 1.5727851032351983e-04 6.5185838869488595e-03 -9.3143305924696281e-03 -8.1484260717485518e-04 3.5049477765757425e-03 2.0385497407970719e-03 4.0437005756535291e-03 -1.0600298519485171e-02 -1.5705306363481011e-02 4.4935903819314227e-03 1.3139997176317836e-02 -4.6202485408312899e-01 5.6751641059600254e-03 2.7772094538751756e-02 6.4285223847843076e-03 1.5863190383975279e-01 -2.3900574045121172e-02 2.5552671061130936e-02 2.2264230733642140e-03 -7.5158684870094833e-03 -6.4448041747772189e-03 3.0839567023272368e-03 1.3055077560733905e-02 -5.9748516598282439e-03 7.8742457235998660e-03 -1.7212392679562802e-02 1.7946744723452007e-03 7.7585849173690893e-03 -1.0996015626751961e-02 -7.0706659425225100e-03 -2.2391298130662454e-02 -1.8828201991492079e-03 4.0522915033357129e-03 -1.2173171754278178e-02 -1.9600615266541044e-01 1.2834321824684396e-02 -1.3266997222826166e-02 -2.9687051044893610e-03 3.2793618940529755e-03 2.6465877592778695e-03 -1.2077006556946377e-02 -1.1954914408965900e-03 2.9026707336950808e-03 1.4399908336851822e-02 5.6874886047449585e-02 1.6029273989225266e-03 -2.6993279854931108e-03 -1.8962314045783100e-04 -5.4695362782491161e-04 -1.4378875374186801e-02 -4.3685799860639492e-04 -3.8048902489128979e-04 -4.3194311730609773e-03 5.4320409465043323e-03 3.0658914497534895e-03 -1.5499496239549781e-03 1.5155000081226637e-03 -2.0294498461136327e-03 8.9285381126543405e-04 3.2184308934078395e-04 -1.4619406777164837e-03 3.9614378364817343e-04 -2.1826265394044001e-03 -3.2715152441934988e-04 2.8007273642381009e-04 -3.8031031742481788e-03 1.6297444433412404e-02 1.0055100035624093e-02 -4.2138705823105714e-02 -5.7552197306057536e-03 4.6200163716584551e-03 2.3360673262427356e-02 -1.0044440843261589e-01 1.8072374814157771e-02 -3.2704623272428960e-04 -1.9557340568397458e-03 3.1075795599744757e-03 1.6759191010833719e-02 -3.9601368506899720e-03 3.8180186077699275e-03 -1.2446047417638967e-03 -1.2195577175937349e-03 2.4002481936825394e-02 -1.8860356917027588e-04 5.1194124677655939e-04 -1.0200516708726903e-02 -5.3732649633893154e-03 -1.1964810620933949e-02 -5.5317458624093430e-04 5.1172271294142035e-05 1.2364071545589717e-04 3.0906337468727618e-02 2.6996839400398182e-03 -1.3570598926549013e-03 -2.9694599394390481e-03 3.5714422541158614e-03 9.0984985807698662e-03 -3.3040281130787435e-03 4.4321806653606910e-03 1.9509598833298957e-03 -7.7730209498273334e-03 -7.5388113491309319e-03 -1.3759332574573485e-02 5.2751014030041499e-03 -1.6640823619637587e-02 1.3921593176067517e-03 9.7672477969530623e-03 -1.4782827439149804e-04 5.1697879973200160e-03 -2.1697578393326873e-02 -1.1023874820888463e-01 1.3207356540881391e-03 -1.2268334907409364e-04 4.1083517621241829e-03 -4.7961723276909642e-04 -1.4771036864935222e-03 -1.5393054456068464e-02 -1.0551959902292652e-03 -2.2200510196634378e-03 -3.1641331115894828e-03 -2.5838408744485574e-02 3.2673968945391187e-03 5.2542237579080518e-02 -6.5001350018231041e-02 -4.0585763860207763e-02 1.1462938088884722e+00 1.3068872154943234e-03 -8.0631698233298951e-02 -5.1893097983672851e-02 -3.8437300564065685e-01 5.4059365735648637e-02 -6.0560512353804677e-02 -3.9334285177690498e-02 7.1511406474566025e-03 -5.1788780613182782e-02 -6.9632565492283582e-02 -2.6452863345532179e-02 3.3531454861618730e-03 1.4230540853935811e-02 -2.2141715669622461e-02 -2.0247703289591704e-02 2.2162414898760030e-02 1.0832403590003831e-01 6.6675625152985668e-02 8.8628366842503636e-01 8.4432442421942824e-02 1.1061812444856745e-01 -9.6155461951337284e-02 -4.8776958874340615e-01 -1.0017064536650983e-01 -1.2054539271322343e-02 1.1593939037945643e-01 -5.8506424106432725e-03 7.9105608817022555e-02 8.7024618717829932e-02 -2.3335257565732698e-02 -4.1093088998311045e-02 -6.5686733705578870e-02 2.3894890144230641e-01 -4.2402524024329163e-01 
      </Row>
      <Row Index="5">
        1.6817821832821322e-03 4.7807572458982185e-03 -1.1100040766656430e-02 -1.7270667257063239e-02 -2.3270264970044592e-02 1.0518316619309664e-01 1.8621561928225320e-03 -1.3671564955285709e-03 -1.3469772087830956e-02 1.4459222778983585e-02 -3.6247550732865105e-02 2.0731049350106523e-03 -1.2008622283922578e-03 -2.4562298402230984e-03 1.0665769082179293e-03 1.4572746459240032e-03 5.3408668843604062e-04 1.3571283942963907e-02 -4.5157041417680979e-03 4.6357249697040973e-03 -7.1662869559187513e-03 1.1243160597810366e-02 7.8609863829107243e-03 -6.4555743990894511e-03 7.2311638296862685e-02 -5.2360827303979136e-04 -2.8582790115945639e-03 -2.0301827756116261e-02 9.9461126757484329e-03 -3.3213547652087963e-02 1.0354699854055200e-03 -6.8719724849929651e-04 -9.9481596857818547e-03 -4.1574070384212385e-04 2.4798480895410549e-03 -4.4988423817389836e-04 8.9176270291776495e-04 5.1610156645554486e-03 -1.6287470044946337e-03 1.0388018273688954e-03 2.0148687440938506e-02 -9.7231812918956856e-03 2.4256173654200526e-02 2.0569350011094351e-02 3.3506639088555501e-05 6.0563110670901546e-04 3.6016563302203059e-03 -3.4750384577859353e-02 -5.7269845422576425e-03 4.7281531479285901e-03 -3.8007957952449862e-03 -2.0637156057365501e-03 -1.6620437041822908e-03 -1.9768455261952719e-03 3.8928930402564177e-03 -4.7698501768740804e-04 5.4312077070705136e-03 -5.1498467579571550e-03 1.2748725708700507e-02 1.2676529201726544e-03 3.6079129542844826e-02 2.1097683458966475e-02 5.8866967467157347e-03 -1.1977855490673955e-04 -4.0815534650595550e-03 1.7688539753636143e-02 -1.7048524679545297e-02 -2.8718431361518110e-03 4.3695220321616863e-03 1.0081700345537733e-02 2.0228191606815091e-02 -1.6079220782707071e-03 7.0093956293557462e-03 8.8814989579675749e-04 3.1537751502452374e-03 8.1554035392189250e-03 2.3852783204970224e-03 -7.5162005993765298e-04 1.2878439550769629e-03 -6.8441033899407141e-03 -4.2699492969691744e-03 1.1558234954444200e-02 2.4907259091287229e-03 -3.6820714597443488e-03 -1.3713632331748202e-03 4.3092476533539287e-03 -1.2246159233570606e-03 1.0855987408535579e-03 -2.8471773515651587e-03 1.5732079195177853e-03 3.5708400262638091e-04 -1.3572035314964905e-04 -1.0630002155349754e-03 -3.6870716696313756e-04 1.4403661246268241e-04 3.7212179572468180e-03 6.2395992327577907e-04 3.5903415839773373e-03 -2.1316111842282159e-04 6.0378589894531575e-03 -6.7828517203325691e-03 6.8011709413377669e-03 -1.2601505044542195e-03 -2.8069113457681615e-02 1.5116748128869234e-02 2.2859834761521603e-03 1.9634344330173620e-03 -7.7504961084267085e-03 -3.6203337325844895e-03 -4.2460312844056554e-04 -1.5393580842384853e-03 -2.7564869834825986e-03 -1.5771096430354653e-03 -1.2769467088365686e-03 2.0598626341580065e-03 5.3107745032877820e-03 4.5849351623038961e-03 8.5447395619989326e-03 6.1635877221501503e-04 -9.3313751128246171e-03 -1.5568753669901723e-03 -2.7977960840606768e-03 1.7159113120460458e-02 -7.3763766905503708e-03 9.6904117747641690e-03 -1.1840691195826342e-03 -1.1035779071144175e-02 3.2352725213569866e-03 -3.8357494159211745e-04 4.7886302721520183e-04 -1.4735492532421540e-04 -3.6484383440983656e-03 6.1373813750988512e-03 -6.8322796922566219e-04 8.5966619479026164e-04 1.0816850226337467e-04 -5.8323137703557900e-04 -2.0958527948784951e-03 -6.9767847107409051e-04 -3.2987779756700713e-04 6.0343737618058350e-04 5.4850290188406632e-04 7.6426335667174948e-04 4.4804094851809065e-04 7.4360207725830690e-05 -5.2603556198902259e-04 4.3657216571234704e-04 -5.8720064754135790e-05 4.2938173705381517e-04 1.3025395446671426e-05 -6.0793691620686786e-05 4.4375966913160142e-05 1.4317975510389963e-02 -4.9409749881091508e-04 3.5347784512764161e-03 -9.9870504121073716e-03 2.9893599748610474e-03 2.4345677045655441e-02 -6.5198472131095951e-04 1.9327743021680908e-03 6.4559440726179246e-03 -2.0147893719383674e-02 -7.3053290159871675e-03 4.3766682945733351e-04 -1.3557585050040219e-02 6.9027152478857955e-03 -1.1490525726824739e-04 -2.7717343406450717e-03 1.3583555134772793e-03 -1.5609077662465884e-03 4.7853094082892554e-03 -5.9729879290573717e-04 -4.9872322615680115e-04 -4.1389351178516970e-03 -4.9550375452534655e-03 1.7015993227745153e-03 -1.3441019793117789e-02 9.9765892018047024e-04 -2.9184622668294580e-03 2.9368987378251971e-03 7.9213960719639476e-03 9.9618360016434319e-03 -1.3957614691851657e-03 2.6492360181041490e-02 8.8893608068476432e-04 -5.5192969051673520e-04 -9.6555296120629311e-04 2.9311004097511248e-04 -1.0874901389515959e-03 -3.7171651484229425e-03 -2.2433771926437113e-03 6.7536436288420324e-03 -1.0953321852839896e-03 -2.1375461588700731e-03 -7.2739616173851619e-03 6.8363878330147867e-04 5.6727678430299377e-04 -1.3868796626574675e-03 9.9472377508084270e-03 -5.2987989696660588e-03 3.3144720305315263e-03 7.7317041385465204e-04 -2.0310088331842589e-03 7.0221804787539638e-03 -3.9828554154968960e-04 2.2805373392627618e-05 -5.3041444190059521e-04 -2.5246027819647771e-05 -4.7101357758224435e-03 -2.2142207846966275e-02 1.4026238277657026e-02 -1.3264123039146160e-03 3.8799955877623533e-02 -2.9250510734748748e-02 -4.5549928451577591e-02 -2.3568100252592136e-02 1.9302707704890862e-03 2.7788094277047946e-02 -5.3272065913421228e-02 -7.2648246775204525e-02 -7.0025643099323812e-03 1.5443705190169505e-02 1.2230244309783592e-02 1.6255083645981116e-04 5.8196812256161301e-03 1.2354433539755508e-03 7.6260239647210895e-03 -1.2437219319271733e-02 2.5658231620450000e-02 -1.4102703659713375e-02 3.7003501071783788e-02 -1.0001366138203624e-01 -2.5630769876226873e-02 -3.0711882095006271e-01 1.8883696182460961e-02 -7.0908269155050205e-03 4.2156498927011739e-02 9.8201801596535521e-02 1.5566018097392861e-01 2.5107523094020277e-02 7.9887889811249377e-02 6.8158881830981649e-02 3.3556578723430465e-03 -3.5312214187937824e-03 -7.1856946637367629e-03 1.3614572633768654e-03 3.1952398434430929e-02 -4.8806932898656764e-02 
      </Row>
      <Row Index="6">
        1.6405177539936095e-04 -9.6859774103696733e-04 8.7534267960041271e-04 -2.6848440211278950e-04 4.3947244548790555e-03 1.8621561928172494e-03 1.0647971757301981e-02 -1.0560467109324775e-03 -2.6247712288344676e-03 -1.0543610258537388e-03 -2.1944236249161588e-03 7.1828803420873272e-04 1.5276209931244027e-04 -1.3849501584563594e-03 -1.4773540719161633e-04 -1.4629533860739642e-04 1.2404819668119277e-03 -4.1640381700141290e-04 -2.6956047753181396e-04 -6.0809770866372432e-04 8.7716321392507018e-04 -6.2898330912469769e-04 -4.2331017935489279e-04 6.9768195585673438e-03 1.0138285045781775e-03 1.5262662964635478e-03 6.5969458892582711e-05 2.1014006037380446e-03 4.5967659375233572e-04 -1.4805581091560502e-03 -1.7216074946787294e-04 9.4406803026927098e-04 -2.9515967082624191e-05 -2.5406433831346407e-04 -1.1951520856147129e-03 -3.1132250456853696e-04 4.7659008474459268e-04 -3.1268907533345876e-04 -3.0662309360999672e-04 -1.8840574637034486e-04 -1.2285923053684256e-04 -1.1245481053656942e-03 1.1965432417397963e-02 1.2460193931861389e-04 1.5254914044940471e-03 2.5758230698963631e-03 4.3985514044884971e-03 -1.5155637965993474e-04 -2.6776371612953037e-04 8.6797078036881278e-04 -7.4669866976323929e-05 1.2929298004596233e-04 -4.1738201462612669e-04 1.1206835526136405e-04 8.2261711282557992e-04 2.7467519066782446e-04 -2.1669609320500681e-04 -2.6984749567152133e-04 -1.0388310824450886e-03 7.1786945801352294e-04 2.3879214337013915e-03 2.4895662432444518e-03 -8.5657327005773270e-04 1.0821087026698893e-03 -1.6876772787166004e-03 -8.7301521397769172e-03 7.2629370142391746e-04 -9.7516566027017670e-04 1.0712645490691792e-03 2.8724681923624455e-04 4.1995255544450584e-05 -6.9678241114479178e-05 4.3505628268506683e-04 3.4594526468779453e-04 -4.0857700999161694e-04 4.7008229273812273e-04 1.4004283019002570e-03 -2.3614385904376241e-03 1.9667662437427200e-03 -1.5780890766879527e-04 -1.2525261391234693e-02 -1.4507840128282590e-03 3.0568794653012929e-03 1.3085736173911958e-03 6.5438916488841261e-04 8.5991044967220374e-04 -2.4455896262748750e-03 1.9063044908624932e-04 -7.5843669419284191e-04 -5.9176138911906379e-04 1.0484787760001846e-04 1.3200127841902518e-03 1.8575506640273662e-04 2.0599012493830615e-04 2.2358747694362812e-04 8.3486847179250123e-04 -3.0329993934477724e-03 8.5446737935046665e-04 5.4632562852700091e-04 -8.0288364595884759e-03 -3.2873157839426984e-03 6.9763801763942611e-03 2.2998015383116008e-03 5.7845320617814578e-03 1.9687969314652453e-03 -4.2567223480627341e-03 9.0878257869766738e-05 -1.1447454522034472e-03 4.9181258838161437e-05 -5.0847271595854944e-04 8.1236687598379344e-04 9.1214395109853524e-05 4.8598302836272168e-04 1.1661565476338953e-03 1.3999631323117958e-04 -5.6588319268844993e-04 -4.6585767930679058e-04 1.1946606936668355e-03 -2.2799421632496925e-04 1.4909691547002123e-04 -1.4410137484398198e-03 -8.7216877044486458e-04 4.3634878461645214e-04 -9.1881620294740056e-04 1.3606438478238202e-03 1.8755908671164834e-05 -4.0314857731643482e-04 -1.1125795725151196e-03 9.4448452654743780e-05 -1.1666293297198961e-04 -5.2858319703660925e-05 -3.5179142504283374e-05 -5.0249791530772954e-04 8.8120251839239041e-04 -7.5142909840917389e-04 -6.9238184620677853e-05 2.5286886028546120e-04 -6.4209143342340829e-04 -1.4548503411423525e-04 -4.1151254945313463e-05 -3.5933224868411320e-04 5.7606636212315522e-04 2.9034867846336644e-05 3.2215841184228138e-05 -4.5683583688892483e-05 1.7871805349965329e-04 5.6981192806388831e-05 7.7838325287221850e-05 -2.6651586837570364e-04 -6.9419374078778269e-05 1.5515165294364909e-05 3.2835235135027815e-05 2.0324427195100658e-04 -1.4766950087000993e-03 4.0355042942758889e-04 -6.4307154072986480e-04 -2.3941563954650432e-03 2.3569241012240475e-04 1.3574732713122204e-04 1.5036074980517714e-03 -2.9969850164861976e-03 -2.6403161839488691e-04 -3.7769714139157431e-04 5.0459247078814750e-05 -4.4479009093660506e-04 1.1857105800964097e-04 -2.0818696905489510e-04 2.2089991164993489e-05 1.3363260326099624e-04 -6.2147736403128954e-04 3.9762245111502384e-04 6.1930316016121228e-04 -1.0699753661761943e-03 2.0150440366460340e-04 -1.4767522207261193e-04 -2.1493360904288432e-03 -3.7353942576269505e-04 -6.9008730532916021e-04 1.0763998058442407e-04 4.8333091733855161e-03 2.7566573328316815e-04 2.5881012794167055e-04 -1.5659675619758632e-04 1.3041555182554407e-03 -7.3478869091539055e-05 3.4327114030015694e-05 -7.8452296516254977e-04 -8.5942131458202923e-05 5.1222145813626668e-05 2.7355847106711666e-05 -2.2337188706800931e-04 6.4938817285636365e-04 4.1748817813938311e-04 2.1751806767933473e-04 -4.1986720337375124e-03 -1.9911608727798689e-04 1.3897605236563625e-03 -1.9234018651037425e-04 -2.4635857736564205e-03 5.2895840122511829e-05 -3.4559858256105920e-04 3.5138739914303448e-04 -6.5796293851414587e-05 3.1226038014284713e-04 -2.1015630833708121e-04 3.0298033163613761e-04 3.0421174871295832e-05 -4.7997949969795883e-05 6.9611963525587431e-04 -1.5131149813301099e-03 1.0123006378301519e-02 -4.0122866041368620e-04 4.0127847108112581e-03 2.7040215511864009e-02 4.5896027056385241e-03 -1.2201202803687687e-02 -1.6442111265915710e-03 1.8007856358954591e-02 -4.3916307043072728e-03 3.6552508946406182e-03 8.0868497800819228e-04 1.1378331264719466e-03 -3.2405213661270424e-03 9.7879349738874796e-04 -2.2898784691745624e-03 1.9462309056943821e-03 -1.4532606755017004e-03 -2.6890869816068356e-03 1.8193679674866326e-03 -9.1769181330580377e-04 -3.0684081638664195e-04 -5.4292687450510843e-03 -9.3557771946508189e-03 -5.2934152494196179e-03 3.7911941953397664e-02 -2.5344762699496676e-03 -8.6153915755013757e-03 2.6981603377195015e-03 1.2849482915892236e-02 4.1104159376419763e-03 3.4579744505868859e-03 3.8202359960951386e-03 6.1267711478848932e-04 3.9951940805794690e-04 -2.1714863678392836e-03 -1.7242808061201514e-03 -1.2354550815794861e-03 -3.0246185522600860e-02 
      </Row>
      <Row Index="7">
        2.3594103464177011e-02 2.8221197327688335e-01 1.8387780245844552e-03 -1.2584957821347394e-02 -4.5129005494910696e-02 -1.3671564956155517e-03 -1.0560467109314020e-03 7.9333698684528653e-01 -7.4286996162401420e-02 1.1164848185508365e-03 2.7219815589176683e-03 -6.7083278114578168e-03 8.4959804701516359e-04 6.4888202619099583e-03 2.3626026544343345e-04 -7.2123786992929085e-03 8.1471180949778171e-04 5.1424218039817981e-03 1.5269972217337728e-03 -4.9145485894958561e-02 -1.7133893710730153e-01 -1.3215864057700777e-01 -9.7822339806150228e-03 -1.6848828142399665e-02 -2.3493769044698604e-03 -1.2739827343091576e-03 -1.7463425651408831e-02 -4.0445833148662985e-02 1.5851578515318314e-02 -6.1986877229298692e-04 5.4306507699414773e-04 -1.2125558444365430e-03 1.2406922047175906e-02 -2.3303671040352967e-05 3.4339837707549753e-03 -4.1517023670313187e-03 -1.6762656381725536e-03 -1.4913411840508130e-04 -9.4421232388525386e-02 3.1757858578037472e-02 -1.3805137756759800e-01 -7.1603401877744699e-03 4.0102274844284039e-02 1.8186855899670479e-05 3.7831298096481121e-03 -3.0875022667628399e-01 3.9759439091983859e-02 -2.3714394728885625e-02 2.4764864781464018e-03 2.2998124933857444e-02 1.7452982587935588e-04 1.4390256483687528e-03 -6.7769239940666526e-03 -1.8006081091130353e-02 5.0217033928832144e-03 3.5872913329004340e-03 3.9197155360799381e-03 2.8160479020532314e-02 3.2148335013438745e-01 7.3678717919257609e-03 1.1262047694081359e-02 3.3658928526671468e-02 3.2874111560250883e-03 -1.9381991851513750e-03 5.6961042212059132e-01 -3.7232121398491656e-02 -1.7317748771282813e-02 -3.1908655475806355e-03 3.0310011300972030e-02 2.2088533576167611e-03 -6.4299670943686014e-03 -1.1627253510784197e-03 1.1130017511779569e-02 1.0254730005398137e-02 7.6882347905704211e-03 -5.1054118454144058e-03 -1.2829817494604618e-02 7.7833884910306437e-03 -2.0669822246683033e-02 -5.0607251842786066e-03 -3.2848912276389960e-03 6.2742380191404840e-04 2.0777388780903795e-04 -2.2004415596255877e-02 1.3322383200889704e-03 1.8824064644657364e-03 1.3224540749920723e-03 3.8998455055209470e-03 1.5993209991295280e-03 -1.3252030013250380e-03 -4.0596889440218479e-04 2.3921872726309834e-03 -8.1892071452606245e-04 -1.4908784675591597e-03 2.0848598510288868e-03 3.5322476611194302e-02 1.3431735011241034e-02 -1.2459949792656921e-02 -1.1973149235616976e-02 4.0014881849469087e-02 -2.7102216190897990e-03 -1.3957143083633675e-03 -1.2666144962281630e-02 -2.6541691407813733e-02 -2.7403407681959565e-04 -4.4751492250326179e-03 6.0512959725297355e-03 1.3166524753973363e-03 2.6066339508614752e-03 -1.1194850136081961e-03 9.7869542276911910e-03 -8.5002240258780139e-05 -3.4012738435159635e-03 -3.1089421099040702e-03 -3.5393762204271075e-02 -6.6246473154641800e-03 -3.8595072554797917e-02 -4.6297391302360692e-03 6.9411278023312796e-03 4.3908409478875558e-05 -1.3475132805545725e-03 9.2142414192378175e-02 -3.2380911335097171e-02 -1.7109180600230988e-02 -5.4560884808486660e-03 -1.8069199990417143e-03 1.6691912701421144e-03 5.7160634200691118e-03 -1.5430627250076229e-04 -1.9531764629325699e-03 2.2450335025922352e-03 -1.5080554151796096e-02 -7.4110490892991118e-04 3.8147540985125680e-03 -6.0930664353550179e-04 -2.0838204672739401e-03 -1.1745149348643654e-03 -3.6236023611347598e-03 2.0458349881956399e-04 -3.2498403714598985e-04 -3.9462581479976387e-03 3.6398009102076184e-03 4.9328428458749601e-04 -1.0716303141838896e-04 3.0553012630228041e-04 -4.6760891575364370e-04 1.5895659725985163e-03 -7.8295049646813855e-04 -2.3979517165993898e-03 1.8087262276573748e-03 -7.9367124763180430e-04 -1.4303840257314498e-03 5.9172567107378220e-03 4.5980539997985945e-02 -7.1962783182265358e-03 7.6263047813023531e-05 -8.2607769654589047e-03 1.5369026804123173e-03 3.7812050209575223e-03 -3.8104146600059574e-01 9.1519394039171947e-02 -8.4936234896482057e-04 7.7920896536434973e-03 3.2384624932927054e-03 -2.1956652380798907e-03 -1.4883887531284650e-02 -7.8064242285985294e-04 5.9275724695055749e-03 -1.0120377443047109e-03 -5.7480128283597621e-03 2.7350123235701097e-03 -1.3332442274181903e-02 -5.0737164301057722e-02 2.8194632931833739e-02 3.4063893807392033e-03 4.5798848083058001e-03 -5.5807090220606347e-04 -3.7621654203935651e-06 -1.2847640592349613e-01 1.9143187630195055e-02 3.9955315902565720e-03 -8.9498494053105444e-04 -2.8817453535383399e-03 -8.1977899827319345e-04 -1.6348678383317893e-03 -1.7598471976552337e-03 3.7382784022822121e-03 -3.1051559100887414e-04 -1.1031480272516701e-03 1.2648320330088331e-03 3.3417340737294597e-02 1.0619456135765049e-01 -9.3964731040378970e-03 -8.8979060370727586e-03 7.3599363052261075e-03 3.0533356419503691e-04 -1.4596604482941583e-03 2.8690927650275044e-01 -3.0394361352992755e-02 -1.9656277727491355e-02 -3.3069120329948173e-03 -2.8460917958394658e-03 1.2438891300922681e-03 -2.4392500565270899e-03 5.5413742155050415e-04 -8.4360723151082583e-04 9.4907279677035414e-05 -1.9159905167121741e-05 -2.2924224571907819e-03 1.2526971205509871e-01 -4.7551395987256044e-02 -1.5794571027823162e-01 8.1060805743032871e-03 -5.1669372844779175e-02 6.0191768606263126e-03 -1.1892033289385904e-02 2.5070233188898700e-01 -3.1401058347189287e-01 -1.2055430893876054e-01 -8.5859298470567710e-03 -6.4166098248082795e-02 1.2420591845126094e-02 -6.1520755740702149e-03 1.2614881435710087e-03 -3.9517156651701690e-02 1.1257126518613455e-02 2.2599496900440755e-03 -4.1671496076295510e-03 2.9435401442780040e-01 -6.1723551493001794e-01 -2.7473895845920526e-01 -4.5987832370663208e-02 -7.1480284965946009e-02 -5.8553755915995067e-03 -9.6324030663096014e-03 1.4994349026677056e+00 6.8222620358352096e-02 6.5297636228159747e-02 -3.5084859437405067e-02 1.2887989553156212e-01 -2.5900628518210206e-03 -3.0553827959860128e-02 1.6068325937497446e-02 -5.1043978554187484e-02 -9.4818706963934549e-03 5.0070858506792278e-02 2.3274348964892333e-03 -2.9410797944657879e-01 
      </Row>
      <Row Index="8">
        1.0362183721500422e-02 3.3139953505656294e-02 -4.2673377530637401e-02 -7.8065913047682921e-03 -5.5359716873925879e-03 -1.3469772087811974e-02 -2.6247712288199332e-03 -7.4286996162171104e-02 9.7818857324493791e-01 8.5861872924666866e-03 -9.6941134840004186e-03 -3.0238594893845783e-03 -1.8455539546167327e-04 -6.0773233141978994e-03 2.9553383038612288e-03 -8.1897670504263095e-03 1.0929321508280313e-03 -5.2890890191065847e-03 -1.1451621231724513e-03 4.3221715539685027e-03 -3.8245771343878805e-02 3.0137043250887174e-02 1.0980630068549081e-02 1.0704379490119066e-01 -1.4044882598341498e-02 1.1014765121998759e-03 3.4685644225052381e-02 1.4258595781063760e-01 1.4670810302763303e-02 2.7371216315606305e-03 -3.2358686511534882e-03 -7.2173624926823322e-03 -2.1175656333359064e-03 1.8761503103916673e-03 -3.8336272726041398e-03 -1.7557045787337210e-03 1.2773621025264643e-02 -1.3698004088921292e-02 9.3430818030185887e-03 1.1551346445591346e-02 2.6990090175483372e-02 -1.1285413477637370e-02 5.1153364067783744e-02 7.1321327075392037e-03 -1.3379329414042532e-03 4.1664789032769795e-02 1.9334195334144225e-03 2.3887888851266831e-03 9.0737769270378479e-03 -3.3028058260758594e-04 1.3555883658923924e-03 -7.1767133447179568e-03 6.5522160298956203e-03 -8.3570760360365814e-03 -7.9611285124316922e-03 -9.0701674423907183e-03 -9.0114727805872055e-03 -1.4966684176505596e-02 6.6101022423759037e-02 -1.4469840415790941e-02 3.4403670849166047e-02 7.5622868191424691e-02 1.0498589578370424e-03 -1.3142379854638842e-02 -8.9284917214129900e-02 3.5224839612584602e-01 -1.6607398738699031e-02 -1.2096690288419523e-02 5.6160067008469653e-03 4.5201983212729141e-03 -3.2563607554137390e-02 4.5624537561126388e-03 1.0816701117991934e-02 -9.7937688393289514e-03 -5.8213749629355202e-03 -1.4311283812466088e-02 2.7299984132271027e-03 -9.3205721562247823e-04 1.6661206158265825e-03 -9.5555628467643844e-04 4.4887996634115131e-03 -5.1373606920341944e-03 -1.6539220694825132e-02 -5.0379072267514591e-05 8.3295971101931099e-02 -2.9816739830448857e-04 -5.5820878803091081e-03 1.6377510736392577e-03 7.1648841310583376e-04 4.4435765080541850e-03 3.7392384334233413e-03 1.0656817909375990e-03 1.8368856762408792e-04 1.2604457561350112e-03 1.3875998854815524e-04 -8.8904694203694769e-03 3.5018188499658508e-02 1.3407756052105771e-02 -1.4606049513468923e-02 -4.0322302906119822e-02 3.5378871004383965e-02 -2.4647065529275161e-02 -2.4952108549111673e-02 -3.4225483165086479e-01 3.4803091868894159e-02 5.9341330521070032e-02 2.1240349712539804e-04 1.7502898911596620e-03 -2.7260256713229930e-02 -6.3752279925738346e-03 -1.7839270226318420e-02 6.2828398355484084e-03 -3.6588908097150924e-03 2.0628963415616603e-03 1.6181612160095136e-03 -2.7269318364827440e-02 9.7085310107496714e-03 1.7940560725876870e-02 4.3159519382172232e-02 -1.1940217859418055e-02 4.8341740303904255e-04 4.6849136386924659e-03 1.1967771518345934e-01 -1.2349562952092656e-02 -2.8400241130343860e-02 -1.2398266073127811e-03 -2.9200052670010079e-03 3.4615114264632159e-03 2.1250267237142876e-03 3.3827510189237964e-03 -7.7476163805677604e-04 7.9217721178273734e-03 -6.4949752946498827e-03 -3.4920291839398952e-03 -8.4021502390502819e-04 -1.2726176820989665e-03 -9.2376602049312187e-04 1.0058704497436084e-02 1.8642863074287471e-03 -1.6263247427311959e-04 -1.8786977097423148e-03 -1.2074133645415602e-02 1.0296491521292295e-03 7.0225820013171435e-04 -7.6898878469323527e-04 6.9583765834693159e-04 1.0386667657725623e-04 -8.6057794712889090e-05 3.7285133286314902e-03 -5.4022620622715296e-04 1.4956981988649507e-04 -8.6554454919099324e-04 9.5415474673128525e-03 -3.2488203852716405e-02 5.6014138252944018e-03 -2.8623478666273787e-03 7.4494631433293199e-02 -1.8306572865281097e-02 -6.1631008155909371e-03 6.1811891740924482e-02 7.1191963586497903e-02 -1.9073625157516663e-02 -2.5923832486876575e-02 1.0181484724649664e-03 9.7219828662939434e-05 8.0374481136640842e-04 2.4727132076990421e-03 1.2682176560825466e-02 -8.0508668525823644e-04 2.5582739366005382e-03 -9.0106180357559310e-03 3.6343860534421984e-04 4.1442826814117595e-03 -7.2808843303290016e-03 -8.6767875413353568e-03 -7.4785639778916807e-02 8.2715405269347952e-03 1.1898118387581591e-03 8.7366059755009801e-04 -2.1780936487323177e-01 2.2108230122298622e-02 1.1745756633896633e-02 1.7232550238387920e-03 5.3175407451762913e-03 1.6946303366820181e-03 6.0491297155980850e-04 -3.0696207931211889e-03 1.2440758171261166e-03 -5.3522205545473885e-03 7.2374796688322758e-03 -4.3529881414626562e-03 2.2485342041308393e-02 2.1904972089134035e-04 -4.9217645094059570e-03 -5.8512599341022853e-03 -1.4254162195051125e-03 -7.0103241985639778e-03 -3.8242910803875645e-02 1.5106454997764732e-01 -5.9962777154642724e-03 -7.0555135057439565e-03 4.1347682262746254e-04 1.5144197831543523e-03 2.2894531338669699e-03 1.5274722242255429e-03 -3.1273604246910697e-03 1.5018597936547274e-03 -5.0731734353258928e-04 4.6940955199548133e-03 2.1093907215580875e-02 -5.7694094229807910e-02 -2.7565163085909644e-02 5.5938934015696745e-02 9.8257326446882176e-02 -5.2022176935063898e-02 1.0114208593671603e-01 1.5163734511308497e-02 5.8135929084337779e-01 -1.0339955359539525e-01 -1.3469040914436792e-01 -1.3194641110603089e-02 -3.5929521302472539e-04 1.5231354119018548e-03 1.8454186087923645e-02 5.6562450629541461e-03 -7.6383896651665527e-03 -3.4675781078541343e-03 2.8591835425653030e-03 -2.8290539710244894e-02 -7.5020525236721314e-02 7.8690511223225151e-02 -9.6419650600296170e-02 -1.0061691436436035e-01 3.1965812278231198e-02 -1.1803646060967288e-01 -2.0016353039454482e-01 5.1334671387270836e-01 4.6508757642327550e-02 4.1376568551307877e-02 2.0245968380043500e-04 1.1253812383423781e-02 -2.9666961814150850e-02 -1.5512843198794701e-02 -2.3997845502876036e-02 1.3758364093898634e-02 -1.7828031310468506e-02 -3.5865445574311844e-02 -1.8208106383751968e-01 
      </Row>
      <Row Index="9">
        -2.3203655048541286e-03 5.0059886743435977e-03 -3.5848724592420014e-03 -9.2739875136567448e-03 -4.7346654917915884e-02 1.4459222778971676e-02 -1.0543610258580693e-03 1.1164848186498433e-03 8.5861872923399096e-03 1.0582949724686569e-01 4.7958069713210337e-03 7.2253629127999033e-04 -7.9759350724395162e-03 -4.9702229458617291e-03 2.5006963765093044e-04 1.5808664131041206e-03 -1.7207868591614913e-03 -6.5050994095386411e-03 -1.0938895168046497e-02 -5.8709769453605849e-03 -5.2946934803163766e-03 1.0232642227314626e-02 -3.1956672321098271e-03 4.4165035738179106e-02 1.0310656890056143e-02 2.8777117306243703e-03 -1.4785302643335881e-02 -1.4486046693251223e-02 7.7151047590278451e-02 3.3529686724018560e-03 1.9475007307219096e-03 -2.9929220338350028e-03 9.3043419684715415e-03 3.7195142238180198e-04 6.8756611632059331e-03 4.9078207455385634e-03 7.6950457750837205e-03 9.9512886194200838e-03 -1.7918217416788684e-03 -3.7086138941848541e-04 1.3504914116065914e-03 1.3699294955891467e-03 2.7026608272453800e-02 1.4115458329654572e-04 -4.2371172403560045e-03 5.5876191795452522e-03 3.0852679695150848e-02 -6.3318150868512516e-02 -2.4398671731598182e-03 3.3993921581434907e-04 -1.0125280626698471e-02 -1.2498621978578770e-02 8.0627495850349104e-04 -3.6462901302883842e-03 -8.8918190340697700e-03 -1.5756477475962519e-03 1.0954046699079626e-02 1.5197581853303443e-03 1.1589720692479774e-02 -1.4697240613327500e-03 4.9402530120765710e-03 5.7643347411374668e-02 -2.3052788631731931e-03 -1.9925418559646746e-03 9.3817889668268064e-03 3.8453111061582841e-02 -2.6637816766049316e-02 -5.0040547478480916e-03 5.5655667150941593e-04 -3.8386588741485227e-03 3.2082998589964828e-02 1.0242400819683306e-03 -1.2609292996631195e-02 -1.0251812781851482e-02 -6.1089262361949184e-03 2.1761001856850579e-02 -1.4047549144808364e-03 -8.4681554536649470e-04 1.7954320118172633e-04 -2.8229709976727675e-03 2.8183416846255162e-03 1.5363931246079271e-03 -3.2625656434940591e-03 1.2181813328560054e-04 2.5515535015985247e-04 9.7279693874121782e-03 -1.9896808227341475e-04 7.4337946873506678e-04 1.5409007149518104e-04 3.2304607520925641e-03 1.0156443128282603e-03 -1.1857482854468384e-03 -4.0304118177869142e-04 2.2461251027345100e-03 1.3728705553056053e-03 -1.5710407562352195e-03 4.0959879996586082e-03 5.3169711203393012e-03 -4.9767894622664635e-03 4.2463500946027237e-02 -3.0760229853086640e-04 -7.6654202851003340e-03 2.7615881944286803e-03 -3.3650285524723267e-02 3.5851999860199171e-02 -1.3272067281511644e-03 2.7390770878483097e-03 9.7398589584173460e-03 1.5165751204821876e-03 1.9198952575534413e-03 1.7390348203825227e-03 1.2223409232547011e-03 1.5451044304804016e-04 4.6465070221736200e-04 -4.8938807588386861e-03 1.7876361406084923e-04 -2.1938384770903794e-03 3.8764771080268385e-03 4.5183616393995527e-03 -2.9556572819861102e-03 -4.5413847643571877e-04 2.9651566550964632e-03 3.6307832524231899e-02 -1.8988437229648599e-02 -4.7890786715488950e-03 -9.3967595196682401e-04 5.6262802441005046e-03 7.6818588925406193e-03 3.7792729551018936e-04 -3.4799919453877073e-03 -2.0091760878488602e-03 8.4151666564636161e-03 1.6456109636982547e-02 -1.5439738267290521e-04 -2.2224935645894471e-05 3.2714478427898195e-04 -1.3009988580302354e-04 -3.4690294209806759e-04 -2.7424621519640531e-04 -2.0939727037836000e-04 1.0864791039010180e-03 -2.0231015379063980e-03 -5.3338666669503496e-04 -4.4652436419706314e-06 -4.4580503939850255e-05 6.6137530458908341e-04 5.9952516507256256e-04 -1.7774423431736241e-04 3.4466443116877967e-04 2.2722485990862937e-04 2.1483685351230113e-04 -5.5493124576216056e-04 1.1068136671424235e-02 -5.6099890401677312e-03 -1.3997069334014960e-03 6.5083905265913167e-04 -8.2007221932734516e-03 -1.4113887496393441e-03 -1.5315143896873582e-03 2.4825291625934359e-04 3.9594644596742959e-02 -4.8090228079654115e-02 -1.2965101133922689e-03 -8.6782369338904582e-04 -1.2424502402234193e-03 1.4425232738503276e-02 8.8296547231411738e-05 -1.1208127616321053e-02 -6.7117505296546099e-04 -8.1132370592256441e-04 4.3132215050950837e-03 3.7517075783869008e-03 8.4826918985909244e-04 -1.2816044596152681e-03 -1.4497239070159398e-03 -3.5129558456691110e-04 5.3482003598135860e-04 -6.3660369067653974e-04 3.0741341832263985e-03 -1.6878660289706249e-02 -4.3539123499178618e-03 5.3847467724297670e-04 2.6601898252735443e-04 -1.6375469996601971e-02 -4.5796860618176911e-03 4.2109941191728313e-05 -4.2593699868163221e-04 1.6584851310987659e-03 3.6652859274256757e-04 -3.0780195598347493e-03 -1.9893129645102946e-03 1.4837619272357813e-03 -7.4467724298990143e-04 -6.0083923836471071e-04 -1.3932532842930693e-02 -1.4013242786504708e-03 -1.9501761302818436e-03 6.3885925604731065e-03 1.6532272590093794e-02 -1.9731611234404731e-02 -1.1673756824093337e-03 -3.6757513511301624e-04 -4.7182448069449238e-04 4.6224009075337691e-03 1.0200049943304978e-03 -5.0557494400906480e-03 -9.1049537322547992e-04 -9.4004265905660712e-04 -1.1411567798300666e-02 -1.1683283307205652e-02 -9.1531274551978417e-03 -1.7949623710809617e-02 1.5570910479321513e-02 -1.4774697748406088e-01 -3.3647813115315851e-03 2.2660747670624863e-02 1.4534218726600025e-02 8.5820203520902676e-03 -1.4810153515272836e-01 4.8315637558100418e-03 -5.8304714110179734e-03 -2.1173704596762974e-02 -4.7720186297287373e-02 -2.1416794760149628e-03 -3.8361134916421180e-03 -9.8931111250070321e-03 4.4634326528086169e-03 -2.5768727496804797e-02 3.4730681819353806e-02 -4.2434584036332434e-03 1.0256376199262833e-02 -2.3448637724558540e-02 -8.2425591825779548e-02 -2.5730339800182661e-02 -3.6814988626724193e-02 9.3490393625834667e-03 7.3325603270477199e-02 2.3784948230549213e-01 -3.4866086320909234e-02 9.8461723392638742e-03 -5.7248731910696390e-02 1.0026905547575700e-01 -2.5639333815374258e-03 5.2835792299805989e-03 9.8719862054337994e-03 -3.3518073944517605e-02 7.4739517899689051e-02 -1.8530208773338541e-01 
      </Row>
      <Row Index="10">
        2.5643658933642149e-02 5.0644949171645415e-03 3.7044292996710488e-03 7.1869185197713679e-03 -3.5332872465550064e-03 -3.6247550732832201e-02 -2.1944236249283565e-03 2.7219815589375751e-03 -9.6941134839828875e-03 4.7958069713072132e-03 1.7748920842514795e-01 8.3715890009982482e-05 -7.8441020694292145e-03 -4.9059561044179252e-04 6.5114877151185358e-04 3.1032987617305788e-03 -1.3168442397830100e-03 -9.4430149189889869e-03 1.6673496740046985e-03 1.6413452718342211e-02 1.9818084186734759e-04 1.7476004773253617e-05 2.3167292570963906e-03 -2.9520272434112845e-03 -3.3991208428547214e-02 -1.3710144632335794e-03 -4.4798006491001720e-03 -5.9753740260667602e-03 -1.8440291372930225e-05 1.0863050270579590e-01 4.8260483775367869e-04 -5.1872577854936569e-03 -7.8134668114018531e-04 1.6740321573180921e-03 -2.1048316379295709e-03 1.4103849234766820e-03 1.2676762486181197e-03 -5.9347643297748493e-03 7.9907549372853388e-03 -7.3786305248865411e-04 -6.9918358054509300e-03 3.9022948566869988e-04 -7.8903803180249022e-03 -8.8571418947267482e-03 -1.0029092358515221e-03 -6.9095619211668648e-03 4.6413429361220355e-03 4.2051505753522020e-03 1.5257732187606706e-02 -5.6798434997581385e-04 9.5684197531677260e-04 -1.7546005023215119e-03 3.3925965776836903e-03 1.3259403564356783e-03 -1.5443662499218802e-03 -7.4750538370549260e-05 -8.2540389174965353e-03 7.6284478972066250e-03 1.8648220577029539e-03 -1.4145875177730819e-03 -4.1474307496217793e-03 -8.8025482157754152e-03 1.1785835793681042e-03 -6.9681448378017654e-04 6.7399850351999718e-03 -5.0434452994900306e-03 2.0518897525316380e-03 1.0921791106288490e-02 -7.1860644526387405e-04 -6.7224354417247207e-03 2.8958406875120167e-03 2.7291674568505342e-03 -3.2146898321110933e-03 -4.5935446379605964e-04 -3.1192358657470207e-03 -9.8119991814134763e-03 -4.7266811024892150e-03 -9.1673312697135734e-04 4.3889135751456858e-04 1.8961753038448446e-03 3.8816071606640394e-03 -1.0021759413257340e-02 -1.8325597587538233e-03 2.2630012300505140e-03 -1.4954165085125648e-03 -1.4324640394355395e-03 2.0214895461023947e-03 -6.9460784722133982e-06 1.9913808747673628e-03 3.9872050560188407e-04 5.6775802236780685e-04 5.4723111276313934e-04 -3.1295110206703875e-05 2.6461281352745353e-04 2.0928076685079377e-03 -4.7495230374202625e-03 -2.7986981408459517e-05 -2.2509757470892413e-03 2.8718771149832960e-04 9.6740541768627793e-03 -8.5351092269913306e-04 -4.0659783774230664e-03 2.6639856273399307e-03 8.7501372405502671e-03 -4.1611055413840583e-03 -1.7208160545811667e-02 2.4635600948838543e-04 4.8152610366278140e-03 4.4214863470491673e-04 3.1957386041352436e-04 -1.2556586584802120e-03 5.9679547864903285e-04 1.9286338650794795e-03 2.6948840807525421e-03 -6.9990962494043711e-03 -4.7325982197756423e-03 3.0149411806720955e-03 -1.5620850246087776e-03 1.0932105289266397e-02 -1.3158865996862690e-03 1.2001811775240239e-03 6.2656296549069151e-03 -3.7395908358352787e-03 -3.6207105882058712e-03 -4.7743120916820994e-02 -1.4896467933246573e-03 4.9509876259506173e-03 3.5021345219410976e-03 1.0469534365558735e-03 -1.6974331011994546e-03 -1.0821864094837210e-03 6.2380597728458730e-03 -5.2084934509816928e-03 -9.2270459203657503e-04 -1.4038887656078315e-03 6.5771836490920968e-04 -6.5848357708078156e-04 -2.2608072966384765e-03 3.5898863239178165e-05 1.0925443769650635e-04 -9.4280245367991738e-04 9.0537695391949163e-04 1.6884067595063636e-04 -2.2325554918872438e-03 1.2808358460882812e-04 1.7712337268483260e-04 -6.7619924201021129e-04 1.2913218692353959e-04 -1.3109728783342722e-03 4.9969399761292527e-04 9.6284418913566679e-05 8.6722340446218345e-04 -1.0004425757555988e-02 -2.0294114380006245e-04 1.4365134503566135e-04 1.9804575104005141e-03 4.3366333879327895e-04 -1.5271135183502187e-02 3.3607426299883149e-07 -1.5897013497837599e-03 1.2673431415734914e-03 1.0223106726065512e-03 1.4602243661036133e-02 -5.0042407582350911e-04 3.7185431886181215e-03 6.8494207207499313e-04 -2.2668836868904117e-04 1.0090873239622170e-03 4.2506394565497039e-04 1.7737057579525818e-03 -6.4100970674284569e-03 -8.2867259333931353e-03 -3.3328422886165880e-03 3.3868915777838793e-03 1.4420697340083823e-03 8.5083204946869197e-03 -3.3670680848549954e-03 -4.7343367056115575e-04 5.0700254531526653e-03 2.0683048521820402e-03 -4.1026103811236531e-03 -4.1215213804755256e-02 -1.1609489313964157e-03 -6.7220957195859368e-03 1.2852375540149605e-03 3.9137565887280160e-04 -6.1763150438710272e-04 -8.7259948601963214e-04 -4.3757863351743002e-04 6.0783174130579860e-03 4.8698844307903076e-03 -2.1053151970440095e-04 5.6169773474467732e-04 3.9177626440293730e-04 5.4515289945126352e-03 -2.9934158188823137e-03 -2.4192098023229650e-04 5.0569814596232911e-03 1.0402665246525133e-03 1.0082392737831465e-03 -1.0813835169235869e-02 -9.4207479039182772e-04 1.0965385023401957e-03 2.2463042801725928e-03 7.4571104401132435e-04 -5.4317648532487494e-04 1.4760808281296208e-04 -2.0418095537225486e-03 6.2325578278133011e-03 3.3561851659887038e-02 -1.0820447083526114e-02 2.8838217340028146e-03 -1.3685870381392443e-02 1.1222864503381898e-02 7.0080293052127859e-02 1.6115957327938156e-02 5.6779132205613224e-03 2.2232578695929577e-03 6.0028275727172856e-03 2.4217568856547150e-01 -3.9646137815210550e-03 -2.6504463828640416e-03 1.1399321680613625e-02 3.6682952170911205e-03 3.1242505311142449e-03 -5.1934932153846402e-03 -4.2077137297368127e-03 1.2078828495933357e-02 -3.2470747107542844e-02 -2.1869360212529720e-03 -1.0646876039516914e-02 1.2426316652527783e-02 5.5582541087880952e-04 2.0406812427717008e-01 -1.3296244771813267e-02 1.7711221734854048e-02 -9.3828252984378187e-03 -1.2395285036012251e-02 -8.6908813085202630e-01 -1.4592008841111444e-03 -2.6059992682301244e-02 1.0963128095269559e-02 -4.9511346775108914e-03 4.1809439911871527e-03 3.9633396803945781e-03 -9.9522243755414165e-03 -3.6528738943031477e-02 7.9662627641953088e-02 
      </Row>
      <Row Index="11">
        -1.5435230010214348e-04 -1.6875144893229221e-02 -1.3721858207481272e-03 5.5634728994612961e-04 -1.1627897589142368e-02 2.0731049350166016e-03 7.1828803420837634e-04 -6.7083278114557412e-03 -3.0238594893784426e-03 7.2253629128590791e-04 8.3715890008542688e-05 1.0955205619627954e-02 4.9943423176719256e-04 1.0815625782737434e-03 2.0906584592671005e-03 -1.0910528885943972e-03 1.2553083055164263e-03 -3.4499627646575402e-04 -1.3735672922129429e-04 3.2393005372647558e-03 8.7899645217066266e-03 -1.9848766847690913e-03 1.7237343359269904e-04 -7.1998321115982269e-04 1.9795399365599431e-03 -9.2834224699434487e-05 3.5479938660144899e-03 2.0617701880114936e-03 5.0862900581927792e-04 -2.9662726274010679e-04 1.9371405150009229e-03 2.6132239169037678e-04 -1.1856397584487951e-03 -3.5197989071344363e-04 -1.0987457084978263e-03 7.1671317222240334e-04 2.7896264191284515e-04 6.3623593625832214e-04 2.3696100570206168e-03 1.1527469126916330e-02 -1.8419521630142766e-03 -1.6912534617209360e-03 1.1150934982507327e-02 7.7915784914795935e-04 -1.0407413039811918e-04 7.6341659733864323e-03 2.7992944891455946e-03 -3.9582337101122544e-04 2.5971998215786208e-03 -2.1814161199159225e-03 -2.9916462764037173e-04 2.4888390197720699e-04 -1.4259891263846223e-03 2.4135747895321995e-04 -1.8752935691909722e-03 -9.6479749830088741e-04 2.1048938090058116e-03 7.9917910434401662e-04 -1.1390267540445457e-02 2.4997360304704307e-03 -1.1946487105579488e-05 1.6862030001803703e-02 8.8357096637533183e-04 4.8735198264219614e-04 -5.2065105072284200e-03 -6.8014816085448446e-04 2.0203757152563221e-03 2.0737764765633307e-03 -2.6412284925421267e-03 8.8442535938416597e-04 7.8400966945248313e-03 -6.2494720470296534e-04 -1.1880166488622695e-03 -1.8458423688166824e-03 -4.7059434990527962e-04 2.8973231989021138e-03 -2.7932826503770242e-04 -1.1211014283770554e-04 1.3579323514870470e-04 -1.0998101153987686e-03 3.8190612950734755e-04 5.6831495501993064e-04 6.5740806669955815e-04 2.4966265871926609e-04 -2.1684330222152340e-03 5.0888871275018774e-04 3.2621846494100033e-04 -6.7889597649620215e-04 -1.9316555729774747e-04 -6.9831091687101504e-05 -8.7429332369902413e-05 -3.7621453011455613e-04 -2.7461765257143304e-04 7.4177227960200466e-04 4.0387087177608320e-04 -1.9957602733184608e-03 8.2592826960083457e-04 -2.1807194262720266e-04 -7.3716186593499673e-04 2.1610386376852675e-03 -1.2428340036925705e-04 1.9074444889315709e-03 -1.8055017929805711e-04 1.7830313760375978e-03 1.0477176598265589e-03 2.1457101626050541e-04 -1.6354553569471648e-03 -3.7142878378012200e-04 -1.7077439864007435e-04 -4.7825673316349480e-04 -9.8104573132862033e-04 -9.1629695470489981e-05 1.2185633863985633e-04 2.5079941647145423e-04 3.2825434400490811e-03 -3.0503870278406346e-03 7.4083054338097351e-05 8.0213840763881375e-04 -1.7796810012629641e-03 -8.4119783397897628e-04 -2.3108281356405818e-04 -2.8765582847037948e-04 -8.7626176991777334e-04 -6.5843217436401392e-04 -9.1414840198597602e-04 -3.8371257749557873e-04 4.8022904593762018e-04 8.9636177906628829e-04 -2.9303019069341473e-04 3.3211677075776352e-04 -4.2497539432016264e-04 -1.5186224735644089e-04 8.6409334383583851e-04 -6.7371377075047542e-04 3.0025678649775889e-04 1.9968160776193589e-04 -3.0383351436205776e-05 -1.0918031648749746e-04 -1.6341706846151907e-05 -3.4125338155009043e-05 4.1948536101383096e-04 -4.2900617559835845e-04 -1.8515491477069592e-04 5.3555637914939945e-05 5.4718571309220926e-05 1.2778598341576988e-05 2.9861763087409465e-04 6.1209417374020520e-06 2.6280038512763127e-05 7.4898547997632298e-05 -2.7637687917794838e-05 1.4435494880173509e-05 -1.7401050676366259e-03 1.7107376404705350e-03 -1.3811488454982248e-03 -1.2306266951147234e-03 -1.4367886068112528e-04 -4.0147749408587866e-05 1.9324568755794882e-04 1.9460164609994904e-03 2.2394807717331013e-04 -9.8457943023413409e-05 -5.1216446357431702e-04 -8.4909445858134683e-04 2.9574656901341456e-04 2.1130909522366929e-03 -7.3844873528208094e-05 -1.6013230414328671e-03 -1.1718379286639898e-04 -5.6624380382957681e-06 8.7224081629997514e-04 7.5771830979665805e-04 2.5879993048483207e-03 4.0490907739981069e-04 -1.5102016898003046e-04 -1.4488695265041790e-03 -3.6310029032690563e-04 4.2871462353141765e-06 8.7002834924366796e-04 -3.9342969015081913e-04 -9.8839712537521912e-05 -4.1840457508970355e-04 -6.9950610108138016e-04 2.8097404250915746e-04 -3.2832457892505336e-04 -1.0200139444848306e-04 -6.4585532045533314e-04 -1.7732960476674151e-04 -3.8558727759729601e-04 -4.9277181231243512e-04 3.3899837870489564e-04 -1.1423519530685523e-02 1.0662064586066189e-03 -5.0402355180841540e-04 1.3423938605206089e-03 1.8432348864634489e-05 3.5388085285071160e-04 -4.2668698250418651e-03 -2.3361068195491960e-04 -5.7222304045122848e-05 -1.2209560347837363e-05 2.6553343742606735e-04 1.5848284378762315e-04 1.4014950400660967e-03 -1.9410047747135130e-04 1.5430186701827541e-03 -3.9513541834867717e-05 2.8658329089683383e-04 -7.6975840217008960e-04 7.6549797895709591e-04 -1.2426766744002695e-02 1.4399408544017358e-03 4.2200790510983936e-03 1.3604009490960991e-03 -8.8590772764674821e-04 -5.3792802088389845e-03 -1.0228061248991763e-03 -2.7190299646282744e-03 -2.7711469989452008e-03 9.1146314782274574e-04 2.0377226111501751e-02 1.2102604818693824e-03 6.6145477672499200e-03 3.4774543561932533e-03 5.4734082213692553e-03 6.2558567850682766e-04 -3.6238942686111488e-04 -1.1995067721032213e-03 -1.5546309199313588e-02 3.2132654287727130e-02 -6.7829863020762663e-03 -6.7149760769780690e-03 -4.6808941964298833e-03 -8.7837415533632557e-03 1.0006327554857294e-02 -8.5339046246201318e-03 -4.3124632793448484e-03 3.2975957973635818e-03 -7.0442361618400723e-03 -1.7817801902214631e-02 8.8405366491250753e-04 1.7676271879501500e-02 1.0017776154133693e-03 6.1111641405543595e-03 1.0567910680225610e-03 -1.5781931417086937e-03 5.9078059041579312e-03 3.7577491831750011e-03 
      </Row>
      <Row Index="12">
        -6.6872779871688772e-03 7.7955271350860222e-04 -2.1480024383440394e-03 -5.8192333656832121e-04 -4.6682657636261185e-03 -1.2008622283967137e-03 1.5276209931680204e-04 8.4959804701184582e-04 -1.8455539546551394e-04 -7.9759350724376548e-03 -7.8441020694408926e-03 4.9943423176841001e-04 6.3903821906278552e-02 -1.7311383128709823e-03 7.9907936245681907e-04 1.8554237533989631e-03 9.9892835530569182e-04 5.2383788506190432e-03 -1.3556567018076717e-03 -7.8185739328936917e-03 6.6253511100112161e-04 -9.8973434849419784e-04 -8.7149326501503627e-04 -4.2492565726601986e-03 -2.4115487649886205e-03 -2.3024019296397666e-05 5.1790954142125201e-04 -5.5815911294635080e-03 -2.7616579939636846e-03 -9.9417594214314276e-03 -5.0827341850497032e-04 3.5369677685008843e-02 1.5413777614170466e-03 -1.5117026624928342e-04 2.5864094067237081e-03 -1.0927703496050058e-03 -5.2935350310729830e-03 1.5517224747714463e-03 1.7245647800513400e-03 -1.3660344341496350e-03 3.0497819642691937e-03 -9.6080475945648197e-04 -6.4755853638373204e-04 8.9927147165452955e-05 6.9851541623037658e-05 -4.4545149256584220e-04 -1.1913126160600378e-02 5.0521059134526255e-03 -1.4748426368585493e-03 9.4952055033859992e-05 1.4093337887122212e-02 -1.3967135726129947e-03 2.2827542225987772e-03 2.4477467083592525e-03 3.3813553548001363e-03 1.9779697126370670e-04 2.9618600822926659e-04 -1.2431055407167158e-03 -9.1041691439631891e-04 -4.9379256050001777e-04 5.0739121247544801e-03 -2.7689282603699629e-03 1.1285984450545156e-03 2.9078166265297106e-04 -3.1598848802887880e-03 3.3539999127476967e-03 2.8694812995581037e-03 -3.9387579356727253e-03 -2.5142777675285109e-04 1.4069425420780528e-02 3.4714360432464703e-04 1.3765001459921100e-03 3.2962825927906891e-05 2.5426086083763962e-03 1.1467306354014557e-03 1.2178918961064863e-03 -1.3773776349634732e-03 3.4298165309085485e-04 4.8748654686649791e-04 -2.1224390360753730e-03 1.2807215650347584e-03 -6.1852966405151195e-04 3.0606212645522038e-04 2.3636630955113733e-04 2.2743697012084230e-04 4.4999604274346267e-05 -4.4815160008108350e-04 -3.6950310581597380e-04 -5.1035890608056890e-04 1.6656622183877162e-03 -8.3488149512953610e-05 -7.6051382733127509e-04 -2.6387851399898308e-04 -1.3634739858453412e-03 -4.0281746931129445e-06 3.6690498471318193e-03 -4.4741294038998843e-04 1.6819543165770513e-04 3.8042351598599755e-03 -3.7017341940471619e-03 -1.0287333231685470e-03 1.0098107463740213e-03 2.8663565480786211e-03 -9.4134247505934902e-03 -5.6137281354856688e-03 2.6705635490445905e-03 -1.4741743796379365e-04 -1.3260300660229861e-02 -2.3084046779465340e-03 2.7754438067520329e-04 -2.6013742267701049e-03 -7.6785305782982229e-04 -7.9516658102653595e-04 3.9930420200488814e-04 7.2426138752368242e-03 2.2302629173776897e-03 8.7251715292312529e-04 3.5564333240415860e-03 2.6125652013719402e-04 -3.7138207183768312e-04 -1.3349399662550992e-04 4.4467799858833000e-03 -3.0982085602567835e-03 -3.0785134593860376e-04 4.6729058508983290e-03 7.6415043670937050e-04 -1.3341048721807625e-02 -1.2618309560224251e-03 4.8453702144089425e-04 -3.8519973630322130e-03 -1.5407521300622729e-05 -8.8804328552974225e-04 1.5069289269882759e-03 4.5643779565468674e-04 6.3710485087333380e-04 -2.1405416763060567e-04 3.5954085517619932e-04 2.7770945774737273e-04 -4.9809356003904738e-05 8.9029103360672795e-05 1.8228713588581663e-03 3.4436002935846373e-04 1.2064155718431203e-04 5.4568699662130055e-05 -3.6606299912521394e-05 -5.3669570456290933e-04 -3.6096979670482618e-04 2.5895801145295674e-05 -5.1545081673046351e-04 1.0936262196112692e-04 -2.4755975713882782e-04 -9.7059236046358709e-05 -7.1315800351456904e-04 8.4715620237898418e-04 -8.6691938323696545e-04 1.7746065948406062e-04 -3.6054518191057112e-05 -2.9645611307394328e-03 1.4125540082108592e-04 6.9293437122551482e-04 3.1748237064048155e-03 3.1823828432727616e-03 1.3674470339508915e-03 7.1902312030467210e-05 -6.9206563358146459e-03 -6.1567812234535079e-04 3.1051005638865043e-04 -4.7501355371489893e-03 -7.4126529666566237e-04 2.7499713277935904e-04 1.8743588534073314e-03 -3.4452040795862893e-03 -2.4067116387668924e-03 -5.7784258227429330e-04 -9.3503633869423102e-03 7.5332749846398908e-03 3.3145343828162588e-03 4.1089876342657698e-04 -1.0721176936893052e-02 2.2338022361126780e-03 3.7905878883338216e-03 -6.1849767940386716e-03 -1.4358987924154012e-03 1.7363908691022480e-02 7.2454086033938436e-03 -8.2043565335807511e-04 6.5879262756458959e-03 -6.7153203893589863e-05 -3.6803128675327547e-03 6.1004922866387395e-06 -1.2078562126900672e-04 -8.4839279562786557e-04 -2.1266236837149310e-04 -4.0181717501064211e-04 2.2262203157838341e-03 3.8095402858955105e-04 -1.0209933675432787e-04 -9.1043566263247365e-04 -1.5109750075435920e-05 8.8618627348464342e-04 1.2909348138073432e-03 -5.4454316620305905e-05 -2.1227198884263133e-03 -3.1355983210001588e-04 3.7902303557834044e-04 -8.3076678009384817e-05 1.9079911626326693e-04 1.1624070283374050e-03 -7.7677038715471180e-04 -5.9812275774447140e-03 3.8494857902553040e-03 4.8482485504301401e-03 -1.1458318761851088e-03 1.8291731067199661e-02 8.1977275290336903e-03 -4.3221618054002922e-03 -1.4231544471296361e-03 -1.3514913207606935e-02 9.1979707401493270e-03 -1.6922048409146816e-02 2.4915387512251391e-03 5.1641401866083632e-02 -7.7693162225256785e-04 2.5940769010965896e-03 7.5850698055781249e-03 6.2350056570966523e-03 9.5262121007221642e-03 -2.8016745095833782e-03 -4.9440437850310527e-03 -3.7869802797321633e-03 2.4857081809225418e-03 -1.3312027277905404e-02 6.4354318855004153e-03 1.5629782846690778e-02 1.5956080333224508e-03 4.3963239489901440e-03 1.0852723707502402e-02 -1.8048737323849120e-02 4.7307633662728409e-02 -2.0828966764503652e-03 8.5832713064130567e-02 -1.8241026602662819e-03 -3.3816872507260124e-03 8.5372057334280899e-03 -5.8215374658943976e-03 1.0961513828788762e-02 7.2236798614300768e-03 -6.1963177524950841e-02 
      </Row>
      <Row Index="13">
        9.2406321554724859e-03 -1.8393442385800679e-02 -3.9986836452819627e-03 -7.8596742032933931e-04 -1.4459100859541933e-02 -2.4562298402387079e-03 -1.3849501584507762e-03 6.4888202619683977e-03 -6.0773233141782901e-03 -4.9702229458133511e-03 -4.9059561041017827e-04 1.0815625782732955e-03 -1.7311383128770677e-03 7.8742912367200518e-02 1.0150280180010280e-03 -1.4389653592000194e-02 -1.3793140855096219e-03 2.2322820485066227e-03 -3.6734677947945979e-03 2.1557519273684494e-03 8.0112953025342909e-04 -1.3498820385534432e-02 -1.8420454362891644e-03 4.0697164364312428e-03 -4.2518607178380612e-03 -1.0680011612295166e-03 5.0346309935255101e-03 -1.3521214998836763e-02 1.4307713753053050e-04 -5.3536201600165234e-03 4.9559053439793277e-03 -5.4995432946937589e-05 2.3638161390685166e-03 -3.0475704465046417e-03 -6.6498588046577933e-03 -1.1014579928709783e-03 2.9329590989478800e-03 -4.0686574832607333e-03 5.7999516245758678e-03 -4.3283438020117609e-03 -1.3322394370244295e-02 4.7644828425620449e-04 2.0469468547666566e-02 -2.5344339054948197e-03 1.4907957365333756e-03 -4.2986662093611495e-03 -9.5006479357961221e-03 -2.1688190407985358e-03 -4.0227476945848325e-03 -5.7572084707866204e-03 2.1261728567576431e-04 1.3809311341965141e-02 -8.8681217625033986e-03 -1.8983542980423145e-04 -4.5878500047814574e-03 -1.8089622701269962e-03 -1.2427717022541090e-02 8.3366308410278700e-03 -1.0552277158682082e-03 -2.4233860790651013e-03 1.3009460960192180e-02 1.4189252668526952e-02 3.3639509072886098e-03 -9.9679982429040984e-04 -3.1731115028105217e-03 2.1269541963692077e-02 -1.8607237057096243e-03 3.8310702088130404e-03 -8.0712936518104062e-03 -3.8653261024409608e-03 -2.6324230593122652e-02 -5.3711990962449496e-03 9.5496109856589295e-03 -1.6876892412179597e-03 7.2580486908992298e-03 4.5310572341008756e-04 -2.0779741012587408e-03 5.8789665332851029e-03 -1.3394456968939296e-03 -1.2177892485095813e-03 -3.5382627579603216e-03 -1.2879076384078834e-03 1.6087154057050643e-03 -7.7394255509705134e-04 9.4286655289757826e-03 -1.5486092697307441e-03 -2.9287413974215561e-04 -1.0189836592598700e-03 -1.4017221951189698e-06 -5.0563734543230057e-04 -2.2727209036225516e-04 2.4117154576393865e-03 -3.1926328067749792e-04 2.0196896039849175e-03 1.6739612828171810e-03 3.1149987174041924e-04 -8.1083607576345508e-03 -3.5627379724588338e-03 2.2113405809013661e-03 -6.3505647983233132e-03 1.7158456027809282e-04 6.5022986941918439e-03 1.5112968421906389e-03 -1.0490742707866885e-01 -1.2643283107640585e-03 4.1494640061900907e-05 -1.2808695114407687e-03 8.9229661006606613e-04 -6.8165013645560789e-03 -9.9223698710781960e-04 -3.3676197548856476e-03 1.5602391127989999e-04 2.0731753335015320e-03 -6.5415720869554852e-04 2.5813584921802919e-03 2.6300708567425675e-03 1.7491082644339011e-03 -9.7050395077541950e-04 1.6087628944300901e-02 2.5530413234919579e-03 -2.3472965003580380e-03 -3.9714038487481534e-03 5.5585878661128164e-02 1.0530152451636559e-03 2.6198518502617645e-03 2.2089755178382048e-03 -4.9595264015384532e-04 -1.3695187137510350e-02 3.8327547899678644e-05 3.0364252612348165e-03 6.0825303240699701e-04 6.2130626198428403e-03 -4.8968178568728864e-03 1.6191760112267001e-05 4.6009908944790161e-04 7.0880643950890602e-05 3.9024350710693519e-04 3.4766641574183278e-05 1.1621364546718577e-04 1.3531895820997019e-04 1.0684992335171116e-03 3.6478376892257322e-04 -4.7158729805755594e-04 1.3904999154530618e-04 2.3829690952150191e-04 3.0454661340524602e-04 1.4758865442199938e-04 2.1273509486168158e-04 -4.2925494834117773e-04 8.8773782579845096e-05 1.5001641018066482e-04 2.9419134465554289e-05 -2.4856197960141449e-03 2.2634468965071725e-02 -6.2511666307014232e-03 1.3767784135364086e-03 4.2924829580600135e-04 -1.9930052881975326e-03 -8.3258022222257658e-04 -4.0853791013046592e-03 3.0030630663021224e-02 9.1407312459574133e-04 -2.1970980374196288e-03 1.9335479984916243e-03 -3.8169522874863856e-05 -1.6609205484358673e-02 9.4316867394415881e-04 6.6189896393693600e-03 9.5072192989133642e-04 4.4317350387989233e-03 2.6560555404902776e-03 2.6702783142470987e-05 4.0428538727886138e-03 3.1072878267514870e-03 2.5085654708240082e-03 -3.4404556367629534e-03 1.6839994957600340e-04 1.4071235000193728e-03 6.4511574370232014e-04 -1.3537731574762568e-02 8.6762638707643322e-04 2.3877865566517484e-03 4.1633247294033809e-04 1.8186618988515237e-03 -4.2162995977873992e-03 -5.0767178855033420e-04 -2.4636451451612133e-04 4.5023763415121855e-05 -2.6297824504339564e-03 1.1471258205135587e-03 3.3493511102725138e-04 2.3400115945509947e-05 3.0150611444454229e-03 6.1612508350424706e-04 -6.5599802663133628e-03 1.1229211386182781e-03 4.2193211581359360e-05 2.8729258690364922e-03 1.4195858583249716e-02 -3.6403074012663328e-03 1.1051209869176759e-03 -5.0138633065732198e-04 -1.4420674400045239e-03 -6.3536460719391952e-04 -5.3288836520686434e-04 4.0348859816089488e-03 2.4263958430756848e-03 2.0856756021073774e-03 7.6223933021901183e-03 1.0219559990545954e-02 -4.7860148028463334e-02 1.0233159383243505e-02 2.1256665012243093e-02 -3.2944076345594944e-03 1.0311930888240704e-02 -2.5421348391283474e-02 -5.7687185507472941e-03 -2.0420770094996314e-02 -2.1103370301590343e-02 1.1865267460338062e-02 7.2539783090313781e-03 -8.4506378814194431e-03 1.3553629212576082e-01 -1.8748660072878285e-03 1.0142237627945028e-03 2.0682458416250273e-03 6.4144320028608178e-03 -7.9940701703976047e-03 -1.2716886442120823e-02 4.6283025626233126e-02 -2.0565544304357610e-02 -1.0146112403172810e-02 -2.3437563691260824e-02 1.0939300907640250e-02 1.7474890143245117e-02 2.5612936019399235e-02 1.8342244725372545e-01 -9.3845720023799581e-03 4.6587485811728419e-02 -4.0568772025875513e-02 3.0559528449077712e-03 -9.8586622076177743e-02 1.4415248841392420e-02 2.2195889308244919e-03 3.2943541611476362e-03 -1.7190863299189132e-02 -2.1857322111682398e-02 -7.9384903717502661e-02 
      </Row>
      <Row Index="14">
        2.1339104801244382e-03 -7.1619071335125156e-04 8.3610845406601950e-06 -2.4932625613593518e-04 -4.7569134515821013e-03 1.0665769082183376e-03 -1.4773540719175728e-04 2.3626026544639259e-04 2.9553383038643318e-03 2.5006963765338388e-04 6.5114877151016960e-04 2.0906584592669114e-03 7.9907936245873475e-04 1.0150280180002535e-03 9.6864075703960752e-03 -6.0148313374621797e-04 -3.3893504552859866e-03 -1.0898247213747352e-04 -1.1404215891319487e-03 1.9227040766321714e-03 -6.9606616616001626e-04 6.3932179954087620e-04 -5.7897468953273029e-04 4.7266029170005726e-03 4.9497688212173118e-04 -1.8819768323958782e-04 -1.1794941587526479e-03 4.5881763391941895e-04 9.0058441082585495e-04 2.8734238873386075e-04 -6.2117066257193904e-04 3.2193939893623629e-04 -4.1599267293621165e-04 5.6596582422170135e-03 -5.9482950127975887e-08 8.0222898641835270e-04 -5.3376088230154680e-04 -1.3399821831028586e-03 1.8938811146866942e-03 -2.2760539120023696e-03 1.0613055042748079e-03 -7.0013453847283906e-04 7.9310610123548824e-03 -1.9763982349387020e-04 -5.6125569739874821e-04 3.5903426203825334e-04 -3.1443042389917575e-03 -1.4951922735834500e-03 8.9892327014361260e-04 -1.3495154423297587e-05 7.6914201505828318e-04 -1.5609453506750285e-03 1.5226235156976778e-02 -1.0840483125278220e-04 -2.0977097875234732e-03 2.3746179391362929e-04 -2.9874759888008063e-03 2.7350929671549062e-04 -2.4885066726615694e-03 7.2743584253524146e-04 8.9579523113885590e-04 8.6171581034176162e-03 -1.5725274412396685e-04 -4.4071325655825264e-04 4.1211098925078571e-04 -1.5821408540674618e-03 -1.1810398682342914e-03 6.0540885290104708e-04 9.1993101679691512e-04 2.5809914777471946e-04 7.9715003150058442e-04 1.0653032526747375e-02 9.3749165614699648e-05 -3.0794285006165070e-04 4.9537635625320452e-04 -2.1290884073555168e-03 -1.7021668552857222e-04 -7.8559337064558368e-04 9.6224289781765408e-04 -3.9893507215325581e-04 -4.9325444033133242e-04 1.4442415102761816e-04 -3.4690242160525164e-04 4.8015770231196742e-04 1.7203002898010175e-03 -1.6884388420690920e-04 4.5623601760724525e-04 8.2955693975795782e-05 1.0210054464783339e-04 -3.3144406171048066e-04 1.0087283161922431e-03 -1.3428224714983125e-04 4.6520262298150661e-04 -1.7337128002621095e-04 -7.3744122056733689e-04 -1.1107949921027420e-03 -5.8097001505825140e-04 -7.2374675758777479e-04 -1.6674665652929150e-04 8.6599501128609407e-03 -4.0826495099911255e-04 -1.1243124364800213e-03 -1.5251131518919520e-04 -1.5847182736701149e-03 1.6017667125519113e-03 1.2060946894291026e-04 -5.3216997153825976e-04 -9.6273749675045977e-05 -1.0232938727681505e-03 2.9605570018995965e-04 4.2277605118444506e-04 7.1021466015905473e-04 -1.7336006264703730e-04 -8.9995285506916931e-04 8.9259710560543333e-04 8.8129102519287489e-05 -4.1632441887219434e-04 2.9876328636206862e-04 7.3450533651251912e-04 -2.4716025325665004e-04 8.7223540967332279e-05 -9.3622188762648630e-04 -1.6843401114215047e-03 -1.1862561055277381e-03 2.0796689449943217e-05 -3.1039295787522873e-04 2.2883574243854726e-04 8.7851189715256145e-04 5.0963634057045720e-04 -3.0601105155808996e-04 -4.2386177333194241e-04 -4.2673096594102850e-04 7.4603787797892650e-04 -2.4470857065510407e-04 1.5455292811445578e-04 -2.2535148751427574e-04 -8.4608433311502470e-05 5.7403296963870194e-04 4.0296941324054466e-05 2.7823869309064072e-05 -4.6377166920244365e-04 -7.0150600075093573e-04 -1.8799607814729631e-04 9.1186732585480577e-05 3.2643449447716043e-05 -2.1732338468742900e-04 2.9530986235155236e-04 -6.8802529747400809e-05 -2.3221046470460970e-05 -6.9085101645030182e-05 -1.2568510077646519e-04 -9.7611263586999122e-05 9.1285636721098566e-05 9.6436543844187332e-05 -5.3646531057663718e-04 -2.1691623967981673e-04 1.3319963141705813e-03 9.7037324336743782e-05 -2.1838618142487858e-04 3.3651395753621360e-04 -2.6830926616730694e-04 -1.0098573808892406e-03 -4.4738829803640773e-04 -8.2204009818822189e-05 -2.1257993711900746e-06 1.1311779746090043e-03 -3.7784717824670380e-05 -3.9436141273145912e-04 3.4941964358929059e-04 1.8980345206234014e-04 2.3138957993576551e-04 -6.9057893006641523e-04 -3.8238265545358086e-04 7.9131385866360038e-04 -2.8982864968495276e-04 -2.3517195861420597e-03 1.4288871588968117e-04 1.6569933706462106e-05 1.0919789704016102e-04 1.9486661229006132e-03 5.5088462834838306e-04 1.7613904338111821e-04 -2.0083803238394714e-04 2.5858652376867551e-04 -2.2075812388380582e-04 -3.7721375204226380e-04 1.9721949205614084e-04 3.9195381035651882e-04 -3.5437752041775079e-05 -3.9393624792199468e-04 -3.9702033605242817e-04 -1.7727585939699821e-03 8.7907839256979757e-04 -9.4384385447958527e-04 -3.8260658845910536e-03 -2.0700878848481673e-04 -3.2588558998581724e-04 -4.4279872167973496e-04 2.8002132942979690e-04 -4.6951477064247418e-05 3.1604745987604098e-05 -1.2461968371198511e-05 -7.7097149890930137e-05 -8.2842943110811158e-05 2.8372310244821316e-03 3.8940434580857089e-06 7.8930238334008447e-04 -2.0007446668040695e-04 -2.0088297587889498e-03 2.7889229194677729e-04 3.3296534201325248e-03 4.3108896880355869e-03 -4.9925235562753257e-05 2.7364340355188119e-02 4.7368854490132382e-04 3.6189398364004730e-03 -1.1366495839946406e-03 -2.0113171263827978e-03 -7.1106618745539162e-03 1.5901669770645994e-03 3.7416899080757269e-03 8.6489508639417466e-04 1.4468204975553469e-03 2.2024445752406890e-02 -9.0935503862371592e-04 -5.3881990269515033e-03 -8.2350965608305848e-04 -3.6815923799745445e-03 -2.6006412589880297e-03 3.0589146386463678e-04 -1.0721533671126599e-03 -3.1539870650810660e-03 -1.1277654670658530e-02 -3.8358089227840991e-03 -3.6435201495004137e-03 -1.3202882234852956e-03 -3.2399886854059473e-03 4.5710909571514483e-03 -2.1097616513321110e-03 5.5493459729414321e-03 6.0795619527978517e-04 7.7236642649234606e-03 -2.2409313906984828e-02 5.9444860800875350e-04 5.8056825166014339e-03 2.8613644755077065e-03 4.3090618270760356e-03 1.3667780149019268e-02 
      </Row>
      <Row Index="15">
        -2.1239409036754111e-02 -6.8373147507050924e-03 1.5615888234688053e-03 8.1902774809875564e-04 -6.7120922129901700e-03 1.4572746458680237e-03 -1.4629533860563426e-04 -7.2123786993057715e-03 -8.1897670505397101e-03 1.5808664130531995e-03 3.1032987617683680e-03 -1.0910528885961844e-03 1.8554237533902149e-03 -1.4389653592015994e-02 -6.0148313374840025e-04 1.5543263072685476e-01 1.4560338239855406e-03 -9.3759549882994073e-05 -5.9527246427353670e-03 -5.2427672094176640e-02 6.3389835957403783e-03 -5.1376306499311131e-03 -1.3483807146322385e-03 -2.8525439118613771e-04 -4.9723737145007533e-04 -8.4147989656576392e-04 4.9868089075491735e-03 -4.3935020774129273e-03 -2.4025622772854286e-03 -1.0314893938165435e-02 -5.5176175373828906e-03 4.5929082754526829e-03 1.3383749375187528e-03 5.9289188568286983e-04 -7.3580873605794961e-02 7.2748790281047977e-04 -1.2651061706142122e-03 6.6451648638662479e-03 -7.3135625505744463e-03 6.4526137448426280e-03 -2.3406548923440296e-03 3.0193901292336518e-03 2.0676098669113220e-03 2.5313187268299620e-03 2.2030625007354865e-04 -2.3566116652652246e-03 2.2935870850931680e-02 6.0062014296548552e-03 8.1013632212452950e-03 3.3725508994852053e-03 2.8703782110925079e-03 -1.1006439059014009e-03 2.9815642850194984e-03 1.1044432013745484e-01 6.0057567767757281e-04 1.1574274182116302e-02 2.2853417134956200e-04 -2.1669604771859641e-02 -1.9330486948511656e-02 -8.9087308414419555e-05 -7.3923452957254769e-03 1.1344918959586489e-03 -1.8213354922729033e-03 -6.0519850364324813e-04 3.4953787511642354e-03 -2.0717770932753878e-04 -2.4791261022899230e-03 -3.9728173841692971e-03 1.3206318968663729e-03 3.8105699983114714e-03 -1.3822953410435134e-02 1.1581063819767201e-03 -5.3665675897430230e-02 1.7274339415269888e-03 -3.9855068480145091e-03 4.9796236442216082e-03 -8.8479899364380526e-04 -6.0050339129606722e-04 -1.7840731229246494e-03 3.9761300389597239e-03 -3.1771680957976868e-03 4.9595845281125779e-04 5.2591015546510833e-04 1.4377178646258204e-03 -1.6484875865950821e-03 -7.7922475671379234e-04 -9.3138341261087660e-04 9.2309566574639255e-05 6.5467626029369445e-04 7.0993637039535370e-05 1.7328796038956616e-04 -1.2400197167753011e-02 1.2413435158990934e-03 -3.8958669550772079e-04 -2.7637376915718998e-04 3.1734834827832695e-03 -8.5389272214999689e-04 -9.5876141741539265e-04 4.0006961792132291e-04 8.7681629794729363e-03 2.8367960378353403e-04 6.0336041258839688e-05 2.7819130259258314e-03 1.2704432604118288e-02 -7.3116880662096265e-04 -1.5569772511073716e-03 2.0014437464705082e-04 -2.2768783163378079e-03 2.7424954794832363e-03 1.0844855211845179e-03 -2.2476923613736582e-02 8.6674520968027156e-04 -2.5248775622653038e-03 -6.6298864313163583e-05 -2.1659557882698931e-02 2.0407120270566465e-04 3.5989449074664641e-03 -2.4953771319035866e-03 -2.0793264030819873e-03 -2.9663378780264065e-04 8.7473571735923090e-04 6.6108744593098619e-03 -9.0938306125541192e-04 -2.7142133841118448e-04 -4.3886960879249221e-04 -7.7487723433275241e-04 1.2023198252868504e-03 3.3939932102265398e-04 -9.5489551990119673e-04 -2.6746465368216076e-02 -1.3885152278479238e-03 2.1642415996729557e-03 4.9050191753512665e-03 -1.0394628122689061e-03 -1.5156909776577842e-03 6.1586941626301647e-05 1.2035982245491174e-04 -1.3328945388557589e-03 -1.0056076990047700e-04 -2.6339554922659859e-05 -2.3963684870521381e-03 -5.9180685952304113e-04 -2.2840836774083451e-04 1.1333356952880771e-04 -4.5068504424919875e-04 -3.9799457784948065e-04 -9.5479698516760228e-04 -3.0467354749321862e-05 -9.0316726147077588e-05 1.3713872566985903e-04 -6.2729154169444894e-04 1.0680061102839556e-03 5.7108855428848020e-03 -7.3472767301739732e-03 -3.1733532407170369e-05 5.7505095879740696e-03 1.1509433100823988e-03 2.2446631070594538e-03 -1.7251084260816278e-04 8.3909082271464014e-03 -1.4412158805765941e-02 -7.4966495964313359e-03 -6.4905087709473813e-03 -3.2659746608212363e-03 -4.3465899175134243e-03 -5.0761356948157933e-03 -1.2448014897965605e-03 -8.9755136119898063e-02 -2.0982963292023689e-03 -5.9734385015151907e-03 8.1373435901658589e-03 -9.2405585646781752e-03 5.9590639817641566e-05 1.6659644338077456e-03 -1.6010200126934937e-03 2.8507093167500046e-03 1.7473763898872424e-04 -3.9303200176516589e-04 2.5296764717936820e-03 -1.1799375931411393e-03 -2.3861530136727593e-03 -2.3576047384181315e-03 -8.0967947975000773e-04 3.4755408315178399e-04 1.9831280281131392e-03 6.8582346881314381e-04 -2.7310310944204809e-02 4.3082756624252807e-04 -3.3535995059300501e-03 4.3721045803930131e-04 -8.2233550608585941e-04 -4.3933401879005483e-03 1.2999296279043997e-03 2.2293421527490804e-03 6.9510041129893342e-04 7.4258066001533769e-04 3.0657885391113403e-04 2.4104453160290387e-03 7.9869605795475796e-04 -5.1204298644404341e-04 3.4993139059554122e-03 1.0153546178564528e-03 -6.6813863559001853e-05 -7.5401306124895104e-03 6.4258178727618384e-04 3.5119568238594981e-02 1.4391337585447537e-03 1.5123172565855831e-03 -6.4524533040905691e-03 2.6975581460191401e-02 3.0459584781402704e-02 1.5038863291201597e-02 -1.9084389182662472e-02 -3.5263306376709061e-02 -3.5431692545613196e-03 2.3042059399301720e-03 -2.2756540073175468e-02 5.1107905212063272e-02 2.3731955827714403e-02 3.0243315800579512e-02 6.2035939475587609e-03 1.4146402573777314e-02 -1.8961945308807480e-02 6.9965166244583682e-04 2.6951633660635005e-01 3.6212824707463134e-03 3.2587636759055759e-02 -2.8611370913520867e-02 1.3120035317977299e-01 8.5555473126864290e-03 -1.1826140639863481e-02 3.2751973485124521e-02 -5.1849418110110415e-03 -1.4024394257816635e-02 3.6752612377587181e-03 -7.4078629043350386e-03 -2.4831508936663971e-02 6.7923004333457597e-03 -1.3047378140057075e-02 5.1565293074057484e-03 9.3651265278931438e-03 -4.1103334665124766e-02 -6.2088707305350465e-03 2.5946544669690896e-01 1.5789934852239174e-03 9.9217279454714979e-05 2.8481848679213103e-02 -1.3224506658829227e-01 
      </Row>
      <Row Index="16">
        7.0627654044491074e-03 -4.3394262834499896e-04 1.9929231227626062e-04 4.9473434776914761e-04 -6.5829018783647060e-03 5.3408668844164616e-04 1.2404819668113351e-03 8.1471180949268564e-04 1.0929321508424336e-03 -1.7207868591605498e-03 -1.3168442397914872e-03 1.2553083055170809e-03 9.9892835530597133e-04 -1.3793140855062171e-03 -3.3893504552862937e-03 1.4560338239812346e-03 2.0118927988860835e-02 -1.3336025191010045e-03 -1.4171777248640077e-04 1.9390999004149814e-03 1.0834911179004583e-03 -1.6745575170882801e-03 -2.0114865296504527e-04 4.2414629837948872e-03 5.5953245167216729e-04 1.1014673680887269e-04 -9.1599813785262808e-04 2.4770132151558447e-04 9.2482754656647093e-04 -1.6870932304483988e-03 -2.5721015178558130e-04 4.9781141277801567e-05 6.5555261459633932e-04 1.1145226808000428e-03 -2.5577921803428359e-03 3.6564174442813725e-03 -1.5431982684347995e-04 4.6447676234906386e-03 2.7856304263197970e-03 -3.6540216097468003e-03 4.6075101378740798e-04 -1.5314662595001596e-03 1.0658557073822048e-02 1.7133972328138292e-03 3.2694742219051796e-04 -3.8149385263866126e-03 7.5884871146606227e-03 1.0610182908913340e-02 3.1397704466758864e-03 7.5356778504488426e-04 2.3547541809691231e-03 2.3789762144122220e-04 7.3135214163704172e-04 4.6588766719100443e-03 1.0226414128851353e-02 -1.0484367731836150e-03 9.9102760768503446e-04 3.8878143550158122e-03 -4.8485285629112695e-04 -1.0547925172185030e-05 -4.9450395473885815e-04 8.6856427795883491e-03 7.8671721970691665e-04 4.1842770001850049e-04 1.3617790607306579e-03 5.3569059410800597e-03 1.0589187962116409e-02 1.5363556236884560e-03 2.3765787441830917e-03 1.7130074957221290e-03 7.5568794642794546e-04 1.9287587618584154e-03 1.5333171818829212e-03 4.4225402857757286e-03 -4.5725133247246958e-04 4.2409535586844732e-03 -1.6143323188987785e-04 7.7056749358902013e-05 -1.8473841058791809e-04 -2.8318439515710248e-04 1.2506386282008786e-04 3.9300893848517220e-04 5.7158323641353054e-04 1.0726228696923690e-04 -3.3210540551358563e-03 1.8016291301289553e-05 -1.1825726186487492e-04 2.0840189873997717e-04 -4.9563713294850783e-04 -2.2615971058856507e-04 6.3401178549764899e-04 1.9505837973053056e-04 -7.2261629591347833e-04 2.8364232325623273e-04 1.1967442865760151e-03 -1.7308668991206574e-03 2.7832971195879564e-03 1.9707101022915004e-04 3.2151685893072081e-04 1.8338425181835330e-03 -2.2949453459303370e-04 1.5218197265356478e-03 1.2212359099334213e-03 4.0913335332426262e-03 -4.0608831533144813e-03 -1.0303648743686447e-03 6.2358231214240493e-04 -1.3523827110614272e-03 3.1528565679765901e-04 1.0515855029242685e-03 -9.2858004797772859e-04 -1.3414840307637154e-03 1.1205784040513734e-03 1.9569996472423379e-03 2.4834841668956199e-04 7.2378849103416250e-04 -8.9616473485414419e-04 4.9706736506249924e-04 3.0130032767548788e-03 -3.1215393223401233e-04 -8.0186924922567783e-06 1.0138043149431879e-03 -3.2629442619992038e-04 6.0381372063142685e-04 7.6003592521649711e-04 -4.2730872166571731e-04 -3.2031043278494620e-04 8.5139657430486596e-04 -2.3857611153185035e-04 -1.9428018368525726e-03 -1.7686745837371643e-03 -4.2490392808163186e-04 7.6226299352187728e-03 -4.8552499376340369e-04 -6.7495562781810618e-05 3.8038560079929216e-04 -1.1344685300284006e-04 -5.5901162399453442e-04 2.1046254247876104e-05 -4.3199640202184367e-05 6.1070448924883285e-04 2.7419004335263583e-06 -1.3727003110278494e-04 -1.8579328404722198e-05 -2.3528436722051950e-05 1.0506507795278930e-04 -2.9817224015985205e-04 -7.5507901864401512e-05 1.2744897765812606e-04 1.2532279432115933e-04 -1.2551596343428605e-04 -1.5037440340387735e-04 -2.4353731604108493e-03 -3.7929295309851205e-04 -1.5431716605236387e-04 2.6599668953822047e-04 1.2570197213122693e-03 -1.0174538310755011e-03 4.3859642198340647e-04 5.7034987254595687e-04 -3.8312417989128677e-03 2.2602493469445813e-03 -4.5964509221900333e-04 -2.1829911244699196e-04 9.6236375388579010e-04 1.2375998832601090e-03 2.9065529147274559e-04 -2.4927913756359003e-03 -3.1066942974572009e-03 7.5819851059120763e-04 3.9744963665833827e-03 -1.2389910753228123e-03 -9.2477305732654135e-04 -1.2173067139686911e-04 -1.6058522848089868e-04 9.3607116364700232e-04 1.6998112881946859e-04 -1.2247629753570077e-04 -1.3547826899750412e-03 9.2758955153436629e-04 -3.2180303482336366e-04 -1.0684359301683390e-04 -5.5375714557649779e-04 1.0165837008752655e-03 -8.5059638462579856e-05 4.8108945223545555e-04 -9.9161443253636267e-04 -1.0495732638076236e-03 -1.1175590791460429e-04 -2.1407617059232826e-03 5.1366254146866745e-04 1.7147151365690385e-03 -7.0868781936000470e-04 1.1572070905818495e-03 -1.5180749917289267e-03 3.5473671942278244e-05 2.2206658890128400e-04 1.9631508755235247e-03 -2.8177431991781854e-03 -1.2249674065177864e-03 2.1766584202149216e-04 3.4695298701871132e-04 4.7426269537086655e-04 7.0165153852731494e-04 1.1884417854884607e-03 1.9931986470190020e-03 5.3954458425938771e-04 -1.7328499338814944e-04 -1.9883107388143605e-03 8.1578245218366791e-03 4.4977422700401108e-04 -2.6104525636920237e-03 6.0757564419831097e-04 -7.0778570873497870e-03 1.7328351533221816e-03 -4.3460883719054497e-03 4.4001833528777359e-05 1.4582639325436127e-02 2.2841663887602136e-02 2.4636247434694945e-03 -7.6740144554159929e-04 3.4354399737999003e-03 4.6662911826654053e-04 -4.1925630882330873e-03 1.7606570665014004e-03 3.4804178674814487e-02 -6.7712783723712540e-03 -2.8293796228678462e-03 -4.2070074433990688e-03 -3.8373134537349474e-03 -1.2552017016907789e-03 -1.0733601803069696e-03 -1.9463602028391078e-03 1.9782461786597445e-03 5.9377179320906411e-03 5.9206512988171367e-03 -1.2111740415170401e-02 -6.7170363731742042e-03 5.1920676534228394e-04 1.0903092586633491e-02 5.1973013044233768e-03 2.8750812255934136e-03 -6.5412443421983130e-03 4.0255774054708763e-03 -1.1198580040131122e-02 -2.3860520728401918e-04 2.9362485420068109e-02 -5.8065333840706093e-04 
      </Row>
      <Row Index="17">
        -5.0929820377892693e-04 -4.5170133443472376e-03 4.7051229716694662e-03 6.4595934377397520e-04 8.3521402703197259e-03 1.3571283942964790e-02 -4.1640381699560900e-04 5.1424218039918179e-03 -5.2890890191261558e-03 -6.5050994095483452e-03 -9.4430149189881005e-03 -3.4499627646555225e-04 5.2383788506211604e-03 2.2322820485112613e-03 -1.0898247213765849e-04 -9.3759549869662506e-05 -1.3336025190993838e-03 5.8878913010718292e-02 2.1116190784619330e-03 -4.5791006958608924e-05 2.8320378817953060e-03 -1.0132245091894421e-02 -2.0047254024366983e-04 3.2868007319130062e-03 5.7683208156863513e-03 -1.8657505357164280e-04 -2.3886349359619353e-03 -2.2858543502035549e-03 -3.6296039706581549e-03 -1.8495772967073471e-02 -2.8782816459472062e-05 4.7483373135695653e-03 1.7751878203284160e-03 3.4093354087677834e-04 8.8346834664142920e-05 -3.5334107164512003e-04 -1.8838946079599586e-02 -8.2348202267573667e-06 -8.2817636419579080e-03 3.1966539055653977e-03 -5.4642266876325715e-03 3.8521018462877362e-04 3.6459810584781121e-03 2.5735489306715205e-03 5.6418769592104113e-04 -7.0459195867016503e-04 -1.2627132777456324e-03 3.1661031970853081e-03 -7.9048848887368090e-04 -1.3892371105970306e-03 2.4692295448394581e-03 2.0084839360169204e-04 6.9762837458625573e-04 2.0340965412624875e-03 -2.7419919113526054e-04 6.3457242632543459e-03 -3.0297845046040450e-03 -1.1262434556332560e-02 -5.7232561068658837e-03 2.9087020761585734e-03 -1.3337831308598772e-03 8.5847712686652165e-03 1.2197657814100281e-03 1.1331509399994063e-03 8.3030288634349976e-03 8.1005788246302224e-04 2.2041575389892161e-03 2.5734256844502164e-03 -1.3269281650558533e-03 3.4299520900998616e-03 3.9880257125459954e-03 7.7774524182344564e-04 5.5111231791930837e-04 -1.0866462808445006e-03 1.5571258513998900e-02 -9.6409805300498169e-03 2.2940252675021332e-03 1.8944625429135643e-03 7.5334619970980274e-04 -9.4666817090043336e-04 -3.3323288949418427e-03 9.3365862393028458e-04 3.1777737976610787e-04 6.8596119907101240e-04 -3.6829958290605872e-03 -6.8616466271988891e-04 -2.4781485948105111e-03 -1.8893931841455856e-04 6.4565260315402155e-04 5.7310463513400231e-04 4.4553107499209612e-05 -8.1897611663719200e-04 2.6634023932403227e-04 -9.4518666832035924e-03 -1.3171271482478463e-04 3.9057010630025278e-03 -3.6900642431674999e-05 3.0371359169415013e-03 -3.3968047122527644e-04 5.2855630435593940e-03 -2.5888258444422998e-04 1.2308906406806152e-03 1.1950343785617559e-03 8.5542368041816169e-03 -2.4887749156870106e-03 1.6524841957480804e-03 -1.1891044388316571e-03 -3.7828062726103324e-03 -9.8026961473251031e-04 1.3357965455367709e-04 -2.5112387114619838e-03 8.8087067066934370e-04 -5.0466388598917004e-03 2.6834297559376217e-03 8.4845070931125911e-03 5.3353057905854342e-03 7.9288904012568759e-03 -4.6554683939183392e-03 -6.0366037864700486e-03 -3.8632332592931306e-03 -1.6543192872823967e-03 2.4132132048200988e-03 -2.1596263027354800e-02 -3.8181230607255861e-04 -6.2394053906398364e-03 -9.1354901041795344e-04 3.0496523486505554e-03 5.2572935513485585e-03 3.4442690566048183e-04 -1.4191176703507412e-03 -1.6284597918016016e-03 -4.8849482118852219e-02 -5.4610343208903317e-03 -6.9825238261332460e-04 3.0459042214986843e-04 -8.3314999535161389e-04 -2.6325322369573318e-04 3.2882348282410861e-05 3.7529561143824779e-05 -2.3535177805469694e-04 -6.8486227119052929e-05 3.1952593694361555e-04 6.2558363870801495e-04 1.0513127843512407e-04 -1.0501567815949527e-04 -7.1088141129947745e-04 -1.8825452545827065e-04 -1.5373298383517393e-04 1.4250984988006560e-04 -1.0030999634425854e-04 -7.6121215054343215e-04 -9.9571837455219008e-05 4.5196329565910225e-03 4.9919221818856118e-03 -2.5617240571007421e-03 1.0185757188350183e-03 -5.3521179287753804e-03 2.4743619974203750e-03 -3.2132431797675268e-04 -4.8140560359961060e-03 -6.5018377073336828e-03 1.3809959346268736e-03 -2.1322899527855205e-03 2.7255596853722661e-04 -2.0612524370254475e-03 2.3318646942087893e-03 2.8993042720975513e-04 -2.6824500902676764e-03 7.6750521671935766e-04 -1.4015462275525658e-03 -2.7392739124232806e-03 -8.7904381730597586e-04 -3.9939095441422247e-05 1.9508727297949668e-03 -5.9949447293411407e-05 -7.6845964202812075e-04 1.5622707611748221e-04 4.2220255985152971e-04 -3.0251735267644488e-03 -1.5381097937604560e-03 -7.8506876382929830e-04 4.6918017181961924e-03 1.9242008177572224e-04 4.6182820832794211e-03 -8.3882483279909808e-04 -7.9281077169612608e-05 -6.5402889686148056e-04 1.0562508289386537e-03 -2.1587974459566454e-03 1.7178436241830407e-03 -1.3817541145039365e-03 -2.0947116234456380e-03 3.0424002651014814e-04 9.1483830467469559e-04 7.4244778125386263e-03 5.8907347040512768e-04 4.4563006749974367e-04 5.0952086567929451e-03 1.1525007905271855e-03 3.3314965589152329e-03 1.8370437093484151e-03 -1.4269221087257421e-04 -9.1688115005061986e-04 -4.1273036850120312e-04 8.8214603719403604e-05 4.7401995371112391e-04 1.3215439406894845e-04 6.1146405602066226e-03 2.6603826255223771e-03 7.7404979568179016e-03 -1.9463236920320426e-03 9.1893274037665902e-03 -3.1300995225571060e-03 2.2759684015721419e-02 -7.1419157954438379e-03 -5.4435723750952993e-03 3.4339708894360402e-03 -2.7990172098009067e-02 1.2863252050511396e-02 -1.8346651748572460e-02 7.4180174960391393e-04 1.7637013956187605e-02 7.8477006100811323e-03 6.0546016578297052e-04 2.5993345104124987e-03 -6.8956044637064626e-03 -3.1497652649382715e-03 6.8686622567784388e-04 8.8592919679259217e-03 2.7742186666191992e-03 -1.8186376967027230e-02 7.7855430369022406e-03 -9.5639573282492070e-03 -4.4033447850849096e-02 5.1597954311958689e-03 1.3620013984203871e-02 -1.4917034111227844e-02 -1.6275082842947292e-02 6.6503183724783393e-02 -7.9577163166213508e-03 1.9143099321479642e-02 7.8923825751446575e-03 -1.7851558971760887e-03 6.4312571566130265e-03 7.9721112850586473e-04 1.2114737584650845e-01 -2.8001641321346350e-02 -7.3240536219229112e-04 
      </Row>
      <Row Index="18">
        1.1964470615675495e-03 6.0485681194508145e-03 6.5858676156236827e-03 6.1153877616088575e-03 -5.3375864867522702e-02 -4.5157041417263699e-03 -2.6956047752400153e-04 1.5269972217788474e-03 -1.1451621231507586e-03 -1.0938895167995536e-02 1.6673496740201136e-03 -1.3735672922166715e-04 -1.3556567018071016e-03 -3.6734677947838305e-03 -1.1404215891298039e-03 -5.9527246427039208e-03 -1.4171777248893781e-04 2.1116190784723488e-03 6.6952273157131842e-02 6.2750574261883716e-03 -3.1348989049786741e-03 1.4285452594912651e-03 7.7787162321578656e-04 1.2825224586041822e-02 -2.4779694369491730e-03 -4.2327898274085638e-04 3.1880470482221613e-03 -1.6902203068758292e-02 -8.7572173371703414e-03 6.0984151221242650e-03 2.7513008651264270e-04 -8.2197004156034370e-04 -8.5745073494989006e-03 -2.0058002932947061e-03 -9.7540453247212631e-04 4.3697430994602549e-03 -1.2896018628613276e-02 -1.7548063295612770e-02 6.8850760156705364e-04 -8.4702358192001448e-04 -3.5368542595629604e-03 7.1317260111644666e-03 5.0106795047576543e-02 6.3252194778538971e-05 -6.1799845272960535e-04 4.9265734533437758e-03 1.3400826700899357e-02 -1.2218994641903080e-03 5.4179755913852917e-03 4.3582411656965803e-04 -9.0656008355114999e-04 -1.2647470466214471e-02 -9.5792766454715420e-03 -1.8548666506320597e-03 -1.9933335934873009e-02 6.5727346211174849e-04 -4.6565506269706791e-02 -7.1778406114562099e-03 5.6935210687558534e-03 5.4203534297282696e-03 -4.8304764282198010e-03 3.4422528234662672e-02 1.0529269520173391e-03 -7.4548305922535890e-04 3.3925815291930839e-03 2.0890402320869972e-02 -2.9293451470885357e-04 3.2489212798382985e-03 -3.9300823874624199e-04 1.1730908567886607e-03 1.3214204358375109e-02 -5.8883653229744315e-03 5.1726364370808589e-03 -1.4572855562621528e-02 3.8624089550989109e-03 -5.6029322069940699e-02 -3.7269015008940115e-04 2.7455427251103434e-04 -7.8633444258935023e-04 1.2669710085610121e-03 -1.0094954558802886e-02 -6.7432314974039250e-04 -8.7394347534909935e-04 -2.4475619286187800e-05 4.3955358650149545e-03 -2.2608780062129408e-03 1.2559967562163778e-03 -5.6188051128207555e-04 1.0470125153315248e-03 1.8116093589591775e-03 -4.2592496684543916e-04 -2.2936696418091908e-05 7.9675154587651809e-04 -1.7784356975724339e-03 -2.2990399053455877e-03 2.9379257777858193e-03 2.3222241612149176e-03 2.6790747060081825e-04 -2.5454428000363355e-03 4.7925850055210113e-02 -6.0093030895965122e-04 -1.5784788230488954e-03 -1.2537162073847051e-03 -4.1471087052878594e-03 -3.0294138121796915e-03 -1.8861523687109891e-03 3.2879096938407825e-04 1.1883249622262927e-03 3.1055678177327722e-04 -1.4813107106498424e-03 -1.2993139244690567e-03 7.4298395992231587e-03 -2.4700802930883955e-03 9.5224611854920205e-03 -9.3134332510559428e-03 -6.0948720028408676e-04 3.2958341457566126e-03 1.7213990088006219e-03 -2.3071779391061243e-02 2.2443776352949613e-03 -6.1314569854362729e-04 5.9919791869151445e-03 7.0515250231109744e-03 -6.1667100375961681e-03 6.5487658522232206e-03 -1.5781165023230491e-03 -3.4195952430817432e-04 -8.0982418116051433e-03 2.5857294772664990e-03 4.5086813034873417e-03 6.6306273403060568e-04 -1.2507364534182955e-02 -6.1700694239735489e-02 -1.5718928703967357e-03 -2.7558135888366335e-04 4.6101262220597176e-04 -4.7283932552257902e-04 -6.2458963825806103e-05 4.0524479389797148e-04 -3.9496216499269009e-06 1.3130394744364261e-03 8.6682404596397046e-04 5.9007061339435510e-04 1.4517184612572974e-05 -9.0240413785125471e-05 2.3363750272072689e-04 1.6799466765981923e-04 -4.2829093248318443e-05 3.8692442574505149e-04 -4.9344637551809408e-04 8.0763102754945692e-05 1.3309204660144130e-03 -1.0485799946399591e-02 -1.9046589783951792e-03 2.6249994213442193e-04 2.5897656956992070e-03 -7.2172784408753958e-04 -4.3716545427669026e-04 -6.2900144803429382e-04 2.2109441983080777e-03 6.3472486053058746e-03 2.7587026107817828e-03 2.9841051228016299e-03 -3.3293156654638084e-04 1.9039781832889987e-03 5.7660828503949130e-03 1.1151087537108594e-03 6.7402112010147182e-03 3.1540500095599226e-03 1.0584489796289596e-03 -2.7709376569107529e-02 2.2551674077173761e-03 -1.4954981880866899e-03 -2.4015968371582305e-03 -2.2938611522944560e-04 -1.9174169651220430e-03 -6.7568541883249178e-04 -2.3098929851822839e-04 -2.8673043915475351e-03 -4.0499994989534605e-05 7.6661958281486198e-04 -2.1479214409750934e-03 2.1020017804446742e-04 1.4348521563457145e-04 1.6206718089600836e-03 -3.1604459111440105e-04 -7.3039580420587898e-04 -1.9917348302516437e-03 4.4367247971104284e-03 9.0756180211816334e-03 4.9925068593190194e-03 4.8378187727695296e-03 -3.1176944750949110e-04 -2.7700707753530855e-03 1.2807254742728617e-02 -3.4171479251462241e-06 -1.5059042332587542e-05 -3.5655985074104189e-03 1.3848294642579461e-02 1.1346659416112348e-02 -2.4596388411163832e-03 -3.3466856586547133e-04 2.2468789653949401e-03 1.6856837356924864e-02 -3.2861685493308567e-03 -2.6639310020586606e-03 4.2429883811111332e-04 2.0631596843979235e-03 3.2960046634449201e-02 1.5509505792293148e-02 1.0100455410835020e-03 3.4541627868609264e-03 1.3182691726230308e-03 -1.1788979873269362e-01 5.8731136045215432e-03 5.9836566293703748e-03 -4.8282028117053863e-03 3.2971543549610946e-02 1.4464015355265814e-02 1.8091716868897899e-03 -3.6260895402449728e-03 -1.5992837517335937e-03 9.3692184975069856e-03 -6.9230267255509601e-03 -1.2228243538596653e-02 -2.3451616688846436e-02 -3.8390273759386960e-03 7.8293910507065578e-02 -3.0793396987639814e-02 -9.0946693911904061e-03 -1.4130794919926699e-02 2.1295001145601247e-02 -9.0349906746336514e-02 1.7654708493899399e-02 -7.2620051642767955e-03 -8.9367902477661132e-03 3.1912045610267094e-02 -3.3537130613459420e-02 -1.9075119378750810e-02 -3.1314147119982406e-03 -5.9792655713811291e-04 7.1950247830896069e-02 1.5993553766735211e-02 -9.8790929626419981e-03 3.6866623826771923e-02 5.0574759491179247e-02 -2.5097278885843521e-01 1.1900453287567189e-01 
      </Row>
      <Row Index="19">
        6.5645309413806696e-02 5.1740643181914514e-03 5.1578622806455303e-03 -2.7696213827791945e-03 1.4601693860750477e-02 4.6357249699872736e-03 -6.0809770868666679e-04 -4.9145485894955376e-02 4.3221715547281129e-03 -5.8709769451246842e-03 1.6413452718120679e-02 3.2393005372685800e-03 -7.8185739328610754e-03 2.1557519275009736e-03 1.9227040766423304e-03 -5.2427672094226913e-02 1.9390999003813508e-03 -4.5791006901108045e-05 6.2750574263997962e-03 3.4016965396985327e-01 -1.1500320875544289e-02 1.1736611192278978e-03 2.5581025966383668e-03 9.5657363011049969e-03 5.5485988294809458e-03 3.1575757405216997e-03 -1.8889754913866103e-02 -1.6231319958102002e-02 -4.5550175000583894e-03 1.4944784833384794e-02 9.8204659739620226e-03 -8.3759636335040653e-03 -3.4810974670678816e-03 1.5554441168853822e-03 1.0125093480959864e-01 -1.0505325197273131e-03 1.4728101579189606e-03 -1.0809593187099948e-02 2.1086927050351773e-01 -1.0859069206262895e-02 5.5015642810167797e-03 -1.3449776021811615e-02 1.8604943523396041e-02 7.8269605594351154e-03 -2.1107897132088948e-03 4.7418488012230274e-02 -6.0739897977644682e-02 4.1612361926237299e-03 1.1779450239423797e-02 -1.2467119933512461e-02 -1.5214607572265528e-02 -8.0494455665590468e-03 -2.0522822754737765e-03 -4.1754085192330884e-02 4.5313149510040063e-04 -1.1112281849045058e-02 -1.0466238431440841e-03 1.0687549119787931e-01 1.5538193910451061e-03 1.0067750079311336e-02 1.0025901560027242e-02 6.7649847289075471e-03 4.8090367301893465e-03 1.2833423883543079e-03 -2.0018197757551981e-02 3.1765820362021045e-02 4.6732901515353833e-03 8.2785889804187010e-03 -1.8544753567540997e-02 -9.5744945106565685e-03 -3.1541363137667961e-03 -1.8206547795220906e-03 6.4628431460338545e-02 -6.2600120514354173e-03 -6.0739630009670961e-03 -8.5550110172584182e-03 1.4203204234806203e-02 -9.7089231159418459e-04 4.4676502144844945e-03 -3.5812142779028588e-03 5.4738481014519821e-03 1.2698198636103177e-03 -3.5216160145534834e-03 6.9294819626423004e-03 1.2865255365217543e-03 -3.4024322064980968e-03 1.4095989524206508e-03 -1.1299915805091443e-03 -3.1581291733689858e-03 -6.3686993514780802e-04 -5.3532324605483719e-04 1.3094152776696458e-02 -1.5700891337248879e-03 -2.3621039594943598e-03 3.4920012314261289e-04 -5.8596870693671692e-02 6.9086623477410056e-03 5.3242801111985378e-04 3.9758980829829029e-03 -1.0434008655260785e-02 -1.3879438234740121e-03 -9.3868402928261908e-03 8.2952956876669176e-03 -1.7306215016527054e-02 -7.6826427257095610e-03 -2.9675942793390146e-03 -5.9775479478356344e-03 -1.2198012515551599e-04 -5.6849114016289757e-03 -1.5341415630823628e-03 9.0673806663587007e-03 -7.3209936771707223e-04 -2.3408869630018527e-03 1.2964950156843461e-03 1.7212119029810072e-01 -2.0179161624819961e-02 7.9125192289448126e-03 -6.0905811282755337e-03 2.0884893895974074e-02 4.9108740455291854e-03 5.7558995559729351e-04 -1.1535188024116945e-02 -1.1866080734531687e-02 -7.0695472596665320e-04 2.9359180088234125e-03 4.7430826515205676e-03 -1.5591497657393316e-02 -1.7778556674428697e-03 1.5805811983047721e-03 4.4255193943016656e-02 -4.5117807637570610e-03 -1.4407415328977694e-02 -4.8680005533348310e-03 -2.8380370961258714e-03 -9.6353347452916610e-04 4.8178248635672675e-04 1.8439014562067832e-04 -1.3284708704421012e-03 -2.2460529793931998e-04 1.7544417249025241e-05 3.2520231812522996e-04 1.9480533286265111e-03 4.8009888202835398e-04 -2.7229102218081922e-04 1.6736593286490145e-04 -8.0099834977010863e-04 -1.3758485331415973e-04 4.5842052275413367e-06 1.8483576588813126e-04 -4.6516769081630244e-04 -3.8467257453097549e-04 2.8825772455818530e-04 -1.3339525692607543e-01 -3.8877607999699602e-03 -1.0958014089623694e-02 5.7799263814908141e-03 -1.1411018357823776e-02 -5.9709339158118364e-03 -1.4070855006295751e-03 2.1403845903621214e-02 4.2850734510939188e-02 3.9929673248161480e-03 -6.8048778656358850e-03 -3.6681221338683090e-03 1.0960105777470055e-02 8.4917747717773353e-03 -2.8282097990785775e-03 4.4534584781416399e-02 4.3057180526053437e-03 7.6726156510405537e-03 -8.3893264322609032e-03 5.9358767011024448e-03 2.8401954903613247e-04 4.2505769508397288e-03 -4.8395707075693517e-04 1.7587602206900303e-03 3.9795382433004643e-04 -2.1473859587270872e-05 1.8685952894206638e-02 -7.4878072390360748e-03 1.1586420515912257e-03 -1.6953502315102675e-03 1.9667813551133093e-03 4.3366201215733254e-03 -8.9382098203350316e-04 -7.0125293305592774e-04 1.5609198071559848e-02 -2.4399952423481272e-03 5.3138479206254492e-03 -1.7970498101245735e-03 2.3905858884107099e-02 -1.2560413000312688e-03 4.5747561292304086e-03 -2.5719840277852607e-04 6.1470887988070684e-03 3.3506769194650724e-04 -7.9576000728952029e-04 -2.1335454478651879e-02 8.5123968841680706e-03 3.2538731553245076e-03 2.6510755501327763e-04 -1.4375860077483419e-03 -5.2149536854386889e-04 1.5981419260381010e-03 -2.4252732973329848e-04 -2.4158478918851825e-02 -2.6567642521740232e-03 -1.2891213729340264e-03 7.6252895605281095e-03 -1.7498015071381040e-01 -4.9029955977390099e-02 3.8519652024154527e-02 -3.2048791310088302e-02 1.2059534677429712e-01 3.3614782862160617e-02 3.1965244579599671e-02 -7.7625878890539915e-03 -1.3634268860802226e-01 2.8280398662419302e-02 5.5355407192427292e-02 3.7561694973966539e-02 -5.4789093748022669e-02 -8.2417151891874766e-04 8.7972008418456295e-03 -9.6482412698488673e-02 -1.5285972671355074e-02 -5.8188741936127601e-02 3.9744310254457314e-02 -7.8739538631788009e-01 4.8399078641696347e-02 3.1728741107996533e-03 -2.0339274507707381e-02 4.7375016896809286e-03 -8.4577519945869348e-03 -4.9191189732394350e-02 -1.5842289542770416e-01 4.6715606952441147e-02 -2.7010030958767122e-02 -8.3871524141157297e-02 -8.4432226397780169e-02 5.8670598298638243e-03 3.2115818080717430e-02 4.7153205846115504e-03 -2.6044869420644590e-01 -7.2639003399913582e-03 2.3380174569171797e-02 -3.2379131753957457e-02 8.1056300617263244e-01 
      </Row>
      <Row Index="20">
        1.3385366055179076e-02 -3.6627364574137389e-01 -2.7052941233743789e-03 -1.9483409138433170e-03 -1.3535656131342456e-02 -7.1662869559198025e-03 8.7716321392810812e-04 -1.7133893710730133e-01 -3.8245771343908067e-02 -5.2946934802695633e-03 1.9818084195324099e-04 8.7899645217091524e-03 6.6253511097047945e-04 8.0112953024258880e-04 -6.9606616615882646e-04 6.3389835957454272e-03 1.0834911179008562e-03 2.8320378817762309e-03 -3.1348989049869418e-03 -1.1500320875529976e-02 3.8310399166650833e-01 4.3968748991955742e-03 -2.3635239681635773e-03 -2.4353773009688408e-03 -2.6967680830751895e-03 -2.4064318786192317e-03 7.7714437105246524e-03 1.3090776479033183e-02 -4.2616175242104499e-03 2.8317577733980026e-03 2.0752345467738159e-02 -2.5306111582834318e-04 2.4606785517532238e-03 -1.7317361804692103e-03 -9.4487039407721626e-03 4.5402016733679727e-04 2.6285459530078843e-03 -2.0822022101190420e-03 9.3534726783700631e-03 -5.2454132424008981e-02 9.1311715049819941e-03 -8.9043358492238520e-04 1.3003180283798918e-02 -7.8139484681492045e-03 2.9702519966731357e-03 1.4364739489907458e-01 -7.2609805751242235e-02 1.2537646179861769e-02 -6.3186993851706025e-03 -2.4950998430833177e-02 -4.7224641839487577e-04 1.6831021958362731e-02 -3.7490403222914109e-03 7.7935438294128717e-03 -2.1281360508605407e-03 -1.1976017094213346e-03 6.6966013021445454e-04 1.2171036391384116e-02 -5.0894407687233989e-01 -5.1835851035465976e-03 -3.7980514922513909e-03 -1.0116316071870888e-02 -5.2079312195598797e-03 1.0956122234262065e-03 -1.0286047058082548e-01 -1.1595532524735962e-01 7.4038609051887416e-03 -6.3077385936179380e-03 -4.1334695256966557e-02 -5.6847893162465316e-04 9.2857795446567564e-03 1.9838751526951581e-04 -5.5995862751873834e-03 -4.5807798076907772e-03 1.3900352885589978e-02 -1.8378669069943551e-03 5.7807942818220368e-04 -2.3180541279745399e-02 2.5650948975440430e-03 6.4789486305658929e-06 -7.9604787670480501e-03 -2.7319410172411728e-03 8.2536145268120378e-03 6.8847159035796655e-03 -1.0744606319249367e-02 -1.4883922049760750e-03 -9.8561124003650235e-04 -6.7554169589109439e-03 -1.2145722745104260e-03 -3.3624901771286573e-04 -2.4479067637158628e-04 7.4230017517455920e-04 -1.7293933743396488e-03 2.5675804594119541e-03 3.3919396482855017e-04 3.9912743905176178e-03 -6.2102708295004250e-02 -2.5863576042586840e-03 1.0559008425778788e-03 4.4194370018956451e-03 2.5264540213915880e-04 2.3929822091169336e-02 1.8577869215304302e-02 -7.5825622543596816e-02 -3.3486465554197565e-03 -3.4464080749352474e-03 -6.8573250113567125e-03 -5.1598098911991800e-04 9.5831142117066490e-03 2.6978769812580619e-03 -8.5915333099707038e-03 -1.0678182346912065e-03 9.0484656774578211e-03 2.0749074283168819e-03 9.7898739538796031e-03 4.6242067624171983e-02 -9.5406183585490262e-04 -1.9021792203111354e-03 1.3993740709773803e-02 3.7197000836714116e-03 -3.9487612584158290e-03 -4.1736368922850084e-02 3.0058873246702072e-02 7.7433167726649651e-03 1.7099917070464432e-03 5.0297291538150433e-03 3.9844756161965759e-05 -2.8484775826474735e-03 -1.2100728565639534e-03 2.0715195461335702e-03 -2.3394761805424049e-04 1.5956650507542632e-02 1.4952951139760541e-03 -8.4353919380459545e-04 -6.2550162035257366e-03 8.3123598612704552e-04 4.9881312117678266e-04 1.3554323631536098e-03 -2.3407800989185706e-05 -2.1267572960848984e-04 -2.3536799452577549e-03 -2.4614094909448936e-03 2.6041180145792010e-04 -3.2286568970080762e-05 -8.9326645547013273e-04 2.9188084337208609e-05 -9.9065653204834713e-04 7.0394407573702382e-04 8.8492476011945516e-04 -1.2816410453107142e-03 8.7838882667377644e-04 1.1193768968795809e-03 -4.7418191135724826e-03 -2.5171230329086143e-02 -4.5691678682941378e-03 1.4483877863307286e-03 1.1953238087192916e-02 -5.7829070072642642e-03 -1.9775599550479923e-03 1.6571203350936636e-01 -8.7076353011967603e-03 6.8073720990757657e-03 -2.4083919207993571e-03 -5.2365269003940640e-03 1.6756363942273030e-03 -4.3557292509096160e-03 -3.4428311983000391e-05 -6.5151220069574016e-03 -1.5002556062325943e-03 4.1196446823838070e-03 -1.7357858560603458e-03 3.1515360790058469e-03 4.7709413612865625e-02 5.3058187952578773e-05 1.2534913268988611e-03 -3.1334388048308709e-03 -1.4174154406047042e-04 2.4627655524783764e-03 1.6050297106780635e-02 5.7953165828026412e-03 -2.3537806221568874e-03 -9.2047612543904374e-04 2.1103835066341265e-03 -1.7339720770985518e-03 -3.3524362430680243e-03 2.8628451910123068e-04 -4.0991407944655864e-03 1.1568474922618380e-03 -3.3635003665946806e-03 2.0083910446318937e-03 4.3176145220181622e-03 -1.8777765080462991e-01 8.4827865208428332e-04 1.1946971005695113e-03 4.6132942297734281e-03 7.3268467751022917e-04 1.5400508730804919e-03 -6.3729180491017542e-02 -2.2417481864621627e-02 7.2769502097925366e-03 -7.2927965907204802e-04 -2.6549228327862676e-03 1.0887970202315962e-03 1.0122413210964670e-03 -3.8879766536201936e-04 7.7209471677061143e-03 -8.2454947537834362e-05 7.4697898701338809e-03 -3.2262769240820636e-03 1.2757899013925104e-02 2.8003846809438435e-02 2.7526916355322721e-02 -8.4029736064257180e-03 -1.1611595563512003e-02 1.0042256877891370e-02 -7.7367390411474210e-02 -6.1055012316074471e-02 -8.0874629678954535e-02 3.4695601974827781e-02 1.0333372682050415e-02 6.2290273917962283e-02 1.5907540784199318e-03 2.1491394664684471e-02 -8.3523899776281919e-03 5.0954720122251405e-02 7.2721313636033734e-03 2.9842033803509901e-02 -7.8411129540216506e-03 -4.8018914956988873e-02 8.1513747191993335e-01 1.1382009233293133e-02 5.6076914043855577e-03 -1.4993377302729406e-02 3.2353540472072187e-02 9.8261091909760206e-02 -6.1339257686266579e-01 8.3501467263370058e-02 -4.7081362169134139e-02 -9.0667381205304532e-03 -1.6938079268553138e-01 -2.1236644645972920e-03 -4.4278672159484389e-02 5.7045906673483873e-03 3.8945074574025747e-02 -4.2547132744587962e-04 -3.9735783658960203e-02 7.6685418610888756e-03 -7.9380888693785623e-02 
      </Row>
      <Row Index="21">
        8.0237143191099532e-04 -1.0958713786311192e-02 -8.5436889711896474e-02 -8.5054560611860733e-03 5.9165827503073157e-02 1.1243160597824436e-02 -6.2898330912131151e-04 -1.3215864057694499e-01 3.0137043250829259e-02 1.0232642227379456e-02 1.7476004790797689e-05 -1.9848766847708646e-03 -9.8973434850934891e-04 -1.3498820385558977e-02 6.3932179953961549e-04 -5.1376306498938044e-03 -1.6745575170936625e-03 -1.0132245091894546e-02 1.4285452594417789e-03 1.1736611190187873e-03 4.3968748991843609e-03 3.1911911757856887e-01 5.1025812319610408e-03 6.5594373342513284e-03 1.1896856762353769e-02 -1.2237632018134428e-03 7.6349213470472931e-03 7.9976300569158831e-02 1.7078472444484651e-02 6.4032575072776182e-03 -3.8879538030541783e-03 4.2849527791328605e-03 -4.0607581021244021e-03 -5.0320960066879434e-04 1.3618828455701164e-02 2.6627634584541434e-03 1.0258561408409764e-02 6.2263428251852129e-03 1.9994706727392519e-02 -9.1813762402628285e-03 3.2525553294056775e-01 2.0231616034846935e-02 -6.0106782123966744e-02 3.5720960856447516e-03 -8.5701511458481378e-04 -9.1544225875616475e-04 8.7672637237234827e-02 -2.1579755935236785e-03 -4.8522638318837042e-03 5.0967641713982603e-03 4.8223011535518962e-03 -9.5279123007549257e-03 5.7179102490616321e-03 -7.0028501354369756e-04 -2.8962049523617583e-03 -2.8834277496400575e-02 1.6200474981191478e-03 4.2057513397393276e-03 -2.2956241426587594e-02 -1.0838354766233174e-01 -3.2095714628484610e-03 -1.3208428759173493e-01 -1.9391878580242421e-03 4.5844798775303980e-04 -1.0291348243874632e-01 -5.0264602078839232e-02 -1.8677678154055456e-02 3.0852657077164703e-03 5.8279585828629214e-03 -6.9884337329702527e-03 1.9354965278620871e-02 3.9791917393714460e-03 -8.1394565292913224e-03 -3.6440358420636795e-03 6.0216718647982947e-03 1.5345648068849638e-03 5.6593047215730240e-03 -7.8263803922274094e-05 4.3929512361441728e-02 3.7564405881077203e-03 1.9377937302581416e-02 1.5864546497701792e-03 1.0322277404037163e-03 -1.0330797937761038e-02 3.5970561953672542e-02 8.4742612464078545e-03 -1.6329907183619749e-03 8.1545741586503242e-04 3.1913005287342356e-04 4.8948104751722595e-03 1.2104602645572641e-03 9.2707759756644088e-04 5.9309621420457551e-04 -1.5444671609538430e-03 -8.0948971421436608e-04 -3.8512289958696293e-03 3.6870083615453478e-03 -6.3769132332763242e-03 1.3401118069755824e-03 -6.2141120361218272e-02 -9.5530727984218921e-04 2.8996410037326146e-03 -3.5599924385595469e-03 -7.0777754226367381e-02 9.2489224021187373e-03 3.2615132731975468e-03 2.8909894948300238e-03 8.2075990061191047e-04 7.1248303159626731e-03 2.8736946172854883e-03 -3.0441454394543226e-03 1.8955436265090200e-03 3.7591887687716237e-03 -3.7142598066672371e-03 6.2967034550646030e-03 2.5514667609553062e-03 6.3490683207008652e-02 4.5845211484577732e-03 -1.1276612929710097e-02 -2.6512540032402059e-03 1.0704122191645092e-04 -2.3131476149639996e-02 3.9629967108995454e-02 -5.7490276252581147e-03 1.0677847538198702e-03 2.8855350856558758e-04 -1.5297727785843367e-03 2.6026582237613166e-03 -3.7135971279114596e-04 5.3879058543218816e-03 -6.8058142005753041e-04 2.5384507464251454e-02 -3.3118380300139203e-04 -2.8650226924590593e-03 2.6841515952250221e-03 1.4037476178522194e-03 -4.3728800942379056e-05 5.4461403453318191e-03 -7.7852175501986055e-04 -3.7140992581915166e-04 2.7489244688856870e-03 -5.9835640335858687e-03 1.7844167911938605e-04 -3.9429420798312774e-04 -4.7919893087383728e-04 -1.0534362797074855e-03 -1.0953410627609866e-03 -3.0664206670460319e-04 1.8030354293851933e-03 -6.4346828769497690e-04 9.6231721373862453e-04 1.5970877232657698e-04 -4.3069435948951754e-03 -9.7256249222750848e-03 1.1424097436780832e-01 7.5531962973004359e-03 1.5994860073289006e-02 1.6499454713556146e-03 -2.7109995658162344e-04 4.9175962021033637e-02 6.3071243046324568e-02 -6.9922416551428494e-03 -5.6934166113655552e-03 1.9552958592498096e-05 7.2307295861611248e-03 1.3178758293847985e-02 1.5884395255055016e-03 5.2120682356612529e-03 -3.0016795870916723e-04 -1.1175497617566419e-02 3.5259720842156740e-04 2.8752579697345904e-03 5.7123696771352820e-03 -5.5992477904526224e-02 -5.3786664413745487e-04 9.2964742742091960e-03 5.6585594039331236e-05 5.0481658100572199e-04 3.1613431672360602e-02 -4.1100205081694860e-02 3.3943600833219595e-03 -1.3935283733328358e-05 -1.0167642838107786e-03 -8.8741265476678655e-05 -4.5356847697471982e-05 -2.2768358307256290e-04 -7.9463527814050902e-04 -6.7028882110274201e-04 9.9713091510250824e-04 -1.6396607555083931e-03 -2.3456833024057839e-03 -4.8603093724769271e-03 -4.9650782522937517e-02 -1.4834371677893417e-03 -1.7456375881822011e-02 -1.5969130720905114e-03 1.6361474017809711e-04 -6.3731178912301178e-02 2.4613030429035047e-03 -1.8095711757978336e-03 -1.7083243414525195e-03 6.9483745591226022e-04 6.9624283370079039e-05 4.2428148825460130e-03 2.3693356501573926e-04 -4.1582862585766217e-04 3.3874732582805066e-04 -1.9357771361713048e-03 -7.1336778336870716e-04 -2.1862042728779334e-02 3.9029853852968463e-02 4.7841841747163959e-02 -1.0565501690070757e-02 2.3253873583548620e-02 -7.9647787435799637e-03 -1.0324297364962102e-02 -6.3785756139344438e-02 -5.3757638582789752e-04 -4.8429071306831654e-02 -2.2902273098278627e-03 -1.0702013564306889e-02 -2.2694435426241069e-02 -4.2941488945828929e-02 -5.4363752878366029e-03 1.4568594842644389e-03 -9.0595961155818840e-03 3.5906061517575673e-02 8.9934845252212167e-04 -5.4923154661502244e-02 3.1628019012551745e-02 5.5855756642891530e-01 -4.1696932148904652e-03 1.2232097298035670e-01 -3.2087189632136096e-02 1.1393028123844018e-02 -2.7776495587780470e-01 1.1247225696287147e-01 5.5736524863796898e-02 -1.7932071317420899e-02 1.1283268113343183e-02 2.8889980387506800e-03 8.2447405255616196e-02 -9.1440859156459858e-03 -1.0823533205613117e-02 1.2907511484693834e-02 -8.0774717366400614e-02 1.0764212283742858e-03 -2.4706535304247759e-01 
      </Row>
      <Row Index="22">
        3.7056091937773386e-04 -3.3795736168882283e-03 -1.6147399502018486e-02 1.4697302676522948e-02 1.6416694556600848e-02 7.8609863829140428e-03 -4.2331017935514845e-04 -9.7822339806259949e-03 1.0980630068542484e-02 -3.1956672321180888e-03 2.3167292570896473e-03 1.7237343359250540e-04 -8.7149326501615712e-04 -1.8420454362895371e-03 -5.7897468953132386e-04 -1.3483807146348354e-03 -2.0114865296442554e-04 -2.0047254024240565e-04 7.7787162321158658e-04 2.5581025966681130e-03 -2.3635239681686375e-03 5.1025812319555539e-03 4.6075673803249187e-02 8.3181755694484751e-03 3.3834063906810702e-03 9.2928453033074530e-04 -2.1582887076218304e-03 7.0735602073862675e-03 -4.1971035806070284e-03 5.5834226476125012e-04 1.4505356064862321e-03 -2.6646351844420288e-03 -7.8270818469904947e-04 -1.1193296487015504e-04 -2.3355586370740894e-03 -6.1956170822874673e-04 1.3685968020422760e-03 -1.0515407023414022e-03 -7.4470667584149832e-03 -8.8681681024277426e-04 2.0813653659131619e-02 2.0278558167870886e-02 -4.9438224691774252e-02 -1.1628793693118800e-03 7.2980156022174440e-04 -1.9866776948082795e-03 -3.0320116932567925e-03 1.0976607757009399e-02 5.0813458656878349e-04 1.0016288082066900e-03 1.6320079882729804e-03 -4.4357218808030599e-03 -3.4504573702683924e-03 -6.7823487346021505e-03 2.7442692649021772e-03 -1.2923430200719030e-04 -5.4497384517281020e-03 -2.5634002479110463e-03 -5.1212604493720958e-03 -5.4390067466522640e-03 -7.4758712868149618e-03 -9.3369937339268776e-03 4.5734478368992153e-03 1.1552641227185437e-03 -1.9988718114674064e-03 -4.1573718842464955e-03 -2.2022803210565798e-03 3.2139831043440613e-04 2.5117442254917769e-03 -3.9945767999779429e-03 9.0107750493384001e-03 2.8140056667528418e-04 -6.1023159531145982e-03 4.7237056615053222e-04 -8.0089751303600316e-03 -3.6096244166738661e-03 -2.4582554367318099e-03 -9.7691002725859566e-04 5.0556393921857845e-03 2.3898520330092885e-03 -5.2128596493362586e-03 6.8110078439478417e-04 9.7881045628617691e-04 -1.5266549539076912e-03 -1.4126787919485281e-03 7.6259045169678442e-04 -1.2543073028362800e-04 -2.2972839914193414e-04 4.3466822435922568e-05 1.5740226399187443e-04 -6.3418430813618550e-04 2.9325907981257618e-03 -3.1396386508148150e-04 3.7090573546898005e-03 -4.2487799322044788e-04 -1.8625494948973000e-03 8.2801403073240465e-04 4.8023803239334297e-03 1.0705157704146186e-03 -3.2436456502341005e-02 -1.8651055002509763e-04 2.5196275565331845e-03 2.7290161848787017e-04 6.3524199818043407e-03 -2.2517715841661725e-03 1.0511259591019411e-03 -2.3221158877699077e-04 2.1674208588931291e-03 8.8909230848771472e-04 -5.4841188487198857e-04 2.1635722523851830e-03 -1.5846222450447509e-03 1.2022513287775097e-03 -1.2878666953720485e-04 -5.2450635453809378e-03 -1.6135893596773837e-03 3.1225313743674390e-03 1.9791849610601344e-03 -1.3642812897416536e-03 -1.0416087567682751e-03 -1.3045446371517770e-04 -2.5614744502746884e-03 -9.4738087135473308e-03 1.5096347335719785e-03 -1.7046332058573940e-03 1.3140379850064689e-04 8.0229456798326638e-04 -1.4383521524295264e-03 -3.5328499763411035e-04 1.0526818102699368e-05 -4.4992878938958521e-04 8.3309647583214626e-03 -3.9321369515848848e-03 -1.2961163771324377e-04 9.0213565084859169e-04 -3.3278275953877693e-04 -4.4040643213156270e-04 -2.1940122313084277e-03 4.3387215405017986e-04 8.7547921567080671e-05 5.6456456153405193e-04 2.3130403694616416e-03 8.3017727068346813e-04 1.0550946260916869e-04 1.5614032531629032e-04 4.0354667791775965e-04 2.7415863192468330e-04 1.4885143442989991e-04 -4.2860689938756203e-04 -8.2622164792471955e-05 1.2891577157870258e-04 2.9338736004556865e-04 -3.4902962516464610e-03 8.1094285441165540e-04 6.6479609443754473e-03 9.0418336006060952e-03 -8.8698187361274869e-03 -1.5804569545467991e-03 1.8725891822475040e-04 3.7035570127885910e-03 -1.1776064314418969e-02 5.1828958553818590e-03 -2.9929438841922893e-04 -1.0226214140104549e-03 2.8809149219293090e-03 4.3372251080380474e-03 -8.3451305769023968e-04 1.0873604159115455e-02 1.9119361980106733e-04 3.5914954824529137e-03 -1.3788847645117308e-03 1.4221252639022852e-03 -5.2257994707517047e-04 -6.3878820379817403e-04 -3.3868945347609405e-03 -7.1753797931239233e-06 8.1675821533108359e-04 4.7227379738343581e-05 5.7843409848300914e-04 1.9766024834708129e-04 -2.4180484834083251e-04 1.0102511139080633e-03 -3.0290663433395074e-04 -4.6734570526753699e-03 -1.9786943717597753e-04 -6.9607701477269676e-05 1.3652511047779724e-03 5.1485733999571612e-05 6.3854617137343111e-04 5.5636054274397877e-04 -5.3986125630540310e-04 -4.9528942480255890e-04 -3.7740942907334750e-03 -3.2115198285929745e-03 1.5449415942595578e-03 -5.4410715421112938e-04 5.5519182550646485e-04 -3.6445324207700462e-03 -2.7505331736482831e-03 3.2553876177225018e-03 -6.7555820980683210e-04 -8.3318193833881133e-05 3.6896835235189962e-04 2.5606750699249119e-03 -6.2826816150494632e-04 -1.5560792833883130e-03 -8.8161162433611116e-04 -1.9942563762509087e-03 2.5969585898187992e-03 1.3460594575467244e-02 -2.1824406091290674e-03 -9.0143347970494583e-03 -4.8341841147480885e-02 6.3202883868343523e-02 6.6331366467363316e-03 -1.0126296070654699e-02 -1.4836609565385973e-02 1.8395514814971710e-02 1.4108880474774021e-02 -1.8393898358278352e-03 -5.4493496554012394e-04 -5.9317977201506153e-03 -2.8138683943211354e-03 -5.9315083917022059e-04 -1.4251913478010053e-02 -2.0113112721222882e-04 1.1111198885822172e-03 5.6830975276274398e-03 4.2312678435502812e-03 5.5961046513900159e-03 4.5492048396767321e-02 2.3596798339750938e-02 5.4432266843103802e-02 -2.6450184764909158e-02 1.1703061016697901e-02 -2.3896695103786204e-02 -2.7710977061564484e-02 -2.5182348763532567e-02 -7.8269351454182470e-03 1.0023000053302217e-03 -1.9572158921927419e-02 2.6277311454922146e-02 4.7202173555952413e-03 -1.2289303286434539e-02 -6.4191142534031354e-03 -3.0453047876543765e-02 -1.8367212525952512e-02 1.0679765736571799e-02 
      </Row>
      <Row Index="23">
        9.2684922994968385e-03 -2.3192716730526086e-02 -6.5052304637022579e-03 -5.2245696978945868e-03 -1.6972426702813279e-01 -6.4555743990370798e-03 6.9768195585717674e-03 -1.6848828142192074e-02 1.0704379490134398e-01 4.4165035738344190e-02 -2.9520272433733530e-03 -7.1998321116519340e-04 -4.2492565726503194e-03 4.0697164364517265e-03 4.7266029169975264e-03 -2.8525439110996254e-04 4.2414629837835525e-03 3.2868007319180603e-03 1.2825224586040750e-02 9.5657363004872376e-03 -2.4353773009642976e-03 6.5594373343402235e-03 8.3181755694569232e-03 7.7183320062354388e-01 -9.6932038663997827e-03 1.4056378388167950e-02 7.4797836931372041e-03 -6.0140236620256193e-02 5.8386701053202553e-02 6.5071602052920036e-03 -2.6696119867715140e-03 1.5158019380684478e-03 7.1003649823566661e-03 1.1881640571991293e-03 3.3719850730600243e-03 1.7645521054600677e-03 3.5165558064818667e-03 -2.8036774011742583e-02 2.2909352815936302e-02 9.2519243776068016e-04 3.5900613525104874e-02 -2.3757688240587334e-02 6.8602417474045052e-01 -1.0126958619425846e-02 -1.0443907111515785e-02 3.1836307253420508e-02 1.1150894620290039e-01 -2.5740574637324837e-02 -6.4400578075588860e-03 -1.3552491856498788e-02 1.5310177662277318e-02 1.5875449973138299e-02 -6.2527432735625457e-03 2.1445561440520244e-03 1.4647297900180267e-02 -7.5598822621397591e-03 -2.3103034922407090e-02 -1.0929585389995999e-03 -7.5732114985310774e-03 -7.6254263569705549e-05 2.0472308671785011e-02 4.4219461758161199e-01 -3.9323084077907047e-03 -1.0415352290407597e-02 -1.1044456334888597e-02 1.8892732269002721e-01 -1.2461523695169372e-02 -4.0950172442162959e-03 -2.2410124309436751e-02 8.1336397771355276e-03 -1.5242691689247891e-02 1.7852745468418529e-03 5.8350342181294479e-03 5.6336566134777971e-03 -6.6076188090922472e-03 -3.0120480420823659e-02 7.0939807358194606e-03 -2.9862067046184070e-03 7.0915913799119261e-03 -5.6294670558010894e-03 -7.8474324608391363e-02 9.2244314453809786e-05 -1.1395553562438536e-02 5.7604779864099953e-03 6.6357724931586981e-02 8.8702104228768099e-03 -1.3264641429034682e-03 -3.8518608692828405e-03 -5.3650834464123096e-03 -3.9706697422594037e-03 1.8346318600985067e-03 -1.1948630838700663e-03 -1.8217524223416472e-04 -6.1000474785319458e-03 1.0545277669040017e-04 -1.6487119239310767e-02 3.0896644071773449e-02 2.0284374081874786e-02 -1.4485141555467967e-02 2.7860554015999373e-01 -1.0572026181988629e-02 -2.7744971358420415e-02 3.4899590863622848e-02 -9.9677069194061593e-02 6.6576927878160982e-02 -2.7412080393252637e-03 5.9104612461035903e-03 1.8591854615149568e-02 1.1346367004208964e-02 2.6911435244263890e-03 -1.7435770169016006e-02 -2.0394670395169727e-03 -1.8405637071671828e-03 1.8500871305848959e-02 2.9241899081608156e-02 -6.6045438782912453e-03 1.0541067128042939e-03 1.1665015966023456e-02 5.5916841439205507e-02 3.5584153754587896e-03 -4.7162276966260762e-04 -7.5560239604639812e-03 1.1279770193331043e-01 -3.5749183397079970e-02 4.7488458090312810e-03 1.3407326887726057e-03 -9.3485016530600214e-03 -5.1072251940570360e-03 -6.6964544254029951e-05 1.4952858071758390e-03 3.0801908189371022e-03 -9.4438033294001310e-03 -2.6524554698000843e-02 -4.3239605857611600e-03 2.6263621599981178e-03 1.8663535221703934e-03 -1.1503287143109298e-03 -5.5759522945759456e-03 1.1516433355581888e-04 -9.7592726231138813e-04 5.2118688172188097e-03 -4.5930031398300581e-03 1.3586311785041207e-03 -3.4483832317293208e-04 -8.4130236241740158e-04 -2.3427162188200111e-03 -2.5789172675894250e-03 -1.6099911256220619e-04 2.1096293552568474e-03 -1.2461185919283467e-03 -7.4665543554167557e-04 -7.8551332700937785e-04 -1.0814873064944375e-02 -1.1822070228656556e-02 7.1194771222413879e-03 -2.3384682993465144e-03 5.8423331482982364e-03 -2.0522943714556749e-03 -5.0419118501140239e-03 6.7128488178313517e-03 1.1168289590197339e-01 -4.8757587256821083e-02 -2.9871833842536177e-03 -1.6718164478004356e-03 -1.1426390031130931e-03 -9.8100067016035682e-03 1.4000611214057841e-03 -4.0161192766244927e-03 -1.5473097578667053e-03 -4.1990539592511216e-03 -1.0470759420819400e-02 -2.5815852408883622e-04 6.2719858912988515e-03 -1.6190497465529696e-03 2.7690013940530334e-04 -6.8695578060429141e-02 9.9890280292102337e-04 -2.6698613353596246e-03 3.1028305482911078e-03 -5.8215626353770283e-02 5.6137274253927017e-03 2.8242572652585280e-03 4.1471109460941291e-03 1.8940198317133825e-04 -2.8427194007650258e-03 6.0905822146299811e-04 1.0418137079144935e-03 1.1046482359623527e-03 6.7141352495541104e-03 5.9439847612000885e-03 6.6645939994958610e-03 -2.4012106947590775e-03 -3.0223400253032010e-03 2.1064306725365207e-03 -3.0656433935464640e-02 4.9202472661422081e-04 -6.7614900244440564e-03 -7.2384007673352568e-04 7.0662821656362951e-02 -2.1474243604786485e-02 3.3278146884289364e-04 -1.7584880390690127e-03 1.2592803861269210e-03 4.7946443235748551e-05 1.6812625597691193e-03 -2.8835294750133387e-04 -1.5062654080364288e-03 1.9221033779202742e-03 1.3706865991815739e-02 3.0509126670809340e-02 -5.4844296748259018e-02 1.6997469540127694e-02 4.9639605749942646e-02 -5.6336464937755926e-01 3.5035059742582905e-02 9.5038153215751806e-02 -5.8755342513268437e-02 1.2279830463031596e-01 -2.0338563511402186e-01 3.7753082035322195e-03 1.8979285305644022e-02 -4.1397149057174967e-02 5.5095376272588890e-03 1.6063822502960748e-02 3.1156316374165188e-02 1.4560716584269938e-02 -7.0252943324963825e-03 -1.6705932697026315e-02 -8.8739564960262210e-02 1.0407023374121138e-02 1.2689751529772225e-02 -5.6851515015598555e-02 -7.0411327274213131e-01 2.5466277124217535e-02 -1.0837300532208410e-01 -2.6742557509503530e-02 3.9004804099508139e-01 2.8352424748939276e-01 5.6777009877573580e-02 -1.0036937086077043e-01 3.6155059858154447e-03 -8.0534392466882543e-02 -1.8588343236339289e-03 2.3678348331201207e-03 -1.0340844212514660e-02 2.6040751229737535e-02 -1.0581304243766373e-01 2.0690693589975717e-01 
      </Row>
      <Row Index="24">
        8.5282302968310141e-03 7.9126634819719766e-03 -1.0315215312560190e-02 -1.2376697308611184e-02 -1.7120501338270193e-02 7.2311638296866598e-02 1.0138285045818499e-03 -2.3493769043951840e-03 -1.4044882598347873e-02 1.0310656890078667e-02 -3.3991208428573186e-02 1.9795399365550833e-03 -2.4115487649884150e-03 -4.2518607178274031e-03 4.9497688212151586e-04 -4.9723737140359471e-04 5.5953245166623171e-04 5.7683208156854363e-03 -2.4779694369797896e-03 5.5485988292362474e-03 -2.6967680830757498e-03 1.1896856762344171e-02 3.3834063906784768e-03 -9.6932038664347443e-03 6.5754336266533611e-02 -4.6792692428517619e-04 -2.2446224847035567e-03 -1.1196276407037041e-02 1.4469000133533590e-02 -2.2024406497100999e-02 2.7748604165159230e-04 5.1345415428330323e-03 -3.8743380552718623e-03 -8.8908643702755030e-04 5.9099052735677726e-03 -1.0098288507259753e-03 1.8063392284348554e-03 2.5968424006817333e-03 9.8337841757445378e-04 1.5063516532689558e-03 2.0128898314802968e-02 -8.2706929343995123e-03 5.6626422546416297e-03 1.7163409335758439e-02 2.7436963033305312e-04 -3.8065953425029317e-03 2.7696602922244740e-04 -2.7364662452720276e-02 -3.4437401134380270e-03 3.8388548892487537e-03 -3.6734158132619328e-03 -9.8884772163118466e-04 -2.0253783836221839e-03 -3.8359594811665648e-03 2.0060348377038406e-03 -9.9287376347508005e-04 3.4817785534700125e-03 -2.2447972764642055e-03 7.4978442494244464e-03 -1.5608621201436395e-03 3.1049906565767268e-02 8.9243811960212343e-03 4.0429317839832599e-03 7.5921623785342451e-05 -3.0126562264450873e-03 1.2298256365281181e-02 -1.4391518873249586e-02 -3.4570112218956176e-03 3.8599409651475570e-03 6.9801708841145289e-03 1.2591171845618022e-02 -1.7878901626253718e-03 5.3562460909496179e-03 4.1491185958149324e-05 7.4512238494915325e-04 4.3658495354163759e-03 2.5355928360733682e-03 3.9126646799701173e-04 1.4566644979223040e-03 -5.1094413173558319e-03 -2.1753850449143636e-03 7.9756833456684408e-03 2.6428721707112291e-03 -4.0138752637089159e-03 -1.4565609573369553e-03 3.5313737268627653e-03 -1.2364202006124913e-03 8.3758371226907058e-04 -2.3345675041389637e-03 1.6270471009137469e-03 5.9561822890500662e-05 4.9166874568040437e-04 -8.7593253596644999e-04 2.1768100899169471e-04 -3.0587136180609885e-04 2.4675299569236137e-03 -6.9710656567195488e-04 3.1669091163899050e-03 4.5973649686113018e-04 -3.6537804462368735e-03 -5.8125872788764620e-03 7.4894936993821328e-03 -1.8987989339098428e-03 -3.7869013493330883e-02 1.1402958014817804e-02 1.5952555420039262e-03 1.5148015780213412e-03 -5.9825098735168253e-03 -3.6193952984487380e-03 -1.8241487215825712e-04 -4.9684008593068284e-04 -1.6710721212842145e-03 -1.9602240280004127e-04 -1.1893909586678094e-03 2.5620875101721556e-03 3.0080235702379722e-03 3.3413617498930541e-03 7.8892021617316017e-03 1.9262817558684023e-03 -6.3454237141320731e-03 -1.5742400859217872e-03 -3.1337906443130829e-03 1.9204497213822232e-02 -5.2459978680092761e-03 9.4623083969237898e-03 -5.7566841067908871e-04 -7.9058989768495003e-03 2.5139128219301950e-03 -4.0273288924074191e-04 9.9475540377627104e-04 1.5564232111757776e-04 4.5346830924852170e-04 4.2156947960615377e-03 -7.7026708627343755e-04 3.3194078405326152e-04 -2.9342774923419896e-04 1.8143504040878922e-04 5.7793301751000298e-04 -8.0029400846679639e-04 -1.2903748905206198e-04 -7.9677202978921434e-05 -8.3756514195248294e-04 1.4937492602890430e-04 2.4845040420800230e-04 1.1061007888131630e-04 -3.4971318968973742e-04 1.6736171697838756e-04 -5.6013514172952811e-05 3.8998758243338012e-04 8.8273679031841118e-05 -2.1162330002687593e-04 5.0217195235244608e-05 8.6324696130988879e-03 6.3607928326127610e-04 3.8420564443255268e-03 -6.9942863967380267e-03 -4.0261381241858745e-03 1.7857224444560706e-02 -8.0015929538620220e-04 -3.1981536102578881e-03 1.1172596243070931e-02 -1.4590206970522771e-02 -6.2979704987303495e-03 7.4655026967654511e-04 -8.4603584669206700e-03 7.3280499864733844e-03 -1.8481323766675811e-05 1.4068799546845673e-03 1.2062984611521930e-03 -5.6367547423849160e-04 1.9454214311612266e-03 -1.3701690011982820e-03 -3.6262853520689208e-04 -3.9119937416639272e-03 -3.9482515322753972e-03 2.2411807113256075e-03 -9.8099422542576673e-03 1.0329323084204197e-03 -1.0813920099138619e-03 -1.4936774277109436e-03 5.6227208289037637e-03 8.0209990002330055e-03 -8.7076938529084477e-04 1.9148328718633395e-02 2.1314005783188480e-04 -4.3902821612987105e-04 -8.9634667256388763e-04 -9.4536505422846903e-05 -9.4152567472350224e-04 -2.5169357508764631e-03 -4.6165337930582776e-04 3.4167630754481908e-03 -1.9400391785961012e-03 -1.2379274761749400e-03 -5.7619818372379181e-03 -7.2288230018928944e-04 8.7507315045124313e-04 -1.2091579564993803e-03 9.7067779700857476e-03 -4.8815719180930568e-03 1.9167012099394060e-03 4.0792775817926469e-04 -1.6057921609006185e-03 4.8559259488711471e-03 -5.9862297062188228e-04 -1.1897631066678860e-03 -6.2646374141361394e-04 1.5366769827697250e-05 -2.8828903340813541e-03 -7.0227471411215036e-03 1.4736088041705658e-02 -4.2370467979519818e-03 3.7393829133663424e-02 -1.4065349870171488e-02 -4.8805280491032714e-02 -2.4659349020562174e-02 1.7061793517389031e-03 1.9345670374573219e-02 -5.0861452408177063e-02 -6.2961535586815207e-02 -5.4985979726002287e-03 3.3472830381484791e-03 -5.5192673535337964e-04 -1.7654205774647136e-03 -1.1959582973924063e-03 4.6865603682087493e-05 5.1205245823487079e-03 -5.4139680092270851e-03 2.6896205866872684e-03 -1.7182132857996343e-02 3.8384633134639835e-02 -7.8424806594955973e-02 -7.7815903548194981e-03 -2.3338150321856693e-01 2.7051228648618780e-02 3.0647282784749021e-03 5.6773652627034890e-02 7.7535793415313969e-02 1.3122103852632896e-01 1.7612985226917611e-02 5.7734451749253367e-02 5.3501714381789564e-02 4.7713874522654527e-03 -9.4681523591828368e-03 -4.6256334503739227e-03 -5.2530531467084793e-03 2.1420443888849464e-02 -6.0241672966623555e-02 
      </Row>
      <Row Index="25">
        -5.5543081970344660e-04 -1.2674525744153786e-05 2.4522362215353326e-05 -1.3991857581247716e-03 -8.7438199757412121e-04 -5.2360827303435929e-04 1.5262662964631813e-03 -1.2739827343124857e-03 1.1014765122104048e-03 2.8777117306188669e-03 -1.3710144632449624e-03 -9.2834224699568494e-05 -2.3024019292136751e-05 -1.0680011612255701e-03 -1.8819768323975319e-04 -8.4147989656456652e-04 1.1014673680839651e-04 -1.8657505356627600e-04 -4.2327898273484144e-04 3.1575757405130026e-03 -2.4064318786174398e-03 -1.2237632018124930e-03 9.2928453033085676e-04 1.4056378388165201e-02 -4.6792692428115749e-04 8.5480942944781077e-03 -4.2552993762078918e-04 6.9823374647479744e-03 1.9056971281413808e-03 -2.2567906636902953e-04 9.0671656812438273e-04 4.5232390519936937e-04 -9.1767656727652640e-04 -1.7082077404915429e-03 2.6475554972685278e-03 -9.8888778501505592e-04 -9.6703896679981071e-04 -3.5037131752737910e-04 6.1015126016697669e-04 4.7141124891875164e-05 3.8642846561615096e-04 1.7206821044283454e-04 7.0021024355244148e-03 -5.2454184060179488e-04 3.6614108816365092e-04 9.1976235643055279e-04 3.6641322740185666e-03 -2.8979245309567738e-03 -1.6070265484402716e-04 -5.4334324369059370e-04 -4.1536113845846951e-04 -4.8692063993764005e-04 -3.1085098872466821e-03 -1.7381962892922781e-03 2.1918952415197063e-03 -1.5431787251620626e-04 7.2250827612613212e-04 1.8007410404780322e-03 4.6060931335870634e-04 7.1558978877326912e-04 1.1864477703684344e-03 8.5124720704557524e-03 -4.9720671780393850e-04 -1.8032543504423143e-03 3.8065793321509500e-04 6.4808670666579842e-03 -8.1417465092194165e-04 -8.4392498380418928e-04 -9.0605304263193139e-04 -6.8816506819204188e-04 2.4498264940981699e-03 -2.4522123919348826e-03 1.2196046557476038e-03 1.0010966991587668e-03 -9.2669329710572037e-04 6.2769644117652984e-04 4.3753100739221847e-03 1.1135484278952442e-03 1.2425720073256995e-03 4.0401220143799609e-04 2.1629544926826971e-03 -4.0868085266034752e-04 -3.0959739401280792e-03 1.2791156884379758e-03 -6.2832216684857722e-04 -4.3222515879237709e-04 -9.6242691894065594e-04 -3.5548347688278930e-04 -1.6762870277427209e-03 -1.1112536634374890e-03 -3.9515950052856815e-04 -1.0725837887155237e-03 -4.1697421220476328e-04 -1.0672692983673365e-03 -1.3540069312963145e-04 4.9716926006017192e-03 2.1833129865692275e-03 1.3308138124208807e-03 1.0724444477810478e-03 2.6432369898187267e-03 -1.0288791474305674e-03 -1.0521977747537631e-02 1.9256292273851265e-03 5.8167977419269178e-03 1.2120053034143940e-03 -1.2115201879144893e-03 -1.5585382573123682e-04 -2.1517672275881022e-03 -1.3745293423336560e-03 -7.3412684838919146e-04 -1.0765473426905562e-03 -1.8572325798753547e-03 -1.9268298723798907e-03 -7.4194428459062301e-04 1.3305396824772151e-03 3.2252650566084052e-05 1.0629234493867313e-05 2.4947391488179993e-04 2.9558691026946898e-03 1.8521728181462296e-04 1.2002835443412868e-03 -1.6519292010654801e-05 -1.8480504197757857e-03 -9.5061416590778612e-04 5.1172348185435953e-04 1.0213639579371026e-04 1.6358519836221831e-04 5.0758864434306285e-04 -9.5862711996017426e-05 7.6745819541566580e-04 -4.6542659961381228e-05 -3.9315862647068198e-04 1.0179466186260259e-03 4.8899938412423757e-05 -9.7685319981320057e-05 -1.0313507776397638e-04 1.1930633301866992e-04 1.9006986194359756e-04 1.6427082102820918e-05 3.0395191096262156e-05 8.3050309432258014e-05 5.1150702092748719e-04 -6.1757167336897091e-05 6.3311143397055695e-05 -2.5631347378321542e-06 2.1046213381386712e-05 -6.1194415941945082e-05 -9.8307833791222784e-07 2.2621359908734582e-05 1.2167336912768931e-04 -5.2593801148767338e-05 8.1032422393965920e-05 3.4714325763123021e-04 -5.7729171178708615e-04 -1.1975790317405449e-04 3.0030528879875363e-04 1.5504567033280243e-03 -2.1720694277527517e-04 -8.6888995703273222e-04 1.5592982067994454e-03 2.4928592406819939e-03 -2.0888722682026691e-03 -4.4629950291750939e-04 -1.2064848206494013e-04 6.0635254400571428e-05 1.9007134749088783e-03 -5.0845378487588604e-04 1.1354575467963923e-03 1.7586517756900679e-04 -1.1102266419456351e-04 3.8501244937182405e-04 1.2302170403337906e-03 6.8651753041579569e-04 1.1723271704525140e-04 -3.1084120217767831e-05 -2.1208466365255415e-03 -7.9818464627821190e-05 -1.4022563507575256e-03 3.7098630581094798e-04 -1.8389687811528766e-03 3.2759061804973726e-04 7.9637822727322925e-05 5.9809389947262783e-05 -1.2093663447244902e-03 -6.5372343266948459e-04 9.4781503714236120e-05 2.6437547397718472e-04 -1.7830638730027164e-04 1.9023044156788686e-04 -3.3457187463186572e-04 1.1998303890261878e-03 2.9765139773133172e-04 3.8206110528231038e-04 1.7109219507144123e-04 -1.4481327031792396e-03 2.3051924059451739e-05 -1.7722569830757042e-03 -1.9429605861646742e-04 1.8342767863624037e-03 -7.8850524721156480e-04 -1.9814767350029668e-04 -9.1538741095222682e-05 5.7507100572774057e-05 6.4194491682954911e-04 -5.7571497315585241e-04 -1.5687074393387159e-03 -1.4576664977973969e-03 -3.3491575800714639e-05 -5.0606808659425340e-04 -1.3299153140336323e-02 -2.2431455119303985e-03 -3.5467428217141311e-04 -2.8690914456342867e-03 -1.2966036752853237e-02 1.7492292384644762e-03 3.1299125776794355e-02 -5.5052255654453762e-03 -4.0597390937566350e-03 -2.8880144161336817e-03 -8.0624732079589935e-05 1.0277272937770920e-03 3.4232148350469460e-03 7.9340229652794751e-04 2.1359885126012506e-05 -1.6610957619117711e-03 9.4641842072498705e-04 2.9838378503520844e-03 1.3116620629524149e-03 -5.1444950922526992e-03 -3.1006177499841997e-04 7.0336450334067616e-05 -1.6428386062053400e-03 -6.8590534516411710e-03 1.9477576214053539e-03 -3.0651123238315068e-02 -2.6603887426557421e-03 1.1396314548203857e-03 1.0964991267613047e-02 7.1559752076348453e-03 -2.0125585171346804e-03 -2.5479406609484872e-03 1.0040529292987023e-02 6.0258551264400642e-03 -7.7370586445021676e-03 -8.0322496216651412e-03 1.1291055788125110e-03 4.3494834342165424e-03 2.3288759067354621e-02 
      </Row>
      <Row Index="26">
        -3.0247881800691347e-02 -2.4806655522592813e-02 -1.7625743285966340e-02 -1.7049868859206065e-03 8.1950704352821927e-03 -2.8582790115671396e-03 6.5969458890799415e-05 -1.7463425651438880e-02 3.4685644225159469e-02 -1.4785302643306374e-02 -4.4798006491205810e-03 3.5479938660168582e-03 5.1790954142410649e-04 5.0346309935435409e-03 -1.1794941587505922e-03 4.9868089075281574e-03 -9.1599813785718249e-04 -2.3886349359568543e-03 3.1880470482659492e-03 -1.8889754913813755e-02 7.7714437105357859e-03 7.6349213470852662e-03 -2.1582887076254499e-03 7.4797836932537914e-03 -2.2446224846787116e-03 -4.2552993762003805e-04 1.9986848802278326e-01 3.2456918355122599e-02 -1.0618768607642347e-02 -1.6493825111945429e-03 2.1876651780258216e-03 1.5481487845220997e-03 -1.3368764979014474e-03 -3.0447841358439073e-03 3.4725923373892242e-03 2.1371493980987151e-03 -5.0736504440280234e-03 -1.9938739298830193e-03 4.8798106329612845e-02 5.9917898968280481e-02 -1.3363377821221323e-02 -1.1211721452376228e-02 1.4181466595372411e-02 -4.2784258014301746e-03 -8.3658486424876134e-04 1.5319859054261607e-02 -1.3073207011022523e-02 1.6709388869235869e-02 -4.9638397852109165e-03 -1.9916824317078863e-03 3.8132392476985712e-03 7.4083295448096288e-05 -3.3408738076640167e-03 2.5161201434742448e-03 -6.6086217733642982e-03 -2.6138493293134139e-03 -5.0870007410781203e-03 4.1887793596673273e-03 4.0224848603117688e-02 -1.5122490135979671e-02 3.4340048735473309e-03 -5.3823830208724541e-03 -3.2830166894648374e-04 1.1833133856113363e-03 -5.1852793108947637e-02 2.3421188160586172e-02 -3.2949102623088871e-03 -7.8058589893547411e-04 -7.5657143617568860e-04 -4.0771641885447799e-03 -5.2554501270625871e-03 -3.1208168848150253e-03 5.6451832705186507e-03 -5.9646838510097541e-03 -2.6072190193961332e-03 5.3750622503630219e-04 1.3293397034069600e-03 2.3171347931470296e-03 -6.0735930150763494e-03 -5.4341568885777692e-04 4.4685753393358518e-03 -4.1926497110462177e-04 -2.1644600514776207e-04 -4.5631140590518884e-03 -1.6173200655820730e-03 -2.0134000945278958e-03 -1.4554247366967870e-04 -7.4389614176812607e-04 -3.6287394853420874e-04 -1.1018889767708249e-03 -2.1579198935351825e-04 5.7596561683707968e-04 6.0917120054459117e-04 -1.4160623267779353e-03 -2.1592004326388838e-04 -4.4925221347021371e-03 3.7024982575127457e-03 -4.3644266215546656e-03 4.2867366729814919e-03 1.0399666297440692e-02 2.1222127194502256e-04 -3.5177720211723425e-04 -2.9519140670674418e-02 5.1264450231081928e-03 -7.8407081269988720e-04 3.6633981727106483e-03 -9.4138133573697558e-04 6.9179388167449254e-04 1.2824872167874902e-03 5.3375446995982724e-04 -2.1378225729137262e-03 1.9389356852590636e-03 1.0401063488745027e-03 1.9273955226056095e-03 1.7842206082728129e-02 -1.5296675321186585e-02 -4.2671574332832471e-04 -4.2900172533018675e-03 -5.2447239643464982e-03 4.1938787071797269e-03 -1.6622756969626013e-04 5.1647010438395771e-02 -8.0332452436875730e-04 4.2080861939786985e-04 2.7800031200673671e-03 -1.1807479977494996e-04 7.6196581926830703e-04 -6.5999690230512942e-04 -1.1741363746011761e-03 1.5955766828388593e-03 1.5046949670226911e-03 -4.4217160652206911e-04 -5.1665461372806714e-03 1.4695562786169369e-03 -3.7776112516563895e-03 1.7188000555657503e-03 -9.1771467037197909e-04 -3.9870452888546189e-03 -3.3100439526938491e-05 3.3821363894345619e-05 -5.5456140182609899e-03 8.4275915416899831e-04 -6.0408848990688526e-04 1.9557456840513186e-04 -1.2380036277843351e-04 6.6204321860693070e-04 -5.9117146975307469e-04 -3.0924444845552420e-05 1.5625704553152596e-05 1.3540775615368428e-04 4.9981895403663872e-04 7.2750278070951883e-04 -4.4668860794663881e-03 5.7349510566938405e-02 1.5386061499634719e-03 1.0481918583287232e-03 4.6300124547929995e-03 -7.9624486156617911e-03 1.5636375737114450e-03 -3.8811700560584632e-02 -1.7358059109055340e-02 1.0445202599069229e-02 -4.0766127864524668e-03 2.5725822855658894e-03 -1.0192386061768123e-03 -5.8412350588537172e-03 1.5305183987278171e-03 -5.1406801517362216e-03 -1.8317322545460036e-03 -1.3540487563089669e-03 9.4721362932762346e-04 1.3032277287915464e-02 -4.9680667918197696e-04 7.4757565290041635e-03 2.5127248482617881e-03 1.8088933964122908e-03 3.3629383103217503e-04 -3.8603532875387987e-04 -9.2232537307037100e-03 -1.1083218299610346e-02 -3.1476161980193915e-04 1.1532975407741951e-03 -6.2709796698342743e-04 -4.9744702128819498e-04 1.5331244425557640e-03 -2.4364003082881605e-04 -2.2669407842158436e-03 2.8919952002258095e-04 1.9031858828811280e-03 -7.0955636321342469e-04 -8.7428216787518911e-03 7.9445420511432812e-03 -9.6566111729269738e-03 -1.8534982921481582e-03 3.5370106438228520e-03 2.5966047731351260e-03 1.7968211527067524e-04 -9.0143542881719885e-03 -4.4032320488339542e-03 1.2184716111820950e-03 1.9529240477080786e-03 3.1923522408949349e-03 -4.1134850668614450e-04 5.1634685182233029e-03 -8.4327174470705572e-04 3.4973234130177711e-03 2.4707919976040089e-03 1.0227864242467717e-04 9.3506907774879890e-04 -5.3777157360535885e-02 -9.5149872295347465e-02 -1.4984499802713803e-03 -2.6090134107495857e-02 -2.8912389861958758e-02 2.4827911961884309e-02 -1.3673585668306024e-05 -2.4155973484736755e-02 3.9157752676595103e-02 -1.4101546496384513e-02 -1.2764102783015012e-03 6.1626836498652020e-03 -6.7676157827478104e-04 3.5241777504842572e-02 -9.4462325707827515e-03 1.8222349888261435e-02 2.1707652202992180e-03 2.1368718359816991e-03 -5.6958486490730868e-03 -1.1315878876719694e-01 -1.8916302277669894e-01 -5.5134639863743486e-02 -1.6044433677113515e-02 -1.2205309571240528e-02 2.5837386515657420e-02 2.6064136714261631e-03 1.8198047747075430e-01 -1.0172982125891215e-02 -4.5951677704054159e-02 4.0925990244236474e-02 -2.7189349175427577e-02 1.3184358930676144e-03 -1.6224149145883288e-02 6.3191046287318746e-03 3.1036237547663673e-03 1.1403956796676324e-02 3.6363520577572146e-03 -1.2542548659569918e-02 1.3948981365272875e-01 
      </Row>
      <Row Index="27">
        -1.3490581788401877e-03 -5.1197403144396469e-02 -3.4416323499406064e-02 -1.5575650715773635e-02 1.2301489848318160e-01 -2.0301827756130500e-02 2.1014006037453903e-03 -4.0445833148659460e-02 1.4258595781036892e-01 -1.4486046693279214e-02 -5.9753740260437907e-03 2.0617701880143238e-03 -5.5815911294841460e-03 -1.3521214998914108e-02 4.5881763391586168e-04 -4.3935020773685591e-03 2.4770132152232994e-04 -2.2858543502141115e-03 -1.6902203068850138e-02 -1.6231319958205509e-02 1.3090776479036559e-02 7.9976300569125525e-02 7.0735602074087894e-03 -6.0140236620541507e-02 -1.1196276407058284e-02 6.9823374647450445e-03 3.2456918355108444e-02 6.5861767101643309e-01 9.0767827267069778e-03 4.4140813305150461e-03 -2.9975300998681398e-03 4.5171145636920072e-04 -1.7887133838581371e-02 -2.0777716958904819e-03 -3.3140708147134657e-03 2.5884796880804636e-03 -1.6541428007001299e-02 4.7606612392792694e-03 -4.4131283617017389e-02 -2.1448322204798309e-02 1.0556501280533537e-01 -9.8763311232099148e-03 -3.2165751309013495e-02 4.3448979128214021e-03 1.4676111280477180e-03 6.5109529361851697e-03 3.3355804939254352e-01 1.0867278204493257e-02 8.4163240520255117e-03 3.2510045481193850e-03 8.5199751102724708e-03 2.5898881100875886e-03 -4.8496777967242770e-03 -3.8944365519969701e-03 3.1951061804351699e-03 -3.4287146767081706e-03 2.0681803303103860e-03 -2.5942809849420545e-02 -5.9697589243666541e-02 -4.4615469533572212e-02 3.2481745654117697e-02 -4.5290375272745605e-02 -1.3568845465662198e-03 5.1941066275380879e-03 -4.1336403659615328e-02 -1.0338689256034780e-01 -5.7259317155490975e-03 -1.0725452851809024e-02 1.7048444206916539e-03 -3.7250797013192033e-04 6.2687566981551840e-02 -3.9176286790369996e-03 1.1813346160678556e-03 -3.7403488691048620e-03 -3.0274636792669563e-04 1.3114118927176011e-02 8.8953633363129322e-03 4.3684431237987209e-03 3.0575191524823402e-02 -5.0103449964687078e-03 4.9106444051024725e-02 -3.1722311284071193e-03 -3.6495825395493984e-04 3.1458823077660236e-03 1.0684914391178468e-02 -2.7526995744104523e-03 -3.8492749493881729e-03 -4.2609849232603603e-05 -2.5011314645908668e-03 5.8628677919861363e-03 9.7501838624837825e-04 -3.9372375065439748e-03 -3.9436059540623927e-03 -3.0729351695711442e-03 -1.3983578677233682e-03 -5.1315692987154625e-02 -2.1903420668897711e-02 -6.1588331889626848e-02 -1.8187266596924948e-02 -3.5204933392015497e-02 6.4607181307537479e-03 2.8839033050174550e-03 -2.7079466639548556e-02 -3.5406493014487048e-02 1.2622555431980988e-02 2.2554899876061674e-02 -4.6475345782149907e-05 1.4628590834628620e-02 2.4646375743820836e-02 -3.0674065550922781e-03 1.4930762095077606e-02 -1.6375812276419027e-04 2.3706906549683941e-02 -7.2154028189101030e-03 2.1517665291796752e-03 1.3806494950162692e-02 5.0571883887180924e-02 1.6158769733984602e-02 -2.8724143408681072e-02 4.7127323184944364e-04 7.4646077110841779e-04 1.3008605491990009e-02 9.2776149572468158e-02 -4.1658933877513835e-03 -1.1205583730585705e-02 -3.7672458659957810e-04 -1.1575725554291870e-02 -1.9885923676285101e-03 -1.2514309322602746e-03 -4.6241593227008765e-03 -1.9715653219203317e-03 -1.6994636532683724e-02 1.5186583439795053e-02 -9.9872253938861175e-04 6.4980504982773595e-04 -1.6581076137232600e-03 1.1340580466304845e-03 1.5938217969152424e-03 1.7710817216865161e-04 -9.0770897783334329e-05 -1.7988090298505011e-03 -8.1848915885171878e-03 3.6332848214251927e-04 3.6358574915535405e-04 5.3089767457170645e-04 3.3386557918474403e-04 2.9236728958171093e-03 4.2589044527125948e-04 -2.0982511718509048e-04 6.7283112555659706e-04 -2.9026057425865189e-04 5.7787434516908323e-04 6.5290110716906338e-02 2.3979035910112294e-03 8.2511924502183392e-02 -1.0833096783587336e-02 3.3270725683612445e-02 -8.9490893282140448e-03 2.1464402134489875e-03 3.5952287103456701e-02 3.3385279885871109e-02 -6.0276652531355487e-03 -1.4035392302490894e-02 -1.2409199800332679e-03 -1.2738694044707392e-02 1.9976512916660607e-02 4.4225037797325697e-03 -3.5413551588997054e-03 -2.3451370129006421e-03 -2.0425132122578252e-02 1.3977751650189765e-02 -1.5305921802739014e-02 7.3919231395547236e-03 -3.5491921912323324e-02 -6.9566879266979159e-03 -1.1659655165270746e-02 1.4451525016989653e-04 -2.7174585205002912e-03 4.2115382939656582e-04 -7.0389116957903675e-02 6.8552322975277413e-03 4.7009318773108943e-03 -5.3026426442183763e-04 1.5525550052677223e-02 7.0386091436510714e-03 -5.9726946821466072e-04 6.8475813977158032e-04 3.7310010500019031e-04 9.4870391534273655e-03 -2.1501612293025052e-03 -9.4364970765382188e-03 -1.6475782924531980e-02 -1.3000964094392890e-02 -8.6776205032267550e-04 9.9732861042820531e-03 2.4698505596061626e-05 4.2726026701582682e-04 -2.3787874780716173e-02 -7.3930898811203127e-02 8.5970380533967935e-04 -5.6721923483988119e-03 2.1879383230954492e-03 -2.6134538314612306e-03 2.0346093667864121e-02 1.6716928442183630e-03 1.4406169978058640e-03 -1.4759523027494939e-03 -3.7116050576837282e-03 -5.1233529813635870e-03 9.0357606026416071e-02 7.0523944194411520e-02 1.0422610177006218e-01 8.7922970416120891e-02 7.0066614090847162e-02 -2.3985730817677534e-03 -1.1100949000672083e-02 2.9729609995758882e-02 -5.7466228932186530e-02 -4.5213314224814179e-02 -5.6394997144501753e-02 1.0369767377673894e-02 -3.1591221703898276e-02 -3.5661012565774516e-02 6.1189823134744081e-05 -2.3437221820830578e-02 -3.3585614186193418e-03 -4.6233403078343949e-02 -1.1107025949403205e-02 1.2959187559958632e-01 8.0900974679627841e-02 2.6230262305201807e-01 -9.7120663484806552e-02 8.0685075143511240e-02 4.8625206739048681e-02 3.1256731679471184e-02 -1.0512955318174366e-01 2.1279828285330052e-02 -4.1813429245842193e-03 2.3141536046904061e-02 3.0732740802931997e-02 2.9125004271089605e-02 1.9265048726590805e-01 6.7382258885647535e-03 4.0999549354913296e-03 -1.0178626579130066e-02 2.8068764365199034e-03 4.6209435585649869e-02 -4.2007011197982214e-01 
      </Row>
      <Row Index="28">
        8.3901862371722584e-04 1.4444230733267616e-02 -3.6448742409371168e-03 -6.9174622830389292e-03 -2.9379026969778441e-02 9.9461126757240913e-03 4.5967659374977765e-04 1.5851578515446718e-02 1.4670810302640969e-02 7.7151047590291386e-02 -1.8440291349904048e-05 5.0862900581252778e-04 -2.7616579939672551e-03 1.4307713748614110e-04 9.0058441082203531e-04 -2.4025622772242874e-03 9.2482754656420148e-04 -3.6296039706510824e-03 -8.7572173372266662e-03 -4.5550175003617743e-03 -4.2616175242461973e-03 1.7078472444417625e-02 -4.1971035806001311e-03 5.8386701053039114e-02 1.4469000133501848e-02 1.9056971281458028e-03 -1.0618768607680143e-02 9.0767827267582424e-03 1.2091301077725276e-01 -1.5799269666725291e-03 6.9572146681573521e-05 -8.1836526129656605e-03 8.7050143675282427e-03 2.9386753682434627e-04 -1.0983632176115865e-03 -1.1193062257391232e-03 2.2715777140298208e-03 1.1578213217314426e-02 -7.6103879409245168e-03 -2.3164219468141400e-03 1.1391871503133366e-02 6.1575401633593351e-03 5.9571023109189172e-02 -1.4211226636886079e-04 -4.9773291953838852e-03 -4.2733680088297725e-03 3.5227027327001621e-02 -5.8337300841440821e-02 -5.6944043328398287e-03 5.9976004703943264e-04 -5.3438198571841783e-03 -7.5409268783629612e-03 -9.6608860167389683e-04 -1.9064220304680878e-03 -6.3438784455738251e-04 -2.2593171114245105e-03 1.4460898226228799e-02 -3.8320373645466255e-03 1.7400261166140435e-02 -7.0768375941612591e-03 -2.7265075630067796e-03 8.0017284492800350e-02 -2.9781207408200614e-03 -1.9347966055641708e-03 1.5355270391634646e-02 3.2093925677076932e-02 -2.2672929627046319e-02 -5.4233350705378373e-03 6.5289646038354555e-04 -2.4646951434671802e-03 2.2230764286924082e-02 -6.9275610365959750e-05 -6.4218806259638481e-03 -2.5856562837002980e-03 -5.4575923229599373e-03 2.5022076211655614e-02 -1.4204504043743640e-03 8.1816225072746645e-04 2.9918435278114331e-03 -1.5465699646522455e-03 4.0235108628098402e-03 1.5106607747142806e-03 -4.0296926537553585e-03 -4.0196626026811622e-04 2.2707104743601159e-03 8.7522719284723674e-03 -2.8019178356686911e-04 4.1893386788793819e-04 1.8291746708775812e-04 2.2136945975962429e-03 8.5141188301116814e-04 -1.3407685734436693e-03 -1.1763134490304470e-03 1.5354406011207605e-03 1.5165042627692813e-03 1.5360569175476048e-04 1.6094357936445643e-03 1.2159767809593018e-02 -6.8208766869704970e-03 8.2362669572511260e-02 2.3965935138820860e-04 -6.9863940972784500e-03 7.8960566980294678e-03 -4.8786427939196297e-02 3.8489723039874676e-02 2.1906798880019390e-03 2.4845123033563773e-03 7.9601481304302554e-03 1.4826264010597036e-03 1.8366496772658663e-03 -3.7694339188219968e-03 -7.2971608946485658e-04 6.2936632971956016e-04 4.6358882546433692e-03 -7.1402738228059769e-03 -4.1402815124730232e-04 1.1433541586197251e-03 2.4551848802275684e-03 2.5888407642955559e-03 -2.2626057399866215e-03 3.6844567316195826e-04 -2.1744855164108675e-03 3.3131419427073032e-02 -1.6471261818077898e-02 -2.9445651610953182e-03 4.6065268061803956e-05 4.4207816168070277e-03 4.7175877507784581e-03 1.0627638437973076e-03 -3.0408478271376493e-03 -1.3994269418935433e-03 5.1847747776535219e-03 2.0511908664740598e-02 2.4068911871228630e-04 3.9296840870466088e-04 1.1412065527200484e-04 6.3558703934599495e-04 1.6941176489499948e-03 -7.8320626170710677e-04 -6.8842779786215788e-04 7.0253854887736625e-04 -3.8589123412682757e-03 -8.8482499250704398e-04 -1.0080099669478848e-04 5.2642662026566422e-05 3.7311933713197033e-04 3.5670831593632329e-04 -4.3366817203305708e-05 -1.6769895460269657e-04 4.3907500819078755e-04 2.7233991925810700e-04 -7.3062308728006546e-04 1.0317636080523314e-02 -4.1903703101951323e-03 -1.9210540147110260e-04 3.8517736818376646e-03 -2.1713436026674953e-02 -1.0044199756496655e-03 -2.8166274546407338e-03 -1.2494099195789530e-02 4.1290825197659385e-02 -5.1059254116867889e-02 -4.2416939624614191e-03 -9.8869565985737788e-05 4.3579710717246787e-04 7.7061552236148629e-03 -7.4219252389895224e-04 -2.8851720397272858e-03 4.7060683300243357e-04 7.3531400242573836e-04 4.1220918234780137e-03 8.5585432014742557e-04 -1.5016360907646881e-03 -2.7596549173420915e-03 -6.0050112620709277e-05 -6.9476936994586867e-04 -3.5556632130446034e-05 -3.7566234641993757e-04 -1.3986924238775025e-03 -2.6995356069039602e-02 -9.6749877509902382e-04 2.4342722893183973e-03 3.4263847566396084e-04 -7.9596154579005610e-03 -3.6096598476368169e-03 -9.7704263372970024e-05 1.6433700005345428e-04 1.1951061898164378e-03 1.0839523976152736e-03 -3.2257775370123226e-03 -1.0217252390933148e-04 4.0556604170218927e-03 -6.0099904942100746e-03 1.5770521489226392e-03 -2.3741099574201566e-02 -2.0216865158464090e-03 -2.6402296217259303e-03 6.6245529547922684e-03 1.8376562183288311e-02 -2.6655783859830057e-02 -1.1411156517577522e-03 -8.3326958266845470e-04 1.0391450867379543e-03 1.6333035090195130e-03 -3.6442808118650367e-04 -2.6381406846886979e-03 -1.2564189064586829e-03 1.5904455172255460e-03 -1.2150363659843476e-02 1.6165514226575764e-03 -3.0876780278178296e-03 -2.6340824880591029e-02 1.6543279612937410e-02 -1.7900339520063596e-01 -1.5213859518847021e-02 2.7614204716441597e-02 1.7949488838975951e-03 3.3608668087914816e-02 -2.2220954926712061e-01 -6.0534260192204974e-03 -5.5861525919251864e-03 -5.6442423216590421e-03 -3.0187549174959680e-02 -2.1396385129582606e-03 -3.4237564988034985e-05 -2.0059683834477158e-04 4.2771710036784098e-03 -3.2894174762421728e-02 3.8426384351934975e-02 -1.8223346066636670e-02 3.5182214158073953e-02 -3.2722886127920514e-03 -1.3016892237956895e-01 -3.0493189502795393e-02 -3.6313498447585996e-02 3.0579788867402806e-02 1.1496445977074525e-01 2.7125719931281811e-01 -4.4206996375885377e-04 9.0309591082212513e-03 -3.1006679491994552e-02 6.4338714085746290e-02 9.0499581232764137e-04 1.7056205551404134e-03 -1.7398761110686382e-03 -2.4924413788582372e-02 8.8385747512773297e-02 -2.3195857769944200e-01 
      </Row>
      <Row Index="29">
        2.6443151232841453e-02 -9.4340792616767755e-04 1.1890949570298126e-02 3.4990456417278064e-03 1.5654248097362298e-02 -3.3213547652059951e-02 -1.4805581091647379e-03 -6.1986877227462878e-04 2.7371216315782657e-03 3.3529686724084991e-03 1.0863050270580009e-01 -2.9662726273907376e-04 -9.9417594214267144e-03 -5.3536201600412683e-03 2.8734238873501504e-04 -1.0314893938185710e-02 -1.6870932304443940e-03 -1.8495772967072058e-02 6.0984151221188795e-03 1.4944784833496871e-02 2.8317577733404029e-03 6.4032575072766051e-03 5.5834226476644648e-04 6.5071602052694279e-03 -2.2024406497079485e-02 -2.2567906636114759e-04 -1.6493825111893942e-03 4.4140813305182103e-03 -1.5799269666737642e-03 8.2930364827937031e-02 -5.9273411772838014e-04 -1.5980344647790390e-03 4.9128517462282443e-03 1.0851138881942039e-03 -8.4649299707242887e-04 1.0112241096643139e-04 6.7340645972672184e-04 -5.0440588541696089e-03 9.4198375510009258e-03 -8.7851934997701386e-04 -6.4418499574478982e-03 -2.1107841940214275e-04 -1.7421729730278071e-02 -5.5308270720772768e-03 -2.4702672840620776e-04 -3.3262062750918208e-03 1.9346834922116954e-03 -3.7561165321056862e-04 1.2369607217264909e-02 -1.5930697035346914e-03 -1.2185310013838753e-03 -2.9470543016962281e-03 9.8089826443685177e-04 -6.3030449293092188e-03 -4.4933923708248280e-03 -1.0650040116777122e-03 -8.6198198260082643e-03 8.9650933528562238e-03 -8.4570996030930191e-03 1.5669248334064974e-03 -2.9085895923838864e-03 -1.2574419088220306e-02 2.8741435578628601e-04 -3.5496128142970332e-04 4.2964663835970418e-04 -2.8749552327485056e-03 -9.2886696926342102e-04 6.6602112537410855e-03 -1.2940969301628675e-03 -7.0922626989559923e-03 7.5801974242178504e-04 1.0695589558830654e-03 -5.0253098559314285e-03 -3.3199374051694798e-03 -6.1217751984595347e-03 -1.0846006549935994e-02 -2.5691444603922753e-03 -1.9696138417182483e-04 -4.7939845046279621e-04 1.5518965997899613e-03 3.4008034042054438e-03 -7.6908223904008964e-03 -1.2062953652644901e-03 3.1410483725077820e-04 1.4483124869026920e-03 -1.6773146843266501e-04 1.7616711026689667e-03 -2.2251557168571229e-04 1.1353164010597981e-03 7.3788667118828669e-04 -1.0308710661330241e-04 1.2275718311272267e-03 3.7810104678986472e-04 5.8611261561847001e-04 7.3213451177661073e-04 -5.1382529920013190e-03 -6.6465580555031493e-05 -3.6319837364705279e-03 3.9744254910223229e-04 -6.6430986873103840e-03 -6.6936219001606837e-04 -2.3395820842635837e-03 1.1554970738127716e-03 -2.6654797393313237e-03 -6.3065397243465592e-04 -1.0638993747254489e-02 -2.6216752114483822e-04 4.5064974696932686e-03 -3.5617597553473461e-04 8.9709188087957852e-05 3.0074370275119042e-03 2.2390940633693350e-03 3.1845870174764188e-03 1.3485438148505870e-03 -5.2418097073795491e-03 -4.6713134521580019e-03 -1.1089412607294784e-03 -4.9947417160231327e-04 3.9540897188417691e-03 1.0719282390635031e-03 7.6699047175354763e-04 -3.4951966384800387e-04 3.1596218290678504e-03 -2.1039953609466849e-03 -2.6553157969927209e-02 -2.8883738328261475e-04 4.8882686778879440e-03 3.5466484614301470e-03 6.7351834828418048e-04 1.9176108374054359e-03 -6.3574339939254175e-04 9.5276390757993261e-03 -8.0647938515742163e-03 -8.9100840865710489e-04 -9.9663388312857225e-04 4.2285156366427641e-04 -2.5593945453024119e-04 -1.1220501648126937e-03 -7.0739693831820802e-05 1.3865948213450673e-04 -8.4352267690254983e-04 3.4936719415323923e-06 -9.3300559356742502e-05 -1.6084645477169349e-03 1.0920148483970415e-04 2.2773553844531520e-04 -6.1657748024733570e-04 4.6865067184702130e-05 -4.3300522575254706e-04 2.3159607609799396e-04 3.4818282242984888e-05 7.0965614005660848e-04 -1.2261485587771296e-02 -1.5509962479765744e-03 -8.2240309333033931e-04 1.9393010294605308e-03 -2.2330904549227211e-03 -1.1540153269645635e-02 -3.6597205993441301e-05 9.8789663599242045e-04 7.9124463170202330e-03 9.3038916492614110e-04 1.0602147168361196e-02 -1.8440156087310723e-04 4.7301436725443024e-03 3.5730858029343945e-03 2.8790840869130212e-04 5.8754563958971131e-03 2.9741855534870043e-04 1.5914115929206341e-03 -7.6574354361745815e-03 -6.0657004054269215e-03 -3.5701411540316370e-04 -2.8200512311691781e-04 1.6841702155326235e-03 -3.0793205961885534e-04 -1.8101061458945899e-03 -6.3094689881130952e-04 4.1358962435406842e-03 -2.8853071008710512e-03 -1.5452506045012873e-03 -2.6618186585471122e-02 -2.4785271564800766e-04 -5.9674411479970959e-03 7.8263590619489782e-04 8.3233982698963728e-05 2.7089900177208271e-03 -7.8934541970835910e-04 1.3267368442648787e-03 4.6310778122442223e-03 5.0615796015936508e-03 -5.2970865649837363e-03 -1.6814530559572860e-04 -6.0094041395100791e-05 6.2677684862521166e-03 -2.2532616959760774e-03 6.3991799144982073e-06 -3.6763518294897525e-04 8.4972774938170555e-04 1.2643470122550621e-03 -8.5646267416595468e-03 -5.9574527134733182e-04 9.2983333860154819e-04 2.5227862321464492e-03 -1.2288790300008454e-05 -3.3775372419183104e-03 2.9990994913779522e-04 -1.9773844293998043e-03 6.0189852240425893e-03 3.4133889144385018e-02 -5.0129769548629081e-03 4.0490372691227919e-03 -9.0475371179696527e-03 2.0051005026989258e-02 4.4403345316488672e-02 9.9394733399199263e-03 1.4964614013422252e-03 -1.1292999920758691e-02 -1.0894065116366955e-03 1.4349205291835165e-01 -6.8424414418365598e-05 -1.0118545498221873e-02 -9.5926372888084609e-03 3.3674531834591110e-04 -1.8464304636220563e-02 -8.2645298776504086e-03 -7.2762367201959404e-03 1.5684356198997839e-02 -4.6049421222013130e-02 8.6389263354102186e-03 -8.4643608212956814e-03 1.2431436289401233e-02 1.2778402758532160e-02 1.5999404852891530e-01 -3.7577831588517432e-03 1.5664860909672673e-03 8.9220596165097872e-03 -5.4289245999036631e-03 -5.5206239841649529e-01 -9.4503781297800744e-03 -2.6912639341209080e-02 1.6042227899572721e-02 -8.4941273520464881e-04 -1.2809680690398900e-02 9.2619803007770504e-03 -1.4407808044899427e-02 -4.0791898740728853e-02 4.1196757925404053e-02 
      </Row>
      <Row Index="30">
        3.4500693816206093e-03 -1.6078562983077277e-02 -2.8922491156451449e-03 6.9802266897152744e-04 -1.1191302237496962e-02 1.0354699854230450e-03 -1.7216074946894630e-04 5.4306507699986017e-04 -3.2358686510820041e-03 1.9475007307466767e-03 4.8260483774277985e-04 1.9371405150008100e-03 -5.0827341850444904e-04 4.9559053439970765e-03 -6.2117066257141970e-04 -5.5176175373855621e-03 -2.5721015178887391e-04 -2.8782816458218508e-05 2.7513008652814560e-04 9.8204659739451056e-03 2.0752345467743925e-02 -3.8879538030320016e-03 1.4505356064832358e-03 -2.6696119867197221e-03 2.7748604166821604e-04 9.0671656812473748e-04 2.1876651780195766e-03 -2.9975300998517432e-03 6.9572146711362193e-05 -5.9273411773222082e-04 1.6398714415959817e-02 4.8393924891132370e-04 2.2908958517622747e-03 -3.8423658228832963e-04 1.5962953425325277e-03 1.2902961044099067e-03 -2.0534920079397522e-03 1.5403345926586073e-03 3.9348730928725423e-03 4.4609841804310602e-04 -2.8847415577185620e-03 1.8035961664453863e-03 6.2273129172849846e-03 -1.1693912679164469e-03 4.5361493137664050e-04 6.6037924470572660e-03 -5.0629031317228840e-03 -8.4876574849987192e-04 -8.0287172042074078e-04 -1.4904925505129250e-02 5.0639829564470265e-04 6.6923240110910937e-03 -2.7850436309517610e-03 -2.7219978240492632e-03 8.0520021198680625e-03 -1.7982581149012216e-03 1.2265665983781332e-03 5.4457443354690160e-03 -1.7941564547043792e-02 -9.4654908859321575e-04 7.8298492837605683e-04 -1.3075010728842158e-02 -2.0114619666306444e-04 -1.2595630588474243e-04 1.5745015346417812e-03 8.5045527283681890e-03 2.2203107245331488e-03 5.0100274201616624e-05 -2.2079194048739148e-02 2.4492004205459474e-03 -6.5147403990926432e-03 -1.0781636815258289e-03 5.1396356555356709e-03 2.9304542294172776e-03 -2.2814542143552814e-03 -1.8396068410086591e-03 1.0584244145386106e-03 -1.4880390192026447e-03 -3.0472449711766835e-04 4.0440876386405446e-04 -1.8438810983640707e-03 1.1708030722175247e-04 -1.0352277714952951e-03 -7.4233906956802653e-04 2.6989941129489659e-03 2.1615150017482965e-04 2.3491756729677080e-04 -3.1850897198472190e-03 9.1255997025713528e-05 -2.1456063703854033e-05 -3.0793767562600056e-04 1.6844474066971210e-03 -2.3408942422369111e-03 4.5744312990016970e-04 1.0666911877918548e-05 -3.9497443490055422e-03 -1.6731044583595412e-03 -6.7410614852398635e-04 9.5560107841636795e-04 3.4345358482267717e-03 -6.2393027337177723e-04 -2.2142794012857967e-03 8.6077393100556475e-04 -1.8953779898202190e-02 7.2042450019038911e-04 -1.2435654264665755e-03 -4.5612561132534323e-03 2.6889838607599068e-04 1.0910867262465822e-03 -6.8662918790817048e-04 7.9165989684142589e-04 -5.1533572823134711e-03 -4.7294796872503512e-04 -1.3558810595742533e-03 9.5591878064464255e-03 -1.3750685600865948e-03 9.5499142550797952e-04 -5.9161892767575146e-04 5.1527651064918606e-03 6.5308773083598646e-04 -3.3215701863017241e-04 -1.0890509107082773e-03 1.7315493435969186e-02 -5.4441930697490012e-04 6.4343319930132057e-04 3.6268281887703977e-03 -2.3934128129722110e-04 -1.9350204300015602e-03 3.6269912521581750e-05 1.9495085134112898e-03 2.0958093194126271e-03 4.5932140060418454e-04 8.8310910104476238e-04 -1.0932172750846782e-03 1.1451820823567586e-04 4.3150822807870202e-04 -9.5798508475272690e-05 1.0536430891327003e-04 1.1746342105487793e-04 -3.6739799201491209e-05 4.6920116945886386e-04 8.2828898350337818e-05 -7.3212783779158888e-05 1.1312314262417839e-04 -2.1546651645586883e-04 2.4394950602513945e-05 -2.8404854181740855e-04 1.4629737553779063e-05 2.9483238361343125e-04 -1.2603223516874170e-04 1.6272221291839021e-04 8.6931939583654639e-05 -8.6094593962852631e-03 -2.3221145691846852e-04 -6.3785171733684123e-04 3.0575934943955581e-04 -1.8861081508347946e-03 -3.2974067512096903e-04 -5.1226417337423263e-04 4.1936680129737204e-03 5.8395522538806722e-03 -5.3332308570160612e-04 3.4038682549704271e-04 5.1698828088408077e-04 8.6648619923869485e-04 -4.7702895198157768e-03 4.0757171591980198e-04 3.7457391734574126e-03 -2.8664903555953604e-04 7.6583384618194553e-04 -5.2422689587497406e-04 1.9578990621615631e-03 1.6571458467167441e-03 1.0290800814835091e-03 -1.6539156784963394e-04 3.9230555251842537e-03 1.3256996965728103e-04 -4.0140491216862466e-04 -9.6064894150536297e-04 -4.5606501029183321e-03 -1.9041804144108009e-04 -4.8854400582381424e-05 7.7898605108084719e-04 -1.3553518317444150e-03 -1.4313585406516339e-03 -3.0570354940548427e-04 1.3312994528194679e-03 4.4745966328234613e-05 7.4926899499038412e-04 2.5957731826760019e-04 3.3918683273059542e-03 -9.9523898208405126e-03 4.9529913537651722e-04 -4.6811016608995195e-05 -5.2127215531697236e-03 1.5364065834008083e-05 -4.8923109062339173e-04 3.4543594867856263e-04 6.3405426945504027e-03 -2.5408630675840713e-04 -2.2479518739369330e-05 -2.9858060575709932e-03 4.3193473575534451e-05 -2.7205996469704184e-03 -5.3554653954121848e-04 -1.8946266999404311e-03 -3.1360232646538890e-03 -2.9512342305661600e-04 -7.6742987718351411e-04 6.4444968638678463e-03 -2.0963670275781443e-02 2.3049331331615633e-03 -2.4939998061628004e-03 -4.1943239233044750e-02 2.9063189964327785e-03 7.7612431997534101e-03 -1.6303870699192237e-04 1.1719904134993988e-02 -6.3317627843496828e-05 3.6725813085946835e-03 2.6210992259313854e-02 -2.6341855237164602e-03 1.6135868048448073e-04 -1.6962970403287497e-03 -7.7055870138753764e-03 7.9861449323998593e-03 -2.4359836677618199e-03 1.3480057482169331e-03 -4.1298948176039171e-02 4.8422686938913023e-02 -5.5297968922544726e-03 5.1411378380063536e-04 -1.7154876575402159e-02 -2.7988211424468546e-03 -9.7724319965027187e-03 -1.4357041624652435e-02 4.5848347356528665e-02 3.3401230358540077e-03 -3.3067066951191662e-03 -7.3562432217551682e-02 -1.9121245330049347e-03 -3.7157251162742586e-02 8.2722845257255304e-03 -1.5489755392446240e-02 -1.8195978217619785e-02 -2.2294190304056466e-03 2.9913871543200167e-03 6.0340458513565357e-02 
      </Row>
      <Row Index="31">
        -1.0795698350501402e-02 -5.3048343947925680e-05 -9.7465283445540007e-04 -2.8444468419138932e-03 -8.6224341567971829e-03 -6.8719724851642322e-04 9.4406803027592343e-04 -1.2125558444303630e-03 -7.2173624926761132e-03 -2.9929220338382120e-03 -5.1872577854905101e-03 2.6132239169172206e-04 3.5369677685010967e-02 -5.4995432929913772e-05 3.2193939893199891e-04 4.5929082754694837e-03 4.9781141278717068e-05 4.7483373135595100e-03 -8.2197004156411174e-04 -8.3759636335560134e-03 -2.5306111578549118e-04 4.2849527791506414e-03 -2.6646351844435718e-03 1.5158019380724919e-03 5.1345415428257039e-03 4.5232390519247114e-04 1.5481487845184910e-03 4.5171145639368027e-04 -8.1836526129631833e-03 -1.5980344647726907e-03 4.8393924891360074e-04 9.0933197934952192e-02 -2.9269087957009728e-04 3.1780679595117705e-04 -3.8151504417197613e-03 -9.2295497030928184e-05 -1.8096045496435856e-02 3.2073270100595932e-03 5.7895036371161260e-03 -1.4480824135922887e-03 4.1737458772901914e-03 -2.8666042105477199e-03 2.2305015654627898e-02 5.3295883058210661e-04 2.2108117547829653e-04 2.6760670630864708e-04 1.5052084798745512e-03 3.2499224538168857e-03 -1.6208095358926445e-03 1.4085170756451826e-04 2.0265069782642184e-02 1.4380043863240089e-03 9.8523668146702930e-04 2.4242504547037835e-03 2.2486851675719843e-03 -2.0537191286464761e-03 4.1554254602103749e-04 -5.8542332386216644e-03 -1.6852614585318032e-03 9.3653642532285850e-04 2.9870352309992890e-03 1.7265830274869404e-02 -5.3826333567158144e-05 1.7736693342419244e-03 -3.3693711769997581e-03 -1.2226893852278278e-03 5.3133100979866135e-04 -3.1365680295608505e-03 -7.3284168372160497e-04 2.4024596554876043e-02 1.3536524224177799e-03 6.9536542000525614e-04 4.6777324355563171e-04 1.7584463937450317e-03 1.8132527271831284e-03 2.1741233868458262e-03 -1.3935685893817652e-03 3.0522536086044581e-04 3.3264512958405476e-04 -2.6146149223383618e-03 -2.9873818028303993e-03 -6.4792678003928767e-04 1.8820536976674788e-03 -4.2321807607920148e-04 -5.1459964725337204e-03 1.9181961847085608e-03 -1.1612097175146383e-03 -3.6863582851945353e-04 -3.0297355091909312e-05 3.3003229481525309e-03 -1.5382918920289822e-04 1.5054047484903063e-04 -3.5322902492460382e-04 -5.9729290269260969e-03 -2.7615458054926602e-04 2.4014601022736238e-03 -3.9774948669725821e-04 1.3300546390726965e-04 2.5719023390519341e-03 1.2909785624348122e-03 -1.8488306340588912e-03 4.5110606206553248e-03 -1.0036243707266974e-03 1.0527256937190860e-02 -1.8655325461978270e-03 5.4349892430316125e-04 1.1962271677777613e-04 -2.0493657554282677e-02 -1.5581380824492646e-03 -5.5018615721208323e-04 -7.9566986130664291e-04 -2.9632352459729185e-04 2.5256201955684270e-04 7.6272810706582979e-04 9.5823046709949296e-03 -6.3799695500996417e-04 8.7929632323186218e-04 1.5218052811214631e-03 -1.2585980263805311e-02 -3.0121366447296541e-04 -1.4058509358990945e-03 -7.6563900910383426e-04 -1.7814028079811233e-02 6.4191091465243700e-05 3.1756609110126111e-03 8.2568716582952142e-05 -1.5276679038849350e-02 -9.1981540096972708e-04 2.2666100731341590e-04 -2.2409954346717287e-03 -4.3189848040266167e-05 -1.5448913984447655e-02 8.4321070148999462e-04 1.1334735799530156e-04 5.6462658353609503e-04 3.2187309840303732e-05 5.4018229676607672e-04 -1.5734233483883113e-03 -3.0022106074293980e-04 -2.5748838856565328e-04 1.8149836819122151e-03 3.3575698259018802e-04 7.2480428726234088e-04 -2.7294208529050277e-04 -3.1736872602540120e-05 -8.2089796652294416e-04 -6.3901075868420202e-04 -2.2886541121605163e-05 1.7623304923681090e-04 -1.4750596751496919e-04 -1.5524076198584992e-04 -2.4793398278061084e-04 4.1197876370728255e-04 1.5174537468540495e-03 -1.1459637049604880e-03 6.4641072450139208e-04 -7.0992080947519243e-03 -4.0917168531426796e-04 1.0279667674517536e-05 -4.4187000924388042e-04 -1.2346170836077511e-02 1.5371448417637135e-03 1.9432652433300961e-03 5.0083347394312260e-04 -1.5423324491335802e-02 -3.0620043787142081e-03 3.9263923196314749e-04 -1.8652437774288729e-03 -3.1773651518807823e-04 1.5106200835742476e-03 1.6504901310414330e-03 -1.6115976893331840e-02 -1.9485144502568580e-03 5.8013543949702265e-03 -1.0075345009733637e-02 2.7527372480727903e-02 3.6500305099449251e-04 2.4064303265451583e-03 -8.7086602541711078e-05 2.5380346950680005e-02 2.5432212822556130e-03 -6.8883265661672018e-03 -2.4606495539072895e-03 4.8973648309681345e-02 6.1548801582999579e-03 -7.1396891988647704e-04 2.1033837298870713e-03 -7.4698500996634234e-04 -1.1905578875144910e-02 1.6562960266773355e-03 4.2793998729545174e-03 4.7764742628521317e-04 -7.8278199617958953e-04 -2.6221206922192003e-04 -2.0995826028713744e-05 -3.0738386969847073e-04 5.4064087106449842e-04 -2.7163078282394131e-03 -4.3347901776712308e-03 1.0317067102500682e-03 3.1095413839058155e-05 -8.9873044122384049e-06 -9.1724958429089606e-03 1.0594601117696022e-03 6.6621543898599150e-04 4.8609404537104005e-04 2.1316399412741520e-04 4.6575470319755998e-03 -6.8655410596058376e-04 4.9239375781013599e-03 4.0622204940321703e-03 9.9818316370267439e-04 -5.7197583573633977e-03 2.5179450529333607e-02 -1.9934114213395098e-03 -1.6810344909432662e-02 -9.0470784309822430e-04 -6.6433144075268135e-03 8.9982434049927697e-03 -1.3436529484170873e-02 -6.5246421269585242e-04 1.7002223278610520e-04 1.5311970046554012e-02 3.6416604298977143e-03 8.0879056871782113e-03 2.1298953285574102e-03 -1.8481463027116937e-02 -2.2197077901343625e-03 -1.2296247105533367e-02 -5.8335764255525654e-03 2.7710257963223864e-03 -9.3728639092149936e-03 -1.7172022573836855e-02 4.5421064076009432e-04 2.0326911953767159e-02 -1.7513483401837304e-03 -3.5453035419377374e-02 -1.1166110662593320e-02 1.2010040719574167e-02 2.3659794204655233e-03 1.9053668173876429e-01 -1.6166559533563746e-03 -1.9746476856451478e-03 1.2670000451760224e-02 -4.2918401679448159e-03 6.4051694590897684e-02 3.6302500086812378e-03 -8.9731470302856373e-02 
      </Row>
      <Row Index="32">
        6.3473104233760231e-04 2.2482006452092584e-02 1.8746288424201802e-03 -6.8291260248471591e-04 -6.2760577908894145e-03 -9.9481596858108853e-03 -2.9515967083896394e-05 1.2406922047168922e-02 -2.1175656333639707e-03 9.3043419684505392e-03 -7.8134668112250175e-04 -1.1856397584492733e-03 1.5413777614154832e-03 2.3638161390640696e-03 -4.1599267293811193e-04 1.3383749375119498e-03 6.5555261459788170e-04 1.7751878203240111e-03 -8.5745073494994870e-03 -3.4810974670284357e-03 2.4606785517582233e-03 -4.0607581021463446e-03 -7.8270818469977372e-04 7.1003649823513648e-03 -3.8743380552953401e-03 -9.1767656727493295e-04 -1.3368764978903616e-03 -1.7887133838595012e-02 8.7050143675012695e-03 4.9128517462400483e-03 2.2908958517650901e-03 -2.9269087957712074e-04 5.8095163172246299e-02 -8.7168194521036746e-05 -1.1600707461992293e-02 5.6241441847359975e-04 -2.7973407983576432e-03 -1.4389999602278623e-03 -2.1876310866144229e-03 4.2301065116236991e-03 -1.1179599068907864e-03 -4.4023578327785648e-03 2.1119310710954679e-02 -7.6096058402227735e-04 -7.5095861053267599e-04 -4.5728219006502362e-03 2.1949342890329845e-02 -9.1186827633983007e-03 -2.3234088901039583e-03 7.9631185595729209e-04 1.7929210231072018e-03 1.3995065231454724e-02 -7.0053309764765426e-03 5.3309509048093309e-03 7.5802088147859381e-03 -2.0638003574806000e-03 1.3593630550223520e-02 -6.5822766885372253e-03 1.9529570044018701e-02 -7.4214507214892256e-03 -1.1044493430555392e-03 4.9865758955975423e-03 -3.6604041028692746e-04 -3.4991163611147735e-04 1.8353621493860106e-03 2.8484234275791720e-02 -1.2603976867905826e-03 6.7607982145078023e-04 3.8128255009361994e-03 -2.3270867850300192e-04 -1.3768968515176738e-02 -1.2012430895456394e-03 -2.0192863573941483e-02 5.9780634782366667e-04 -1.0035545248208676e-03 8.3193808057681617e-03 -1.1138858869373016e-03 -1.6399423731745834e-03 7.8018372643223755e-04 4.1542003095954624e-04 -3.6413433045063941e-03 -1.2935414352688453e-03 -1.4096881714741477e-03 -1.6679854355758084e-03 5.8541890526671303e-03 1.9606242831090512e-03 3.1111083967378089e-05 2.1985292716575865e-04 1.5079205303066038e-03 -1.4330150238477191e-03 -6.7631929375083040e-05 1.4497732622259594e-04 -6.8983855936888424e-04 -1.9414703362131622e-03 8.0235213470978379e-04 -8.9010664182753371e-04 6.4695422104798471e-03 2.8289258269391031e-03 -1.0648781616063013e-04 1.3526836913682365e-02 -7.9701910892074519e-04 -4.4151580245602451e-03 2.6493699221290939e-03 9.6934794146470316e-03 4.0657168009986039e-03 -8.0474002924163306e-04 -6.6220477629734770e-04 7.5334129648108429e-04 -4.1734097240200187e-03 -8.7702966792651584e-04 2.4197201756559145e-03 -1.7547690419946315e-03 -7.7180632309552569e-04 9.6170153658998363e-06 -5.3403793762511909e-03 -1.6044968061480385e-03 -3.5183257735031531e-03 -3.2336941138888168e-03 4.6125820597953827e-03 1.7768417791748181e-03 5.2914808959112305e-04 -1.4205192358257776e-03 6.4515625595473417e-03 -1.9802100206096386e-03 5.4040011757953532e-04 1.0038108830844424e-04 7.6108665843275668e-04 9.5676226099485617e-03 -5.3037069805259344e-04 -6.3019001240028150e-03 -2.5440901860338601e-04 -6.8748393476754733e-03 1.2480856670610784e-02 -5.3591900560834445e-04 -1.0006786524529945e-03 7.4377948755119687e-04 1.1029154568236162e-04 -5.4126572758997371e-04 -9.7209354803462391e-05 -1.2044238565570888e-04 -3.6298798645878190e-04 -2.0081795081633414e-04 -2.2611285250669029e-04 -8.3418069575886400e-05 -1.6141010436353831e-04 -2.9211370463208845e-04 -1.0058201560472402e-03 -5.6392641981192109e-06 3.9725061661435954e-04 -1.4243364552960110e-04 -1.7728083520095216e-04 -3.2034296256130555e-04 8.0750449355679321e-03 -3.7369944988702346e-03 1.8276037661871681e-03 3.9508672360561489e-03 -2.0837111572586820e-03 -7.5294930049111218e-04 6.9376377578828216e-04 -8.8397384494816184e-03 5.0556980271272492e-03 -6.9312415999978182e-03 6.5252406975869885e-04 1.9184605163088647e-03 -3.8258686158802683e-03 -1.6575638283196216e-03 1.3384016376637251e-03 -7.4075452406572821e-03 -1.5365127511327448e-03 -3.5126993415434326e-03 3.2158071192674017e-03 -4.6502709223572650e-03 -3.2273845254456365e-03 -9.6791548458372012e-04 9.5688728350878699e-04 -3.5983072555068460e-03 -2.1624923306619520e-04 -6.8358054172982206e-04 -1.4243372912505492e-03 1.2765789774661987e-03 4.9695201470087522e-04 -3.8144563624612632e-05 -4.0035683737762832e-04 6.8025841165770401e-04 -3.2168010899330489e-03 -2.6450082063328353e-04 5.0168626484055553e-03 3.0464514218430283e-04 1.0088086583975781e-03 -1.1467380613498501e-03 -4.3121104436285446e-04 5.8725296143410724e-03 1.3258365867905414e-03 2.0906282849205101e-03 -4.7990902464342964e-03 3.9237171084209187e-04 3.1280557176245128e-04 5.9218448899457246e-03 4.9662227350003715e-03 -4.2064898607677911e-03 9.3620147925922942e-04 9.1932000261385970e-04 2.4686100899385879e-04 -1.0389890413253340e-02 7.0033248443706242e-04 -3.6155140621797867e-03 -2.1154351062080681e-03 8.2402204205498601e-04 -1.0587696807440131e-02 -2.4714262491541336e-04 -4.4033202580546459e-03 -3.3307714133428146e-03 -5.9400722077212207e-03 -2.3430308312063865e-02 1.8692747664627407e-03 1.7062676171056786e-02 1.4074706435001310e-02 2.4146078963488828e-02 -2.6894953546933324e-02 3.7130986570116696e-03 -6.5679139111535362e-03 1.0061370674258746e-02 -4.0819075375660846e-02 -4.4708067712213983e-03 -1.0271052385472500e-02 4.0893650879597412e-03 -2.1111423536320411e-03 -8.8810837268136142e-03 4.4054922716742113e-02 -4.6124466455964158e-02 3.1287903021507274e-03 8.9169108291611392e-03 -2.1653436804679682e-02 2.7356788756954666e-02 -1.5878941922813944e-02 3.3084250004385390e-02 2.0288138004888566e-03 3.5347703463824341e-02 1.6451573670785664e-02 2.5426498125951202e-03 1.4502114622703625e-03 -5.4999221460548767e-02 7.1447684627446275e-03 1.1504721024212516e-02 -8.8884100352215282e-03 2.0994860996264773e-02 6.0546973005161292e-02 -6.0324573504071118e-02 
      </Row>
      <Row Index="33">
        -1.0706551923381153e-03 4.6353654932419913e-03 2.3742918936479037e-03 5.1880102838952147e-04 -9.4397334872992466e-03 -4.1574070384250462e-04 -2.5406433831432537e-04 -2.3303671030414086e-05 1.8761503103883999e-03 3.7195142239650463e-04 1.6740321573247281e-03 -3.5197989071385379e-04 -1.5117026624857660e-04 -3.0475704465131584e-03 5.6596582422172286e-03 5.9289188568618532e-04 1.1145226808012233e-03 3.4093354087337546e-04 -2.0058002933044570e-03 1.5554441168634768e-03 -1.7317361804794588e-03 -5.0320960066634751e-04 -1.1193296487431654e-04 1.1881640572141416e-03 -8.8908643702857336e-04 -1.7082077404904949e-03 -3.0447841358514534e-03 -2.0777716958809735e-03 2.9386753684153884e-04 1.0851138881981630e-03 -3.8423658228961544e-04 3.1780679595805371e-04 -8.7168194514504428e-05 2.8210495645570079e-02 5.4119990629414305e-04 6.6581711609778075e-03 6.0243791485789728e-04 1.0376220395321551e-04 -2.5390361792149074e-03 -4.2794915385335752e-04 2.7442537859786731e-03 -2.5518899198540956e-04 -1.8279622943146820e-02 3.5558177105530489e-04 6.0998336152584889e-04 1.1403636854385741e-03 -8.8003587266603268e-04 1.2549206893380264e-03 6.8115926588500572e-04 -2.3733249382682127e-03 -9.5837600096752764e-04 -5.4022612968272583e-03 5.2655431699580736e-02 1.9750285693312690e-03 -1.0531481553421790e-02 6.3431579430696773e-04 -1.8314586020986069e-03 -4.0699205804841238e-03 4.4229381648643934e-03 2.3734246513984480e-04 -5.9438052487694826e-04 -9.4450528143124671e-03 -1.5216774794192886e-04 5.8286475643004338e-04 1.7633390256505121e-04 -6.6242448055732379e-03 5.6296941509079330e-04 -1.3982857475697817e-04 -2.2770267709215724e-03 -7.9015994698193419e-04 7.7126458325874341e-04 3.9929605768112636e-02 5.7657876204003124e-04 -4.7341227416906537e-03 6.2531062137765464e-04 -1.4592744247130147e-04 -1.4906982804582698e-03 -4.5303652207491930e-04 1.6008252180460753e-03 -1.2162720054156875e-04 1.2204685702582811e-03 -2.8154299714725433e-04 6.7406002813402905e-04 4.2497155595651315e-04 -3.7574024593546029e-03 -1.4113126651967286e-04 2.4573325770815797e-04 -7.7954307266109670e-04 -7.5526478588954014e-04 -1.0232952519965114e-03 3.2616819170591810e-03 7.0563565642527918e-04 4.7438151687163223e-03 -4.8299166267546387e-04 -1.0281012198708913e-03 -2.4061361804787358e-03 2.5486570015261639e-04 1.2896284824678043e-03 -1.4853170007156184e-03 9.4637450922592445e-03 -4.0565875845595840e-06 1.6783952397911633e-03 -1.2702310102917485e-03 1.1296459867569112e-02 1.4565928009000880e-03 6.4704627921180501e-05 -1.8593562699252477e-03 -7.1814493053157713e-04 -2.5627184351723811e-03 6.3783023300583094e-03 3.2829972826176803e-03 1.3118629447090335e-02 3.6807278549969594e-04 -7.6793528111423733e-04 4.1875594527642607e-04 1.4539011155377627e-04 -5.3173711946305556e-04 -3.2024510279209692e-04 -1.9779156326377601e-04 2.1563945140510448e-05 1.9584976037594559e-04 -9.2042970462422914e-04 -1.1072098303250061e-02 -1.3480739310168599e-04 -3.7975404024351322e-04 1.2101446198586955e-04 2.9937349678942570e-04 2.0392367927262105e-03 3.3236018177005958e-03 -7.5657110600576769e-04 -3.0449413995397648e-03 -1.1905291669524766e-03 8.8320243638345143e-04 -2.8099972341271410e-04 2.3864503755435747e-04 -8.9231729632718393e-05 -3.5914624028789800e-04 2.9027339931462587e-04 2.0941906056316681e-04 -4.0746883292209753e-06 -6.3051658685667634e-04 -1.6859575457635724e-04 -1.5091360232975402e-05 2.7500380373038640e-05 -3.9294911838691881e-05 -8.8162183623540541e-05 5.9927758535892678e-05 -2.7357458902637944e-04 -1.5973343669672155e-04 -3.7684554177410252e-04 -7.9866237452720732e-05 -2.1345958501528065e-04 6.6043225289821005e-04 -1.3965894519781051e-03 3.2179687772223621e-04 7.8672734207849019e-04 2.2268981744807525e-04 -1.1690444158733788e-04 -2.1422494804766170e-05 1.1216104892768854e-03 -7.7158456215392652e-03 -1.0359677830756257e-03 -8.1886440961283799e-05 -3.6332172601396428e-04 -2.5758651474214336e-04 2.2665198020283099e-03 2.1254306899996032e-03 -3.0740551357645216e-05 2.2101750945751350e-03 -7.8728810356803840e-04 3.8059965043079074e-04 -3.5447507733972570e-04 -2.1621631533646135e-03 4.3967567304892957e-05 -6.1087303246852424e-04 1.4468443828205807e-03 3.0154146671924485e-04 1.9900933597720438e-04 4.5723285257506102e-04 5.4132283998871772e-03 2.2372442105525220e-04 7.9975572814875535e-05 -4.0552491704438421e-04 1.0646467301955156e-04 -5.8987826997157228e-04 -1.2980536547176642e-03 3.3070646166385737e-04 1.3374341817284003e-03 6.6927788891336937e-04 -1.0711801733447905e-03 -2.4961732534635270e-03 1.5134227544857997e-03 2.1918980705343499e-04 -4.6416612830214421e-04 -3.6029312015365038e-03 -1.3814693439670174e-05 -7.3500897797956039e-05 -4.9086352985549045e-04 -6.6101884650326768e-03 2.8861320024643690e-04 2.4170371807812725e-04 -1.1844018929333833e-03 -4.1267511931177448e-04 -6.9889386057144843e-04 9.4231337008243241e-03 5.2094335885568112e-04 8.1627264257121187e-03 9.8976304345094884e-05 -2.7194665600804029e-03 1.7809867193361514e-03 -8.1724276664945326e-05 4.1971093349340953e-04 -2.5222660515590611e-05 -1.0894892806627050e-02 1.7306351191105161e-03 -5.5157833733331081e-03 1.7641540162336320e-03 -5.2987657325556745e-03 -1.7414313873986690e-03 3.6347102764278500e-03 5.0037199952117535e-03 2.0796241384877156e-05 -4.3534467429383345e-03 2.3661868848553824e-02 -6.8305036144377506e-03 -1.3912618471661503e-02 -1.4889948907271882e-04 -5.0975669539852220e-03 -2.5562614231603303e-03 -6.1595688355450470e-03 5.1650499799285295e-03 4.0188174271237201e-03 -3.5087429441851316e-03 3.0028968517806709e-03 1.0912141307773144e-02 -8.4405076885500606e-03 -3.8620109340297540e-02 2.6641257708515868e-03 -3.1485822943359736e-03 4.7057449119757106e-03 -6.7343587740793538e-04 1.6800919242321591e-02 -7.8735035248498272e-02 -6.1517264439700904e-04 5.0624162739436110e-02 6.5641209529673332e-03 7.1240122123496612e-03 2.1731343885325986e-02 
      </Row>
      <Row Index="34">
        -2.9074141309493717e-03 1.0691225034801355e-02 -7.1748211032318446e-03 -1.2762830317203194e-02 -2.5980701165337610e-03 2.4798480896769948e-03 -1.1951520856248177e-03 3.4339837707394461e-03 -3.8336272722931108e-03 6.8756611632947041e-03 -2.1048316380403928e-03 -1.0987457084947871e-03 2.5864094067449559e-03 -6.6498588046061922e-03 -5.9482944706829499e-08 -7.3580873605812558e-02 -2.5577921803551420e-03 8.8346834693248111e-05 -9.7540453238422723e-04 1.0125093480959982e-01 -9.4487039407727957e-03 1.3618828455784437e-02 -2.3355586370868847e-03 3.3719850733089363e-03 5.9099052736810223e-03 2.6475554972728958e-03 3.4725923373638556e-03 -3.3140708146771058e-03 -1.0983632174928759e-03 -8.4649299713618342e-04 1.5962953425414650e-03 -3.8151504416800608e-03 -1.1600707462011382e-02 5.4119990630299708e-04 2.1812214245572281e-01 -8.4632152785660275e-06 -6.0798675505524622e-03 -2.9701747147001826e-03 3.4311424857430405e-02 3.3485773645929306e-03 -6.7082445043089578e-03 -1.9164221032493052e-02 -5.5884460510114628e-03 3.1476507245554882e-03 -3.4354462541932862e-03 -5.6948937688393987e-03 -2.5028656585886079e-02 -3.3934831707984319e-03 1.2708134173604873e-03 -2.6654080701666860e-03 -2.3802208511509155e-03 -5.5567632660573915e-03 4.0404301489983790e-03 -1.2954248425927459e-01 4.3051409534224927e-03 -1.5391539087290029e-02 4.4459857017599934e-04 6.0928414116565577e-02 4.1135885965155276e-03 2.6221151089783536e-03 9.0435264356141607e-03 4.3041379543102623e-03 -1.5088272377664319e-03 6.8243604511147513e-04 1.3589784989986420e-02 2.7593379941587243e-02 -4.7456190759976764e-03 -2.9781043851984344e-03 -1.7292717388763836e-03 -2.0646479260484777e-03 1.3596844381336667e-02 1.2495234259208843e-03 7.6410807364210701e-02 4.6977781629764931e-03 2.6871476866446864e-03 -2.2131091441288109e-04 1.6427196556910488e-02 -1.6929784782001300e-03 8.9858477018201280e-04 -2.0346176751686955e-03 4.1711571540984293e-03 1.3040641411290223e-03 -2.8131439353046035e-03 3.0490250276700159e-03 -2.6924144612614498e-03 -9.6740756618360693e-04 -3.1160593280270092e-04 7.4981824378006078e-04 1.4682440236133730e-03 1.5134041114306621e-03 2.9930391339439533e-04 1.1769949926781006e-02 -2.0282994922864574e-05 -1.0874095355328833e-03 -8.0560130156660857e-04 -8.4721073027384710e-03 6.9239084340378971e-04 -1.3214151871790880e-03 5.5746716592590386e-03 3.2910968130450396e-03 -8.7833660000028672e-04 -8.4087324480071335e-03 -3.9688958597363230e-03 1.7624398785980960e-02 -4.8944646740745848e-04 -2.0711080037815805e-04 -4.5388812260740595e-05 1.0403939001487348e-03 -2.7678242879994770e-03 6.2346246816167932e-04 1.3967257771908286e-02 -1.3741562936285497e-03 -5.5410880122637191e-04 1.0623955373828603e-03 7.0958478794884608e-02 -7.4297089047682275e-03 3.5737452865496756e-03 -4.3786162892181617e-03 3.7393739763446707e-03 1.4188437299271022e-03 4.5583483730032539e-04 7.4292478867064964e-03 -1.3594372988071706e-02 -3.1255436176156502e-03 -3.3302184447979487e-05 1.4394451169177415e-04 -3.4086290786873178e-03 -3.4270620626819124e-05 2.4883320520684951e-04 3.6443248542067687e-02 -7.7806316362538002e-04 -9.3983919269150073e-03 -2.0657824844114766e-03 2.4168971362710095e-03 1.7539004270198382e-03 -1.0062929817322803e-03 3.8329454064990793e-04 -1.9896181298327564e-03 -2.3149514227558912e-04 -1.9582198916182894e-04 1.1357004604239263e-03 3.7210570940278162e-03 5.1239477110779806e-04 -1.0580524338934718e-04 4.7330590320845088e-04 3.0817635989688303e-04 1.1080690454063331e-03 6.5654062072530389e-05 1.7076693419646708e-04 -1.0741885083189752e-04 3.9608077170345043e-04 -4.3572538312058331e-04 -1.6545576551055957e-02 2.0885721682146101e-03 1.2774187914929057e-03 8.7486177500158795e-03 -6.0913120078422232e-03 2.7431421900460796e-04 5.2631141997215580e-04 6.5358120524458552e-04 6.5648635968177608e-03 -4.9181334298707699e-03 -2.7580895615055274e-03 2.1222294448257411e-03 1.3585748229950874e-03 2.0081012203812049e-02 8.5349688869750038e-04 1.1461516201838329e-01 5.7162926874653221e-03 8.1865600366305101e-03 -1.3038259978672573e-03 2.0192180817192637e-02 -1.2760066851757838e-04 7.4837068927119041e-04 3.7159927267692858e-03 2.7659135586729430e-03 -3.2208749397247792e-04 6.3611565365526840e-06 1.6448955872112592e-03 1.5629576515119176e-03 -3.2859586753347658e-04 3.9682018765883897e-04 1.9294942236828239e-03 2.1423556241467051e-03 6.1757145594608376e-05 2.4421969221275007e-04 1.7152288303198131e-02 8.6590212918547784e-04 2.0899375645526746e-03 -1.2368194344925809e-03 3.4616489644646170e-03 1.1754792395261993e-03 -4.3125599609465694e-03 -4.9558873885236013e-03 6.6412387949648863e-03 -2.4894954606524808e-04 -1.8907341209609063e-03 2.1563078737212829e-03 -1.9077384119531257e-03 2.2904358697511977e-03 -1.1337887569101532e-03 -8.3495163505109245e-04 -1.5105503213519965e-05 7.6142998915945601e-03 5.5139283249645767e-04 -4.9297052645398055e-02 -3.7538820718903739e-03 -2.0641190943822187e-03 2.2944156306146739e-03 -1.3449784822329924e-01 -9.6269633814509356e-03 -2.6659664004399779e-02 -5.6997630381529746e-02 3.6119729817191276e-02 -5.7970915077893564e-04 2.1394819817698849e-02 -8.0261181542424648e-03 -6.8381471595773125e-02 1.7425678971287765e-02 -2.0551554446645004e-03 -6.7017151888818551e-03 -5.2554452459932129e-03 -3.0436028594576822e-02 -9.5259007530914229e-04 -2.4460908650311966e-01 -1.8458742764759360e-02 -4.9547421712583688e-02 7.1424998218830062e-03 -3.2907978599246968e-01 -1.6046705785959514e-02 4.6987174223621017e-04 -2.4266589682191399e-02 -3.0085033276958540e-03 -1.9771652701551269e-02 -3.9515241462071748e-02 1.4155689811942776e-02 -2.3554522757650798e-02 1.5526676853308113e-02 -1.3261700177908129e-03 -1.0173045550888837e-02 6.1219426406167350e-03 8.9500545485962563e-02 -5.0961931512925234e-03 -3.9199455492748331e-01 -1.0825172043636144e-02 2.3273748047113810e-02 -1.3380357406171682e-02 3.7132141812168401e-01 
      </Row>
      <Row Index="35">
        3.0422840359183596e-03 -3.4277975850800502e-03 5.2073340708315430e-04 2.3419654679979771e-05 -1.1692222815016876e-02 -4.4988423817277079e-04 -3.1132250456870729e-04 -4.1517023670163272e-03 -1.7557045787388731e-03 4.9078207455578180e-03 1.4103849234951018e-03 7.1671317222213185e-04 -1.0927703496063246e-03 -1.1014579928776661e-03 8.0222898641885978e-04 7.2748790281645329e-04 3.6564174442815511e-03 -3.5334107164775377e-04 4.3697430994520479e-03 -1.0505325197702874e-03 4.5402016732730421e-04 2.6627634584586238e-03 -6.1956170823076464e-04 1.7645521054743818e-03 -1.0098288507270400e-03 -9.8888778501427096e-04 2.1371493980888619e-03 2.5884796880978056e-03 -1.1193062257190663e-03 1.0112241097648064e-04 1.2902961044065908e-03 -9.2295497029145051e-05 5.6241441847814863e-04 6.6581711609783869e-03 -8.4632152947683448e-06 3.2172062801318339e-02 -2.8655749329014185e-03 -1.1608634985979527e-04 9.0931402396536368e-03 3.9986618737830604e-04 -3.8843459518081852e-03 -1.8212744037476520e-03 6.6868693666564585e-03 8.8545716693210668e-04 -5.0801174145076455e-05 2.0791683417037124e-03 1.5873546129150099e-02 5.8656837555766117e-03 1.6901280187408205e-03 -2.2803200693309496e-03 1.8338527746571771e-03 1.4076964303267412e-03 1.5783877590161664e-02 -2.6774114475487613e-03 -1.7068554732646721e-02 4.0054894603426745e-05 -8.8941640916575561e-04 4.3469384846922254e-03 -3.0507243437432091e-03 -3.1696157455803411e-04 -5.5018675947524640e-04 5.5822286090371652e-03 4.7498518720448654e-04 -9.1654785515226864e-04 -2.0057137279687332e-03 8.9389811008053037e-04 6.3613107286323743e-03 6.0076309569166578e-04 -2.5924076383765236e-03 1.3905347947361420e-03 2.8287150092719594e-03 1.4827602669956752e-02 -3.4795626896426540e-03 -1.3426221098407604e-02 -6.6443435345563888e-04 -4.0077253288161828e-03 -2.5570983947743042e-03 -4.3321971916927869e-04 6.5562052071396933e-04 -1.1471147366537773e-04 3.3606008919061271e-03 -4.0687100253625902e-09 -4.0406483721068791e-04 -3.3599343741928800e-04 -8.8023995053089915e-03 -6.7291523224665643e-04 5.5433055143549580e-04 -1.1983821601534975e-04 -4.9096456946448380e-04 -1.4566272467852331e-04 3.5707231349218407e-03 2.2749673211943373e-03 2.6454471221299802e-03 2.2254943173778967e-04 -1.0688207904337148e-03 -7.9722033205931221e-03 -2.2589875501251907e-04 1.3166856210160686e-03 -1.3773946157590914e-03 2.3080778468199309e-02 5.7859729322149952e-04 -1.3057182160055489e-03 -1.3869169409973670e-03 -1.5572002585742782e-03 -1.7693055118195847e-04 -3.0984439475849443e-05 2.2298561988187303e-04 -5.8255814235349743e-04 6.9531658818161070e-04 8.5988510381790374e-03 3.3425839003938689e-03 9.8740458096722508e-03 -9.6246984527106536e-04 -1.8350265957362815e-03 1.9751298901353508e-03 3.4683885447854004e-04 7.5228723418389073e-04 -7.2222310329593065e-04 -1.0681129996058015e-03 2.8332694791495208e-04 -5.9395047509421407e-04 1.0294622399533975e-03 -4.1460565211179981e-03 -2.1749848555816993e-03 5.2132536966524167e-04 -3.9614546146437716e-04 1.0525726632559104e-03 -1.3230843678980087e-04 7.7986731087044772e-04 -1.6071969459844401e-04 8.7935583033467782e-05 1.7031552991129603e-04 -6.4709207351933851e-03 -7.3989286151306696e-04 -2.2155736925227973e-05 1.8073304634621255e-04 -2.3017983274244979e-04 -1.4603141561649372e-04 9.5109401812715642e-05 9.5217446654296916e-05 -2.3838583127262769e-04 -9.4269093722736087e-04 -5.2724778475808371e-05 -2.2017625333485987e-06 -1.4043615095642273e-04 -6.1183873059756787e-05 -4.6255945246502310e-05 -1.4563351662717043e-05 3.8825520232004245e-04 -7.2780986728899198e-04 9.6027182019949291e-05 2.5987287707314189e-04 -2.8828920342971668e-03 -3.0440133593798201e-05 -1.5813928102364019e-04 1.3007905474699630e-03 -2.6109727335963530e-03 -5.9319894297083745e-04 5.0155211856677407e-05 1.3526244453551106e-03 -5.2868171154723982e-03 -6.9547933077155830e-04 5.9050141495097669e-04 1.1693895078870734e-06 9.6580109909511240e-04 9.9626396300057712e-04 2.3360501028827484e-03 1.1748354010216093e-03 2.0453688462391058e-03 -2.3022586706849309e-04 -2.4236379325323094e-03 -4.2244479070162322e-04 5.8571110632592532e-04 -1.2911371885197115e-04 3.5299308460647473e-04 1.4285529999711480e-03 -1.6220769951903399e-05 -4.2323919666708426e-04 7.3190569652801379e-04 1.4488307278479363e-03 -7.0613815191675720e-04 -5.4428253600969354e-04 -3.2725598507654416e-05 -1.3816607112803270e-03 -5.0539793920649381e-04 2.6089221254944715e-04 4.0427474099328370e-05 -2.8345322076573525e-04 5.1916559220339790e-04 1.1445981196110538e-03 -1.4167818816748991e-03 4.3032625162003468e-05 2.6184246054374630e-03 -5.3900262598681231e-04 3.9352179122947818e-03 -4.5926306465105226e-04 -1.4171584379797739e-04 8.9966848291011116e-04 -8.3037487572280872e-03 -1.9034325784252225e-03 -3.8717118903192001e-04 -1.8885512774068913e-04 -1.9590781096423945e-03 8.9320716146703422e-04 6.4672805751574049e-03 5.3618756476851866e-04 5.5319973862237061e-03 -6.2883697228639400e-04 1.9209154153840844e-03 7.7963796021543654e-03 2.6553810988974025e-03 1.2464724914937509e-03 -4.1564344963291510e-03 -3.5452918030716415e-02 8.6816297097375020e-04 5.2869971522117769e-03 5.5702046332044546e-03 3.4126570719704478e-03 1.2956159391189027e-02 2.3989423503470307e-03 3.1933072147503280e-03 -4.2673477954980896e-03 -3.8540538043295254e-03 1.6118457684848641e-03 8.7976365255341971e-04 -2.1531691182269767e-02 2.3569666267382362e-03 1.6691243416137418e-03 -4.0219977097297943e-03 4.8730919585197874e-03 -4.2089218889431422e-03 6.7844570363023715e-04 -2.4332071167991513e-02 5.0860636590116682e-03 4.6450020050068548e-03 -6.4889535102854064e-03 -1.7138294459667226e-02 7.3801696939964851e-03 -1.0240909051858274e-02 -1.6350477212345588e-03 -2.5999407542564544e-03 7.2501997016877484e-03 -4.4841540678638943e-02 3.5092684866078238e-03 5.9402878274435883e-02 -1.2973688904126084e-03 -2.3174484557337505e-02 2.4726816883360116e-02 
      </Row>
      <Row Index="36">
        -5.5616449124701794e-03 -1.3563199757344151e-03 1.4225793073129891e-03 -2.2046661618221088e-03 2.3924279182711800e-02 8.9176270288222285e-04 4.7659008473867163e-04 -1.6762656382127220e-03 1.2773621025209139e-02 7.6950457750455574e-03 1.2676762486306876e-03 2.7896264191161089e-04 -5.2935350310765565e-03 2.9329590989324280e-03 -5.3376088230133398e-04 -1.2651061706398722e-03 -1.5431982684075112e-04 -1.8838946079602917e-02 -1.2896018628613020e-02 1.4728101580628152e-03 2.6285459529839473e-03 1.0258561408368429e-02 1.3685968020440706e-03 3.5165558064465495e-03 1.8063392284038103e-03 -9.6703896679352418e-04 -5.0736504440037659e-03 -1.6541428007075074e-02 2.2715777139841837e-03 6.7340645973477074e-04 -2.0534920079324261e-03 -1.8096045496440959e-02 -2.7973407983603550e-03 6.0243791485500506e-04 -6.0798675504859581e-03 -2.8655749329068387e-03 7.9423281806057122e-02 6.5614463274549359e-04 -2.0032977543113745e-02 -1.3681543466902424e-03 -1.5993422688436315e-03 -5.1241393796145306e-04 -1.4908002848363295e-02 2.1141253676390617e-03 4.1299376481403541e-04 -5.8986618548475134e-03 4.1688977526486547e-03 3.9510078742436248e-04 1.4103915290996877e-03 1.8998832211773002e-03 -2.1234314957860223e-03 2.6946899747113799e-03 -1.4230253761902531e-03 -2.8911286158562616e-03 4.1418524908407028e-03 1.2788672792114510e-02 1.5427062536601966e-02 -8.2214291932382888e-03 2.0503754493608030e-03 6.7169449600388946e-04 -1.1481741695828551e-02 3.6805307356859488e-03 -2.0209585073225661e-03 -2.3817559365250929e-05 7.7381822477677609e-04 -1.6726897949551792e-02 -1.0384110848285157e-03 1.6641993134091726e-03 3.4291053193884332e-03 -5.9769354898439380e-03 -1.1098501332775781e-04 -1.5251737496840001e-03 1.4223862302637693e-03 4.5000667757289919e-03 -1.4400378561752733e-02 2.1903619354791893e-02 -2.2520400319859871e-03 -1.5931127669941774e-03 -6.3868277075588530e-03 4.5151405268904141e-03 9.2647059949104230e-04 -4.2436224294618852e-04 2.1292177743760690e-03 -3.3210837039487143e-03 -4.6777777680594851e-05 2.6589906029414814e-04 -1.8019557888872492e-03 2.3511485875192016e-03 -6.2673262976301637e-03 -3.2786373623285444e-03 -2.2569607846153257e-04 3.9011340534328091e-03 3.3565160521071999e-04 1.2868187644396633e-02 1.6645306203071417e-04 1.8635884577686687e-03 -4.8481859707712833e-04 -6.2747644496024277e-04 -1.4210720232374786e-05 -1.7141070612832522e-02 4.6422648072465652e-04 3.5498002834720094e-03 1.2713822546728572e-03 9.7936788152303278e-03 4.3578426727197044e-03 8.4745780852511993e-05 1.1951484071261469e-03 6.0198933334659997e-03 2.4702542464925424e-04 -6.3771910601746740e-04 -2.1469693053007390e-04 -2.8950349407483823e-03 -2.8622417974513851e-03 -3.6372836415770288e-03 -7.2771739175884354e-03 -2.0527208117705302e-03 -9.4818029300192588e-03 8.9495249965871500e-03 9.2643023533111528e-04 -2.1769368118111313e-03 1.4018821886367465e-03 -1.7316230704821425e-04 -1.0312907575956185e-02 -1.2957815878881685e-03 -6.4730696022853775e-03 1.3022988148024932e-03 -6.1310729911645198e-03 -7.4872181669012744e-03 5.4787028200583296e-04 1.6572438673618205e-03 1.7446401139989507e-03 6.7022353562875975e-02 1.4247385472120967e-02 6.4731005581107224e-04 3.7903756048125818e-04 5.7940569049501822e-04 -3.1662988557684620e-04 -1.6251004081759219e-03 1.9530794832271062e-04 1.1849020397721401e-04 3.3579210116426470e-04 4.1306914101143502e-04 -3.5432062107771577e-04 7.2701818488662176e-05 2.6075728919579765e-04 8.6519894491108988e-04 3.3988443635606601e-04 -1.3609596548657624e-05 2.7438826631821835e-05 2.0450225666666190e-04 1.6331283992483225e-04 -5.1731932438581240e-04 1.8655360389047162e-02 1.3153489321382572e-03 -1.3992111508042970e-03 -1.9553512329261152e-04 -1.1962711674690461e-03 6.3196543674206847e-05 -2.9541879328787754e-04 -4.5530527943739357e-03 -1.7763201172903201e-02 -2.1095681092938071e-03 -1.0933859397890635e-03 1.2649384789706705e-04 4.8380763701744685e-03 -4.8026936995795204e-03 -1.6631094185759845e-04 4.3649472383237957e-03 4.0216404939503688e-04 2.1463469185351871e-03 9.1625442027649419e-03 3.6928436626380914e-03 1.9115347162769365e-03 -9.1202568459948508e-04 2.1450112263209833e-03 -6.7189382432331773e-04 1.3993967170768543e-03 3.6646828896915937e-04 1.9533484414286477e-03 1.7699819119920204e-03 -1.5980445549651926e-03 1.0566220909234030e-03 -5.4734819011081903e-06 -2.2011856051684448e-02 -3.9374008126045502e-04 1.5133501686191361e-04 -1.1663800915865737e-03 8.9082935988637167e-05 -5.2426722635876884e-03 -3.8256529800323731e-03 -7.4003345046494279e-03 1.6077660476133907e-03 -3.4183405326658923e-05 2.5585719364919213e-04 -8.0966927041403475e-03 -1.0197304386812623e-03 4.7136887434938419e-04 3.6478087163034217e-03 -4.7404598788475241e-03 -4.4834623213548235e-03 3.4464193163389180e-04 6.0854556357585563e-04 3.3720978958961950e-03 -9.9282990165084142e-04 -5.2050803361943778e-04 9.5231226307508307e-04 -3.3928172952919810e-04 -9.3956172793590621e-03 -5.4858260626911171e-03 -2.1543736781296372e-02 -2.9699444902669099e-03 -1.8717169312708660e-02 3.1949142600193785e-03 3.4878381658764550e-02 -5.4346396866498670e-03 -8.8580309038230158e-03 3.4974647264321198e-03 3.8465913703475990e-02 -1.2832650455696926e-02 1.0249937484102033e-03 -8.8766851339124042e-04 -2.1385002843091833e-02 2.8251840248736948e-03 -9.8739222492949389e-05 1.2142201681336617e-04 9.5914365947505943e-03 6.0525817914477933e-02 -1.1822697213242630e-02 7.4626704097072769e-02 -3.4655816678441365e-03 4.8162216427089996e-03 1.4175370352469231e-02 3.0550460758273910e-02 -2.9545860640510409e-03 1.5502026624693983e-02 9.4385109423035796e-03 -3.2822892633771680e-02 1.9577316635007971e-02 -1.0022353097223121e-02 2.6549844824007528e-02 -7.9456412574630098e-02 -1.0604526574182649e-02 3.6517994997165839e-03 -6.6019392286116845e-03 -9.5422046357773009e-03 -1.9350094347930794e-01 6.5624969871254157e-02 -1.0332111996322835e-02 
      </Row>
      <Row Index="37">
        2.2295835265829984e-03 -4.9584150766622259e-03 8.1557560778224133e-04 -2.7934694616506875e-03 1.3518649291526475e-02 5.1610156645328954e-03 -3.1268907533669663e-04 -1.4913411841585567e-04 -1.3698004088922428e-02 9.9512886193984119e-03 -5.9347643297804568e-03 6.3623593625805044e-04 1.5517224747696615e-03 -4.0686574832595086e-03 -1.3399821831051267e-03 6.6451648638560937e-03 4.6447676234904929e-03 -8.2348202323848096e-06 -1.7548063295612280e-02 -1.0809593187026335e-02 -2.0822022101151319e-03 6.2263428251618791e-03 -1.0515407023435862e-03 -2.8036774011735599e-02 2.5968424006656545e-03 -3.5037131752483383e-04 -1.9938739298644495e-03 4.7606612392436382e-03 1.1578213217290471e-02 -5.0440588541708561e-03 1.5403345926655321e-03 3.2073270100532931e-03 -1.4389999602264182e-03 1.0376220394394189e-04 -2.9701747146715363e-03 -1.1608634986605372e-04 6.5614463274804580e-04 4.5452282044813448e-02 -3.2020383379572706e-03 5.1505755546676912e-04 6.4977440530603059e-03 -1.6346667040499849e-03 -1.9539995656344556e-02 8.2178933709865440e-04 8.3647643840306651e-04 -2.3196699678662593e-03 -3.6342472445922286e-03 -7.3955575854168362e-03 -4.4449598512348414e-04 -1.8111527038198461e-03 2.8020759304188468e-03 9.9374343882103165e-03 -4.9753639121590237e-03 2.5843629435301080e-03 1.7522822433464813e-02 1.6114373233199687e-03 4.0041202581387235e-02 2.0944829181379632e-03 -3.8488789455622336e-03 2.0713806136142127e-03 -2.1582530345128229e-03 -1.6026764909849913e-02 5.0055995084865960e-04 1.0663216495015101e-03 1.7957963807853083e-03 -3.2558991187440836e-03 3.5202663539877117e-03 9.6226555646392042e-04 -1.5507423749564339e-03 2.9344453334817795e-03 -9.5594737498709264e-03 -3.2868297932833745e-03 -6.7456112662403270e-03 1.1066343778553303e-02 -4.3519024641797827e-05 3.3413437165121393e-02 4.8817108617651810e-04 1.3521305939109697e-03 -6.4786282395734238e-04 2.0419038297567627e-05 7.1442507138847417e-03 7.9531442576094135e-04 6.1480418225430024e-05 2.6083044668945288e-05 -1.3819451294141971e-03 2.9468536516765427e-03 -3.5856872699184441e-04 3.1159688247738536e-05 2.6649906053204282e-04 4.2554992961531344e-05 -4.1457146098591001e-04 -2.7491366778917975e-04 -1.3859411271920480e-03 -3.5606743592539198e-05 5.0034758552167623e-04 1.9982039616597558e-03 -1.6101917369353664e-04 -2.5776364513395828e-03 4.6265565353597487e-04 -8.0020773429833707e-03 -3.6279370867769306e-04 -6.1012587685326542e-05 -4.6199852519381284e-04 -3.4693222152986578e-03 4.2366183080994003e-03 2.8862986760454321e-05 -9.3918043701522909e-04 -1.8762676152383915e-03 1.6257634834548939e-03 -7.9433223333759233e-04 1.0995469117247537e-03 -5.4426327268283772e-03 9.0766347533922627e-04 -4.7329721759528142e-03 -2.0958206031405045e-03 1.0801548647724481e-03 3.6585369950172283e-03 -2.3846583426180659e-03 -3.6257839928789254e-03 -1.4069245039945804e-03 3.6451497232958558e-04 -2.3034333519077188e-04 1.8469814387594222e-03 4.9690666161949833e-03 4.3810109323957121e-04 2.2189867066837142e-03 1.7036380652707638e-03 7.4010233662004724e-03 1.3587221024473676e-03 -6.1038088832338104e-03 -1.4662085589614935e-03 -1.6511331014391754e-04 3.6497152821039949e-02 1.8435142278006697e-04 9.7263541361921431e-04 3.7868612123295330e-04 8.7864457709175734e-05 -7.2661670456984368e-04 -1.5068864201611340e-05 2.6080281728148800e-05 6.7717214143828966e-04 1.8507994478661081e-04 -3.5457024889069691e-04 2.4481186680068689e-04 -5.0992483457556949e-05 6.6981526243444642e-05 -3.9457609325921881e-04 -1.5139248555249340e-04 6.9328455614725104e-04 3.5764790633292576e-04 1.3539794506465548e-04 -5.3038679808074785e-04 4.6350324878611550e-04 -8.5096844295250076e-04 2.1276427361841656e-03 1.6671144148459399e-03 -3.9715206138589230e-03 1.2302489251845728e-03 9.7799079002655631e-05 1.9182130089387822e-03 3.9177100572026528e-03 -6.9073592835843679e-03 -2.1343187187812957e-04 6.8621551137682619e-04 2.6005463063169965e-04 -4.2077745062098675e-03 3.1310240599145768e-04 -5.1097280020521588e-03 -2.0290504196164311e-03 8.9061699111644098e-04 1.2800595387845467e-02 -1.0228695349012717e-04 7.4603726918271232e-04 -9.8173467913894100e-04 1.6659846647287769e-04 4.2034607090377565e-03 -2.3402284488714155e-04 -2.0637984345056918e-04 -4.3081610061079800e-04 -6.1715362815831232e-04 2.3752854137174852e-04 1.2178902714846044e-03 -4.3026000180618369e-04 1.9086256750409925e-03 -1.2408791661072324e-04 -5.0978941083396870e-04 -2.7300047017900621e-04 8.6291938296343524e-04 -1.3016602328131913e-03 -8.3412015176980228e-03 2.3773500536528429e-03 -3.8572026621872934e-03 -3.5138674236446037e-03 1.4602097837699949e-03 -1.0552555819090042e-03 1.0056122884038430e-03 -4.3394397195241721e-04 -3.0057318973288304e-03 2.2030061061203195e-03 -6.9426196846485407e-03 1.8429034099602505e-03 -1.4860054505481683e-03 -1.6954692364427419e-03 -1.4199026256132459e-02 -2.2369368077064557e-03 2.9286658307369285e-03 -5.8992222430437682e-04 8.9318646332031031e-04 -2.0318542497910319e-02 1.0512515127303551e-02 -5.9879635924196470e-04 2.6945953712505140e-03 -5.2700591030255695e-03 1.6166594326083708e-02 -3.4546449662219516e-03 -9.6230493857961744e-04 -6.6868964327178437e-03 -1.1622167964249027e-02 -2.4131234462421543e-02 -1.0250678162917982e-02 3.0382190980288298e-03 1.9116794188597458e-03 -1.5976495583855221e-02 -4.8750967416356763e-03 9.7749880155128255e-03 1.8004437660237703e-02 -7.4631068925617872e-03 -3.6641099674291140e-02 1.6877407631896442e-02 7.1775368486100104e-03 4.5338550316597892e-03 2.2625582775620233e-03 2.3161626008060810e-02 -1.5374876976421561e-02 -1.3951555842913795e-03 2.6260532598721825e-03 1.9477223785498224e-03 4.2840397271013346e-02 2.6210046288013863e-02 -9.1310162189693032e-03 1.0587824151058942e-02 -6.2412613905573705e-02 7.4593236639330408e-03 1.4609433060397407e-02 -2.6907351113517587e-02 -3.7958146872041458e-03 1.3765954964425195e-01 -8.2031533447892338e-02 
      </Row>
      <Row Index="38">
        5.3361599124356160e-02 -1.3956022814995972e-02 1.9014622378021092e-03 -5.7986395556225488e-04 -1.4646546616666570e-02 -1.6287470042485319e-03 -3.0662309362833318e-04 -9.4421232388493648e-02 9.3430818037179737e-03 -1.7918217414370332e-03 7.9907549371058817e-03 2.3696100570245460e-03 1.7245647800748058e-03 5.7999516246972881e-03 1.8938811146943599e-03 -7.3135625506089829e-03 2.7856304262859461e-03 -8.2817636419098561e-03 6.8850760176342499e-04 2.1086927050344759e-01 9.3534726783677802e-03 1.9994706727593625e-02 -7.4470667584401601e-03 2.2909352816505413e-02 9.8337841778911497e-04 6.1015126017349534e-04 4.8798106329554003e-02 -4.4131283616880790e-02 -7.6103879406215214e-03 9.4198375509152998e-03 3.9348730928805420e-03 5.7895036371486269e-03 -2.1876310866477816e-03 -2.5390361791971516e-03 3.4311424857397466e-02 9.0931402396937921e-03 -2.0032977543235186e-02 -3.2020383380270373e-03 3.5646080218643472e-01 -4.7786532966869188e-03 1.8144617254417295e-02 -1.7560999095854835e-02 4.0340756153522152e-02 3.0095927154350443e-04 -1.9403164585570787e-03 6.1356089665026724e-02 -7.2836673354105458e-02 2.9723491702940146e-03 5.0108941000761393e-04 -6.7254981932993729e-03 -3.1389966242854677e-03 -7.4812649267716417e-03 -1.0352876646081742e-02 -7.3921781378906599e-03 -1.0823491561881671e-02 -1.2108085058278879e-02 -7.7006001025051157e-03 1.4600191760526071e-01 -1.3557395772457986e-02 -4.2433835087805453e-03 -1.3170488328539962e-03 3.7821608348367189e-02 2.1417994471538619e-03 -2.4876637944930627e-04 -6.9408427695343278e-02 3.1637332227572659e-03 5.9485006995066685e-04 3.2029785655434302e-03 -1.1586319692502751e-02 -5.7586641540558012e-04 -3.3486770235612870e-03 -1.2957858150087986e-02 8.8223962477893252e-03 -1.4058347912485083e-02 -8.0488090469219339e-03 -1.2989959505823601e-03 1.7957073758361922e-02 -3.8374924504653451e-05 4.4587991730150236e-03 -1.8373435287853679e-04 9.3945710749639383e-04 8.1438773700699403e-04 -2.7314751474433016e-03 8.1638177495446662e-03 5.2255773173737197e-04 -1.7307819531487099e-03 1.5629228186324938e-03 -3.8173513397774959e-04 8.1767175987019212e-04 6.0689543229946975e-05 -3.2197314833332162e-04 -3.5802335261240028e-04 1.5496706245964409e-03 3.9435362746194510e-05 -4.1850050849969378e-05 -4.3958686368349854e-02 -2.4031123233603157e-03 -3.7280471552809133e-04 4.6367328621146993e-03 2.8094390702065944e-02 1.6016498639749577e-04 -6.8105225841250871e-03 -3.3841009082453558e-03 -2.6228288485574947e-02 5.6767062827207384e-04 -1.1097991499630444e-03 -1.3306442675688210e-03 -5.9332627903705866e-03 -2.5418383892386797e-03 -7.2325098984880485e-04 2.0495105610757441e-04 2.2741479592027531e-03 3.4727210252474047e-04 1.3474372450271929e-03 1.6157873385307575e-01 -7.0610469764723557e-03 1.0024755910444296e-02 -8.3181902545271594e-03 -3.3463522739091501e-03 6.4640048443534359e-03 -1.0744857653567394e-03 6.5243976569427098e-03 -2.7262173680622188e-02 -8.0700628726937118e-03 6.3321909049042684e-03 2.5436116911941482e-03 -1.6988829003388408e-02 -3.6323742953147256e-03 2.1037943443614369e-03 1.5188691080153371e-02 1.6618753844908404e-03 -1.1547290125770023e-02 -2.8294359469913793e-03 -1.6800638072070404e-04 -3.0470127805227974e-03 1.2105279536018257e-04 -1.4828440371035507e-04 -1.8671024424499112e-03 -3.7394486547124103e-04 -1.7965142709019407e-04 -1.8102260106590805e-03 9.1502100337907341e-04 2.6197528556108629e-04 -3.3458159626635674e-04 -1.7027747603045486e-04 -1.7924544711684068e-03 -3.5271535610663818e-04 -5.7807117820732575e-06 1.1118700119264785e-03 -6.8932760617972306e-04 -5.7993616975009969e-04 2.1426609609051322e-04 -1.6399500286073831e-01 4.6508062704531897e-05 -8.2976759424781710e-03 1.1867236262112531e-02 4.6097619205072871e-03 -7.9195734996423493e-03 4.5446736735230663e-04 2.4863496141416985e-02 6.4377645610270928e-02 7.2596431276973124e-03 -5.9085575046730647e-03 -3.1196526603540151e-03 9.5872844938614376e-03 -9.7057249994649333e-05 -6.5293341344284331e-03 -5.3519770076267334e-03 -3.4980293177987181e-03 1.6223183299367908e-02 -3.2932305019699316e-03 -1.5688486346565091e-04 3.6371223030632963e-03 3.3151588320216650e-03 -8.7809048195517519e-04 -1.6424876394267734e-03 6.9471165619814995e-04 -5.9329867540485219e-04 2.3380625610267103e-02 -4.7373900627609919e-03 5.8463031548241663e-03 -1.9001575839937357e-03 8.2633159531430959e-06 2.2276303831601681e-02 1.7744361154517264e-03 -2.2147453794362252e-05 3.9695659481009844e-03 -7.8557490365928524e-04 3.7538210390545364e-04 -1.1100376342149110e-04 3.0157724600579763e-02 -3.6220773119157845e-03 5.6216630126842086e-03 -1.6770689701003498e-03 6.9945193209185099e-03 1.0831227255679986e-03 -4.6031996806924282e-04 -3.4631983173118705e-02 -2.5134197891891986e-03 -3.2421311285715584e-03 1.1688364301777141e-03 1.0429589012654963e-03 -5.5475637497848212e-03 6.9646125019379428e-04 -7.9700766724942603e-04 -4.0709610611151890e-04 2.6918967023322514e-03 -1.7879771169254178e-03 5.1406325403680238e-03 -1.3943524237641494e-01 -5.0302810351456201e-03 6.3123212586981475e-02 -5.8323529488590209e-02 -1.3492119146079090e-02 3.0508354635148088e-02 2.0580144455853329e-02 7.8038424621006408e-03 -1.9224440311954935e-01 -2.0156396323653687e-02 3.6347748617470636e-02 2.5609798992634710e-02 -4.2874460673760259e-02 2.2650093426836805e-02 9.0041565301613238e-03 3.5054253263060220e-02 1.7546396013993753e-03 -7.2760177410127982e-02 1.2863627745956410e-02 -7.7087594227701894e-01 3.8951091353772505e-02 1.6768784397878281e-02 -1.1286385530814014e-03 -4.4725803864672897e-02 1.4463694704577063e-02 -3.5595288393704232e-02 -2.0657363956150929e-01 7.6739432411273484e-02 -1.2351037453540294e-02 -3.2808901311753715e-02 -2.5632886948710437e-02 7.4280361753412461e-02 9.7128312143844736e-03 1.4489949821586676e-02 -3.5123694748693875e-02 1.9553916209563288e-02 8.7652047984622949e-03 -2.3017000573922836e-02 6.6151674314256825e-01 
      </Row>
      <Row Index="39">
        -1.8906274364955452e-03 4.7750603722158502e-02 2.0668606304001313e-02 1.8404713065224621e-03 -1.4590516978447588e-03 1.0388018273650539e-03 -1.8840574637104049e-04 3.1757858578023768e-02 1.1551346445630918e-02 -3.7086138941968150e-04 -7.3786305250991835e-04 1.1527469126916046e-02 -1.3660344341409468e-03 -4.3283438020013379e-03 -2.2760539120024723e-03 6.4526137448295464e-03 -3.6540216097483615e-03 3.1966539055677812e-03 -8.4702358190154683e-04 -1.0859069206246172e-02 -5.2454132424001695e-02 -9.1813762402559174e-03 -8.8681681024653514e-04 9.2519243781499783e-04 1.5063516532661872e-03 4.7141124892780906e-05 5.9917898968283645e-02 -2.1448322204796588e-02 -2.3164219468110002e-03 -8.7851934998336295e-04 4.4609841804695016e-04 -1.4480824135835197e-03 4.2301065116229081e-03 -4.2794915385556236e-04 3.3485773646027006e-03 3.9986618737823144e-04 -1.3681543467006785e-03 5.1505755546045473e-04 -4.7786532966630404e-03 2.0327372775378139e-01 1.6364928176212157e-02 -8.1447111132176286e-03 -6.9564430743576889e-03 -2.0848059161535175e-03 -2.1786160658663623e-03 3.0378306949788436e-03 -1.4484756977061232e-02 -1.4429370468881384e-03 1.6653047890970360e-03 5.1046370834903487e-05 -2.1318330936763424e-03 1.9030782643931519e-02 -5.5412070539865785e-04 -1.0683196498346120e-02 -3.5943145141430488e-03 -3.2272109014908467e-03 2.8384974384393011e-03 -2.7712484935962789e-03 1.4413968937084182e-01 2.0653922772379891e-02 6.1636713815698711e-03 9.8664691291198130e-03 1.3343382777873686e-03 -4.8293375647858426e-04 9.4188536283305035e-03 2.1602690276574001e-02 -9.9250051097337331e-04 1.5326090725184685e-03 1.7898187401109780e-04 -6.8721221574724600e-04 -2.1207908303419561e-02 -3.9909631228126630e-03 1.7655157550663089e-02 -3.1157347458396958e-03 -3.4784911117125145e-03 2.4984770587312480e-03 -6.6507803790624622e-04 9.2769185850811661e-03 3.1248448580648951e-03 -1.4068004298764202e-03 -1.1614780893036449e-03 9.7171471362655828e-04 -1.8432319375109797e-03 -5.5841651242068135e-03 7.9148054373308352e-03 -2.9963191870590114e-04 1.2366337204098338e-03 -9.2654111620231201e-04 -3.4186441461576565e-05 -7.5602515338624946e-04 -2.9739483226647674e-04 1.0862897537409818e-03 1.7502419488790786e-04 -6.3611587076990456e-04 -3.3589227403045660e-04 2.9822002251660039e-03 2.2190360128356915e-02 1.1832712697952335e-02 -2.6649693430044717e-03 6.9699258912831706e-03 9.8635160121807175e-04 -5.4861968176456661e-03 -8.0037223994895504e-03 1.8860917676901671e-02 -3.5292148244154067e-04 2.0096526390954235e-03 -2.5472619279451386e-03 -1.3897150171116313e-03 -5.2037648808009786e-03 -1.3499722576244279e-03 4.3803557520301880e-03 2.1969678566569066e-03 -2.5279067388355109e-03 4.1102145172390754e-04 -2.3090130045701068e-03 -1.7417175536362441e-02 -2.0779661704671635e-03 8.2460001271149395e-04 -2.1312614688540153e-03 -8.9314032301767289e-04 2.1131954769569350e-04 1.9957710057549219e-02 -1.6967062271868442e-02 -1.8984760021372232e-03 -1.2377590003141514e-03 -9.4459562186742074e-04 -6.2993716169697559e-04 5.3847261855273030e-03 -9.1427688413358871e-04 9.1243496619772269e-04 -1.2821761310315509e-03 -1.9116147245471767e-03 5.5078947316957458e-04 4.8799402872478238e-04 1.0391076917329952e-03 -3.4606997623407238e-04 2.6190137412040283e-04 -6.0039732445281804e-04 -1.6427525213817015e-04 5.2493652302785143e-04 -1.1761245439723886e-03 1.6233703410821940e-03 -6.3853227411926660e-04 2.1527402643217432e-04 1.7450881859381494e-04 4.4791520497551888e-04 -3.5815097404469972e-04 -1.2232079682173618e-04 -8.0686628214211669e-04 3.9766730165004114e-04 9.5745268254234742e-05 4.0815522499841774e-04 1.1419171650993900e-02 3.1415984724658050e-02 1.2595217419127173e-02 -1.4749982789649997e-03 -8.4854783826929583e-03 -1.7866885060365857e-04 6.7482062953029478e-04 -7.9534987212637603e-02 1.0150241577692230e-02 2.5638733492118490e-03 1.0480207190866711e-03 2.6222866205868247e-03 -4.9126610993163473e-04 -3.8940466847138359e-03 5.5144371020757318e-04 8.5417249964926823e-03 1.2347308870755943e-03 -1.7258856959293609e-03 8.7887223370619778e-05 5.4712058191705437e-04 -1.2361014333859097e-02 -5.3194050153488022e-03 -5.1616857507455136e-04 1.0301975596229938e-03 -7.4692656836917656e-05 -1.6132513888197572e-04 8.5617909199586784e-06 -4.4019237528392097e-03 -3.0469174752572811e-04 -6.7565985783432864e-04 -8.2568321543080234e-04 -6.1066014263653004e-04 8.2790928846762256e-04 -1.0820310574213518e-05 4.9669241774678852e-05 8.0767355635786610e-04 1.2404204449252922e-03 -8.5924984842860805e-04 -2.8492333307789108e-05 2.9553603527087635e-02 1.1993832878255100e-02 1.1328349978777562e-03 -7.8678598300289428e-04 -2.7268926489438058e-04 -4.0113394301122545e-04 1.4292248557184473e-02 2.5671831318562280e-03 -4.4204195657739261e-04 9.6053863924314175e-04 3.1664668649968855e-03 -2.9651155490976707e-04 -1.6518781468935120e-03 -4.8902193674536408e-04 1.0859100663407027e-03 -1.1757870529640270e-03 -7.5960642210772759e-05 -4.8951700598002046e-03 1.7932423119506116e-03 -6.5844775347359302e-02 1.3963453191605951e-02 1.8660957332078742e-02 -1.2725410297940762e-02 -5.8286738057574481e-03 1.7604756972214294e-02 1.9066442563622998e-02 -7.5168627439664640e-02 -4.0562698335401097e-03 -6.9764940194994539e-03 1.2023522817865340e-02 -1.9619279172423754e-03 7.2509348105781121e-03 -7.7373192090346779e-03 5.1906015284182427e-04 -1.9458539824477802e-02 6.7719061045076823e-03 -9.3145797374802278e-03 3.2159725985724079e-03 -2.4990789194461635e-01 2.2771431988681326e-02 -1.7558511042240304e-02 -1.6759299574683407e-02 -9.5141481676801875e-03 -2.0444456789286067e-02 2.7892329883316147e-01 -2.0229067361511258e-02 -1.8216354506475699e-03 -8.3872377688695259e-03 -5.6140479625351875e-02 -2.4959250575184075e-03 -3.4505400510974074e-02 2.9918188859239920e-03 -2.4672088812361232e-02 6.6468507526713143e-03 7.1875890519987233e-03 1.0437609417901707e-02 7.4833684055915409e-02 
      </Row>
      <Row Index="40">
        -3.0332047277971501e-03 3.8933538165477732e-02 -1.1772378080307211e-01 -1.9627330588920869e-02 2.5076627491030040e-02 2.0148687440947222e-02 -1.2285923052837711e-04 -1.3805137756751978e-01 2.6990090175394950e-02 1.3504914116905953e-03 -6.9918358054604779e-03 -1.8419521630166401e-03 3.0497819642518139e-03 -1.3322394370271100e-02 1.0613055042726304e-03 -2.3406548922966222e-03 4.6075101378144226e-04 -5.4642266876396284e-03 -3.5368542596320085e-03 5.5015642807262621e-03 9.1311715049770537e-03 3.2525553294058057e-01 2.0813653659140563e-02 3.5900613524965652e-02 2.0128898314806014e-02 3.8642846561367378e-04 -1.3363377821270811e-02 1.0556501280539338e-01 1.1391871503218395e-02 -6.4418499574596111e-03 -2.8847415577510915e-03 4.1737458772654213e-03 -1.1179599068619449e-03 2.7442537859763694e-03 -6.7082445044248651e-03 -3.8843459518141648e-03 -1.5993422687762271e-03 6.4977440530907477e-03 1.8144617254139690e-02 1.6364928176198834e-02 5.6209523787922100e-01 2.1416379934160488e-02 -3.8422577240963415e-02 6.0258214357827673e-03 -2.4690950015593405e-04 5.6548159000126136e-03 8.8522641697341545e-02 -1.2224425381342684e-02 -8.4536120145760688e-03 5.0907439677091437e-03 5.0001877732555860e-03 -1.0664424285742893e-02 7.5485993681011724e-03 -1.8088631671001713e-02 6.9228062545643176e-03 -3.5800176556572111e-02 1.1852133643816576e-02 -1.3752351659734430e-02 3.3935204059865026e-02 -1.1857201933697636e-01 7.2284206232552080e-03 -9.9443408803047681e-02 -1.0552225618832949e-04 1.1827072666194850e-03 -9.6850929954260589e-02 -3.3445254997186938e-02 -1.6580812284067915e-02 9.2690359512723718e-03 8.4201688826215960e-03 -2.1968933597911271e-03 2.4143661572377583e-02 7.4708008654738034e-03 -6.2272012772775914e-04 7.0793214371786643e-03 9.6667400736138373e-03 3.8810464940484402e-03 5.3851854451336459e-03 6.6792123621308430e-03 7.0222240305733361e-02 1.6401914199225169e-03 1.2645078999758204e-02 2.5561269609139783e-03 4.5237595673695971e-05 -4.5249005147509624e-03 4.0739338754213872e-02 7.1165245465871635e-03 -3.2856423841358985e-03 5.9233684671152918e-04 4.4683217695928651e-04 3.9124418916567198e-03 5.9010947273891443e-04 -4.7779345010908652e-03 -1.4337016392416396e-03 4.3631247213576987e-03 3.4434716019196175e-04 1.5342739278259249e-03 8.6597981309479016e-03 1.8026508905975305e-02 1.4511330382172586e-03 -7.3746276140107744e-02 -2.2168068972166265e-03 1.5166791307876274e-03 3.7510895431271812e-05 -9.2596580411737253e-02 5.0675363618566975e-03 4.5094955110737507e-03 3.9367227195740203e-03 -1.4576649680654776e-03 4.1347549220423748e-03 1.1169172456433911e-03 -4.3975378522138368e-03 -1.4673584190870730e-03 7.9734362978981996e-03 -4.1420081741155848e-03 -5.5938740875138143e-03 1.2646782756945758e-02 6.1339509221745789e-02 1.1384798709523249e-02 -2.7603113591966461e-03 -5.0310490688350445e-03 -1.3424379469681369e-03 -1.8375787423994989e-02 6.0310484308798554e-02 -7.0772188224368857e-03 1.4670852302588831e-03 -3.7953768821165010e-04 -1.3865055962504502e-03 5.3604680151491122e-03 2.4338588258686128e-04 8.2865596362403475e-03 -2.9371673541756654e-04 5.4253207140762510e-02 9.9319721336847081e-03 -5.6611640837000701e-03 2.8284084560991113e-03 1.7404394730127129e-03 -6.5756832048069480e-05 1.1638097973610956e-02 -7.8798271074614890e-04 1.2260875339465413e-04 3.9305606968304003e-03 -7.8868696560879404e-03 -3.7107678996629759e-04 -1.8873462529926048e-04 -9.9215909371066255e-04 -2.3728292132386007e-03 -2.0050184947737423e-03 -5.2334877448854771e-04 3.1010987406296531e-03 -4.2798880883720541e-04 5.5529107630274501e-04 -1.4636761604677273e-05 9.0624791801513088e-03 -2.5811520905265443e-03 1.6330285734995653e-01 5.5603758058775333e-03 3.6780221086367790e-02 5.3650847307030293e-03 4.1445862837502284e-04 4.2493968581693034e-02 9.6584521402082929e-02 -7.7378527283968185e-03 -9.3703295853820624e-03 -1.0588985011041503e-03 3.9285667772896941e-03 1.2289375000157986e-02 -3.5761435180788883e-04 -6.8377803711189480e-03 -1.4212381010133977e-03 -2.3761694497892297e-02 4.9389106320340964e-03 -5.0802074786293339e-03 -1.4432111219884563e-02 -7.2741232945315551e-02 -5.1173288483658723e-03 1.8281238792738075e-03 3.5659405121020861e-04 1.8764106583020121e-04 3.2478581359806746e-02 -5.5556487960986778e-02 6.5669392464210927e-03 3.1388806481088623e-03 -2.1689197171737354e-03 4.9621853391664736e-03 4.6005553232301424e-04 -4.4632896978807202e-04 5.7498476620791907e-03 -9.5782024623019928e-04 -3.9161643913841965e-04 -3.9634795834196379e-03 -2.9209316933657102e-03 1.8989858756800045e-02 -5.3049232615897592e-02 1.3908950973500048e-04 -2.7316603857518044e-02 -2.6958015067266895e-03 1.1750267566491650e-04 -6.3481163814687200e-02 1.4995478150245132e-02 5.3705156097595566e-04 -1.0151566640906283e-03 3.8900424214723226e-04 2.9457981085826953e-04 2.9010614445403021e-03 9.4547995434218139e-04 7.5865361830228370e-04 -4.9317819850761002e-04 -2.3705793164262969e-03 -3.6184242583129429e-03 -4.4121429661032704e-02 3.6479911091567445e-02 1.3798135153219848e-01 -3.4032344117837302e-03 -7.5459382569340969e-02 -2.4059349384192592e-02 -8.1136622242572280e-03 -6.8270510920980992e-02 -5.2125634948736461e-02 -4.0599966556986292e-02 -8.9565482270415418e-03 -1.3704214731851461e-02 -6.7606750568939885e-03 -3.7280616179482834e-02 4.0165482685676672e-03 3.7339476263959503e-02 9.7493493007123413e-03 9.7061322300914327e-02 4.6319914472024836e-03 -4.7639645143084386e-03 -7.0924678160268373e-02 8.0125482931578673e-01 -2.8088339796441753e-02 1.1273778514191291e-01 -8.4644879031105652e-02 5.6671646334015557e-03 -2.7888180648266442e-01 1.9133720072696311e-01 4.6248675399830984e-02 7.7033198070213700e-03 3.0645740551480709e-02 1.9804328725976268e-02 9.1533465874306191e-02 -1.3215039257978949e-02 1.3870474807551846e-03 -9.8758954534513554e-03 -1.7565699909282051e-01 3.3044700771041963e-02 -3.2633122996113956e-01 
      </Row>
      <Row Index="41">
        -6.0003032825855836e-03 -1.3056164997826136e-03 -2.5593387461111009e-02 4.4702441756554898e-02 3.6097144228690835e-02 -9.7231812919288396e-03 -1.1245481053629366e-03 -7.1603401877503026e-03 -1.1285413477685548e-02 1.3699294955784288e-03 3.9022948568717686e-04 -1.6912534617229179e-03 -9.6080475946184064e-04 4.7644828425362322e-04 -7.0013453847600515e-04 3.0193901292427106e-03 -1.5314662594984889e-03 3.8521018462922552e-04 7.1317260111399168e-03 -1.3449776021835093e-02 -8.9043358491425195e-04 2.0231616034825983e-02 2.0278558167867219e-02 -2.3757688240632846e-02 -8.2706929344248808e-03 1.7206821043969740e-04 -1.1211721452374604e-02 -9.8763311232178130e-03 6.1575401633470334e-03 -2.1107841939070615e-04 1.8035961664450706e-03 -2.8666042105529518e-03 -4.4023578327641848e-03 -2.5518899198867170e-04 -1.9164221032504758e-02 -1.8212744037485991e-03 -5.1241393796191970e-04 -1.6346667040354275e-03 -1.7560999095878861e-02 -8.1447111132153527e-03 2.1416379934124374e-02 1.0657238278311244e-01 -1.1861662608276319e-01 -5.4913921587661247e-03 7.0482824246689835e-04 -2.3533673660799202e-03 -1.6500468956071174e-02 -6.1462349328525118e-03 -1.9633003831528014e-03 -5.0874626118082716e-03 2.7362205990802916e-03 -2.4632633477998430e-03 -3.1223386279616537e-03 3.2860704353430093e-03 -3.8281777764430647e-03 -3.4765372639726719e-03 -1.1391559701946476e-02 1.3761819568163247e-03 -4.8532033478253045e-03 -9.6947302736987706e-03 -8.3389062160200811e-02 -2.2780127722776961e-02 2.0583143588642707e-04 2.2258011880111478e-03 4.0984631097600310e-03 -6.4074104380591815e-03 8.1583993508528678e-03 5.1670671472593748e-03 -2.1297191921244175e-03 -1.2376260368001085e-03 -2.5592593680363231e-03 -9.6451520325258056e-04 4.4339246288281897e-03 5.3869649223378339e-03 6.7761206360426873e-04 -8.3461016516117870e-03 -3.2347036950833123e-03 8.3446584560710989e-04 6.3907017525086651e-03 1.3460545795907329e-02 -1.4355736565799010e-03 -1.2375254562818380e-03 3.4330196327869575e-04 1.4965351830403817e-04 -5.6178505049918614e-03 -1.9936355935567685e-03 -4.5381751373792164e-04 -1.9378624186978072e-03 -7.1306850326135118e-04 -3.6965852567440835e-03 -1.2281417748795976e-03 -2.4153339739452764e-03 -3.6549576485583120e-04 1.4660091958575052e-03 -8.7212926500468370e-04 -1.1021134977080684e-03 -3.3177746877862909e-03 6.0942336229199059e-03 2.4465242928879668e-03 -6.9746662475419843e-02 7.0474081549111748e-04 2.4293853950537949e-03 6.9676529862487159e-04 -1.9189332231326368e-03 2.0478111769265187e-04 3.1581577150125405e-04 -3.1585486019777183e-03 1.1003978145238973e-03 1.4278033868167354e-03 -6.1501756998944663e-04 -8.2447804227049571e-04 -5.1868294864407065e-04 6.8020626304078624e-04 -1.1617232850152769e-03 -7.5805298967096804e-03 3.1515034460857100e-04 5.3862920163265061e-03 -1.5597171616454053e-02 7.4933116964248508e-03 1.2963247285874139e-04 9.2421819607384854e-04 -3.0497696973085658e-04 -5.9194693332240231e-03 4.6524506422800874e-04 5.8799020397392221e-05 2.9420882670805307e-03 2.2249350345913514e-03 -3.6048166831083406e-03 2.5840776364825449e-04 -2.7802516852654634e-04 1.5880232065805301e-03 2.5640146676114699e-03 -7.7776359823864870e-03 -1.2933703901290097e-03 4.1363414548780059e-05 8.8776789668289544e-05 2.5806001056042304e-04 -6.3819236868130152e-05 1.0125916116286390e-04 2.2671265002840454e-04 1.9381045221565353e-04 4.6892644301287903e-04 -6.5048815413720545e-05 -6.5166467214512161e-05 3.2640766448476237e-04 1.6573138000384536e-05 -2.8279334978615120e-04 2.8821192517574387e-04 -6.1514993543763355e-05 -2.9279607536811101e-04 -4.6396962758217205e-04 3.3271297415652171e-04 -7.7292471653752255e-03 -2.1155188062972272e-04 7.0088775243035608e-03 3.0887216463975044e-02 -3.4713990002423721e-02 7.0163234950883289e-04 -1.3670863896972929e-03 9.6233478027091899e-03 -1.6261796585609396e-02 -1.1410387764114460e-02 2.2030131655059555e-03 -4.2386094330542903e-03 2.6746418831739447e-04 -1.5530526348484154e-02 -1.4877792153934625e-03 -1.5459176641711323e-02 -2.6141511625163718e-03 2.1064805432708653e-03 -6.5368893885423811e-03 1.3732544762719845e-03 -1.1352284351984175e-03 -1.1860850527751158e-03 -3.5485100662710715e-03 6.4410401585749139e-03 1.1257196919667559e-03 5.3271415719553968e-04 -7.4075479430052438e-04 5.8844980784558149e-03 -1.3518525581727153e-03 2.8913599810392063e-04 1.7548427616752380e-04 -2.7767716639651397e-03 6.4042951464800138e-04 3.2506315684093911e-04 -1.7490626837557040e-03 -7.6106295314935530e-05 4.4433448877314609e-04 2.0438774551763753e-03 5.7549634387688529e-04 -1.7017470223400079e-03 -7.3449841754555665e-03 1.7472235830832447e-03 1.9453402980048294e-03 -5.8283088619788656e-05 1.5160172276677494e-04 -2.3291133708166862e-03 -4.4885390715339365e-03 4.0422606259039396e-04 -3.5770732955592744e-04 -1.5555395365428079e-03 -1.6231712063519314e-04 -7.4903523935588110e-03 -1.3528547475458680e-03 7.5336649707296709e-03 8.6322147181903562e-04 -7.7789598696520533e-04 4.5781709097389954e-03 2.7529767201166518e-02 1.1395279129218523e-03 -2.2611025763707666e-02 -9.2182091430194568e-02 1.8542280963986280e-01 -7.2000710593878017e-03 -7.6216915307071526e-03 -1.2403190404736277e-02 3.1191363214933140e-02 1.7448018129076138e-02 -1.8330028373612158e-03 1.9038634905120248e-02 4.0196920509154308e-03 1.3714680355848642e-02 3.4569277073380651e-04 3.9093212921000708e-02 8.9578459211953378e-03 -2.1700163957891943e-03 2.1050123541490211e-02 2.3114624566176967e-02 2.1434934416395546e-02 6.4043435314575514e-02 2.2417424645953143e-01 1.3496741314763938e-01 2.8043393861854542e-02 3.9378685385780751e-03 -2.0866233274714603e-02 -2.7454681661399458e-02 1.9401681877919543e-02 -8.6758468859618812e-04 -2.1436107334079198e-02 -1.2980007084200239e-02 -5.5073144367336443e-02 4.8075336213710407e-03 4.7715358031202006e-02 1.7894496218031561e-03 -1.1030600889397793e-02 -3.6596359875462198e-02 -1.4378780458096407e-01 
      </Row>
      <Row Index="42">
        -1.1596243858701845e-03 -2.7304048919027268e-02 3.7554109442921278e-02 -2.4330217219473625e-02 -6.0107241648550058e-01 2.4256173654396251e-02 1.1965432417424621e-02 4.0102274844749930e-02 5.1153364068204657e-02 2.7026608272911631e-02 -7.8903803180044307e-03 1.1150934982504414e-02 -6.4755853635854992e-04 2.0469468547762805e-02 7.9310610123593615e-03 2.0676098670760167e-03 1.0658557073793802e-02 3.6459810584703045e-03 5.0106795047586070e-02 1.8604943521983719e-02 1.3003180283840510e-02 -6.0106782123669600e-02 -4.9438224691759278e-02 6.8602417474060262e-01 5.6626422547867636e-03 7.0021024355241147e-03 1.4181466595114156e-02 -3.2165751308305124e-02 5.9571023109662613e-02 -1.7421729730262348e-02 6.2273129171619424e-03 2.2305015654591833e-02 2.1119310710943910e-02 -1.8279622943145502e-02 -5.5884460515893686e-03 6.6868693666539483e-03 -1.4908002848247892e-02 -1.9539995656378383e-02 4.0340756152246943e-02 -6.9564430744826211e-03 -3.8422577240491584e-02 -1.1861662608266574e-01 2.2939769821690525e+00 -6.6778484972839468e-03 -1.2155466348495736e-02 1.5068587748273507e-02 1.5870201094514974e-01 -7.8094755272975686e-02 -1.5977223826776243e-02 -2.6029098354981905e-02 2.3809090529345288e-02 3.3715143852914409e-02 -3.2294946206033709e-02 -1.0318042412223692e-02 -9.4777460813668668e-03 -2.7830024516117709e-02 -1.0246717413409009e-01 2.0574941253437284e-02 -5.5926887886873344e-03 5.6462598314348966e-02 9.6634017254678961e-02 1.1758762233944329e+00 5.6600579001073875e-04 -2.8086616951308999e-02 2.2695901295742615e-02 4.7348244915909060e-01 -2.1475240515939468e-02 -1.0519522603223535e-02 -2.7579940782854688e-02 2.0385473848292188e-02 -6.1359738251779830e-02 -2.0076351335011289e-02 -1.8268971166522041e-02 -9.5035867975021490e-03 -3.1206334070580273e-02 -8.8190465466709111e-02 -1.0868188951757007e-04 1.5107192917567687e-03 -9.3312314643640305e-03 -1.0196381103929127e-02 -1.3105632400253930e-01 1.3241550773653290e-03 -2.2660744394436765e-02 4.2022986158927189e-03 1.2162181154184415e-01 -9.2812763474959536e-03 4.3352227782532983e-03 -8.8318039986261254e-05 -5.4055173823333840e-04 -1.2149121670773335e-02 6.6809534485603068e-03 6.5789986814466621e-03 -6.6992380183559979e-03 6.1208677788006814e-03 -2.4147314625587628e-03 -1.4489498991487382e-02 2.1634286076175804e-02 -2.0520356219889926e-02 -4.2832982119973502e-02 9.0515344680244381e-01 -1.3494461971770958e-02 -4.9022487824700159e-02 3.0646663436706842e-02 -3.9273960489718129e-01 5.7722987420694337e-02 -1.7320653458886448e-02 -9.1306835156227083e-03 8.5846207689814873e-03 -1.9124208629873012e-03 -1.2223557637803809e-02 -1.7442858935560752e-02 -6.4371595877126030e-04 -1.0667435503201886e-02 4.3876602288762799e-02 2.9362320155700027e-02 -9.1555488381977919e-03 -1.9054871634966185e-02 4.4307117749036402e-02 2.9498082699037385e-02 6.4304202405593425e-06 -8.2429606365797010e-03 -9.4897857317591261e-03 3.8495433012380198e-01 -4.5918264375323647e-02 1.8149221285600908e-02 4.8621561005294349e-03 -8.6976685797222567e-03 -1.0733849549590526e-02 6.0954139107291519e-03 1.0136319029862007e-02 -4.0461879095863140e-03 1.5143610415804049e-02 -1.0132508915114646e-01 -1.7963799993733929e-03 -1.0762171586258017e-03 7.8489945654937176e-03 -1.8034530114032011e-03 -1.4247740709274679e-02 -2.9368315517177104e-04 -6.1168961926173077e-04 8.0858829481070607e-03 1.3014754391650245e-03 1.2862753036173126e-03 4.8459704571510176e-04 -1.6262488254838415e-03 -2.9328200833898580e-03 -1.1455298166689095e-03 4.0821698180268070e-06 2.6322120335436354e-03 -1.4876296520734220e-05 2.8634577123301500e-03 6.5234502353020613e-04 -7.6402293585170426e-03 -4.7092043297498332e-03 -1.9551559443004123e-03 -4.4891492839451153e-02 1.0646720695932863e-01 1.3221157171935413e-02 -1.0171631071298263e-02 -2.0418066937428564e-02 3.2173262682029774e-01 -5.6146229175508738e-02 5.6114292160920204e-03 2.6556416517940790e-03 -5.5645366126905304e-03 -3.0970586014366273e-02 2.5719148594430166e-03 -2.2460945581837595e-02 4.9581302802853729e-04 -2.4358643062890005e-03 -3.4013886071712310e-02 -5.3818494592305366e-03 1.9059240624650642e-03 5.4637366898748208e-03 4.4361482333114075e-03 -1.3497369921508295e-01 -3.5918228843818296e-03 -2.5402255027817400e-03 -3.3172842651087997e-03 -1.4417680856919404e-01 6.0743523184223561e-03 4.3069901101243403e-03 2.9240909928855332e-03 1.4750364434732655e-02 -5.9927140805455421e-03 8.1794674300213091e-04 6.5200803269091917e-03 -5.2255317971254545e-05 -2.6364511852085607e-04 1.7557008188083423e-02 1.8648808067338617e-02 -2.1506972803749247e-03 1.1289502258284316e-02 7.9499262191840420e-03 8.4152926638578457e-02 8.8641985968172853e-04 -1.1651082881473835e-02 1.3951708221379144e-02 1.5379514740353814e-01 -2.3539321895227259e-02 7.4843997165095159e-04 1.5969695810651545e-03 -2.7461156889353805e-03 -1.4697200305364352e-03 2.2862888527851641e-03 -3.6834422884678064e-03 -1.8327959418995320e-03 -2.2641651624884548e-03 4.4568289341328289e-02 -1.0649511826222521e-02 -4.2308993658165331e-02 5.2532577210433737e-02 2.9929956551099191e-01 -5.2901923315894572e-01 1.8445346723868300e-02 1.7866088078696879e-01 -3.7067730550077123e-02 -5.9850399602519172e-02 -2.3463716412810279e-01 1.4816404496035307e-02 6.7656569033999969e-02 -2.8399767024481590e-02 6.4963006145880256e-02 7.7115808927327001e-02 4.1985355197079383e-02 -1.1293560442995117e-04 2.7879973860184148e-02 -6.5652481054127340e-02 -6.1821245324063079e-02 -1.3405611627890668e-02 -1.2745913891644275e-01 -3.1331971033273059e-01 -1.7870226882332028e+00 -9.6058760135305232e-02 -2.2170640817756959e-01 9.4940915205319915e-02 1.1408986032484889e+00 2.7823719315732620e-01 1.1646985193457374e-01 -1.0491085382360410e-01 7.6104940891850714e-02 -2.6306338645648952e-01 3.1269713680124156e-02 1.2556255534413523e-02 -1.3691949210915877e-02 -3.5608941302849972e-02 -3.7518623786610217e-01 6.9885585289853103e-01 
      </Row>
      <Row Index="43">
        9.9608808403496858e-03 9.9611555746236292e-03 2.7396916060732886e-04 -2.2397124076414905e-03 1.1509206761541971e-02 2.0569350011098053e-02 1.2460193931852596e-04 1.8186855921108191e-05 7.1321327075440401e-03 1.4115458330298024e-04 -8.8571418947378279e-03 7.7915784914625976e-04 8.9927147165868530e-05 -2.5344339054922450e-03 -1.9763982349401787e-04 2.5313187268422724e-03 1.7133972328117252e-03 2.5735489306724767e-03 6.3252194771102374e-05 7.8269605593783848e-03 -7.8139484681522473e-03 3.5720960856405783e-03 -1.1628793693139756e-03 -1.0126958619423147e-02 1.7163409335760754e-02 -5.2454184060249278e-04 -4.2784258014366902e-03 4.3448979128181252e-03 -1.4211226635830066e-04 -5.5308270720855826e-03 -1.1693912679189185e-03 5.3295883058658653e-04 -7.6096058401414637e-04 3.5558177105555035e-04 3.1476507245280227e-03 8.8545716693309851e-04 2.1141253676436617e-03 8.2178933710451668e-04 3.0095927149523033e-04 -2.0848059161513444e-03 6.0258214357780532e-03 -5.4913921587579663e-03 -6.6778484973010893e-03 2.1494220790935516e-02 3.4432273290605289e-04 -1.7279901432301938e-03 8.5019888055783768e-03 -9.9556051411575607e-03 7.5888825780473339e-03 3.1475678000892609e-03 4.3530730541149563e-03 2.0462850380619062e-03 1.2224113696180181e-03 -1.4373936302254460e-03 1.3205383900888462e-03 1.4700250689164219e-03 -6.5773152960340794e-04 1.9461054743397030e-03 1.3249165579791890e-02 -1.8526216033763667e-04 2.2888455579196166e-03 -2.0972132909286584e-03 1.3319073456060254e-03 4.1422459376673146e-04 3.4128070713543707e-03 -7.8695272133543354e-03 -7.9478177805154121e-03 8.4059977039552952e-04 5.0204057491749091e-03 1.1806362310379081e-03 8.1398627747029731e-03 1.2526343254015623e-03 9.9587151569291779e-04 1.5295212228969707e-03 1.4013731851858190e-03 8.3460784302054163e-04 2.8974941881905803e-03 -1.8610721886914722e-04 2.8340124279432194e-04 -7.5050593991224791e-04 1.0919053161423365e-03 2.2777191158768937e-03 1.3001214238398881e-03 -2.2518839983491495e-03 -2.4735580446785255e-03 5.7012756268328725e-04 -3.7654675545565204e-04 6.7702454204683583e-04 -3.5072120041581574e-04 5.8155863553135403e-04 1.0864067386332063e-04 2.7884461758151814e-04 -4.3398471326329874e-05 4.5050026783320792e-04 -1.0459282722629701e-04 -9.2882793230838296e-04 1.4335785495948972e-03 1.8894884174034310e-04 -9.9094425136657827e-04 -7.5262517729074848e-03 -2.0398540613802262e-03 4.0150191660975141e-03 3.7418055744513064e-04 -1.2218731135336114e-03 4.6899724857701070e-03 1.7770058999291849e-03 9.6898576372769947e-04 -1.4251599821049070e-03 2.3728209438331189e-04 2.8288604785148833e-04 -5.3294157146086115e-04 -9.8339461750935730e-04 -9.3886416169762093e-05 -1.5469595588110338e-04 2.0714174700008055e-03 1.7502528654091865e-03 -1.4827393029775938e-04 4.0613624658469784e-04 -4.2428752332860026e-03 -1.1077149839247074e-03 -1.4112087565581715e-04 -8.2263603530267817e-04 -6.1409218491529482e-03 -2.9966194207569712e-03 2.2701452182551244e-03 -1.1753337495586107e-03 -2.0057864067775798e-03 4.2408836670388664e-04 -2.1971728198305000e-04 8.5316680698766661e-05 -2.4425579850649402e-04 3.0060516595805395e-04 4.1238960256721719e-04 -1.0678852882300732e-04 5.1480366109410815e-04 -4.4920301121864907e-05 -1.0852902016796705e-04 3.1945757557491584e-05 -2.7162470253711056e-04 -1.3166296023271265e-04 4.4641830711179690e-05 -7.7550608944105149e-04 1.0919514324477702e-04 -4.6953674425982193e-05 5.6554383392599055e-05 -1.9853836977245704e-04 -3.4422677117093396e-05 -5.9649244711410679e-05 1.0735150031730717e-04 2.7775626995228575e-05 -2.2344956627204772e-04 -8.6855066272385536e-05 5.1627100903658095e-05 -1.6853652303174119e-03 1.2876887241900978e-03 -3.8224821132151364e-04 -3.4526216258009101e-03 6.2350837136750104e-03 -3.4059815033749761e-04 -3.5446914609587200e-03 -1.6907273444028235e-03 -1.0096275965023939e-02 -2.7238987081709921e-03 -4.1658605677280817e-04 -1.0112769041464508e-03 2.9465877399451686e-03 -7.0356035002098241e-05 2.4838922280494237e-04 1.3814174611193738e-03 1.9259001511352092e-04 -8.7234791203837352e-04 -1.5720065349762585e-03 -1.2723147917315970e-03 -1.6869704060207720e-03 -4.0078529843659864e-04 -5.1097077498259299e-04 -3.1249951331534650e-03 3.7961857337529947e-04 -1.1891596764264725e-04 -2.9315973146979476e-04 3.3859617127777759e-03 2.1039815512047368e-03 -5.9320048836677530e-04 4.7819313578431229e-03 6.5867377559069228e-04 1.0505254531587709e-04 -6.7900526059634127e-04 -2.1199946255650323e-04 -5.2624065466798148e-04 -2.8158714122017208e-04 4.8642877660366626e-04 6.2044399752696489e-03 -8.8472328371893573e-04 1.3054643046387119e-04 1.2743885226276681e-03 2.1737244889401806e-04 7.5046775992544180e-04 5.2386280484420088e-04 -1.1847808639608738e-03 -2.2628507146854530e-03 4.1836710371907109e-04 4.9121362393785906e-04 -3.3671809678499480e-04 1.9097917368868073e-03 3.6204659946192111e-04 -7.4318778137314259e-04 -2.3309621342694383e-04 -7.8768981738748674e-04 -6.5245028018917921e-04 6.9631682081945524e-03 9.0833102544681972e-03 -7.5767759181775344e-04 1.4159256949270109e-03 3.0465654358856904e-02 -2.8747398501848447e-03 -1.0692801463250886e-02 2.6037418504381480e-03 8.4497778296791937e-03 -1.8791649349682332e-02 -1.3201418818994476e-02 -4.4965972277693153e-03 2.1997829732477740e-03 -7.0629317480532579e-04 4.9162460794668070e-04 2.2269594916868168e-03 3.6328861709305767e-04 6.2324231327136000e-04 1.3043552793775522e-03 -1.7136131667980538e-02 -2.0519117963849171e-02 1.0530593646870146e-02 -6.1991552042086027e-03 1.5420090904527603e-02 -6.9570907296634607e-02 1.8231787381611797e-02 8.0842128285616294e-03 -1.0449772801278028e-02 3.4716148233915216e-02 3.4860994475162187e-02 2.4878809625511686e-02 1.3408935490056341e-02 2.5120657799518720e-02 -2.4613059836841441e-03 -3.8561344370377864e-03 -1.4713357762738011e-03 -2.5705384082211251e-03 2.9060846331854535e-03 -1.0080290811710597e-02 
      </Row>
      <Row Index="44">
        4.0104686962520860e-04 -4.0491372466321118e-03 -3.0936643201879221e-04 1.9119215414037057e-04 1.0519315697333460e-02 3.3506639072519717e-05 1.5254914044951391e-03 3.7831298096497601e-03 -1.3379329414424986e-03 -4.2371172403414944e-03 -1.0029092358201097e-03 -1.0407413039725108e-04 6.9851541609388976e-05 1.4907957365160427e-03 -5.6125569739856032e-04 2.2030625006935365e-04 3.2694742219147293e-04 5.6418769590554224e-04 -6.1799845274674691e-04 -2.1107897131609904e-03 2.9702519966681024e-03 -8.5701511458774471e-04 7.2980156022247472e-04 -1.0443907111523543e-02 2.7436963032301774e-04 3.6614108816361807e-04 -8.3658486424464940e-04 1.4676111280372689e-03 -4.9773291953756800e-03 -2.4702672838336492e-04 4.5361493137738296e-04 2.2108117545713974e-04 -7.5095861052934705e-04 6.0998336152907201e-04 -3.4354462541696940e-03 -5.0801174142788355e-05 4.1299376483154571e-04 8.3647643840901054e-04 -1.9403164585203442e-03 -2.1786160658637810e-03 -2.4690950016825752e-04 7.0482824245518072e-04 -1.2155466348537369e-02 3.4432273290552207e-04 1.3812538203676672e-02 -9.0697800555167470e-04 -6.1590824792929350e-04 3.6044390074111161e-03 5.6591021028432054e-04 -1.8326437115552541e-04 -1.7070704800547490e-04 1.0033121073433769e-04 -5.3701383529415679e-04 1.2909885865944313e-03 3.0801553223125389e-04 -2.5227040049689820e-04 3.5755970456738829e-04 -3.2444240312345940e-04 -5.0971341681384516e-03 3.2643442230863295e-04 8.7486190982906246e-04 -1.7972995412043936e-02 1.7608855256880953e-05 5.8810634983121456e-03 1.0194169662736119e-03 -8.4067092833429568e-03 1.7747540667433237e-03 1.1825732646510736e-04 -8.6841353426406751e-04 1.2102420835327426e-04 -3.5386007787151920e-03 5.7725976495004439e-06 -1.4299255007387268e-03 6.5430976257194315e-04 1.0891347723299668e-03 1.7842802321951096e-03 3.4090760599020794e-03 8.1932196114900806e-04 6.5831038567275204e-04 1.2873078692536132e-03 1.0652425004096432e-02 -5.2111790393485121e-04 7.0468092662959855e-03 -2.4955964932228403e-03 -4.0517488335289342e-03 1.7962626563977780e-03 -1.1209068152490357e-03 -3.4178077408941439e-04 -1.1791488349735312e-03 -3.3304066131017778e-04 -1.1022096942156544e-03 2.4513256161731662e-03 1.9996015768611623e-03 -5.4620783473260774e-04 -1.2105682871681601e-04 5.2923724536241279e-03 -1.7913095223160136e-03 2.2445970103794110e-03 1.5105207130708832e-03 -3.5979003011856921e-03 -1.5959549070181572e-04 1.9919674656596817e-02 -2.9131080049897892e-03 -1.0412335880005116e-02 -2.0421441861393673e-04 -1.0524045487521002e-03 5.3902136735567083e-05 -1.7178618797802708e-03 -2.1427546635356676e-04 -8.2819107217692810e-04 3.1938800577795707e-03 3.7782785402006649e-03 -2.8496693013074054e-04 -1.1678498432410476e-03 -1.8323826088993880e-03 3.3056615506745141e-04 -1.4187689535699951e-04 -1.2948925134135961e-04 3.0268256502403610e-03 1.8032253995438775e-04 -7.2571789812450973e-04 -1.1454546795867000e-03 5.1904228507948947e-04 1.8282789320185049e-03 2.9475440267401473e-04 2.4186656660636716e-05 3.5352687304650797e-05 -6.5577860337589849e-04 -2.6519289280953597e-04 -1.3531621877986219e-04 -4.2363946596045898e-04 -8.1094946710344429e-05 1.7857251462667422e-03 -3.4992727072398401e-05 5.1981053075004992e-05 1.8218600320530389e-04 6.7805050861690319e-06 1.1029436259406996e-03 -1.6487865719333407e-04 1.1306655725979182e-04 2.5205554188727030e-04 -8.6637879366891662e-04 -2.6391899608040281e-04 -2.5493219819106895e-06 -6.5391859215271439e-05 -1.8919082856876538e-04 1.5734808151249597e-05 6.6633958336374989e-05 -3.1529458705256398e-05 -7.2980815552776268e-05 2.5278708633783530e-05 -8.8618244627006583e-05 2.5211674006734794e-04 1.6333037015646608e-03 6.8261328121119928e-04 -6.4256893479074486e-04 1.7134721689147654e-03 -2.3412361168126356e-04 1.0281684118584116e-03 -1.1661581107750233e-03 -1.2587430215063380e-03 4.0028130309129996e-03 2.3452803966049420e-05 2.3196516530294859e-04 3.3740117707739754e-05 -1.8940377431282264e-03 -2.6450562846619239e-04 -5.4257953933169721e-04 7.9394179554732034e-04 -3.0816225337643280e-04 8.6496397976747381e-04 -8.2209273495825394e-04 6.4911662941399655e-04 7.7102210111559127e-05 5.7229037121962192e-05 9.4995031846830270e-04 -5.2056415897569399e-05 7.3013901150286538e-04 -6.0520724612503352e-04 -2.3897693256347166e-04 -1.9958630902119001e-05 -1.1958302150428480e-05 8.1819107389260581e-05 4.3673714080881196e-04 3.4937919153469265e-04 -1.6457237110171786e-04 1.8431877969944709e-04 9.6373721480541943e-05 -3.5793496899247130e-04 -2.2264474347702401e-04 8.4294780932626901e-04 -2.0104793204536726e-03 6.5287420592118886e-05 -4.7003614525957008e-05 6.2290939516645950e-04 3.8721377516015204e-05 3.0236319376875519e-03 2.4406639592671308e-04 -2.7135816412649735e-03 1.8212768090958755e-03 -8.3570545180766730e-06 -7.8195033734033964e-05 1.5199927755046698e-04 -9.6193843210430304e-04 1.6544230077478054e-04 9.9153031353355634e-04 8.7427320806649509e-04 4.8809595146398716e-04 -7.0813198935054092e-04 -3.8240428517234380e-03 -2.1520371093542850e-03 -3.7691065581656026e-03 -1.6398320079135716e-03 -3.7673987710448442e-03 5.7779423515895087e-04 -5.4851425107069994e-02 6.4541087075163303e-03 4.9427663738389662e-04 4.9469299472052926e-03 5.8938535008832833e-04 -1.0461127810568044e-03 3.2198445620337064e-03 1.1960436947738681e-03 1.0412284809377889e-03 -4.0629118660530511e-03 -6.3480251901028390e-03 2.7387877072279319e-03 1.1192448472634366e-03 7.0436356266086447e-03 8.0722319564972590e-03 -2.4431036269460631e-05 -2.9065964959123988e-03 2.4902221597854726e-02 5.6042165913812274e-04 1.0095015046244137e-01 4.1233273938801676e-03 3.7429875140102577e-03 -1.9005955829314199e-02 4.2128784534320764e-03 -7.2177155774207531e-03 1.7198711463567739e-03 -1.2494147550708355e-02 -1.2689853666559905e-03 5.2005191038548906e-03 2.8010094364905470e-03 9.8740919129983867e-04 6.5779161011728128e-03 -1.0896784785120857e-01 
      </Row>
      <Row Index="45">
        -5.2068498524138772e-02 -1.5121875296626441e-01 9.0277698222703054e-03 4.3548950960083377e-03 1.9614030607783751e-02 6.0563110679365262e-04 2.5758230698910561e-03 -3.0875022667628738e-01 4.1664789032979717e-02 5.5876191796363269e-03 -6.9095619211585572e-03 7.6341659733876579e-03 -4.4545149257245816e-04 -4.2986662093212934e-03 3.5903426204187392e-04 -2.3566116652769544e-03 -3.8149385263947745e-03 -7.0459195866087732e-04 4.9265734534040045e-03 4.7418488012245033e-02 1.4364739489906914e-01 -9.1544225870299201e-04 -1.9866776948174250e-03 3.1836307253635843e-02 -3.8065953424316935e-03 9.1976235643119117e-04 1.5319859054237217e-02 6.5109529361926377e-03 -4.2733680087201770e-03 -3.3262062750802485e-03 6.6037924470628839e-03 2.6760670630731828e-04 -4.5728219006623133e-03 1.1403636854497370e-03 -5.6948937688429124e-03 2.0791683417217127e-03 -5.8986618548855507e-03 -2.3196699678880764e-03 6.1356089665057234e-02 3.0378306949692124e-03 5.6548159000819886e-03 -2.3533673660752763e-03 1.5068587748761408e-02 -1.7279901432122879e-03 -9.0697800556355235e-04 3.4992923934551967e-01 -7.0336932664829908e-03 -1.1740839862342273e-03 -9.8941207998601288e-04 -1.9161112294915766e-02 2.2275490723151379e-04 9.1555763424244546e-04 3.8788663279673580e-03 1.1078936013513816e-02 -1.0838895378013635e-03 -3.2911735748322284e-03 -6.8023723736036212e-03 -3.5874094736813245e-02 -2.3123266614821908e-01 7.1795259468837302e-03 -3.3009722809721467e-03 3.0313298775161528e-02 2.6968079157011025e-03 8.2478833103971855e-04 -2.0342591626435969e-01 -2.1425712803582055e-02 1.3077360026682326e-02 1.1145709527489158e-03 -3.0030038673728315e-02 -2.2764078116838124e-03 -4.5647598796977121e-03 4.5716987013881827e-03 -5.0397655275824516e-03 -8.2350620246805714e-03 -3.1065209320212429e-03 -2.2280519026771639e-03 9.5866573036020031e-03 -1.2104673837940906e-02 7.7953861634698016e-06 7.3830592444352951e-05 -5.3121975000065842e-03 -1.2295169332389151e-03 1.2637473044508874e-03 2.1324652681933842e-02 -5.9481016319543611e-03 -2.7962853041360279e-03 -2.9041408076288018e-04 -4.2426834157773072e-03 -1.7604302573767877e-04 1.4599219199112222e-03 6.6660266664847663e-04 5.3930417962749842e-04 -2.5112818652060147e-04 -1.0706529005161641e-03 -1.4905198904051435e-03 -2.7044222349698045e-02 -1.9509428983541181e-02 -1.1616093457271202e-03 -8.1905660544974576e-04 2.0073135308423595e-02 3.4044168120698484e-03 5.0266090647664106e-03 2.0293478154305628e-02 5.7041230176667936e-03 4.0429192487692967e-03 3.7730864417769060e-03 -8.2977645034888452e-03 -8.7820715300574066e-04 3.5525914591020410e-03 5.0104799330455527e-04 -5.9459776755038237e-03 2.6575106493672315e-05 -1.5121653049039881e-03 2.3131230969759362e-03 4.1074557900729371e-02 1.1646770280045619e-02 4.4503245862823771e-03 -1.5555307984179590e-03 -1.0044652939845567e-02 1.0794648776623194e-03 -4.6504251033207677e-06 -4.2678226490098996e-02 4.8562373862349132e-03 5.5303302774832863e-03 4.5463644064077510e-03 2.9159398965636135e-03 1.4800301204775706e-04 -5.1768912151672914e-03 -4.3812091512913649e-04 4.7952010355407446e-03 -1.1458679267336424e-03 -3.5220697943617457e-03 -7.1875685843181790e-03 -2.9185959456035195e-03 2.5897349903366519e-03 3.7389017693838945e-03 -4.2454273868274234e-04 -2.0885798609795408e-03 8.0548687552102819e-04 1.5084920829661758e-04 1.0302816653990502e-02 -3.7767408458010418e-03 5.4813988014346701e-04 6.4317767255793533e-04 9.1212456824169117e-06 7.6307369239193271e-04 -1.6068713350243335e-04 -2.3327160059744283e-04 -2.9353430924477066e-04 -5.7602842860922485e-04 1.4590522216675820e-03 1.1645257864560399e-03 -1.5422931844741087e-02 -7.2948479006758757e-02 -7.4651087641045728e-03 2.4628547846890963e-03 5.4095172798120771e-03 -4.1983931023746391e-03 -2.0218866744127553e-03 2.0833812804027727e-01 -3.9863240421486909e-02 -1.2817867213512947e-03 -2.2308554618795215e-03 -3.8086440844633035e-03 2.9323830804365387e-04 3.0482703487049820e-03 4.5814464675911470e-05 5.7982208434027571e-03 2.4494846217358386e-03 2.0586029258824199e-03 -2.7100695884587057e-03 1.9640354489306507e-02 2.8426970486407556e-02 3.2019246171880317e-03 -1.0914055314538828e-03 -1.4216954584532388e-02 -8.4789202746595686e-04 -3.5353825810740223e-05 4.0088662611055259e-02 -3.6078183634839014e-03 -1.6296598147557805e-03 1.1283955165065811e-03 2.6159768516615016e-03 -4.1583459795614414e-03 -1.8962575719586950e-04 9.6690978706702002e-04 1.1860086142806963e-03 6.7030511123978881e-04 2.8963373964453207e-03 -1.4935674672533761e-04 -1.9294866774003168e-02 -8.3871687013225171e-02 1.9099080383223731e-03 2.5775248525115287e-03 1.6481989563040846e-03 3.3302815289705935e-03 9.8453053315032419e-04 -1.3186385760484187e-01 6.8905476637585797e-03 1.0908051403464679e-02 2.7526903797400509e-03 2.9783383099377548e-05 -1.0262747591498684e-03 2.6903757150981387e-03 8.1149473135843449e-04 -2.0745023501290093e-03 -1.9168994791050446e-03 1.0179645062048607e-03 3.9451801459857022e-03 -1.0361243235110257e-01 7.5852983647669944e-02 8.5975365736856574e-02 -2.1638156446372649e-03 -4.8079551060546191e-03 1.5456855947693349e-02 -5.1536802816881215e-03 -3.6817943365104744e-02 1.4332993833355509e-01 5.1600728432474187e-02 -7.2356585993673880e-03 5.8044394021069368e-02 -3.8901987798112829e-03 -2.7645251690378330e-02 3.4472046240869208e-03 1.0927783471530651e-02 -1.7283892954958285e-02 -1.0615116444488801e-02 3.4558990370560298e-03 -2.7706240660853754e-01 5.8043087615666844e-01 -3.9601419713243907e-02 1.5140937557825411e-02 -2.4790170685311121e-02 2.3753954849565953e-02 2.6843196944890867e-02 -8.9492338608100108e-01 -2.1695196209382248e-02 -1.6412075475156485e-02 6.1623169919511597e-02 -1.3398642931021540e-01 -8.9311313711779236e-03 -3.4185734704319645e-03 -1.1661972166906079e-02 1.1770634283107186e-02 7.4409841246523972e-03 1.1234734976020740e-02 -2.8141116434545678e-02 2.9076883938365866e-01 
      </Row>
      <Row Index="46">
        1.5740180720942663e-02 8.1347468856100960e-02 -3.5211269876273307e-02 -1.1467530865037396e-02 -1.3883429357778537e-01 3.6016563301137054e-03 4.3985514044863026e-03 3.9759439091938631e-02 1.9334195331564205e-03 3.0852679695065159e-02 4.6413429362706232e-03 2.7992944891429439e-03 -1.1913126160612054e-02 -9.5006479358428347e-03 -3.1443042389956485e-03 2.2935870850917667e-02 7.5884871146747633e-03 -1.2627132777756761e-03 1.3400826700820630e-02 -6.0739897977538357e-02 -7.2609805751276457e-02 8.7672637237150020e-02 -3.0320116932423639e-03 1.1150894620274276e-01 2.7696602912510859e-04 3.6641322740266708e-03 -1.3073207011009527e-02 3.3355804939244832e-01 3.5227027326891494e-02 1.9346834922911692e-03 -5.0629031317129397e-03 1.5052084798634117e-03 2.1949342890340597e-02 -8.8003587269120005e-04 -2.5028656585834835e-02 1.5873546129113417e-02 4.1688977527013157e-03 -3.6342472445594718e-03 -7.2836673354052223e-02 -1.4484756977056257e-02 8.8522641697219406e-02 -1.6500468956065488e-02 1.5870201094469769e-01 8.5019888055533899e-03 -6.1590824794664073e-04 -7.0336932664713941e-03 1.2445934993823640e+00 -2.6080830541517927e-02 6.8502124445516538e-04 7.9867750259270606e-03 3.2500262962399380e-03 1.8766370591177625e-02 -1.2930660680979929e-02 1.6414506794531686e-02 -4.9546929716233978e-02 -1.9762924531519420e-02 -5.6077670125232043e-03 -2.6724040955799555e-02 1.3377779585758665e-01 -1.8645195758825513e-02 5.0131412282685722e-02 2.6625025088458548e-01 4.4334753975136011e-04 -3.9111787948005461e-04 1.6193533248435310e-02 1.0261952899089920e-01 -6.0566355087779307e-03 -4.4774905635224776e-03 6.4910534347126306e-03 1.0123990819926321e-03 2.8892467247577450e-02 -6.3521035732183595e-04 -2.5822971593698521e-02 -4.3739003160015520e-02 -7.8369717903435318e-03 -1.5139725076082293e-02 1.0224553621773262e-02 5.6579675763690357e-03 2.5487597328910969e-02 -4.5329789646496831e-05 -2.7477380589765305e-02 7.9989045534527639e-04 -1.3388563898018993e-03 -5.1433483097174104e-03 4.1990992043396125e-02 8.1961015502327577e-03 -1.2542536684388367e-03 4.3383451068871315e-03 -1.9925116045040429e-03 -1.3878442848506830e-03 3.6069701922537990e-03 2.0283111733153947e-03 8.1537486940798549e-03 4.4248977425337106e-04 4.6359704965662687e-03 -9.0020621234273165e-02 6.2758538033178907e-02 -7.3277342376027246e-02 -4.2072563374022175e-02 1.3820351371641049e-01 -9.0476101842604101e-03 -1.3976049301168645e-02 2.2824073044758090e-02 1.7578979867053071e-01 2.3082114002658700e-03 -1.6864892825966488e-03 -1.0355714235763256e-02 1.9417951914980341e-02 1.9911482426482736e-02 -2.7144808867389180e-03 -5.5763039406285922e-02 1.8957951980079300e-02 -1.3510312064925981e-02 -1.4992321877360727e-02 -2.0026511935505240e-03 -3.3485632965963512e-02 7.1933774670041875e-02 2.9865031814725388e-02 -4.6028311000897645e-03 2.6590002060609846e-03 5.6960739704075836e-03 -4.6205888237436273e-03 4.6317732754072485e-02 7.4413995786261203e-04 -8.7766778986026264e-04 5.3169271988935483e-03 2.0535742342085838e-03 -7.3646977712688005e-03 1.8767211800651429e-03 2.1613789074081596e-02 -6.5605325455018668e-04 1.5447473887440848e-02 8.8388508747529551e-04 -1.2394108561407822e-03 2.4453828945129783e-03 -7.6727482124714502e-04 1.2031361366369954e-04 3.2253973338782970e-03 5.8269800152470396e-04 -6.5941000332137077e-04 2.4911019500109851e-03 -1.3285291934369572e-02 -1.6574688594012672e-03 1.0205994818378258e-03 -1.9321216579133260e-04 2.8615666988978036e-03 2.9873221963811272e-03 -2.7216993840304380e-04 -5.5088220478164470e-04 -1.7982618141697976e-04 6.0542858906120160e-04 -1.1713310331452954e-03 1.2089846156474171e-01 -3.8241871293558050e-02 1.2084665526078740e-01 -1.5945859690215565e-03 5.2623012128990711e-02 4.1451729249799901e-04 5.2312421044148332e-03 -5.0048599062304473e-02 -3.8457338217410805e-02 -1.5720251665887901e-02 -2.6691592285481916e-03 4.2533410309461214e-03 -5.8384981021220037e-03 3.3137207719014534e-03 8.4971217592094816e-03 4.4504999809167126e-04 3.0974021997059332e-03 -1.1044781092064193e-02 1.1202570889264175e-02 -3.0291303635849122e-02 2.4132750789397899e-04 -4.4925080758847852e-02 -8.8295315581788936e-03 -3.2698899739748558e-02 -2.3387087663418026e-03 -4.6354885785610533e-03 3.0856216268978220e-03 -5.8741070265793879e-02 -6.7168882608537603e-03 1.6228142900164416e-03 -2.3129688381850204e-03 -1.5867271991978620e-02 2.2496120027055300e-03 -1.6229864760117078e-03 -2.1694855750071265e-02 -1.4671301201758342e-03 2.9911885396811306e-03 -4.4044061577010740e-03 2.9712703427468845e-04 4.7169280666751703e-02 1.1793262767398538e-03 4.8490594294733043e-03 -2.5302974738452413e-02 3.7193364309713256e-03 -1.6942792401690818e-03 1.6371130560730675e-02 1.2646190300115229e-02 -3.6021928305308135e-03 1.0449056629336087e-03 4.6385287413341020e-03 2.5963672649108489e-04 9.2360886678142760e-03 5.1546666067667632e-03 1.1775798256648786e-02 1.5363758229103701e-02 8.3920076586601862e-04 7.9338129070396345e-03 2.1516742006373146e-01 -6.0162554323346565e-02 8.8448154941211887e-02 1.7097384359156531e-01 -6.5645529539592573e-01 3.5523532052950661e-02 4.1851599632891076e-02 4.4173118355031959e-02 7.4283583433786171e-01 -2.8651672525520248e-02 1.3934321680408694e-02 2.7407171362783922e-02 -3.0399457100762577e-02 -5.0813504406837628e-02 -1.9827032569967491e-03 1.4902433972816903e-01 -2.7400761523259667e-02 6.2989297119300389e-02 2.9396027558288403e-02 3.3805741943022727e-01 -2.0258579339670169e-01 2.6300258172125834e-01 -1.0510132383585585e-01 -3.2493134394546458e-01 -5.7767850833657930e-04 -2.0116274307431195e-02 1.3169811579708599e-01 -2.2495686747364255e-01 1.3596278299877870e-01 6.4414466949716462e-03 1.5797123874808534e-02 -5.7429877523975492e-02 8.6633232089996209e-02 9.3512369360027256e-03 8.9211207402937281e-02 1.1253934069237925e-01 -4.0323020768861351e-02 -2.5719228269912242e-02 -4.7912086858649540e-02 
      </Row>
      <Row Index="47">
        6.2870301049099990e-03 -2.4923292145552778e-02 2.1211669482404704e-03 1.3072068268170034e-02 2.1836886343756145e-02 -3.4750384577837662e-02 -1.5155637965731661e-04 -2.3714394729063004e-02 2.3887888852855959e-03 -6.3318150868524617e-02 4.2051505753403669e-03 -3.9582337100032769e-04 5.0521059134537496e-03 -2.1688190407447260e-03 -1.4951922735802570e-03 6.0062014295647545e-03 1.0610182908918157e-02 3.1661031970696002e-03 -1.2218994641084130e-03 4.1612361930776220e-03 1.2537646179915873e-02 -2.1579755934358902e-03 1.0976607757002939e-02 -2.5740574637105773e-02 -2.7364662452684992e-02 -2.8979245309596843e-03 1.6709388869291852e-02 1.0867278204435754e-02 -5.8337300841443077e-02 -3.7561165319689727e-04 -8.4876574845960118e-04 3.2499224538052253e-03 -9.1186827634405707e-03 1.2549206893517004e-03 -3.3934831706190494e-03 5.8656837555966677e-03 3.9510078736898491e-04 -7.3955575854544467e-03 2.9723491707389152e-03 -1.4429370468920233e-03 -1.2224425381234916e-02 -6.1462349328844645e-03 -7.8094755272338334e-02 -9.9556051411451019e-03 3.6044390074182198e-03 -1.1740839860734931e-03 -2.6080830541680922e-02 1.8785715217932167e-01 8.3065762011181321e-03 -1.5700744700640756e-03 1.1265017288434952e-02 1.3013323239960585e-02 2.6728107093263488e-03 -4.2808813244411808e-03 8.2381667310698070e-03 -2.4972603743543733e-03 -1.0039088666877537e-02 1.0998278193283806e-03 -3.5141931595544552e-02 -6.5395829021563101e-03 3.7545447496745467e-03 -6.2191028183832917e-02 -3.7950452644588024e-03 2.0975457860491487e-03 -2.2192008240480288e-02 -3.4167771955557820e-02 6.2963389376041054e-02 8.2138018836770115e-03 -1.3909033007548980e-03 6.3861738740053371e-03 -4.1543655046240253e-02 8.7331551683611508e-04 5.7128312630154165e-03 1.4702187826507791e-02 2.7632561339742748e-04 -9.2402679216591899e-03 -1.0836006223264028e-03 -2.0991093173255400e-03 1.1127978504292743e-03 3.4546409112716225e-03 4.0900372151611844e-03 -5.4058029484109716e-03 3.0958361406484614e-03 4.1584592836940715e-04 -7.5249743307259642e-03 -1.3293090888851472e-02 7.0375241061231756e-05 -6.5473732625671963e-04 -2.1309438334853352e-04 -3.9372660370881451e-03 -5.6616805862963460e-04 2.5530732412397707e-03 1.6580050399534153e-03 -5.7028079981278300e-04 -2.1567181735081212e-03 1.6700373455493748e-03 -2.6276338247802900e-03 2.5691555992328691e-03 8.3948291165245204e-03 -1.7881220982245864e-02 6.8502523244175113e-03 5.2542713472367494e-03 -6.3847357676512229e-04 4.7830749701957831e-02 -5.6332597175093466e-02 -2.7256624117182457e-03 -9.2920788584923038e-04 -7.9083280238916795e-03 -4.9328742193594194e-04 7.7838287071829368e-04 2.8660724704210666e-03 2.7786855918387424e-04 1.1736974986132271e-03 6.1611503035844751e-04 4.1669588278131697e-03 -3.7438714820913783e-03 -4.7796148543683224e-03 -3.2595380142459271e-03 -2.0187383483572567e-02 5.0775238107599666e-03 6.9658774497204220e-04 -6.4298755858734555e-03 -2.9788821431196974e-02 3.2012286699935187e-02 2.0554020888111698e-03 4.5343834201984931e-04 -6.6212342096708104e-03 -7.7730802674854825e-03 -2.1256237552950800e-04 -1.5782210747377831e-03 -2.4533918131650514e-03 -6.8388675284537001e-04 -7.4219722138442268e-03 2.5317397280694116e-04 1.0403481525633074e-03 -1.4810433832892012e-03 9.5290053129733253e-04 2.0171785055227527e-03 4.5385363347677212e-04 -1.6858621731297434e-04 -3.1237844866580230e-04 1.0008392976609752e-03 -8.9873621525459694e-04 1.3817610582122689e-04 -2.4721913399588870e-05 3.1208686206530775e-04 -8.9841175413534575e-04 8.0416302183412215e-05 -1.2317520003338317e-03 -2.3983671229746640e-04 4.4357533693025722e-05 7.5758860850046530e-04 -1.4089454841139177e-02 4.9937219014473313e-03 -2.5534865421667184e-03 -4.9117470060560820e-03 -1.4785135519293943e-02 -1.7140378960275763e-02 2.3922836337981254e-03 1.3689368820377527e-02 -4.5624033543492384e-02 7.6083810114863787e-02 6.3432901239882586e-03 2.4357982160911273e-04 2.8672118804801026e-03 -1.1613109829153702e-02 4.1991590727361201e-04 -1.1462092594782033e-04 -6.2067745124891379e-03 1.8153691503287645e-03 1.0086846280859380e-03 -2.6174675558555960e-03 2.3992987179325166e-03 2.1120354806725278e-03 1.0889135213863130e-03 9.9114110416387968e-03 3.0783857824452903e-03 1.3959009110216247e-04 1.2878683302842697e-03 2.7058785069779705e-02 -1.4440413210789916e-02 -3.9341339789680336e-03 -5.5460929730268265e-04 1.3897603675381400e-02 5.4562716236238101e-03 2.6955088277911751e-04 -2.7462220631787465e-04 1.8612508253135207e-04 -1.1381993593600863e-03 1.6108614449024949e-03 -1.5681035945875350e-03 -6.6877996060502121e-03 -1.5890190971757307e-03 2.2802736147651414e-04 -4.3444875515988128e-04 -9.1207216134439552e-04 2.0710822507406202e-03 -1.0393872676152858e-02 -1.6432236736633916e-02 2.4364365897219152e-02 3.0593550195900710e-03 -2.6989536400701369e-04 9.1769851730191809e-05 -5.2296858077563665e-03 1.4270010835582686e-03 4.3712237879187993e-03 -3.1467608436921805e-03 7.7029930506026124e-04 7.1256446106171831e-03 1.6496516465699353e-02 1.4458239717912991e-03 -1.4699340346135688e-02 -1.8461577878346885e-02 1.9931319906415439e-02 1.5997996740023345e-02 -1.6064549022922404e-02 -3.4860041191729377e-02 3.7654952210564738e-02 3.1696691707704105e-01 2.1930427728248561e-02 1.5968552587672033e-03 9.8366760458247528e-03 3.8867184387717184e-02 -2.7832829492754983e-03 8.3670787243024791e-03 2.0992976892320075e-02 -2.3193309102286430e-03 -1.7703516238269986e-03 -3.1904792311153701e-02 3.4029512053808969e-02 -4.5074056100013887e-03 4.8979684526955884e-03 5.7260154680924533e-02 1.4924754659697390e-01 3.0677049095876763e-02 -4.9882526384603443e-02 -1.0111077481405388e-01 -3.4221747843430878e-01 -1.8054103740608049e-02 -1.1356330199879829e-02 4.9417387674384500e-02 -1.1791783227220586e-01 -9.3006365940537170e-03 4.5104165292691629e-03 -2.2741358654395739e-02 -8.1833801340881751e-04 -3.3055762549865433e-02 2.4902300992889848e-01 
      </Row>
      <Row Index="48">
        1.5932102451618576e-02 7.4691847361884889e-03 1.6883741517940032e-02 4.6066679758809733e-03 3.8027649053051435e-02 -5.7269845422441758e-03 -2.6776371613145868e-04 2.4764864781258722e-03 9.0737769270521906e-03 -2.4398671731677771e-03 1.5257732187594988e-02 2.5971998215796573e-03 -1.4748426368558336e-03 -4.0227476945855732e-03 8.9892327014423146e-04 8.1013632212346143e-03 3.1397704466767625e-03 -7.9048848887082468e-04 5.4179755913935750e-03 1.1779450239497172e-02 -6.3186993851779075e-03 -4.8522638318791861e-03 5.0813458656908186e-04 -6.4400578075443776e-03 -3.4437401134260722e-03 -1.6070265484319137e-04 -4.9638397852033792e-03 8.4163240520065685e-03 -5.6944043328463010e-03 1.2369607217258053e-02 -8.0287172041423882e-04 -1.6208095358884902e-03 -2.3234088901089452e-03 6.8115926588623033e-04 1.2708134173918528e-03 1.6901280187418314e-03 1.4103915290878434e-03 -4.4449598512564734e-04 5.0108941007472561e-04 1.6653047891024841e-03 -8.4536120145698446e-03 -1.9633003831533782e-03 -1.5977223826725673e-02 7.5888825780521529e-03 5.6591021027990046e-04 -9.8941207996820768e-04 6.8502124442311463e-04 8.3065762011194089e-03 1.9871044517829724e-02 2.0912380309661346e-03 3.9458582863184785e-03 4.3226286430826724e-03 9.2406561415412161e-05 1.5112881167750648e-03 3.8184178413604719e-03 4.3635499280742628e-03 -4.5447906827768472e-03 2.6277019309511318e-03 1.0425889542524236e-02 7.1499334543841178e-03 3.3780804343514028e-03 -3.7047658664340751e-03 1.9028525586028229e-03 4.3035433677705154e-04 6.1042732784663545e-03 -1.2281530083608026e-02 8.6841271821861358e-03 4.3309840026471841e-03 5.0430314552731047e-03 -2.1630930955521569e-03 6.4368342966889544e-03 3.8980269869196005e-04 2.0931374039633022e-03 4.8133391358382857e-03 9.8838994500303600e-04 -4.5753295848546677e-03 1.4490958066380732e-03 3.9276764204783203e-05 -1.5160681155845191e-03 -3.8957927366632520e-04 3.9398846930764975e-03 -1.1880878526079740e-03 1.4680827069641394e-04 -1.1161436082327836e-03 -4.2876827187832145e-03 -1.1921066353828688e-03 5.4425803787909195e-04 6.0673211676330239e-04 4.0614187321101733e-04 5.4414285820747477e-04 -3.1328930865114600e-04 -9.7105862147173639e-05 -1.3023860223567894e-04 2.4883375904095553e-04 3.5180032194578881e-04 -2.9956738365942790e-03 1.2384330982986571e-03 -1.5786068012063792e-03 -1.9080580500340180e-03 -1.4883117266705543e-02 7.7228425077189124e-04 1.0817785996249923e-03 6.9217317213924115e-04 1.7451251754315909e-02 -6.1207367388588238e-03 1.3410743563918386e-04 1.2923794303126932e-04 1.9843072970162864e-04 1.7957620762876659e-04 -2.1285076915824848e-05 -5.7917117897976836e-04 -1.6906552944832010e-03 -1.2301990737883920e-06 3.7544577309092067e-04 -6.6809574350391347e-05 -4.0632569997092857e-04 -4.4768242441473949e-03 -8.0911938377663381e-04 -8.3918071968148520e-03 2.6043597974749071e-04 4.8871764659032453e-04 -9.1863828457384306e-04 -1.8666651860735562e-02 4.7147413260299992e-05 -3.5614971967762310e-03 -1.4922543626164904e-03 7.7787469214056189e-04 1.2710406609239794e-03 -2.7036746907129990e-04 -1.7894138301126081e-03 -1.3707051039477380e-04 -3.8933565462022742e-04 -4.2804017386708550e-03 -4.4649760741345484e-04 -7.7429656226218175e-05 1.0085552628177007e-05 -2.3811719604329841e-04 -1.7234301839143024e-03 3.8570122335264780e-05 -4.9009208897958316e-05 -1.4792012646919640e-04 6.3024577348827591e-04 2.2482535859250490e-04 -3.3622892846096593e-04 1.6480443130644862e-04 -3.5997627504811650e-05 1.8687584932888400e-05 -5.7558691708515647e-05 -2.0704578495223114e-04 1.4723852902235316e-04 -2.6654652064024879e-04 2.0673189833600165e-04 -5.7027309062131206e-03 -1.9579711865266147e-03 -3.2022846970602876e-03 6.1295038057394705e-04 -2.1751797894660305e-03 -3.3648442170885456e-03 4.4205775730677733e-05 3.6194175324707686e-04 -6.4884483590689239e-03 4.6399619387674585e-03 1.0081207210728524e-03 -8.7802978152400025e-04 2.3870722814727818e-03 4.5765044467836460e-03 9.2023735794369494e-05 -3.4805231463232644e-04 2.0995714993986216e-05 9.3918209252059860e-04 -2.9668601900579993e-03 -3.2499875020617144e-03 -1.8800568445854204e-03 -7.8279279786498679e-04 -5.5869157608876875e-04 -4.7383581990862872e-03 -2.0257037404399544e-04 -1.6100060371125461e-04 4.0671419780576035e-04 2.3510495251842373e-03 -1.5469533017714587e-03 -4.4811710190865751e-03 -8.1512579265711907e-04 -7.2554516478082675e-04 6.7854740395616392e-04 -1.9599421952305155e-04 -2.3319815347721401e-03 -6.4190799809147247e-04 -1.4840237282548883e-04 7.7131924710760295e-04 1.4559308657994801e-03 4.5418439822656623e-03 1.4865953483933897e-03 2.1000978318040257e-04 6.4994416071901323e-03 -5.7082768807493729e-04 4.5679639510276028e-04 9.2944943863803448e-04 -3.6716936852881723e-03 2.8806930855676924e-03 -9.9730910640085453e-04 1.8511568513336637e-04 3.9566386330571769e-04 3.2775082524197146e-03 -1.9625313488659337e-04 5.6451008804376385e-04 -1.4836416667414803e-03 -1.0990162075526638e-03 2.2448525766997620e-03 2.1045066657250051e-02 3.4491239893771550e-03 6.9321898735216284e-03 5.9227740294941905e-03 6.1405164086161479e-02 1.1433138486387556e-02 -8.0027658856959708e-04 -1.6321821543258241e-03 -1.7441666187923408e-02 2.8515095162824466e-02 2.5577262489115720e-02 -1.1761129993862821e-03 -1.4971412313811387e-04 2.7659105935122705e-03 8.2693512121900185e-04 8.0685313900212691e-03 4.1130490616634388e-03 -3.3594532109515770e-03 8.3844008613490686e-03 -2.4935899148850076e-02 -1.0315885447443558e-02 -2.0283345874482064e-02 1.2695572332847194e-03 3.3670678212579505e-02 3.0206801665000390e-02 8.7865019849357531e-03 7.1735105907838326e-03 -4.6836453209953416e-02 -2.8092208478641523e-02 -7.9523968860103725e-02 2.0392339903977558e-02 -5.6470047068403976e-03 2.6680878647331686e-02 -3.0527964561224454e-04 2.1451800955292217e-03 -7.4126636006277332e-03 3.3460785813841099e-03 -1.8255243302225155e-02 4.7226806125234728e-02 
      </Row>
      <Row Index="49">
        -8.8520296179125458e-04 5.4122477316877193e-02 6.7716758514152313e-04 -3.4154240919062311e-03 1.1543458563661173e-02 4.7281531478963051e-03 8.6797078037035777e-04 2.2998124933850866e-02 -3.3028058272524356e-04 3.3993921577236573e-04 -5.6798434995488159e-04 -2.1814161199158713e-03 9.4952055031795617e-05 -5.7572084708166779e-03 -1.3495154423915907e-05 3.3725508994868333e-03 7.5356778504954199e-04 -1.3892371106008564e-03 4.3582411654394118e-04 -1.2467119933472312e-02 -2.4950998430846895e-02 5.0967641713579592e-03 1.0016288082127199e-03 -1.3552491856589688e-02 3.8388548892187976e-03 -5.4334324369046316e-04 -1.9916824316941334e-03 3.2510045480903665e-03 5.9976004698794605e-04 -1.5930697035262467e-03 -1.4904925505129674e-02 1.4085170756537055e-04 7.9631185596077542e-04 -2.3733249382706136e-03 -2.6654080701439264e-03 -2.2803200693365488e-03 1.8998832211909386e-03 -1.8111527038104300e-03 -6.7254981932746080e-03 5.1046370844631817e-05 5.0907439676511901e-03 -5.0874626118110611e-03 -2.6029098355197011e-02 3.1475678000850299e-03 -1.8326437115652461e-04 -1.9161112294905414e-02 7.9867750259391967e-03 -1.5700744699964492e-03 2.0912380309783818e-03 4.2354359085182605e-02 -4.4140808173836685e-04 5.7853811233693139e-05 -3.6466511869383267e-04 4.6533474930329040e-04 -4.2060101780465597e-03 1.8367947850509981e-03 -2.9220114553551507e-03 3.0598562070135449e-03 4.6449647774856911e-02 -1.0823684601240918e-03 -6.2863664517464734e-05 -7.0994874532844983e-03 2.0577429659491835e-03 3.3590746410749883e-04 1.2831389590448938e-02 -1.3677356813331936e-02 -5.5687874936453485e-04 3.1320827450130608e-03 4.8486961365559238e-02 -2.1370028643342698e-03 1.7945826163786174e-02 2.8279441870261435e-03 -5.8974107954570809e-04 1.7469777129812108e-03 6.6891199501661856e-03 -1.2941245781351862e-04 -8.2000470815170399e-04 -1.4235309729530724e-04 -1.0428808743813064e-04 -2.9198445769076211e-03 5.9294608564000942e-05 1.0153511830106174e-03 2.5089051353005465e-03 -1.5265765470802162e-03 -3.5792191265631157e-03 1.1872678317470138e-03 -2.4846156409414678e-04 5.6516423415738934e-03 1.0384626491531440e-03 5.0814326146071296e-05 3.5379402525131639e-04 -1.0411984876107509e-03 2.8905779907417869e-03 2.2871963600893173e-03 3.4988397522374404e-04 7.4140122104266737e-03 -2.7903925896069623e-04 -6.0801650931587557e-04 -4.6697633898117484e-03 -1.1572501915692057e-03 1.1123120418089381e-04 7.1938982035743785e-03 -3.7384076104381766e-03 2.5730666133114064e-02 2.3962998982340060e-03 1.0345637008809157e-03 1.0265856268336804e-02 2.1982198794096486e-04 -3.1334823384544276e-04 1.4761223105072120e-03 -1.5278840867204613e-04 5.5685706945212497e-03 2.0166912955149364e-03 1.9894978335824286e-03 -1.0706227669762203e-02 3.0534525501163933e-03 -3.0778908139193588e-04 4.4707803148163316e-03 -1.1958304473158599e-02 -1.6608462761496339e-03 3.5024331385087809e-05 3.7575239832705783e-03 -2.0534779421976457e-02 -1.4461347863913389e-03 -1.1521514884331001e-03 -6.3833070928075780e-03 -1.3475599898353009e-04 1.4008615019274000e-03 -1.1972554114572105e-03 2.9185716890721804e-04 -2.1237880876302179e-03 4.4746638645971927e-03 -1.6635305891120609e-03 1.9607483738696653e-03 8.1050204081073999e-05 -1.2821262472583925e-03 3.5511728359932497e-04 -8.3380529798913593e-05 -2.9479738225551952e-04 1.7618395619392152e-04 -6.0616516778921273e-04 3.4001107301656809e-04 1.6906420650906209e-04 -1.0797468582637356e-04 7.5584127643657354e-04 -3.2990556157740840e-05 9.2101529931081286e-04 1.1751705486980262e-04 -8.2451908581267067e-04 2.8676475582947351e-04 -2.9230728794365016e-04 -3.7030512988688903e-04 1.0641915392187111e-02 -9.4613160460590333e-04 4.8126861893870877e-03 -2.0800742934794000e-03 4.1586902888733224e-03 1.2319567531266613e-03 7.9326643761702816e-04 -1.2706347133072296e-02 -4.8994406701287933e-03 -6.8575419426717419e-04 -5.9256255392983400e-04 -4.5320221034194285e-04 3.9291465795914318e-05 6.0537366940972819e-03 -4.3015641259523018e-04 -2.0753435112929649e-03 -4.6038525927780594e-04 -3.2904522309189438e-05 4.0053981517537463e-04 -3.6873111651974239e-03 -8.4452457233439773e-03 -1.0349613786103211e-03 5.7889922193212753e-04 -4.5852717652096562e-04 -4.5116955166487282e-04 9.1008569379942474e-04 -3.3793512185859576e-03 6.5575032901669973e-03 4.0582600460089321e-04 -6.0765580677152580e-05 -3.6929009391637826e-03 4.2732855162726582e-04 2.1456322426752011e-04 -6.7525277308010047e-04 -1.5374119931096091e-03 -4.3759417844457940e-04 -2.5931716030030538e-03 -2.5799300088553273e-04 -1.2811336047110719e-03 2.4833858469450937e-02 -3.7249410600108130e-04 -3.4508096979245998e-04 4.1170743174451623e-03 -4.5836309455144679e-04 1.3636670498279263e-03 7.8467474260518737e-03 -3.5445274569192373e-03 -2.3206853197732329e-04 -2.5893131103836130e-04 4.2054028100247378e-03 -4.7934383622482628e-04 4.0199115279601046e-03 -1.5945368550353864e-04 3.2908712896259277e-03 2.9830132912172834e-03 -5.0337588763729475e-04 9.8608180871832601e-04 -1.8815117695118809e-02 3.8528354505709794e-02 -3.4004621413681619e-03 1.5319173007470538e-02 4.7289302214963899e-03 -5.1197178258127621e-03 -2.3352286962023964e-02 1.1141047495377346e-02 -8.7172944055770758e-03 -8.9991934185705263e-03 -3.2861824939132401e-03 -7.1941478231354786e-02 -3.1807612337227428e-03 9.0193047841528335e-03 -3.2500525661107709e-03 1.1571258234383673e-02 -5.2583363883353749e-03 3.9207360951185478e-03 -3.2974251779200516e-03 7.3735277898544907e-02 -1.0044519936475187e-01 1.6709728219189091e-02 -1.7967970588118505e-02 1.2914425585611469e-02 -1.7667697468110467e-02 3.4930776395019965e-02 5.7380863262472458e-02 -5.9332586746203821e-02 7.2297373491664683e-03 -2.5119519281433826e-03 1.5271968332804928e-01 5.6183173285461233e-04 5.6297305207542267e-02 4.9441345844739235e-03 1.2479965112124909e-02 1.3917971991393170e-02 -1.6453764938006654e-02 -5.2807590244928568e-03 -1.1303467311788935e-01 
      </Row>
      <Row Index="50">
        -1.1748671591162834e-02 1.0575717585763131e-03 -1.1699008652789993e-03 -1.6053417918947595e-03 -1.2689069173199624e-02 -3.8007957952608685e-03 -7.4669866973463804e-05 1.7452982586480675e-04 1.3555883658826970e-03 -1.0125280626709709e-02 9.5684197532264312e-04 -2.9916462763895663e-04 1.4093337887121964e-02 2.1261728568281856e-04 7.6914201505697412e-04 2.8703782110887075e-03 2.3547541809714276e-03 2.4692295448316866e-03 -9.0656008355136780e-04 -1.5214607572238841e-02 -4.7224641837648532e-04 4.8223011535566893e-03 1.6320079882731243e-03 1.5310177662284589e-02 -3.6734158132719704e-03 -4.1536113846036248e-04 3.8132392477063350e-03 8.5199751102719504e-03 -5.3438198571959163e-03 -1.2185310013777479e-03 5.0639829564875366e-04 2.0265069782637722e-02 1.7929210231055768e-03 -9.5837600096955813e-04 -2.3802208511448791e-03 1.8338527746561738e-03 -2.1234314957827294e-03 2.8020759304188745e-03 -3.1389966242564094e-03 -2.1318330936782870e-03 5.0001877732627070e-03 2.7362205990769002e-03 2.3809090529385041e-02 4.3530730541113567e-03 -1.7070704799803868e-04 2.2275490724624723e-04 3.2500262962338738e-03 1.1265017288456566e-02 3.9458582863194334e-03 -4.4140808174363347e-04 6.3885707199507896e-02 -2.9713869757423488e-04 -4.5580904354599917e-03 8.3421544669464386e-04 -1.5642109689860545e-03 6.3237896098278824e-03 1.6622549661505295e-03 -9.4947986401482110e-03 -1.8400280446609621e-03 2.4584252564557579e-03 3.4310036854159369e-03 1.7695052102180399e-02 -6.4859766084669149e-04 3.0072747651023468e-04 -1.5304909140424205e-03 1.7727819701792040e-02 1.1782505792314098e-02 -1.1269461236640957e-03 -9.9692011261099463e-04 8.7502368611009525e-03 -1.0417738103263914e-02 -3.6062811734417777e-03 6.0148838004419475e-04 -1.0887893851350867e-03 -1.3008718468921730e-03 2.2410991105015782e-03 -1.4183521553777396e-03 5.3871734536373964e-04 3.0035475066742326e-04 -6.9826858796845001e-04 -4.2904486254870863e-03 -8.6852112903865284e-04 -1.6878379754925015e-04 1.0265993603772033e-03 -1.4309818413658498e-03 -2.0496700236960516e-03 -2.4165850778935796e-04 -1.2762120238041594e-04 9.7593012189546341e-04 1.6437947496691040e-04 -2.6819878604917425e-04 1.2772309285830237e-04 2.8765120013556804e-04 -1.6310894245681012e-03 -6.0249504418646567e-05 4.4609669854997680e-03 -1.0283953771328550e-03 -1.8224339935144667e-04 -8.0849434327524795e-04 3.0692569016198493e-03 4.2975982755045800e-04 -2.3678646185743205e-04 -3.6850378435871033e-03 2.7084687671101622e-03 -6.7294622773191913e-03 5.3789223229537661e-05 -4.3758114867316355e-04 -4.2737379340560613e-03 1.3207030213511486e-05 -1.3602908705171324e-03 -6.9775900960942030e-04 -4.0112136283134217e-05 3.9668561149921788e-04 -1.7021298496741337e-03 2.2453672523657184e-03 -2.0922750989939443e-03 -1.1821925103852331e-03 1.2993018809477380e-04 -3.1570812061747530e-03 4.0142224867209086e-04 3.6021162032807725e-04 -2.7846263406962313e-03 4.1191571015932590e-03 2.3702933531797245e-03 -3.2167002319450342e-04 -3.3470945775482752e-04 -3.7162577355192498e-03 1.6107014952602755e-04 -1.2156065025120829e-03 -5.1961638478258514e-03 -1.4949484193239094e-03 -6.3234077816091256e-04 4.8382009548834243e-04 -1.5838505727302013e-04 8.5747002343394222e-04 1.9132019014022193e-04 -3.0800390777331371e-04 -7.1461161265877807e-04 3.3195804983043192e-04 -3.7253844062338099e-04 1.0659376433764058e-03 1.0754708519848848e-03 5.1373657447422089e-04 6.8764483760045607e-05 -2.6154792652320765e-04 -4.4346693736224972e-04 -6.1479127175881364e-04 -1.6540494962617800e-04 2.7158293946398949e-04 -1.7176428494525752e-04 2.6341360522848809e-04 5.0432121798890412e-05 1.2717794176900167e-02 -1.4576282939019144e-03 2.6544071655304220e-04 -5.6014641646274935e-04 -1.3481028236421999e-03 -1.2983057768929075e-03 -6.8289062166240224e-06 -2.5473809562793007e-04 -5.6334804320237013e-03 5.3688553869123924e-03 1.8385602059810856e-03 5.7492147811877346e-04 -2.0417055917471205e-03 -4.2482148455932414e-03 -8.4459026644913748e-04 -5.3656127069170254e-03 -9.8768222930117671e-04 6.2004952253244517e-05 1.7895096993030351e-03 -1.0679973961433848e-02 1.0627963195630752e-03 4.8125872707111897e-03 2.1826583206430751e-03 1.5970072676574101e-02 5.2648899261898037e-04 1.0370040701107976e-04 3.9859223044494546e-03 6.8074382926013449e-03 5.4453565268324164e-03 -2.3677750326313095e-03 5.8430982664737130e-04 1.0035079559935560e-02 2.8936067118058221e-03 2.0216172714211198e-03 7.7267891536441230e-03 2.0409538585897595e-03 -4.8248925463141067e-03 3.3050125064593861e-03 -8.9579945497297864e-04 4.5437892241713060e-04 -1.3986441303338590e-03 1.4406984446387495e-04 -1.2470421670357497e-03 3.4794696799689148e-04 1.5205035036418624e-04 -2.3647522644323071e-03 3.7043472251073158e-04 1.7860283308441379e-03 5.4098476800863325e-04 8.0261665153978076e-05 -3.3243106072295520e-04 -3.1922440428741451e-03 -6.7288758673485758e-04 3.7534543525161938e-04 -2.2560532946009276e-04 7.5196603512214398e-04 -2.4129929285475072e-03 -3.8287322106925151e-03 5.2556045355809378e-03 -1.5055103838001039e-03 5.5415377196863574e-03 -1.0684216439608178e-02 6.3729029769441416e-03 1.8576615569350021e-03 -2.6696916093443888e-03 1.8842241341842592e-02 3.0359803156841492e-02 1.8505433516465713e-03 3.1331250730166037e-04 3.2589450030499637e-02 1.5108097117905034e-03 1.8217791380201645e-03 4.2813881603749430e-03 4.0381909551820763e-04 3.4733012309598899e-03 -3.7004196456635633e-03 3.1733429177303506e-02 -2.9719463241684729e-03 4.2934138465171960e-03 -4.2168774303753039e-03 -2.3854253009104279e-02 1.6698828160712775e-02 -4.4966237968473675e-04 -1.2956565580599461e-02 -3.7361421076572169e-03 -3.6597571132926429e-02 -1.1267196421812739e-03 -5.4864841724214970e-03 5.5847573761793209e-02 -3.3617275394984603e-02 5.9975590732680942e-03 1.0280503148271093e-02 4.2600724724681498e-04 1.0512075143864149e-02 1.1204214264421121e-02 -2.0653311699188902e-02 
      </Row>
      <Row Index="51">
        4.8476755033417191e-03 -2.7817700593652656e-02 2.7520155453716649e-03 4.5353522719861970e-04 -2.5584042267376851e-02 -2.0637156057893655e-03 1.2929298004600923e-04 1.4390256483323566e-03 -7.1767133446693429e-03 -1.2498621978593649e-02 -1.7546005022792835e-03 2.4888390197884630e-04 -1.3967135726161834e-03 1.3809311341990897e-02 -1.5609453506761210e-03 -1.1006439059418473e-03 2.3789762144279977e-04 2.0084839358123184e-04 -1.2647470466193845e-02 -8.0494455663988919e-03 1.6831021958389744e-02 -9.5279123007571825e-03 -4.4357218808099719e-03 1.5875449973241459e-02 -9.8884772166630110e-04 -4.8692063993655460e-04 7.4083295478498401e-05 2.5898881100599874e-03 -7.5409268783798705e-03 -2.9470543016580520e-03 6.6923240111049220e-03 1.4380043863081280e-03 1.3995065231446654e-02 -5.4022612968311727e-03 -5.5567632659926508e-03 1.4076964303278061e-03 2.6946899747049557e-03 9.9374343881974622e-03 -7.4812649266116941e-03 1.9030782643931987e-02 -1.0664424285743740e-02 -2.4632633478297514e-03 3.3715143853197634e-02 2.0462850380483059e-03 1.0033121073646858e-04 9.1555763429025661e-04 1.8766370591114891e-02 1.3013323240005349e-02 4.3226286430869537e-03 5.7853811213259831e-05 -2.9713869757967346e-04 1.0290308989702573e-01 -1.5524916759434227e-02 -1.2323392618160020e-02 -7.1315959846666860e-03 1.9259701914587594e-04 2.3942779995419338e-02 -6.6322083227134399e-03 -3.2801670961195045e-02 -2.8572396873593787e-03 1.4839477832161196e-02 -4.2513002944003647e-04 1.5608248755590028e-03 -1.1811850402737023e-03 3.9783325727258123e-03 -1.5897025517866623e-02 5.6513121076295861e-03 3.8300223704209498e-03 -5.8064551102649624e-03 9.2609204273202093e-04 -4.1144054985329068e-02 -5.7075739031858669e-03 2.8307465029807938e-02 -1.5057464720409316e-04 2.2528138992927074e-03 6.0593549644222290e-03 -1.4376735927037303e-03 -4.1003356164682342e-05 -2.0348062080079179e-03 -1.7544540674377428e-03 -7.4206964437281038e-03 -2.3369824015115868e-04 1.6424961091458939e-03 1.2557843078074837e-03 -1.7129458232055528e-04 -3.1572861764691540e-03 5.7321267708600773e-04 -1.7340454260703743e-03 -3.2413169730758056e-05 -2.9567087668054808e-03 -1.3506750891082494e-04 2.0703762745201250e-03 3.5452455987845365e-04 6.6632850576040436e-05 -9.2294326924415113e-04 -2.1608584947280696e-03 -2.5974640483239090e-03 -2.4339530996161517e-03 -2.7373430772622987e-03 2.0135019867463404e-02 -3.3037363662393653e-04 4.2337112476910146e-03 3.4925216830923207e-03 -1.0289017543819558e-02 -5.6238259995014996e-03 -1.4103345397810450e-03 -1.0738894989713375e-03 4.8020874496023367e-04 3.6692158216870248e-03 -1.1108095229393697e-03 -2.5069952453247142e-03 9.7129016141098753e-04 -3.5634471709020967e-04 -3.4612192952495741e-03 -4.0850319452224709e-03 7.2040884190285263e-03 -5.2324139844638238e-03 2.9922200555693853e-03 2.6378701826007154e-03 9.3703647084793598e-04 -4.7601168298384226e-04 -5.8636343365267053e-04 1.0341964329467275e-02 5.3910454845206134e-03 1.0844531752691722e-03 2.2748168716146214e-03 1.8335823291668334e-04 3.3631908777277206e-03 -1.3766052759444888e-03 4.6536846424900819e-03 -2.1994140870910310e-04 3.4775112095902696e-03 1.7696621444480802e-02 1.7325402358197481e-03 -6.3975227729480522e-04 -2.5885995874162359e-04 9.2894181258076480e-04 2.1484722442090183e-03 -3.4657934534075834e-04 2.4946019772285747e-04 -1.5330999925572881e-03 1.9350963238349986e-04 -1.0517023285714973e-03 2.3380793237169742e-04 -3.9953717861452995e-05 3.5448629623610649e-04 -6.5938428835894409e-04 3.5486092276621378e-04 1.5673205485201651e-04 7.5875049136400421e-05 -7.2561162882583139e-05 -9.1451876165441403e-04 1.5172873990804924e-02 -9.5677706077867128e-04 1.1543507711071271e-03 -4.4302227776511728e-03 1.3711814340971209e-02 6.4440344729731539e-04 -6.5605405213308235e-04 4.1823333127560119e-05 -1.5194820353320305e-02 8.7518613874354341e-03 2.1738042014395205e-03 9.7177905068094369e-04 -1.3796461709890337e-03 -2.9054802566316235e-02 2.5073620806866526e-03 1.2777712885402283e-02 2.5149631318882489e-03 6.3733858057299538e-04 2.4570708168696965e-03 -5.7653249248793802e-03 3.7960632844706351e-03 -4.8933721125380553e-04 -5.1882387651002587e-04 -2.1946728737148426e-03 -3.3370164066411426e-04 9.7826296152503898e-04 -8.0401336261366751e-05 5.2757936688252773e-03 -3.3938734516067576e-03 2.5582906038555187e-04 -2.8011524778308685e-04 1.8850177542228111e-03 -3.3809811394497672e-03 -7.8651787666707002e-04 -2.0572841267566255e-03 1.1506776818550951e-04 -1.8170123234634633e-03 -2.9989351595222698e-03 3.4374215261994134e-03 -1.1718367618163285e-02 -4.3632063349090299e-04 4.5937820051833887e-03 -3.2190809694679170e-03 6.2127450885016242e-04 -9.3360927840727400e-05 1.9273496373132725e-03 7.0147668802824047e-03 -4.7813968770475733e-04 2.2740754498527093e-03 -2.1879528063471860e-03 -1.3964473618706856e-03 -2.2616778450477399e-02 6.3856161893366945e-04 7.6309355762041653e-03 3.3341795667039126e-03 -1.2985501245635247e-06 -1.6615671605063210e-02 1.5375357743574344e-02 9.1862649494897294e-03 -1.3159103109259308e-03 5.1086542731941929e-02 -9.5970524345043981e-02 2.0729907258341318e-03 -1.3817265521888522e-02 -1.0648832752046859e-02 8.1794509003622368e-02 1.9451433804100741e-02 5.7618424677897528e-03 4.1202089264205655e-03 -4.3687071661704362e-03 7.3775667880438239e-02 -7.7875719347491159e-03 3.3933261540306930e-02 5.8829262871089912e-04 4.4053370906784513e-03 -1.4858491001362405e-02 6.1590784140028151e-02 5.4390152743923836e-02 -1.5253016086477207e-02 -2.4185884148873675e-02 -4.6988939079401139e-02 5.8303673404964309e-03 2.1987812548515534e-02 -1.0132197763875195e-03 1.5944313925746918e-02 -4.0408252908673316e-02 1.5837117550852285e-02 -3.4546253386749076e-02 3.6100089373752300e-03 -2.2439474572780133e-01 2.1091519283149299e-02 -6.7596708408557415e-03 8.8968068903421300e-03 -7.6842731518880561e-03 7.9821063021462718e-02 3.0842261038283719e-02 
      </Row>
      <Row Index="52">
        -7.4811004398508130e-03 1.1095133889178044e-02 9.8351675305168359e-03 -8.5758290484362707e-05 -5.1963993371781217e-02 -1.6620437041743354e-03 -4.1738201462854924e-04 -6.7769239940532189e-03 6.5522160299054943e-03 8.0627495853417049e-04 3.3925965776820735e-03 -1.4259891263852667e-03 2.2827542226040798e-03 -8.8681217625197241e-03 1.5226235156977318e-02 2.9815642850262950e-03 7.3135214163973271e-04 6.9762837458032384e-04 -9.5792766454885960e-03 -2.0522822755129552e-03 -3.7490403223142260e-03 5.7179102490732825e-03 -3.4504573702786668e-03 -6.2527432735254018e-03 -2.0253783836165114e-03 -3.1085098872444365e-03 -3.3408738076785363e-03 -4.8496777967019233e-03 -9.6608860163535995e-04 9.8089826443571032e-04 -2.7850436309536930e-03 9.8523668148832043e-04 -7.0053309764635521e-03 5.2655431699581451e-02 4.0404301489802563e-03 1.5783877590161189e-02 -1.4230253761880404e-03 -4.9753639121397466e-03 -1.0352876646107968e-02 -5.5412070539340164e-04 7.5485993681160268e-03 -3.1223386279513737e-03 -3.2294946206028935e-02 1.2224113696199662e-03 -5.3701383530259383e-04 3.8788663279470184e-03 -1.2930660680930253e-02 2.6728107092933578e-03 9.2406561411143007e-05 -3.6466511869102936e-04 -4.5580904354549506e-03 -1.5524916759427618e-02 1.5192046985083149e-01 3.3133728022880253e-03 -3.3211980475688407e-02 4.5196579593995492e-04 -8.6740007936300188e-03 -1.3376926744086082e-02 6.8471657355881361e-03 6.0496294082635349e-03 -8.5405299070581155e-04 -2.6461383535247233e-02 -9.9871756815609974e-04 3.5434560241648372e-04 -4.8502100237485246e-03 -2.3685826686193533e-02 6.7406138889746360e-04 -3.0833689036324991e-03 -1.7980305812724834e-03 -4.4042191050255725e-03 5.0100073426380190e-03 1.1097085299572623e-01 1.5089155899750128e-03 -1.7083641156738320e-02 -5.4754223221448531e-04 -2.5985355285871176e-03 -4.4629727375008581e-03 -3.8805906918440257e-04 3.4493531846705207e-03 -6.0106556259131817e-04 -4.2364278917139701e-03 -3.1458772853129168e-04 1.3980784390328267e-03 2.0031167207058553e-03 -6.0478238913320159e-03 -4.7560900292636672e-04 8.8730063881631044e-04 -5.6381521603230669e-04 -1.0037440799553442e-03 -1.6333320508816762e-03 9.1997831202524655e-03 7.1930354890522999e-04 7.4441326586143801e-03 -2.2816415002850812e-03 -2.5502146015230456e-03 -6.7266034224715528e-03 -2.3849638996004943e-04 2.9611523599927091e-03 -2.8898098797653917e-03 2.7588999642358052e-02 4.3829258888072593e-04 2.2237089177558102e-03 -1.8186001145907415e-03 2.3089327683843912e-02 1.3027403727238528e-03 -3.5027928355358025e-04 -1.2443990228106516e-03 -3.6135834449717084e-03 -5.0958980002895398e-03 1.6009081323332942e-02 4.6227308736312422e-03 2.1301415843433126e-02 2.7441645643480725e-04 -2.2799388496257105e-03 4.6539139671254370e-03 1.9935548793569855e-03 -7.3005358406665359e-04 1.4311739551436183e-05 1.3073936767330353e-02 4.5085228653268941e-04 1.9661218738590788e-04 -4.9568664875908903e-03 -2.5257618246852281e-02 -9.1410609465421917e-04 -8.0239825667589772e-04 -2.4612501016156130e-04 -1.3458274909569482e-03 3.3803828345071339e-03 7.2070671856770095e-03 -2.1105682085591840e-03 -6.0929345176615884e-03 -5.0225184741120059e-03 5.1541089580784223e-03 -7.1694486592045140e-04 1.3690657549982079e-03 -8.5522509513688528e-04 -2.0560658783811989e-04 1.3425246409441577e-03 2.1153011201796958e-04 7.1633927024845529e-05 -9.2459296332181740e-04 -2.2956078834211607e-03 -6.3704653616682898e-05 1.1842777816256688e-04 1.5935435171550460e-04 -8.5452636152897606e-06 4.5484300046768776e-04 -5.6245687369209233e-04 -1.2852138959558797e-03 -6.3420410385566168e-04 1.3656485884663442e-04 -1.2935006335932197e-04 -2.1185994365546888e-03 -1.6616235544386921e-03 -2.0983717642242198e-03 -5.6368154046716919e-04 3.0943771025818863e-03 -4.7340345343934825e-04 2.6240956880689006e-04 5.2985783018383737e-03 -1.9971947186244825e-02 -1.5898808062822251e-03 -7.3878566490470047e-04 -1.0504212981754405e-03 -2.0743784695630937e-03 8.1109745785101304e-03 4.6704371464889351e-03 6.9354026108088107e-04 3.5529609646725363e-03 -1.9924135472949981e-03 3.3321225423968725e-03 5.1062297526025674e-05 -4.4995710081901074e-03 5.9335654825305034e-04 -1.1529577126134002e-03 -5.6787291427748757e-04 4.7217032552133087e-04 2.3178600595720380e-04 4.4444231418414304e-03 1.5620743185564211e-02 1.6371251125068182e-03 -7.0994131643722512e-05 -4.9602483085313658e-04 5.1088519327289229e-03 -1.3440759825279337e-03 -1.9372511090801714e-03 5.6309533079446084e-05 1.6976148215993624e-03 7.8770496907954119e-04 -3.0428015723691845e-03 -8.3638273096130998e-03 4.7574299815830185e-03 3.9191987814416636e-03 -1.9703520645144934e-03 -1.4264810745188820e-02 5.0514591763576818e-04 -2.6889132239120580e-04 -1.8659202511625240e-03 -1.6762333108444914e-02 9.3343415249864947e-04 8.2642534794620678e-04 -7.5273867256292265e-04 -1.8544085282082474e-03 2.0136421761690181e-04 2.5248716588334399e-02 2.5532544308945839e-04 1.2494241183113220e-02 -3.4699264766030442e-04 -8.8544960040999598e-03 6.6404207826717340e-03 7.3195307664095880e-03 1.4122575255036643e-02 4.8654793264478677e-03 -2.3070816021252851e-02 4.3901870546255630e-03 -8.9880777474469938e-03 -6.5178366325132080e-04 -8.9022114776754306e-03 1.3022209076362394e-03 1.0122612158464829e-02 6.2825539549267676e-03 3.6904030579408779e-03 -1.6632994072118438e-02 8.1345687510170961e-02 -1.2164958508568732e-02 -3.6653227315861729e-02 -4.9831995959274721e-03 -2.1445890620832901e-02 -1.8411834857006478e-02 -1.4722710651198926e-02 9.1741301210306533e-03 1.2564328139217451e-03 -2.5696360190016410e-02 7.0046138508977861e-03 1.4840237332108579e-02 -3.5090136067288238e-02 -8.6264929277182545e-02 5.9692466046907416e-04 2.0601319906063766e-04 1.2993868450203165e-02 1.4770933151129191e-02 5.7566345817074302e-02 -1.9091784918867966e-01 -1.4997761161946706e-03 8.9440767574789665e-02 2.4283641423871481e-02 2.9944118816360481e-02 7.6032538940093403e-02 
      </Row>
      <Row Index="53">
        -3.9124795842775829e-03 -4.2337380422606263e-03 1.4078658448420499e-03 6.8413097684897313e-03 -1.6611869521713635e-02 -1.9768455262429707e-03 1.1206835526392928e-04 -1.8006081091115594e-02 -8.3570760361400820e-03 -3.6462901303157625e-03 1.3259403564679015e-03 2.4135747895025770e-04 2.4477467083467504e-03 -1.8983542982172440e-04 -1.0840483125539442e-04 1.1044432013746516e-01 4.6588766719111389e-03 2.0340965412542905e-03 -1.8548666506563547e-03 -4.1754085192369547e-02 7.7935438294042120e-03 -7.0028501356877992e-04 -6.7823487345964849e-03 2.1445561439553673e-03 -3.8359594812069683e-03 -1.7381962892945337e-03 2.5161201434793085e-03 -3.8944365520040269e-03 -1.9064220305060539e-03 -6.3030449292911447e-03 -2.7219978240566045e-03 2.4242504546814207e-03 5.3309509048181615e-03 1.9750285693305829e-03 -1.2954248425929293e-01 -2.6774114475518981e-03 -2.8911286158292693e-03 2.5843629435362433e-03 -7.3921781379424588e-03 -1.0683196498339820e-02 -1.8088631671037136e-02 3.2860704353469550e-03 -1.0318042412470529e-02 -1.4373936302353174e-03 1.2909885866016491e-03 1.1078936013498270e-02 1.6414506794578287e-02 -4.2808813243904453e-03 1.5112881167841652e-03 4.6533474931730046e-04 8.3421544669470826e-04 -1.2323392618133880e-02 3.3133728022818748e-03 2.6346616445623461e-01 4.5929631918456004e-03 1.2829544591816320e-02 4.5425901259200877e-03 -1.4504250831904431e-02 5.5686115939618756e-03 9.2237258497787911e-03 -1.1490446577476323e-02 1.3542796319695221e-02 -1.5279755160378661e-04 -1.0026678010572332e-03 -2.1890488134629571e-02 -1.5395354616440215e-02 1.6661642990380872e-03 -5.5452871083555685e-04 2.3202613897144193e-03 1.5743095702734286e-03 3.0295640517987062e-04 4.0889931714450656e-03 -9.4647915212454747e-02 -9.7472057484999288e-03 -6.0429726966411777e-03 -2.6737926696820957e-04 -4.2861228952251768e-03 2.8611698609708877e-03 -8.4864790332138309e-04 3.0748938272010329e-03 -1.9289528145115245e-03 3.5897354928446693e-04 4.3573324359088823e-04 3.4519517064846017e-04 3.5536189211509139e-03 2.5619903460701379e-04 2.1404554619426953e-04 1.7739673260570431e-04 -4.0454657254578854e-04 7.4756496530496079e-04 4.7159139125411227e-04 -1.3080861652857260e-02 5.4977740992555074e-04 2.7989761616228235e-03 4.5340177908768844e-04 5.6652787081028257e-03 2.6375134653912704e-04 2.4577044134416106e-04 -4.3703244887494791e-04 1.3768523990660923e-03 5.6617760386082404e-04 1.1046591900617498e-03 -6.4501468314441014e-04 2.0413611151765764e-03 -7.2256559674615172e-05 1.1377600961958356e-04 1.1415897840720058e-03 -2.8325641088503073e-03 6.4037102594493326e-03 9.1100494162979517e-04 -3.0548975304041801e-02 2.3647081601984379e-03 -2.7684778867420037e-05 -1.6504282350865789e-03 -1.8675311873996681e-02 1.1399798742590690e-04 -4.4101943411431772e-03 1.1821872075770548e-03 -5.9646975258920987e-03 -7.6885245777304971e-04 4.9657196139372322e-04 -3.5194097517108509e-03 6.9760923254724308e-03 -9.6851532729334161e-04 3.0465615061290994e-04 6.6907658112037231e-04 -5.8610864620821813e-04 -2.9942948419074654e-03 -1.0921556671127006e-03 -1.4331313930568431e-02 -1.9538399865920777e-04 1.5719743308700872e-02 4.6412824445486991e-03 -2.5423676057540253e-03 -1.4714526725286730e-03 2.4837604417520709e-03 -5.4362157843769791e-04 3.1398690926101565e-03 -4.0331768077659475e-05 -3.7100086361484947e-06 -2.1437104128383387e-04 -4.4484990232843769e-03 -1.1432629990525637e-03 2.2457009407075786e-04 -6.7420652271484147e-04 -6.6534722038351466e-04 -1.8921801954485424e-03 -2.3852195348111871e-04 8.6424852559457716e-04 -7.4682752304911307e-05 -4.0321483659550277e-04 1.3021995009174191e-03 -3.8851996361172702e-03 6.9900504093879838e-03 1.3252728020732449e-02 -1.2517220661522697e-03 1.7502211400155451e-02 8.5517878500220457e-04 -1.7331427419468273e-04 5.5569523710017957e-03 3.3303184691420400e-03 1.3453888797080979e-03 -2.8629579253067203e-03 -1.6508689421996534e-03 -5.4056251660166655e-03 -2.3551443547012957e-03 5.2918150330904753e-04 -1.4671744466765682e-01 -7.6868727642250452e-03 -1.1990242898681190e-02 9.9483566499827987e-04 -7.3707465369297030e-03 1.4609313147065511e-03 5.8542197227161334e-03 -2.4410024635184054e-03 5.8970832249224166e-03 -2.4271209940705373e-04 1.7080050618818667e-04 3.5644130820596809e-03 -4.4057170909023585e-03 6.0541722008235210e-04 -9.6515308286118911e-04 -4.9876718801286288e-04 3.2977594872339137e-03 1.5261641679436798e-03 4.5013336317094321e-04 -3.5816619536280569e-02 -1.3907519712337028e-03 -4.5324428812301603e-03 -1.0986261592406468e-03 1.6225983506177361e-03 -2.8685211308338184e-03 7.1661717005242333e-04 5.3804060715220252e-03 -8.8780434787088733e-03 4.7011981469616900e-04 8.5515519205179441e-04 -6.3686245007458734e-03 7.0964054393694367e-03 -1.1216269015099827e-03 2.4889561860548040e-03 7.9127709409628595e-04 9.0326568266563051e-04 -5.6655598483261096e-03 5.7006237442233621e-04 4.8723311369974591e-02 4.6144885723517744e-03 2.6600285776368100e-03 -4.0540757033968443e-04 3.8616702767819089e-02 -3.0373106797047064e-02 -4.0636413145707560e-02 1.6946416704684407e-02 -9.3210364553212452e-02 -2.7521207839702830e-03 -1.1428354113285563e-03 6.4175615700960212e-03 2.5622138370790866e-02 -1.1845671664568160e-02 1.4455605399583498e-02 3.7385599443101949e-03 1.8010774002061934e-02 -1.1281698685256508e-02 -2.4664031130586491e-03 2.8580335015692826e-01 2.9085635720603062e-02 6.2546496472854124e-02 9.2046802570712877e-03 8.2505339193487084e-02 1.2626075891675193e-04 -1.5094598002520112e-02 2.9707951342975263e-02 -4.6152425116197391e-03 4.8009287505223312e-03 1.3591223482686578e-03 -3.3431234273259697e-02 7.9535862580355395e-03 -5.4384127200163487e-03 8.2201660767328624e-03 1.2593729312192443e-02 1.7060957552961310e-02 -2.8393137676418517e-02 -8.4424219543842161e-03 4.0517939672767789e-01 9.4475346923401510e-03 -4.6714195332483666e-02 1.3596441816297378e-02 -1.2986204048513969e-01 
      </Row>
      <Row Index="54">
        -1.5694806156308931e-03 9.3865055287027654e-03 -1.8381134460875113e-03 -3.0277591709898435e-03 1.2412080641500040e-02 3.8928930402903142e-03 8.2261711282317906e-04 5.0217033928421084e-03 -7.9611285123262678e-03 -8.8918190340945974e-03 -1.5443662500046985e-03 -1.8752935691896586e-03 3.3813553548101127e-03 -4.5878500047436101e-03 -2.0977097875240808e-03 6.0057567765653148e-04 1.0226414128849908e-02 -2.7419919112896957e-04 -1.9933335934846745e-02 4.5313149523933810e-04 -2.1281360508451364e-03 -2.8962049523306443e-03 2.7442692649027184e-03 1.4647297900188844e-02 2.0060348377399220e-03 2.1918952415197210e-03 -6.6086217733417746e-03 3.1951061804003783e-03 -6.3438784457254746e-04 -4.4933923708685812e-03 8.0520021198819958e-03 2.2486851675748831e-03 7.5802088147717706e-03 -1.0531481553425100e-02 4.3051409534691776e-03 -1.7068554732648615e-02 4.1418524908167567e-03 1.7522822433452219e-02 -1.0823491561736759e-02 -3.5943145141412725e-03 6.9228062546081715e-03 -3.8281777764340164e-03 -9.4777460812871528e-03 1.3205383901005105e-03 3.0801553223089306e-04 -1.0838895377596330e-03 -4.9546929716364416e-02 8.2381667310680029e-03 3.8184178413545600e-03 -4.2060101780691320e-03 -1.5642109689938052e-03 -7.1315959846767543e-03 -3.3211980475694396e-02 4.5929631918466361e-03 1.8560642015326351e-01 7.3078873937987973e-03 1.5029232086382960e-02 -4.8936081780903140e-03 5.0490839473473249e-03 -1.7909246310160373e-03 6.0972718466045456e-03 -2.1095615330648396e-02 7.7957801798778136e-04 -7.6911867467435724e-04 3.8321338728415366e-03 -1.0819576101897439e-02 7.5183818682781596e-03 3.0285731163885751e-03 -1.1929909115663797e-02 1.6710284199649098e-03 -8.0993626425426291e-03 -2.2337692357095873e-02 -6.3194357496378362e-03 1.1452551292331918e-01 3.8768223859967340e-03 1.5186601456817120e-02 5.4384918884661515e-03 -4.3996626943170244e-03 -1.1908443221900710e-03 3.9786151745669750e-04 -1.3579642568872126e-03 5.6172551828328663e-04 -3.4245299752033776e-03 -2.8485773871361753e-03 1.3960475719748844e-02 6.5612013616949175e-04 -7.3147185882172449e-04 -3.0923640012725686e-03 8.6591155894909819e-04 3.2798872037493867e-03 -1.8138133123190951e-04 -1.0411444161183975e-03 -1.6618818990498916e-02 -4.3880902662825566e-04 2.4182636682938017e-03 1.1039782208212409e-02 -6.5588563173589270e-04 -4.4079489698133079e-04 4.2027647797621978e-03 -1.2750471735309930e-02 -1.9134253904584102e-03 -9.4449077244234958e-03 4.7497539949849232e-04 -7.5338158656848633e-03 -3.2860306040770303e-03 -2.9239841483378552e-03 -4.3634365031324524e-03 6.7579262673110141e-04 1.2082289870464342e-02 -1.5592679279520312e-03 1.0212373369008607e-03 -5.3869503510952432e-02 4.5352260816389640e-04 5.7745764250784562e-04 -4.9140644657690519e-03 1.4917591612214143e-03 -2.7455100147735908e-04 1.6071128015015922e-06 3.9923850870483427e-03 -1.2819597797506736e-03 1.3150798761347631e-03 1.4855153741001256e-04 1.5974971356720200e-02 6.1078021498232778e-03 -2.1238082260883161e-04 4.4434170666896779e-03 -2.1510750046379954e-03 8.8408230360187445e-04 -3.3140046648599641e-03 -4.7241968849827225e-03 1.5820671614752580e-02 4.0136452883401657e-03 2.7842773185532514e-02 -8.8683380281288980e-04 1.3181458924162990e-03 5.1522511071632133e-04 1.8583461145247083e-04 -1.2377178340308305e-03 -3.0667750537567685e-04 -1.5245094379743920e-04 1.8565454405656352e-03 7.3979021057003964e-04 5.7094050984768971e-04 -2.0227943375964260e-04 -1.3474087438159011e-04 -1.1877587767696414e-03 -1.0124367007125230e-03 3.9931350723306437e-06 4.4585182477065600e-04 5.2013654850317976e-04 -1.0708015650489178e-04 -4.2295978870540436e-04 4.6492244727770792e-03 1.7138592194231824e-03 1.5823075226056075e-03 -1.5774286527635035e-05 -1.3936830871095383e-03 -3.1417151139493191e-04 -4.2912299760322300e-04 -9.8817217090312222e-04 1.5188919096028947e-02 6.5209956893832344e-03 -1.1315873259113069e-03 2.5356706812527086e-03 -9.6169057391937683e-04 5.2603057761949840e-03 -1.0201338062481252e-03 -2.5922320156770038e-03 -9.4899262959227629e-03 -8.8055152792084271e-04 1.4259204590983867e-02 4.8307851067872463e-04 -1.2041858875980194e-03 3.0903572406622282e-04 -5.8029734641118231e-04 2.9931398586207471e-03 3.5207927318469528e-04 -8.0564965948114881e-04 -2.1387745760408916e-03 -3.1159603448665130e-03 -2.3551761062568254e-03 5.6425367081878010e-04 1.2803400111340295e-04 2.4641677525626300e-03 -4.8403051602446587e-04 1.1475188902192231e-03 5.5701578084443870e-04 -6.0866834479455017e-03 -4.7631649072607882e-04 -5.1698462356269195e-03 -2.5480011473567460e-03 3.3817530108400974e-04 -2.6208254370086613e-03 1.2750583750561250e-03 -6.0636716135481113e-03 -8.5541491455585854e-04 -1.3860512553170844e-03 8.8749631356962316e-04 7.0623147027734680e-03 -3.7312254945904904e-04 -9.0361550169358053e-05 -3.9265532540902074e-03 2.3006175678844244e-03 8.5592385490568289e-04 -3.0298006434011197e-03 -4.0184771442348111e-03 -2.4150178562479318e-02 -3.0587134820722972e-03 -8.7637403143773288e-03 -4.9604718088967423e-03 -3.8052618542147800e-03 1.3437977149059312e-03 -8.9922223703462721e-03 5.9515039316376112e-03 8.2471387915622300e-04 3.5695228935100652e-02 -2.1701130579134201e-03 -1.9585995659740504e-02 1.9785431437215714e-02 3.9995786426977216e-03 1.4652127742980327e-02 1.6979366847621235e-03 -5.2642111354449864e-02 -1.7004298629613401e-02 -1.2808040266313436e-02 1.6420965862544518e-01 -5.0784973717049684e-04 -2.5538730492216940e-02 -5.6777075421805823e-04 -1.2479049803472808e-02 4.6824316456291898e-03 -1.0064955576683125e-02 1.7686908347846215e-02 -1.0850067914970953e-02 -3.2707346957187328e-02 9.3889482449849015e-03 5.3246999550132276e-02 -2.1412292328529894e-02 5.4909896942473176e-03 -4.9024080768035994e-02 9.4267356562337291e-03 -1.0955023767025628e-02 3.4454297629490024e-02 -3.8913417684360348e-03 -2.1545230094749673e-01 -1.1247652366717917e-02 1.0196600317644519e-01 6.9271877342722596e-02 
      </Row>
      <Row Index="55">
        -1.2027580040240274e-02 2.6784661571846585e-03 1.6862272369910697e-02 1.3248964302479639e-03 1.8575512711566575e-02 -4.7698501771328145e-04 2.7467519066886464e-04 3.5872913328847122e-03 -9.0701674424652698e-03 -1.5756477476423915e-03 -7.4750538356502770e-05 -9.6479749830126439e-04 1.9779697126317148e-04 -1.8089622701392208e-03 2.3746179391293041e-04 1.1574274182113733e-02 -1.0484367731790939e-03 6.3457242632541135e-03 6.5727346209810164e-04 -1.1112281848995348e-02 -1.1976017094251813e-03 -2.8834277496426572e-02 -1.2923430200410032e-04 -7.5598822622019446e-03 -9.9287376349757551e-04 -1.5431787251742393e-04 -2.6138493292987564e-03 -3.4287146767382481e-03 -2.2593171114769269e-03 -1.0650040116719408e-03 -1.7982581148976856e-03 -2.0537191286449561e-03 -2.0638003574795444e-03 6.3431579430650066e-04 -1.5391539087269368e-02 4.0054894600351134e-05 1.2788672792116172e-02 1.6114373233244040e-03 -1.2108085058241272e-02 -3.2272109014830352e-03 -3.5800176556606916e-02 -3.4765372639746356e-03 -2.7830024516239157e-02 1.4700250689118483e-03 -2.5227040049329713e-04 -3.2911735748193949e-03 -1.9762924531531140e-02 -2.4972603742859714e-03 4.3635499280824039e-03 1.8367947850448929e-03 6.3237896098333399e-03 1.9259701916874566e-04 4.5196579594075983e-04 1.2829544591803075e-02 7.3078873938163535e-03 5.6733103700778005e-02 -5.8233878235933786e-04 -1.5213418643725912e-02 -1.9053990163952639e-03 1.5888087224284156e-02 -4.9962051886973790e-03 -1.2233621178623040e-02 -3.4438372310323438e-04 3.1417195990554592e-04 4.3434764320515185e-03 -1.5482805792619764e-02 5.8695439679012473e-04 1.3622407936021300e-03 6.1192450982384839e-03 -1.5414189443913964e-03 6.4718396227311488e-03 -8.6842604635961607e-04 -6.1483739644085655e-03 3.6533739506865656e-03 6.7058637730461230e-03 -9.9187002730800923e-03 1.7117830936451352e-03 -9.0631851397684235e-04 -8.3754398102010366e-03 2.6060248386378139e-03 8.9460165525858774e-03 -1.5682401138522812e-04 4.0458393833844972e-04 -1.5771949295122073e-03 -3.0489621720425214e-03 5.4805962628771618e-04 -6.7527880397752569e-04 1.2123908027149039e-03 -1.5559425516454080e-03 -1.6847225541192182e-03 -3.8728714773580844e-06 -1.3350191750818819e-04 -7.3628141534651953e-05 8.8438276627834055e-04 1.4255435094240668e-03 3.4088696003991190e-03 -3.6799087763759127e-03 -1.6517146157267624e-03 1.2305112798997896e-04 -2.2658394315316320e-03 2.2969163979257544e-04 6.9464056006947057e-04 -1.8509258172614441e-03 1.8232886368433676e-02 -7.0961832593794446e-05 -4.1828506507897943e-04 2.3943566757844825e-03 4.3487622007505871e-06 -4.9076854762883197e-04 -4.1964623900373095e-04 -1.3304274190076625e-03 -3.6928596198727726e-03 -3.1211079973776992e-04 7.7847293873898552e-04 -1.0361541883344471e-03 1.6756542829969622e-03 1.7750098345303660e-03 3.9445866013045174e-03 5.8173007501450130e-03 -2.2848653646879297e-04 1.0060646703275913e-03 -1.9542610325819776e-03 -6.3429577919931462e-03 2.5701584551763136e-03 -2.2934636844286014e-03 1.4242210063767323e-03 6.0044560947603313e-04 -1.0308768537091190e-04 9.4044390681861760e-04 1.5189145657904979e-03 3.6689043084324200e-03 1.0100136521263769e-03 -1.9452049585952647e-03 6.5280966847645438e-04 3.0014047022033105e-04 1.4462629800617615e-04 -7.2725568738863148e-04 3.6059724479966843e-04 1.3397480528286890e-04 -2.1863478236929302e-04 -9.7235048048203410e-05 -8.5913760534947503e-04 8.8167189087523198e-05 2.1564793231495339e-05 -2.1208637409019513e-04 2.2238420003816730e-04 -2.1477398022150219e-04 -7.7807316589431153e-05 -3.0646919082119085e-04 8.2092652802715299e-05 2.1988940066563969e-04 7.1028492647326903e-07 1.6032973601085566e-02 2.6338451450051252e-03 -1.9748621515364197e-02 5.1810431214351776e-06 -3.6380002699996747e-03 3.6678632434948696e-04 -2.0631976029076307e-04 -5.6635627062881066e-04 -2.1809655240892789e-02 -4.1641503907697544e-04 7.2185930119258329e-04 -4.0098950186727645e-04 -1.0782806453420945e-03 6.0579046346667469e-04 -3.6937212097935335e-04 -1.5361133425365731e-02 -4.4276634761967321e-04 1.6450615689515781e-03 -2.4338295592888525e-04 -2.3036341882158237e-03 1.1567707653646273e-04 5.8027863020629136e-03 2.3177065559889165e-04 5.1803547987020436e-04 1.6113226130302512e-04 -2.4158433434795599e-04 1.8612841680996500e-03 8.7082002766640035e-03 -3.6127613677738825e-04 -1.2058475231218387e-04 -9.6679587884019431e-04 -4.5565148248688445e-03 4.0315217917397464e-04 4.6363835167495928e-05 -3.1194971796064952e-03 -3.2710879667163860e-04 -3.7975546022671891e-03 9.9881439932030837e-04 -5.4350086245205714e-03 -3.0539951407353508e-05 5.3555855238030621e-03 -1.8566026966236132e-04 2.7500196766114446e-03 -5.3554270789734303e-04 2.8929277422388419e-04 2.9914497352379922e-04 -2.8466648769420989e-03 1.9323488249060855e-03 -6.5920889281171193e-04 1.6546065157073715e-04 5.0455689380650274e-04 -6.4545726014365304e-04 -7.6155215258202815e-04 7.1384145242616298e-03 -8.6496427626196184e-04 -1.2002207801680769e-03 2.3533461518584868e-03 -1.2741271018802706e-02 1.0517037346186505e-02 1.2191624530421935e-02 1.8800623374762345e-03 3.6999582288669765e-02 -1.2295657277422217e-03 4.4124632180462490e-04 -2.2735565938975218e-03 3.2336334339648040e-02 1.2077507056264015e-02 -1.0782052639850938e-03 -6.6044043333530963e-03 6.0057537705346118e-03 4.1584367865280022e-03 9.7418197348108856e-04 3.2118369189554477e-02 8.5762471164697110e-03 2.1609547976132931e-02 1.2060093035218147e-03 7.7523776960147200e-02 -6.5923294655076958e-03 -8.2391998170217598e-02 1.4144446064768550e-02 2.6135796279494479e-02 2.5249912519158951e-04 2.5292435157127924e-03 5.6027346308902548e-03 -4.7100946804076463e-02 -7.7447939361253420e-03 1.4776462536574835e-03 3.6026506716801049e-02 -1.3695221581946455e-02 1.0562813391633279e-02 8.1709521175881480e-04 3.9472157356110205e-02 -1.3417816444988004e-02 1.1033168581818104e-02 -1.7592221992599189e-02 -3.6684909817033602e-02 
      </Row>
      <Row Index="56">
        1.2253976492555283e-03 -3.5769229699122995e-04 -4.8206172927894517e-04 -6.5560930903287833e-03 4.2271005811891409e-02 5.4312077070194295e-03 -2.1669609321525035e-04 3.9197155360199687e-03 -9.0114727805790593e-03 1.0954046699019266e-02 -8.2540389175146806e-03 2.1048938090060150e-03 2.9618600822619169e-04 -1.2427717022538290e-02 -2.9874759888049171e-03 2.2853417130439327e-04 9.9102760768552799e-04 -3.0297845046145522e-03 -4.6565506269682873e-02 -1.0466238428861602e-03 6.6966013021493853e-04 1.6200474980630486e-03 -5.4497384517349055e-03 -2.3103034922347998e-02 3.4817785534334653e-03 7.2250827613411640e-04 -5.0870007410245693e-03 2.0681803301972473e-03 1.4460898226163928e-02 -8.6198198260127520e-03 1.2265665984005913e-03 4.1554254601202127e-04 1.3593630550219189e-02 -1.8314586021168956e-03 4.4459857028211758e-04 -8.8941640917675376e-04 1.5427062536592019e-02 4.0041202581377985e-02 -7.7006001022626829e-03 2.8384974384592088e-03 1.1852133643741936e-02 -1.1391559701983828e-02 -1.0246717413390344e-01 -6.5773152961626224e-04 3.5755970454472152e-04 -6.8023723735277514e-03 -5.6077670126244705e-03 -1.0039088666779397e-02 -4.5447906827709578e-03 -2.9220114553904220e-03 1.6622549661498426e-03 2.3942779995442615e-02 -8.6740007936666058e-03 4.5425901258866613e-03 1.5029232086414157e-02 -5.8233878237997846e-04 1.3287023737495715e-01 7.2451600583126607e-03 -2.5604047103035504e-03 -1.1454408875937322e-03 2.8981605758154438e-03 -3.7346572940565925e-02 -3.9807955014446034e-04 1.9471063764119889e-03 1.2783644318863363e-03 -2.0937321498561322e-02 1.2880452842148529e-03 -7.4696653666123016e-04 -2.1307846837682848e-03 1.0370181731931725e-03 -2.6963387847180942e-02 -6.6227608792360226e-03 2.5813572035202903e-03 7.1942036716093139e-03 -1.4570962510355855e-02 9.0235424809082462e-02 1.7209102626879053e-03 6.5694701694950230e-04 8.5460808395691670e-04 -2.1140689093887229e-03 1.6346334410594309e-02 1.4539086430389527e-03 6.1448203438380241e-04 5.4583447753425718e-04 -7.1062443945468234e-03 2.6933446374161445e-03 -2.2283537557434528e-04 1.3669314708031561e-05 -8.5383655294203034e-04 -1.6925866964307289e-03 -7.9498451561606437e-04 -2.8858270580313958e-04 7.9775888167909039e-05 3.4941981138799589e-03 1.4657787372015126e-03 -1.8652339659723230e-03 1.3802352913808960e-03 7.0525151915051116e-05 4.9293551607431756e-03 -5.1374701283687887e-02 4.7881079578678746e-04 1.3038980429244033e-04 -3.1244577562723926e-04 1.9348713565790321e-02 2.0182624459961114e-03 2.4342279991143396e-03 -8.5488892522302584e-04 -1.6498410908805028e-03 2.8966534075162292e-04 -1.4897665146154657e-03 5.1387610516848842e-05 -4.0807975065073158e-03 3.1053433479672696e-03 -1.4957481872861920e-02 5.0354433306377313e-03 1.5131900375052153e-03 7.0370541920098881e-04 -6.6861982045857632e-03 5.6026722393931541e-03 -2.6879289667439900e-03 7.1999777674870181e-04 -9.2733927493441476e-04 -1.3811921203236845e-02 7.8430568566876992e-03 -3.7189498927719679e-03 3.0576698619621222e-04 7.5919736072961120e-04 1.8671310608987007e-02 1.3034189607504906e-03 -1.2195419277594853e-03 3.4874769616559265e-03 1.3413431262557115e-02 8.3135086936285629e-02 8.8409613629036399e-04 3.1020558272097404e-04 6.3438162350971310e-04 4.8775908958990965e-04 4.0167492322879883e-04 -2.0024650190347988e-04 -7.8396395028090479e-05 2.2196695294457902e-04 8.6091906707481112e-04 -5.9681291342835027e-04 1.8998247343554784e-04 -4.1849002007565038e-05 -2.8086374875862293e-04 -1.4620836480406334e-03 9.1323204803877667e-05 1.3058078897949092e-03 -3.3443198048639547e-04 -1.6030416520051863e-04 -1.7605295829682226e-03 6.7735526756924468e-03 -2.9829084326652888e-03 3.3656467960523889e-03 -7.2876009258707915e-03 -1.2433118205477621e-03 1.6268415784217341e-03 7.2473277178304824e-04 -3.0809970466941228e-03 -1.8124006877571826e-02 -3.7416588546414255e-03 -1.7580872095120253e-03 4.6161542023993917e-04 -6.0075945060289850e-04 -1.1452472187863674e-02 8.2014175101708742e-04 -4.6414259411893264e-03 4.7126172942859798e-04 -5.2703471518292418e-03 3.1089540242674980e-02 3.2213159568214578e-04 5.3980803478025519e-04 3.6008829274531036e-04 1.3409282431311254e-03 8.6399397596218161e-03 3.0670053542826425e-04 4.7060863202323666e-04 9.0109766662110902e-04 3.8359871779976712e-03 -1.3786897540919441e-03 3.1631145666624460e-03 6.1498225653047788e-04 -1.9890928736783289e-03 -1.5615445308043378e-03 -4.4799773769854515e-04 2.4746829488364597e-04 7.0825513271648502e-04 -2.9597413853187375e-03 -1.7384689905975800e-02 3.2052997575879633e-03 -3.6220919021745599e-03 -3.1395170847965323e-03 7.6862260077429122e-03 -1.1287789603859536e-02 6.3000172119813565e-04 9.8180482679254894e-05 1.9795441219417989e-03 -2.8787135069600661e-03 -1.4127808966581428e-02 4.7468554297425934e-03 -1.3972189429486471e-04 -2.9106965442235459e-03 -3.1702904643288524e-02 -3.4977266954896837e-03 2.1364113713412286e-03 -1.8989003104842687e-03 1.0688961205460559e-03 -4.5308543527190409e-02 -5.7790165343905055e-03 6.5612588428467268e-03 -3.1144728113469810e-03 1.4971698519014049e-02 4.2912910860636269e-02 -1.0455169769074003e-02 -1.9835657873614647e-03 1.0514990148929964e-02 1.8866080432082051e-02 -3.3780311691170857e-02 -1.3609031676299160e-02 7.8348631390095791e-03 -1.3606934787016942e-03 -3.7278818335091196e-02 -8.7922174508156953e-03 7.7531795578414248e-03 1.7462878903949784e-02 2.0852017158676947e-02 -2.5263084322786865e-02 2.2439481716367830e-02 -8.0981822108489518e-03 1.0416544473433783e-02 -2.5969288388196378e-02 1.0907217296289963e-01 -2.0683400060017103e-02 8.8583682640475808e-04 2.0537875454139799e-02 -5.5658753673045409e-02 4.8620686104370293e-02 4.4526598055829467e-02 -3.0729119083513709e-03 -3.8171575852390628e-03 -1.4385615015500172e-01 1.4657568001256095e-02 -3.9589499706500003e-03 -1.3779543535409972e-02 -6.5163626589628626e-02 3.2708405504754667e-01 -1.1737174027933699e-01 
      </Row>
      <Row Index="57">
        5.9235617418427755e-02 -2.0739742326831179e-02 6.6206251091641480e-03 5.1640638870261825e-03 -6.2443198550136553e-03 -5.1498467578363905e-03 -2.6984749568537136e-04 2.8160479020537643e-02 -1.4966684176085080e-02 1.5197581854660659e-03 7.6284478971206174e-03 7.9917910434656970e-04 -1.2431055407044708e-03 8.3366308410987924e-03 2.7350929672005728e-04 -2.1669604771898162e-02 3.8878143549972064e-03 -1.1262434556309819e-02 -7.1778406113321182e-03 1.0687549119792378e-01 1.2171036391377010e-02 4.2057513398477964e-03 -2.5634002479289625e-03 -1.0929585386354468e-03 -2.2447972763577160e-03 1.8007410404854013e-03 4.1887793596490641e-03 -2.5942809849360593e-02 -3.8320373643797728e-03 8.9650933528180876e-03 5.4457443354797297e-03 -5.8542332386098380e-03 -6.5822766885598391e-03 -4.0699205804758248e-03 6.0928414116590446e-02 4.3469384847145912e-03 -8.2214291933175310e-03 2.0944829180926175e-03 1.4600191760533951e-01 -2.7712484936053272e-03 -1.3752351659584550e-02 1.3761819568157696e-03 2.0574941254258627e-02 1.9461054743609152e-03 -3.2444240315321338e-04 -3.5874094736814383e-02 -2.6724040955865003e-02 1.0998278190916810e-03 2.6277019309148275e-03 3.0598562069844015e-03 -9.4947986401681672e-03 -6.6322083228119166e-03 -1.3376926744072593e-02 -1.4504250831890449e-02 -4.8936081781640883e-03 -1.5213418643756253e-02 7.2451600581659240e-03 1.8952841220672334e-01 -2.1625401857753884e-02 1.5610043617839131e-03 -9.7574863845080878e-03 -5.8623906752691968e-03 -2.6465060484178876e-03 -2.8124758087955115e-04 -2.1157010103802776e-03 4.6454947994273084e-02 -1.4304534278241311e-03 1.5989104404472662e-03 5.3952305826378989e-03 -5.1435314741105484e-03 -2.0328871331279148e-02 -8.3038297483686296e-03 1.0712447017780624e-02 1.0420270323205673e-03 1.8101131479482770e-03 1.8271254836861317e-03 1.8979379177577523e-02 1.8588894168887341e-04 -2.6290038030852931e-03 2.8374884630783079e-03 -1.8930608456195421e-03 -5.2770766237639124e-04 -1.5723488686092482e-03 -3.2733987884625559e-03 9.7209209966764298e-04 -1.6155707583920195e-03 1.0360843527421630e-03 2.2631978814703939e-04 8.9039134082854327e-04 -3.3961043211205044e-03 -4.0650606536373607e-04 2.7883115076247442e-03 1.2759173255861751e-03 4.4234596123137529e-03 1.9705705583951698e-04 -2.0634906532642494e-02 -2.0163543870492994e-03 -4.4600023461910058e-03 2.9691085823909235e-03 5.4472087186912656e-03 -9.0422728259677558e-04 -3.4585213245735993e-03 -2.1109896902939324e-03 -1.6784249834099249e-02 8.0094629787123969e-04 -2.7572796227409648e-03 -3.9792152233343375e-04 1.3031613377231356e-03 1.7263553322270069e-03 2.5522264644792453e-04 9.4243907876791211e-04 1.2594629144104252e-03 3.5693263201164384e-03 -1.5281126934366678e-03 9.5230618182323548e-02 -3.1679305114474497e-03 3.4344573624049573e-03 -9.0744793772495804e-03 1.2593296083285906e-03 4.0903514029681752e-03 -4.0801815284412387e-04 1.6759480344178609e-03 -5.7544301234947999e-03 -6.6858474297523170e-03 2.3183711784221747e-03 3.8831840167348163e-03 -1.0036100345656419e-02 -8.5149172450088295e-03 8.5200903557149966e-04 2.0984124436447572e-02 2.1309181429848131e-03 1.2326587717532830e-03 7.7426867583020118e-03 2.8623726841411064e-03 -2.0087158571631485e-03 -1.2782492185834794e-03 6.3195021001697933e-04 -5.7968109505990338e-04 -2.6929462228908132e-04 1.6233804537162900e-04 -5.8001564655227691e-04 2.5670359262298941e-03 -6.1864818913924183e-05 -1.7652810605239924e-04 -8.0595728306403396e-05 -3.8503198490528719e-04 1.2991640350645296e-05 2.7483622806381358e-04 1.2118504312667007e-04 -2.4413597152097487e-04 -4.1348721121525192e-04 -4.4143797839429536e-04 -9.9053770263602681e-02 1.0908181678642258e-02 -1.0541115090353749e-02 1.0303831628084204e-02 -4.8408223592417005e-03 -3.3187041036402912e-03 -9.9842803603161692e-04 -1.5086973479470880e-02 2.3918095982987657e-02 2.4576917004841287e-03 6.3430943436703323e-04 -1.1793525770345107e-03 8.3264947645156854e-03 -8.8755971751141201e-03 -3.8858667034636744e-03 1.2998239851618571e-02 -4.9083837604113499e-03 1.9566670549230742e-02 8.6705232763363766e-04 8.2992822073654215e-03 5.5421119474275415e-03 2.3900938566526770e-03 4.1282233958377015e-03 -1.8398829043802419e-03 -1.9641931696402271e-04 2.5472237472751527e-04 -2.3900759742317979e-03 1.2797388024056895e-03 6.2055668693318695e-04 -2.3693637342207838e-03 -7.7792673960079258e-04 3.7076093018538377e-03 1.4362443504770085e-03 -6.9008280024232375e-04 5.2544517170876048e-03 -1.6011004945590008e-04 -1.4478441607492657e-03 -2.3823050563636095e-03 3.2912294506613662e-02 -7.4694196056950043e-03 3.6289060536237351e-03 -1.3163809368256282e-03 2.2774211255470406e-03 5.5492761473069330e-04 -9.2675902285259263e-04 1.5681020970578326e-02 -3.1784886857611607e-03 -5.8074140134044029e-03 6.8644489231131688e-04 1.5865629384715619e-03 -4.0799696271228685e-03 -1.0641710232793649e-02 -1.0021719148055191e-03 -6.4688088819811040e-03 2.7264813902974001e-03 -2.8007473381804534e-03 -7.4951160873163879e-04 -4.7749226327913501e-02 -7.0114798253242926e-03 2.5561335094715448e-02 -5.1883062269589442e-02 -1.5892214062936477e-02 1.7252011390263586e-02 9.5265316642819363e-03 4.8548519373986000e-02 -9.8332653242481485e-02 -1.9051482650627765e-02 2.2209548533451685e-02 5.0588224514955052e-03 -4.2207410557962788e-02 2.5029680039484088e-03 1.5360552187289669e-04 -2.1092833581714321e-02 1.7578021411915241e-02 -6.7463138791935648e-02 7.4439574693653341e-03 -4.2230684284275061e-01 -2.9897170576707044e-03 -2.5608105393558706e-02 3.7114414172457658e-02 -2.1059981022335000e-02 2.2993935019617280e-02 -1.8340510012832295e-02 1.0995681207400462e-01 5.0069339056186254e-02 4.1702812398952283e-03 -4.2722897543781543e-02 -5.5350373434772254e-03 9.6383767684533120e-03 -8.7692538030762143e-02 1.9956889827322237e-02 -1.0683882709698864e-01 6.6618767646433735e-03 -2.9123975097456165e-02 1.5492057422586608e-02 3.9108653863417642e-01 
      </Row>
      <Row Index="58">
        -5.4057707757739840e-03 7.6282783301582446e-01 3.0370052648580469e-02 -4.8387007317635617e-03 -5.9223119791740678e-03 1.2748725708688950e-02 -1.0388310824483923e-03 3.2148335013437163e-01 6.6101022423704553e-02 1.1589720692368194e-02 1.8648220575492834e-03 -1.1390267540450348e-02 -9.1041691434222763e-04 -1.0552277158755539e-03 -2.4885066726639451e-03 -1.9330486948513061e-02 -4.8485285628850822e-04 -5.7232561068317131e-03 5.6935210687442343e-03 1.5538193910217615e-03 -5.0894407687235299e-01 -2.2956241426634522e-02 -5.1212604493737490e-03 -7.5732114986267196e-03 7.4978442494066915e-03 4.6060931336160994e-04 4.0224848603138803e-02 -5.9697589243674271e-02 1.7400261166039033e-02 -8.4570996032003673e-03 -1.7941564547038047e-02 -1.6852614584522596e-03 1.9529570044030827e-02 4.4229381648463149e-03 4.1135885965179197e-03 -3.0507243437662402e-03 2.0503754493353676e-03 -3.8488789455458049e-03 -1.3557395772474088e-02 1.4413968937085575e-01 3.3935204059819535e-02 -4.8532033478026343e-03 -5.5926887888972654e-03 1.3249165579786254e-02 -5.0971341681447929e-03 -2.3123266614822593e-01 1.3377779585754634e-01 -3.5141931595406184e-02 1.0425889542520148e-02 4.6449647774840085e-02 -1.8400280446254844e-03 -3.2801670961134760e-02 6.8471657355492072e-03 5.5686115939431475e-03 5.0490839473921190e-03 -1.9053990163926558e-03 -2.5604047102690732e-03 -2.1625401857768900e-02 1.0723300029364979e+00 4.1648075672958584e-02 1.1762608185148137e-02 2.0463379343888595e-02 3.1480801023997984e-03 -2.2193197010506038e-03 1.9244678617178179e-01 2.4511376396486800e-01 -1.2405742223953718e-02 9.6407971204785781e-03 7.3387060438755286e-02 2.4996403449052546e-03 3.4051919192173118e-02 3.5897079967256440e-03 -3.2359718350596395e-02 3.8084735221555672e-03 -1.9775318138834968e-02 2.1079684155793574e-03 -4.5590983742614111e-03 3.8998547347604905e-02 6.7657893858332485e-03 -2.4265467472042836e-03 6.2961303004174119e-03 5.7502074122041495e-03 -1.4216941747541418e-02 -1.3074180250070122e-02 2.0991289843932309e-02 5.2662127808421749e-03 3.4841565784264139e-03 1.1008314720834286e-02 2.4759771575417898e-03 3.6022720524194695e-03 6.0316712892886730e-04 -6.9821898531687646e-03 1.3828170462821740e-03 -3.1535739032110023e-03 1.8235160957381865e-03 2.5585631230833836e-03 1.0623824946906806e-01 2.4324613288058003e-02 -9.1047805092991235e-04 7.0737432576062995e-03 -1.7157328204084337e-03 -4.3428257487564521e-02 -3.5128505965758998e-02 1.5557759699717677e-01 8.3175116640392174e-03 7.7335851711118273e-03 1.0747202952603334e-02 -8.1489286666241859e-04 -1.4398150817374422e-02 -4.7628767987825255e-03 2.7612667503169545e-03 6.8271388984071993e-04 -1.5093931663844366e-02 -1.6796574166800804e-03 -2.5325772434521790e-02 -5.8864619842216963e-02 1.9044943797646614e-03 2.5013282201886366e-03 -1.1923489250610644e-02 -5.5368585264558524e-03 7.4457192799160573e-03 6.4763572980436376e-02 -4.8575315943857868e-02 -1.6798936412355542e-02 -3.2229659171146953e-03 -1.0853142038712394e-02 -4.3830890691243822e-03 8.8033679932627545e-03 1.2690535763598180e-03 -1.0540895657554433e-02 6.9104372924723781e-04 -2.6002444600514225e-02 -2.1174211953744540e-03 -3.5683828002886522e-04 5.3549253722572632e-03 2.0840663780973901e-03 -1.8054592965206426e-03 -3.7245245485198566e-03 1.3267420454576146e-04 -1.6954377833477735e-04 6.1777158290085999e-03 -1.9899857861566724e-04 -5.2129760287501097e-04 2.5309379110479286e-04 1.2191737444431812e-03 -4.4116502794422179e-04 2.3114058759164495e-03 -1.2064770627191717e-03 -1.0480929126964848e-03 1.4860992644248057e-03 -7.7598678983577078e-04 -1.5771456958782026e-03 1.8611945359906831e-02 4.9551082970422232e-02 3.0097044316902782e-02 -3.3068729487086080e-03 -1.3060184088551106e-02 6.9233715543125952e-03 4.4946063434466235e-03 -2.7945601875108605e-01 1.9295350489157745e-02 -1.7391847456990808e-02 1.0231724906962798e-03 6.8286531226093572e-03 -4.8863782618662312e-03 2.3775504208144289e-02 3.6876370213830435e-05 -1.0759038511594205e-02 1.2148813572837374e-03 -7.2741666352281256e-03 3.3834179960782040e-03 -9.1772322144702267e-03 -1.2689544948347228e-01 -1.1114802064858278e-02 -7.8120826586568388e-04 5.6040451042775755e-03 -7.7795224818362485e-04 -3.7198345264660877e-03 -3.8247633919137075e-02 -1.3070599395501120e-02 6.7113379326949451e-03 9.4617684930497874e-04 -6.0109802079826545e-03 2.5490130299271833e-03 -2.7524090627038767e-04 -1.2986879914936669e-04 5.9833953896945291e-03 -2.5751842926791152e-03 7.1124041983338044e-03 -3.3071457160987507e-03 -2.0661706664598586e-03 3.7619784395955913e-01 1.8490204600553204e-02 -2.2596571140411233e-03 -1.7506196933135241e-02 -3.0943269782944044e-03 -1.2333218836378668e-03 1.1795731130687255e-01 5.8132542349314108e-02 -1.3819198676644854e-02 2.1423540608748266e-04 3.2303685004501470e-03 3.9494966176181539e-04 7.5828214102251308e-03 3.6990099058201620e-05 -1.9976497434432954e-02 -1.1532616470779926e-03 -1.3719870232923200e-02 3.4562675963609709e-03 -1.3478279358864399e-02 -1.4840045259856866e-01 -3.0587802555473234e-03 1.8083153107982010e-02 -6.2087772526925294e-02 -1.8788015701483311e-02 1.4956434113840233e-01 1.2387180834294663e-01 1.3859810967144770e-01 -9.6909646541977465e-02 -1.1755989061571543e-02 -1.2104512616691557e-01 3.8750803213731177e-03 -5.1686517944866991e-02 3.6384714054399072e-03 -7.5674389260879424e-02 -8.2341668393686868e-03 -4.9017840531668924e-02 8.4533355912661291e-03 1.4930785693534196e-01 -1.5106967612897750e+00 5.3690823618297523e-02 -3.2698295461491236e-02 -1.3964166398816549e-02 -6.3969940311200346e-02 -1.6939450809037090e-01 1.0541470199949754e+00 -1.8735658758490684e-01 1.1419919471597297e-01 1.3534401776545312e-02 2.9456019182550225e-01 1.3493166669065991e-03 1.7716668032783922e-01 -3.8795496903038830e-03 1.7642244338357954e-03 -4.6797524188295081e-03 6.1103067491149923e-02 -4.9624167906734407e-03 7.4927442103186928e-02 
      </Row>
      <Row Index="59">
        -2.3361168879822720e-03 3.1293825005466402e-02 6.9062337131845439e-02 -5.3532859645548676e-03 -5.2284340044765856e-02 1.2676529202025888e-03 7.1786945801310259e-04 7.3678717919449244e-03 -1.4469840415708477e-02 -1.4697240613141889e-03 -1.4145875177929181e-03 2.4997360304710439e-03 -4.9379256048984969e-04 -2.4233860790476170e-03 7.2743584253672129e-04 -8.9087308414947941e-05 -1.0547925173305227e-05 2.9087020761623672e-03 5.4203534297514169e-03 1.0067750079278917e-02 -5.1835851035499092e-03 -1.0838354766230313e-01 -5.4390067466557612e-03 -7.6254263498443109e-05 -1.5608621201193343e-03 7.1558978877332138e-04 -1.5122490135987682e-02 -4.4615469533529989e-02 -7.0768375941369158e-03 1.5669248333954611e-03 -9.4654908859270748e-04 9.3653642533632429e-04 -7.4214507214961098e-03 2.3734246514111462e-04 2.6221151089618200e-03 -3.1696157455585964e-04 6.7169449599036035e-04 2.0713806136045208e-03 -4.2433835088029476e-03 2.0653922772376543e-02 -1.1857201933692396e-01 -9.6947302736988261e-03 5.6462598314522383e-02 -1.8526216033318277e-04 3.2643442230853581e-04 7.1795259468605266e-03 -1.8645195758814181e-02 -6.5395829021904495e-03 7.1499334543776161e-03 -1.0823684601260486e-03 2.4584252564566200e-03 -2.8572396873799699e-03 6.0496294082681423e-03 9.2237258497892861e-03 -1.7909246310146010e-03 1.5888087224280433e-02 -1.1454408876298387e-03 1.5610043617583225e-03 4.1648075672973260e-02 1.4175452024511270e-01 8.8408248883164904e-03 1.3054881131827753e-01 9.7190042593667952e-04 -1.1725533697128920e-03 1.7621037854520960e-02 2.6406477596910824e-02 4.7939507852177259e-03 1.9933653550476610e-03 -2.3198925867245965e-03 -9.5391513535316233e-04 -3.3027131099365296e-03 7.5452219077299931e-03 -1.2118796400361620e-03 -2.5219971946205955e-03 3.7370938177452885e-03 -6.1015625236832821e-03 -1.3818695335738526e-03 5.8257323630854368e-03 -2.0025479158022587e-02 -1.8335509172603087e-03 -1.7067582878762613e-02 -3.9109104428924880e-04 -1.7194433903143680e-03 1.1876611464205489e-03 -9.2270843674894798e-03 -3.9305086256742304e-03 1.1626544158101519e-03 -4.2249608456544196e-04 3.8132188524468854e-04 -2.3004884301439255e-03 -6.1475873904037834e-04 1.2335451361115152e-03 3.4973840854924700e-04 -8.6068011038554701e-04 9.5693524531679760e-04 3.0140125111960663e-03 1.4501009282521255e-03 4.4137538252856500e-03 -2.3561435326174421e-03 6.9753768581129721e-02 9.2321334210010301e-04 -4.2265092444482210e-03 4.4885024972957446e-03 1.9465969665268128e-02 2.7067812420215887e-04 -5.4601296361054142e-04 -2.3500809440558943e-03 -2.3731352019253998e-03 -4.5581803027364264e-03 6.1865999531958481e-05 -1.5163569408534940e-03 1.2816548096691097e-03 -1.5225950211712900e-03 1.8717983859387962e-03 1.0281225503727195e-02 1.6948089270880512e-03 -1.6686600369300475e-02 3.6507712840310718e-03 9.3220966434003853e-03 -3.3171584756179560e-04 1.1411802461596212e-04 -1.0380364004759626e-02 -1.6622263860123325e-04 1.8589144686853745e-03 6.2674978623639686e-04 -2.3721134781850585e-04 -1.8004152643851410e-03 -1.8700321738400003e-03 8.9732257271171820e-04 -5.3442858292312469e-04 -1.5980162634284818e-03 -1.7388251967576367e-02 -5.4513879552255413e-03 1.0350359131402090e-03 1.9203661900096610e-03 -7.3354498562291036e-04 2.1376776199694597e-04 -1.8362777276839466e-03 -3.5113162146985536e-05 9.7000922370076462e-05 1.8818900717978986e-03 1.0181323320120339e-03 -8.3968918576317656e-04 3.8047682976272943e-04 4.8677239654033183e-04 1.0043944919112112e-03 1.0314002292733829e-03 3.6363995257204633e-04 -2.6847298017300533e-04 -1.8873785996082978e-05 -9.5939028963043841e-05 3.3201897649991056e-04 -9.9291603126027937e-03 2.4046112148729615e-03 -5.7649864574421672e-02 -6.6740097694237503e-03 -1.5312304362075538e-02 8.2047650896499721e-04 -5.3207322859482350e-04 -3.3953136889180585e-03 -2.8586085872295396e-03 -1.6809198728362259e-03 3.8922816010856795e-03 -1.3810878072156626e-03 -2.0807759568868276e-03 1.7719724764628088e-03 -1.2959262438257805e-03 -2.6610756869880434e-03 1.0910084826744905e-03 6.2239655997729706e-03 -5.4513012189076073e-04 1.6031498712887338e-03 -1.0823669970125675e-02 1.6563867105457944e-02 -1.2232700734598166e-04 -7.4335269829769422e-03 -3.5263213690317659e-04 -3.3123814411526939e-04 2.5000135231644793e-03 7.8969335957991271e-03 4.3449970051765048e-04 -7.4751208286203330e-04 4.3855599310374527e-05 3.5408101730101931e-03 1.4056718854063405e-03 4.2599444846862049e-04 8.3188130664746396e-04 -2.3235084535813601e-04 -1.3524909641392864e-04 1.7428396719296191e-05 1.7318110156832357e-03 1.6024563342273545e-02 3.6988079306742437e-02 2.1409637356171042e-03 1.1457427392632800e-02 7.0120214286259702e-04 -1.6010910863693123e-04 5.8798659628625863e-03 1.2760882158459450e-02 2.0339398253681825e-03 4.7418029783711873e-04 2.5408480497341785e-04 4.3997469296073349e-04 1.3407264130877628e-03 1.2531103160462983e-03 -1.7851955324406517e-03 2.7392408770676919e-04 2.8643323367587292e-04 1.5419557259117986e-03 -5.3083608601928178e-03 -7.8949906853471516e-03 3.2611107634307107e-02 2.6834948392957046e-02 -8.4700816100398382e-02 -4.1657883383045512e-04 1.9158310939157472e-02 9.8241505133033272e-03 -1.8611070995712034e-02 2.0035504753996715e-02 -7.1182888677886469e-03 1.2742211168343433e-02 7.0347274869365546e-03 7.2818862807084847e-03 1.3654176660264337e-02 -5.8731157688516056e-03 -6.3407173819595578e-03 -3.3819784411689327e-02 -6.4933680393010999e-03 -2.7086653849556160e-02 -4.4908116393294728e-02 -2.2035285982728436e-01 -3.0691435527701663e-02 -1.4009508260431219e-01 -2.7042647019485527e-03 -1.0238104502239581e-02 1.1415493615698685e-02 3.9692652635556630e-03 -6.7388323507178091e-03 6.8063260009388511e-03 -5.5497572578766703e-03 1.0620647666690665e-02 -3.9830305462314197e-03 -1.2341226601113489e-02 5.1436239334892355e-03 4.7155737591345545e-03 5.7131752619762548e-02 -2.2151115391473658e-02 1.7755239996552849e-01 
      </Row>
      <Row Index="60">
        8.2632774929215502e-03 9.5162869169614361e-03 -2.6423561217675459e-03 -8.8144941930186835e-02 -1.3918671428593803e-02 3.6079129542904861e-02 2.3879214337014718e-03 1.1262047694096167e-02 3.4403670849146112e-02 4.9402530120709158e-03 -4.1474307496911795e-03 -1.1946487106792060e-05 5.0739121247674046e-03 1.3009460960186936e-02 8.9579523114236036e-04 -7.3923452956923229e-03 -4.9450395474062454e-04 -1.3337831308496834e-03 -4.8304764282325573e-03 1.0025901559853972e-02 -3.7980514922831415e-03 -3.2095714628408989e-03 -7.4758712867999816e-03 2.0472308671697859e-02 3.1049906565807396e-02 1.1864477703681011e-03 3.4340048735256590e-03 3.2481745654137417e-02 -2.7265075630053953e-03 -2.9085895924404331e-03 7.8298492836198497e-04 2.9870352310240773e-03 -1.1044493430573798e-03 -5.9438052487371246e-04 9.0435264355400724e-03 -5.5018675948254308e-04 -1.1481741695799574e-02 -2.1582530345102477e-03 -1.3170488330189398e-03 6.1636713815738098e-03 7.2284206232874348e-03 -8.3389062160162231e-02 9.6634017254435600e-02 2.2888455579354039e-03 8.7486190982558054e-04 -3.3009722810296294e-03 5.0131412282747811e-02 3.7545447496425965e-03 3.3780804343482851e-03 -6.2863664495788063e-05 3.4310036854240666e-03 1.4839477832158332e-02 -8.5405299070077934e-04 -1.1490446577447883e-02 6.0972718466228981e-03 -4.9962051886742430e-03 2.8981605758180151e-03 -9.7574863846087156e-03 1.1762608185224871e-02 8.8408248882896473e-03 2.6925193199749037e-01 5.4288633396896949e-02 3.1841845730522893e-03 -5.3098915600204855e-03 -2.2926496947595076e-03 -3.3462183888631758e-03 -8.6298439439657683e-04 -1.5420115759402515e-02 -4.7829033722538578e-04 -4.4060100573736728e-03 1.7277919807772331e-02 -4.1833373672439667e-04 4.5293330959529920e-03 2.8212844601157444e-04 5.6555789889026764e-03 6.1080048544409626e-04 6.1818596343456156e-04 -2.0425199187668955e-03 -3.2004290031233812e-03 -3.0192851659308764e-02 5.4629992076830839e-03 2.5296149693165033e-03 -2.2533107610189303e-03 -2.0587899081643268e-03 1.4201018567703561e-02 3.6231272465213366e-03 -5.6560284690987178e-04 -1.6763363723926953e-04 2.4068853514322935e-03 1.3997869564736237e-02 8.1885494354898671e-04 -2.2338913719648309e-03 -1.4533529527946841e-03 -4.4480774557540126e-03 1.0596261235584739e-03 4.2889339953551160e-03 1.6310502404125009e-03 -8.3247050375085258e-03 -3.5172649889371327e-03 4.0017385188660007e-02 -1.8372170098125663e-03 -8.4577926069595369e-03 -3.4604276701748213e-03 -1.3997270251603052e-03 -6.2682787653623720e-04 1.7638929604281758e-03 -4.1436011985986223e-04 4.6097436069217953e-04 -3.9387828931331985e-03 -2.7084774404030187e-04 -2.8324360116196122e-05 -1.0626297223144052e-03 -2.4475491537210943e-03 5.5447319283948872e-04 1.9848468875471787e-03 -1.4001107853677561e-03 4.5526177611189614e-03 4.6355599874209896e-02 -8.2154625375920887e-03 -2.9018426743228185e-03 -1.5101149974039000e-03 -4.2563023335322817e-03 9.4629231413696554e-03 -4.0585159663086975e-04 -7.6512859879428186e-04 -1.3807293435123744e-03 -2.7027370097885378e-03 -1.3036142484455868e-04 -5.5909590108765958e-04 3.4311246530012510e-03 -9.7454353376053720e-04 -6.1633054141647155e-03 9.3879110750860154e-04 -9.0285724109294288e-04 -1.5670376735153150e-04 -3.8841225700628006e-04 -4.8538122709272858e-04 -3.2133497561270255e-04 3.9137464171204721e-04 -1.8414020994444420e-05 2.1017949358653055e-03 8.4820568867184935e-04 1.5285215955967136e-03 1.6234077947532380e-04 -2.0467649656000225e-04 8.3055989889934951e-05 1.2006110078408589e-03 -4.2654078748358370e-04 1.5804087678064410e-04 6.7842090036754495e-04 -3.3571164622353821e-04 8.5838717236832074e-05 1.0507034554566355e-02 -2.3238208125051386e-04 6.2937310691350140e-05 -5.9238356511519943e-02 3.2633705373524842e-02 -3.2480978417989649e-04 2.1647221657114597e-03 -7.1683690175007343e-03 4.2043590904413897e-02 9.4980146407998046e-03 -3.6118167083970393e-03 -9.4709753138414593e-04 2.9772437370037697e-03 5.4011123494187248e-02 1.5875736971540772e-03 1.4186997239975839e-03 -7.4672333471521163e-04 -7.7950885175306871e-03 2.0564184232656946e-03 -2.3667018239287296e-04 6.6740655224092893e-05 -3.9680704487545376e-03 -9.4456222958212571e-03 -1.0392515631026186e-02 -2.1199994625105672e-03 -1.2568340257213717e-03 1.4743439702171179e-03 -1.3964563411752083e-02 2.8623961923743549e-03 1.5700560569557181e-03 6.1532161652500428e-04 3.2707075221248983e-03 -2.2606795764368729e-03 -4.8178726328809663e-05 -7.1359575586438240e-04 -4.0890173972441663e-04 1.8444605459938675e-03 -9.5371382949935996e-04 -2.7188797201830386e-03 6.7309388983943022e-03 4.1597012001168875e-03 3.2346860907150579e-03 3.8293867472741442e-03 -9.0682260342496565e-04 -5.4880780002351424e-04 5.0571643542739290e-03 1.2829536319408244e-02 1.5682917950304433e-03 -1.4332958125454049e-03 -8.5805880515348130e-05 2.1743872715084280e-03 2.6112042316965556e-02 3.5717250540113100e-04 -4.8676791928486465e-03 -1.9262233885637093e-03 2.7874076260034019e-03 2.1122950587971123e-03 -7.8329223122084735e-03 1.2290829455603034e-02 2.3231842865685602e-02 3.3614262652428795e-01 -9.7023011486137956e-02 4.8603870513802766e-03 2.2720807541363942e-02 6.9544312126130891e-03 -5.7949362536611052e-02 -1.0317056086389179e-03 -1.7246991558383998e-02 1.2529222800737733e-03 -4.6092697840682956e-03 -1.6856865239547186e-03 -2.4677117293625799e-04 -1.3165209653735244e-02 -2.1191465996498217e-03 1.2967772207549308e-02 -3.6051725124057570e-03 4.0223937324109713e-03 -2.8289832965864070e-02 8.5427426616387671e-03 -4.7084448514829730e-01 -9.0410375747256744e-02 -1.2634266376850545e-01 -3.7353298051947433e-02 1.6664774910972152e-02 3.1632929846608239e-02 -1.6110445617592197e-02 8.5468776112263348e-03 -3.7863720020458631e-03 1.3450039004459777e-02 1.9831551297158351e-01 2.9375519650007634e-03 -2.4068345746532903e-02 -8.7103376405045091e-03 3.0272434398607492e-02 -4.2674943811282784e-04 1.6701618502405102e-01 
      </Row>
      <Row Index="61">
        -1.6535715501445780e-02 1.9293173742799805e-02 6.0801472329589046e-02 -6.9154132680862030e-03 -4.7024095772398522e-01 2.1097683459118350e-02 2.4895662432690372e-03 3.3658928527160847e-02 7.5622868191505405e-02 5.7643347411701934e-02 -8.8025482157946273e-03 1.6862030001798350e-02 -2.7689282603543569e-03 1.4189252668513796e-02 8.6171581034175469e-03 1.1344918961649327e-03 8.6856427795670640e-03 8.5847712686766518e-03 3.4422528234584665e-02 6.7649847275136274e-03 -1.0116316071892496e-02 -1.3208428759155930e-01 -9.3369937338972364e-03 4.4219461758136847e-01 8.9243811961202280e-03 8.5124720704523229e-03 -5.3823830210934405e-03 -4.5290375272136404e-02 8.0017284493114460e-02 -1.2574419088252520e-02 -1.3075010728975753e-02 1.7265830274850007e-02 4.9865758956133769e-03 -9.4450528143205023e-03 4.3041379537537006e-03 5.5822286090197737e-03 3.6805307358315116e-03 -1.6026764909842815e-02 3.7821608347072481e-02 9.8664691290313300e-03 -9.9443408802754624e-02 -2.2780127722689086e-02 1.1758762233935733e+00 -2.0972132909113511e-03 -1.7972995411998094e-02 3.0313298774679025e-02 2.6625025088504395e-01 -6.2191028184275958e-02 -3.7047658664590769e-03 -7.0994874530483226e-03 1.7695052102168742e-02 -4.2513002964299218e-04 -2.6461383535266891e-02 1.3542796319919767e-02 -2.1095615330717882e-02 -1.2233621178473819e-02 -3.7346572940606171e-02 -5.8623906760848221e-03 2.0463379344181774e-02 1.3054881131809684e-01 5.4288633397067250e-02 1.7662074282105606e+00 2.4136959936361165e-03 -9.9313802851835609e-03 2.9389359201508480e-02 4.3170016596458527e-01 -4.7406002271112857e-02 -4.2635305708085824e-03 3.2366546713591491e-03 1.1870256536117337e-02 2.3589833260604619e-02 -1.1140232684871465e-02 1.7310093813227942e-02 -2.4030515750969025e-02 -1.5234339287220393e-02 -8.4036236706882747e-02 -6.5440722504299664e-03 6.8857629970114284e-03 -3.0425327034910590e-02 -5.5796676372295677e-03 -6.0866577821351672e-02 2.0454648272836265e-03 -1.7611004989007251e-02 7.9599547431741247e-03 5.6194435178079302e-02 -6.7037226337920974e-03 2.1527366494883604e-03 5.8532141424061171e-03 -3.3231265886621824e-03 -1.3113128475112327e-03 3.1624262669231566e-03 -2.0004477974854985e-03 -1.7823230039580723e-03 9.7585713043217941e-03 3.0574199431529807e-03 -4.6239988754392079e-03 -1.3967535889442044e-02 -2.4957881497005420e-03 -3.9921890797659995e-04 5.7894704616057147e-01 -4.4432564253394872e-03 -2.9651297933076078e-02 3.3453969386537372e-02 -3.8605943793720016e-01 5.2763860907575323e-02 1.8688249182785045e-03 -1.5556929488709912e-02 1.1488546391550024e-02 -4.0619305059185998e-02 -9.3801452681577316e-03 -8.3100460511690566e-03 1.9775220174570087e-03 -1.3436436013828485e-02 -4.9860882206423911e-03 7.3191299635579979e-03 -2.6519085152651306e-03 -1.2216931263575825e-02 4.0556073972436019e-03 1.2641419232775800e-01 -2.9047375644650347e-03 -4.8661092719666527e-03 -2.4709742351521910e-03 3.1673652445877265e-01 -3.5990786176112760e-02 4.1747182919948649e-03 2.7903589904787157e-03 -5.3467989332465406e-03 2.7971021648528216e-02 2.9774005327493705e-03 -1.4682978675651381e-03 -3.5748141729117179e-03 8.3252839923473390e-03 -2.2358095599417576e-02 1.9259538206308907e-03 1.1908457786226258e-04 2.6071076212127978e-03 -1.9916071908657419e-03 -1.3542337641735002e-02 3.3546560046388018e-04 -3.1040721884876719e-04 5.1210142703531046e-03 6.9700417040433043e-03 6.2504804558574699e-04 2.7698225693267560e-04 4.2514855000508686e-05 1.7590795513167186e-03 -8.2143956774350236e-04 1.4313047232924446e-03 1.0736081630342252e-03 -1.1204478634500598e-03 1.7619181617135561e-03 -4.9540411312058068e-04 1.2556227084579617e-02 -1.3371317179407885e-03 -4.7925359644107851e-02 -1.6715504240777990e-02 8.7065028878278328e-02 6.2488470686935232e-03 -7.5312575550083504e-03 -3.6937506366684268e-02 2.7035917604716059e-01 -6.1582764489792878e-02 -2.3029068273490707e-03 1.3239290508201933e-03 -2.4687820214036186e-03 1.3351834826381602e-02 -3.2878292710273767e-03 -7.1698452298457815e-03 1.6463552527891550e-03 5.8597579044892389e-03 -6.3293891554057971e-03 -3.3737107609395217e-03 -6.4825309848487445e-03 1.5306237561704572e-02 1.7036577311524762e-03 -1.3693082586806105e-01 6.3155204732646270e-05 1.4235926836403123e-03 6.2151035672271260e-04 -1.3633121336741716e-01 5.1523787332789280e-03 5.3490680362639964e-03 2.0479590406738881e-03 6.6588296400868410e-03 -1.0826972802978414e-02 2.6423900866038414e-03 -3.7343825198924846e-03 8.5217414607455851e-04 -3.9885393053116459e-03 6.8375304804030174e-03 -8.4893795148158202e-05 1.2631622689610690e-02 3.3652311252226279e-02 3.0709602632620825e-03 8.4840661547057702e-02 -1.9285588756486930e-03 -9.0317515807777325e-03 2.5846951264938307e-02 1.5601691374505933e-01 -2.1464899392488399e-02 -3.9694359168325703e-03 2.7461778544547767e-03 -1.5004734916742343e-03 1.2749775704808338e-02 3.2372845295386733e-03 5.5915704452582206e-04 -2.0702846438873466e-05 -4.2985529276986529e-03 9.1875615501432438e-03 -5.1217906050855383e-02 5.7345747006776221e-02 5.7242836847567757e-03 7.4076067050455149e-02 -1.8826047214179098e-01 -4.2786946655369515e-03 1.0010771170220545e-01 8.3134026728176047e-03 -1.5426181206425027e-01 -1.9090462186864421e-01 -2.9265115815959808e-02 7.3317979648097609e-02 -3.6656724164372920e-02 1.1871177175573733e-01 8.1036595357543512e-02 8.6794723120097728e-03 -1.0248583137583357e-02 1.3320087558638311e-02 -1.8233923563014447e-02 9.8118569873393291e-03 -6.1322392165208406e-02 -2.8298919962241131e-01 -7.8543908322256273e-02 -1.1498121747749421e+00 -8.5669458593354453e-02 -1.7080621103401916e-01 9.0671212042461646e-02 1.0167286069116628e+00 3.1971933334524749e-01 8.2997681904414200e-02 9.2302366386371792e-02 2.7819604434611487e-02 4.7641734005102743e-02 7.3777002245655754e-03 6.3439102368636618e-03 2.5339667640334462e-02 -1.2271414387663437e-02 -7.9455122576533310e-02 -4.2415329958476362e-02 
      </Row>
      <Row Index="62">
        7.3019951661876352e-03 3.3265788308178418e-03 2.9648213697976503e-04 2.3791530413644051e-03 5.3644757604770074e-03 5.8866967467192874e-03 -8.5657327005882362e-04 3.2874111560284025e-03 1.0498589578633996e-03 -2.3052788631693121e-03 1.1785835793666462e-03 8.8357096637481543e-04 1.1285984450547706e-03 3.3639509072951506e-03 -1.5725274412328662e-04 -1.8213354922775548e-03 7.8671721970601297e-04 1.2197657814101426e-03 1.0529269520231613e-03 4.8090367302023526e-03 -5.2079312195639077e-03 -1.9391878580241745e-03 4.5734478368969454e-03 -3.9323084077564213e-03 4.0429317839865237e-03 -4.9720671780326261e-04 -3.2830166894397272e-04 -1.3568845465735321e-03 -2.9781207408137566e-03 2.8741435578625435e-04 -2.0114619666086742e-04 -5.3826333566933497e-05 -3.6604041028711742e-04 -1.5216774794113864e-04 -1.5088272377606904e-03 4.7498518720574747e-04 -2.0209585073267949e-03 5.0055995084653110e-04 2.1417994471681200e-03 1.3343382777900037e-03 -1.0552225618534750e-04 2.0583143588319419e-04 5.6600579009527530e-04 1.3319073456060024e-03 1.7608855254390432e-05 2.6968079156998934e-03 4.4334753974394070e-04 -3.7950452644659877e-03 1.9028525586004853e-03 2.0577429659455054e-03 -6.4859766084697512e-04 1.5608248755592941e-03 -9.9871756815397839e-04 -1.5279755160651533e-04 7.7957801798664295e-04 -3.4438372310657481e-04 -3.9807955015161781e-04 -2.6465060484087977e-03 3.1480801024047428e-03 9.7190042594219594e-04 3.1841845730544811e-03 2.4136959937025035e-03 1.6817556470990581e-02 2.2289666464761493e-04 1.7703197418342254e-03 1.6974603961998416e-02 4.5573028263421501e-03 8.2341712513009733e-03 3.0515579232771872e-03 2.5996621209651918e-03 -9.1682242467791657e-03 -1.5408745182352024e-04 2.1182755917623503e-03 -6.0379705254988512e-04 8.8632496122110615e-04 -1.1764733665792643e-03 8.2701705307871350e-04 5.1391415475478177e-04 -2.2571275237118736e-04 -3.6162280539487018e-04 -6.3594639048153521e-04 8.7065123033256732e-04 1.7096181134508339e-04 4.5147855652272195e-04 9.0614645816457229e-04 -7.1130625943503431e-04 6.8785431129742968e-04 3.5999758069456007e-04 8.6631959804990132e-04 3.6667084026244245e-04 -1.0003078165650832e-04 4.4324762162515209e-04 6.6109346515300516e-05 2.9255866871330288e-04 1.9150700591791345e-04 -9.8297508613409126e-04 1.5106185606806257e-03 7.8776762812625390e-04 -5.9787854568560882e-04 -1.2859986790637011e-03 2.1849591360822995e-05 7.5652436239746236e-04 9.2961993853119766e-04 3.2278706785633434e-03 1.2523358894007074e-03 8.7825639325572801e-04 -8.3641104544904385e-05 1.8169326468355407e-03 3.2718332466062173e-04 -1.4143746543396135e-04 1.2350884487144953e-03 -3.8747957009450072e-04 -1.1201175708220961e-04 -3.1048410608391637e-04 1.4056519353222035e-04 3.9183477401485717e-04 1.3182709039528387e-04 1.0798660613566243e-03 -1.8186781983173007e-03 -1.1498469479833407e-04 2.1310799251671772e-04 3.9517233478833687e-05 -1.2261774605356822e-03 -3.0883604413667635e-04 7.4076580845049893e-04 -6.3879164125783925e-04 1.3881286397920585e-03 -2.3609207056307169e-04 -3.0296270137726019e-04 -6.8675878616457180e-05 -2.5774166422953105e-04 -1.3750494808785246e-03 -7.8076743444467937e-04 -3.9013432274280838e-04 -3.6203313352903694e-04 -1.1009438438921103e-04 -6.5335587604355280e-05 -5.5845461809204597e-04 1.2209649003946157e-04 1.0460454253845618e-04 -1.8932829286389110e-04 1.3929686440949179e-03 9.7641161043567136e-05 3.6346660067087421e-05 9.3011879516124597e-05 2.7562737899494087e-04 -2.3751229443605846e-04 -1.4613570455420630e-05 -8.5626458977456515e-05 1.5839361451637735e-04 -1.2328157554726354e-05 1.2808168924150257e-04 -7.6720971351751290e-04 -5.2956424914121390e-04 5.7808060073981978e-04 2.4935482530282307e-03 -2.8732600699323085e-03 9.0432582382730887e-04 -2.6468870187454981e-04 2.2669617476746180e-03 3.5424922949091114e-05 -2.1434977283189588e-03 2.4013508150819108e-04 1.0806092825308859e-04 1.9249408221501843e-03 -3.3952710764703969e-03 -7.9777510424130322e-05 2.0160138657334208e-03 3.5972668681288900e-04 -1.5131985520445024e-04 -1.0543395326711631e-03 -9.3870593424176529e-04 -1.1689358528250426e-03 3.8488990144350255e-04 -2.5378969923148568e-04 -1.1552197014958350e-03 -6.8681266283178357e-04 2.1351678095618901e-04 -1.8278563584930574e-03 4.1477827158208059e-04 -1.2973747495998410e-04 -2.1874846540261873e-04 -4.9419006680885070e-04 -3.6097726560198138e-03 -2.3927008329261736e-05 -1.7160369900729765e-04 2.7725432428392371e-04 5.7435730476843938e-06 3.4569043095842406e-04 1.2974815555500709e-04 1.6032286982721466e-04 2.7060069457397213e-03 9.1271361164372167e-04 6.1767864054843003e-04 4.0082435687728210e-04 6.7995035616417641e-04 2.2007579158605953e-04 -1.3611137672356419e-04 9.7802853062504058e-04 -7.1812864395679452e-04 8.5977967719152743e-04 4.8184832040340021e-04 -4.3630133322116143e-04 -1.9498167311328893e-03 -1.5863289067996481e-04 5.7758385454328553e-04 -1.0199111217163337e-04 1.2172525016490938e-04 2.1428232619270638e-04 8.6246522979109598e-03 1.3884074089575262e-04 2.6463006522407144e-04 7.0271587611606696e-03 5.1489255244264176e-03 7.0818015923654063e-03 -1.1101416160625099e-03 -4.0648086286685691e-03 2.7718685106945702e-03 -3.6507806265170702e-03 4.3590128839515394e-03 -1.9083567289156708e-03 -3.9556107575644244e-03 8.9751160591623313e-03 -6.3342137139466720e-04 -4.1056981177461371e-03 -2.4456375464105824e-04 -1.9512083215586355e-04 2.4784991783602171e-03 -9.4427371641545993e-03 -1.6897514114851166e-03 -5.0535501709840338e-03 -1.1096709566452133e-02 2.9565794423501279e-03 -2.0571877253526469e-02 5.3518777564725162e-03 -4.5734743274950806e-03 -1.2424188440525123e-03 3.5029497044346200e-03 -4.8173263476329331e-03 1.1948046013869708e-02 -1.0728858942097760e-02 -2.4804110200253214e-02 1.3589915213970459e-03 -2.1768861276814247e-03 -3.9306976893208837e-04 3.6747227442673613e-03 -1.8619737917849252e-03 3.8462589296025619e-02 
      </Row>
      <Row Index="63">
        -1.2380116962382210e-03 3.3236895659610743e-04 7.3825284336639561e-04 1.3714282726703816e-03 1.1721861597365289e-02 -1.1977855492793787e-04 1.0821087026702814e-03 -1.9381991851509794e-03 -1.3142379854705214e-02 -1.9925418559452054e-03 -6.9681448372985871e-04 4.8735198264347843e-04 2.9078166263176103e-04 -9.9679982432043812e-04 -4.4071325655826863e-04 -6.0519850364990654e-04 4.1842770002067388e-04 1.1331509399749584e-03 -7.4548305925557941e-04 1.2833423884399536e-03 1.0956122234141302e-03 4.5844798774224982e-04 1.1552641227202259e-03 -1.0415352290423951e-02 7.5921623771109479e-05 -1.8032543504417115e-03 1.1833133856177236e-03 5.1941066275123793e-03 -1.9347966055532281e-03 -3.5496128139372862e-04 -1.2595630588135842e-04 1.7736693342114407e-03 -3.4991163610463387e-04 5.8286475643263419e-04 6.8243604515150214e-04 -9.1654785515080453e-04 -2.3817559338681904e-05 1.0663216495139793e-03 -2.4876637938306412e-04 -4.8293375647423531e-04 1.1827072665926419e-03 2.2258011879948414e-03 -2.8086616951395693e-02 4.1422459376699861e-04 5.8810634983089971e-03 8.2478833105927019e-04 -3.9111787945983467e-04 2.0975457860404612e-03 4.3035433678434432e-04 3.3590746410422367e-04 3.0072747649917408e-04 -1.1811850402727586e-03 3.5434560242431079e-04 -1.0026678010687344e-03 -7.6911867466777917e-04 3.1417195990018215e-04 1.9471063764553848e-03 -2.8124758082603840e-04 -2.2193197010389330e-03 -1.1725533697127116e-03 -5.3098915600190474e-03 -9.9313802852770521e-03 2.2289666465293237e-04 1.8599002544101739e-02 -1.6993346012699195e-03 -1.1618283990257739e-02 1.5436527566639797e-03 6.6139804089586363e-04 5.4950813380289301e-04 3.7503495433931222e-05 1.5206374259124063e-03 -4.8378872562360176e-04 5.2868399924554943e-04 1.3313211815070246e-03 -4.0331615859903053e-04 2.3001250753732910e-03 4.2740746652356239e-04 -5.8628893318249083e-04 8.0269902756406088e-04 -3.0816809519046431e-03 2.7167257416765645e-03 -2.1282829652901800e-04 1.3427099296034634e-02 1.7518799620844794e-03 -1.1268407176655448e-02 1.7077741986377482e-03 -9.1395577042889195e-04 1.4898873142055476e-04 -1.4513027855571517e-03 1.4539684720512836e-03 -1.2503779556284639e-03 -1.0053366725244679e-03 1.7112747235276788e-03 2.6024386489248116e-04 1.4711500843678530e-04 -1.8207318465454083e-04 -2.3036223552054015e-03 5.6418473190445308e-04 -5.0589818784244822e-03 -1.0012308932736715e-02 -7.9925375376939487e-04 3.6104332172623058e-02 1.6420253075079792e-04 -3.9588895198730371e-05 1.5278702341583808e-03 -1.9012679067854686e-03 -2.7811183393585130e-04 -1.4406658332959791e-03 2.5003022381654802e-03 -1.4200555299370189e-03 -2.6712410372435038e-04 2.8855244066653893e-03 3.9855996238645107e-04 -8.5322295256655856e-04 1.3509163246741356e-03 3.9469097774960969e-04 6.7268993879625154e-04 -1.3609518134286634e-03 -1.9264338332455316e-03 3.5755358951000899e-04 -1.8508609736839212e-03 -5.0779817377183400e-04 -1.1593101244954449e-02 1.4953459992787267e-03 2.2001257683413038e-04 -2.5176601936124704e-04 -9.3635223910926981e-04 4.7622212088577383e-04 -2.7841394513056244e-04 5.8142397289289837e-04 -2.1918889142183071e-04 -1.5174515799515587e-03 2.5681713667028276e-03 3.5345694205586023e-04 -2.9005819370073470e-04 -1.3206776516287006e-04 1.7303204535719119e-04 6.6110513036136498e-04 -9.6527716843516112e-05 3.2091163394590261e-04 -5.2739147375561904e-04 -4.3614225977743588e-04 -2.1140576083065825e-04 4.2554434776754224e-05 4.0215805568570760e-05 1.5055049597989095e-04 3.9882059428176966e-04 6.0181313390953039e-05 -1.8533082389225012e-04 3.0248653442153548e-05 8.9106325972971770e-05 -1.6564764992765178e-04 -6.8077648506896678e-04 6.9093491203170356e-04 2.0308477563550187e-04 8.5852555265114594e-04 -3.7002951643292370e-03 -1.4304429264035346e-04 2.2613001118359523e-03 1.4252684385179550e-03 -1.0064526489248986e-02 1.4231096627362611e-03 3.8998405658941492e-06 -1.0169215647565799e-04 -9.4501345755241650e-04 1.0708844717558980e-03 -2.0455420526132928e-04 1.4132847296635491e-04 4.6895206292079967e-05 1.0424116771081847e-04 1.3094590262408955e-03 -7.2817517845708002e-04 -1.9044155083830809e-04 -6.3143218457836769e-05 -5.4112305323759967e-04 3.9722122609707382e-03 -3.7218042157362882e-05 2.0927082768704476e-03 9.8978630823665092e-04 7.0379028485126702e-03 -1.0339710518135481e-05 -1.8887763833168065e-04 -1.0545604440070737e-04 1.8897916792820018e-03 8.0411013342283661e-04 -1.3728770722212162e-04 2.4174127079878982e-04 -9.1688182647865941e-06 -1.7462786395978726e-04 -1.0330221898652084e-03 -4.7083383193854272e-04 3.6256843078700249e-04 -4.3486256254623160e-04 -1.2910113223174972e-03 -1.3861955738379472e-03 1.4394325892888333e-04 5.8924248287173953e-03 -1.3991697901227678e-03 -8.9041883209280744e-03 1.0934520042123685e-03 -2.8090768176279704e-05 1.9465479961062926e-05 -3.5984568238836578e-04 6.5023105325094210e-04 -3.2750619261125055e-05 2.6436374621342156e-04 9.4348917771285793e-05 5.1490860925262265e-04 -9.8471311876242168e-04 -1.8712315157493088e-03 7.6353019334213772e-03 2.3645298599003967e-03 2.1925926681526618e-03 8.5243973736564786e-03 2.0316773048834422e-03 -1.0744909088296173e-01 -3.3362326121703966e-03 1.6764347956724480e-02 4.7511745381739051e-04 2.8626676165848181e-03 -2.1029919105258754e-04 7.7368266246795932e-04 -5.5420427161548070e-03 1.6758368999114236e-03 1.1659328027078114e-03 -4.5478844922692708e-03 -1.9989473077424787e-03 5.0472615577827401e-04 -6.0265257517776571e-03 -5.6063508260009720e-04 6.1603559136941223e-04 1.1880382378271452e-02 3.1458641257101003e-02 1.0560915218478634e-03 1.7332985798222897e-01 -4.3704016527562409e-03 -3.3947569756688417e-02 -7.5319697458199157e-03 3.6403694674867586e-03 3.2373320709614892e-04 5.8154093338217624e-03 8.2622307028552000e-03 -3.9747929311672106e-04 -2.5882442473828086e-03 -2.8541031334175515e-04 4.3847269992557947e-03 1.0184732956077962e-02 -1.6922931373467848e-01 
      </Row>
      <Row Index="64">
        2.7758490502050256e-02 1.6578534256536526e-01 -2.0082273112670187e-02 -2.7796125024390182e-03 -2.0350418170476097e-02 -4.0815534650992663e-03 -1.6876772787173047e-03 5.6961042212060597e-01 -8.9284917214288800e-02 9.3817889667661917e-03 6.7399850351688891e-03 -5.2065105072305173e-03 -3.1598848802880187e-03 -3.1731115028559294e-03 4.1211098924891085e-04 3.4953787511809464e-03 1.3617790607321407e-03 8.3030288634320937e-03 3.3925815291589801e-03 -2.0018197757593989e-02 -1.0286047058083661e-01 -1.0291348243879006e-01 -1.9988718114577614e-03 -1.1044456335049135e-02 -3.0126562264821705e-03 3.8065793321863774e-04 -5.1852793108934189e-02 -4.1336403659611914e-02 1.5355270391552989e-02 4.2964663833450212e-04 1.5745015346337876e-03 -3.3693711770050060e-03 1.8353621493909268e-03 1.7633390255690495e-04 1.3589784989981646e-02 -2.0057137279796654e-03 7.7381822480927787e-04 1.7957963807924415e-03 -6.9408427695406977e-02 9.4188536283408286e-03 -9.6850929954312881e-02 4.0984631097433222e-03 2.2695901295388010e-02 3.4128070713432823e-03 1.0194169662676722e-03 -2.0342591626437168e-01 1.6193533248476333e-02 -2.2192008240374345e-02 6.1042732784789000e-03 1.2831389590460596e-02 -1.5304909140328726e-03 3.9783325727451579e-03 -4.8502100237595713e-03 -2.1890488134632301e-02 3.8321338728674048e-03 4.3434764320684650e-03 1.2783644319270260e-03 -2.1157010104098095e-03 1.9244678617181524e-01 1.7621037854504390e-02 -2.2926496947493213e-03 2.9389359201152758e-02 1.7703197418322339e-03 -1.6993346012778021e-03 5.2162478558297476e-01 8.4988083769255377e-03 -1.2132931186870097e-02 -7.6027600434176723e-04 1.8441409465903509e-02 2.2142036869271485e-03 -1.5529792936282080e-03 -1.8546367324447921e-03 1.9822354180001500e-02 8.7493440340200394e-03 2.8508424281321054e-03 -4.0072425693027935e-03 -1.0378716444981621e-02 7.2596133195185321e-03 -1.4673400505468269e-02 -3.0647261333908889e-03 -1.8602307766605077e-03 1.0634184561775094e-03 2.0713901688049381e-04 -5.6005793165613271e-03 2.1115802638604908e-04 1.0542171548272791e-03 1.1099996210387688e-03 2.2703997828037725e-03 6.6803054658843848e-04 3.4709776184176956e-04 -1.0804257734668577e-03 2.0286085646097195e-03 -9.6220001037760326e-04 -9.6137622701169677e-04 1.1382017228324475e-03 2.1888653623388828e-02 1.1926721965712907e-02 -7.0156260220801681e-03 -6.5372583717554153e-03 2.8140413074961349e-02 -2.5360689654443723e-03 -7.6505654911721542e-04 9.8003959883634691e-03 -3.4714208138323724e-02 -1.5560581569076803e-04 -5.5380240543267505e-03 2.8030356780680138e-03 1.7045636120953701e-03 1.1945899637346010e-03 -8.7300364733144454e-04 1.2676581640103182e-02 -1.4342922156937166e-03 -3.9552034196808049e-03 -2.8420771331530846e-03 -1.7627658149940224e-02 4.8934555005050208e-04 -3.0680671871983270e-02 -3.9946340065482875e-03 1.2942082155128199e-02 -1.2388245933421067e-03 -1.1246809228930214e-03 6.6125111650895727e-02 -1.4659549783069480e-02 -1.5569021279408733e-02 -7.4458846456735960e-03 -1.8427159276468161e-03 3.0677077606642037e-03 5.9978404877916430e-03 1.8205923260657586e-04 -1.3451517810228065e-03 -3.8767291854092153e-05 -1.1064376790880483e-02 -8.0533635606116626e-04 2.4057103406717410e-03 1.2460046308439608e-03 -1.0554701543957123e-03 -1.2307571842235456e-03 -2.0050587917769210e-03 5.1794863050233519e-04 -3.3999270202999073e-04 -2.9514015796555280e-04 3.0225839120264736e-03 1.0031183328641116e-03 -1.7976056801770199e-04 7.2439151420727210e-05 -6.4882986138063519e-04 1.2766069863147200e-03 -6.4264906475736366e-04 -1.2195992349964425e-03 9.3996140883761676e-04 -4.2669411332943268e-04 -1.4199230520609322e-03 5.5395403347647809e-03 -1.4181581233600055e-03 3.5433064882529550e-04 1.1341441165040832e-03 -1.9982195076354119e-02 4.2468121234374998e-03 1.9568593375609345e-03 -2.7966344575170038e-01 9.2262983517113512e-02 -5.9927811732437379e-03 8.9704088234549735e-03 4.3813177250962704e-04 4.5911446874254006e-04 1.7880230093417341e-03 -1.3941178864169603e-03 2.3136539545936443e-03 6.4541772213938813e-04 -4.2824850932873335e-03 -7.6874716120361574e-05 -9.6953113456793583e-03 -3.1930670574849544e-02 2.3057909443740338e-02 5.8397671915044400e-06 2.9124268556392566e-03 3.8586458219055583e-04 4.8146802458086391e-04 -9.7298923407575455e-02 1.4814654455802555e-02 -1.9605775996302949e-04 -1.4205929723408893e-03 -1.4549010244556309e-03 -5.5665103765582379e-03 -2.7245858365932563e-03 -1.6218820737051538e-03 1.5062579851127245e-03 3.4462709898590857e-04 -8.1636303980778702e-04 1.1040259099760613e-03 2.5145282653510324e-02 6.1324313760994176e-02 -9.0884219821994149e-03 -5.0153717328091825e-03 7.8497387929482264e-03 -2.2183479437291025e-03 -1.7858373679005230e-03 2.3019698479021411e-01 -1.8965071608334876e-02 -1.5032403057259155e-02 -4.3762937698241531e-03 -3.2737815253992336e-03 8.7993001733925797e-04 -1.5373174804106202e-03 3.0912336302897018e-04 2.0091572447070161e-04 -1.8515583462170937e-03 -7.2852541151683422e-04 -9.1438678186352628e-04 1.1764047029549116e-01 -4.6423267477988889e-02 -1.5765786343627311e-01 -8.1063012482011573e-04 -3.3138780561364290e-03 -6.9594820191357020e-03 -1.4275119118404962e-02 1.4363050078256467e-01 -2.7809759811495471e-01 -7.3691016383963803e-02 -1.7351372057919506e-03 -4.2173778225728820e-02 3.9384860802817783e-03 -2.1715439533332957e-02 3.4255695412716150e-03 -2.1762670947749585e-02 2.0546130689246180e-03 6.4017148619062384e-03 4.4564468648950889e-03 1.8360027966393011e-01 -2.8639084356558780e-01 -2.0428819369315582e-01 -7.5315505397678117e-03 -5.0787664543769769e-02 -5.8536218030094574e-03 -1.4787753652842794e-02 1.0184537005586407e+00 8.2635261887627084e-02 7.1200556228805667e-02 -6.3364923474400203e-02 7.3823578484822891e-02 -1.9503246276329267e-02 8.9549865632762710e-03 1.1876463713776972e-02 -5.1653621366980998e-02 -1.1232135411774560e-02 3.5975422572428382e-02 -4.5423264911465602e-03 -2.2594906326006650e-01 
      </Row>
      <Row Index="65">
        -1.4010278946745084e-02 1.7993823971238054e-01 1.4961593015364070e-02 5.2075654743278452e-03 -2.2599996294512034e-01 1.7688539753707072e-02 -8.7301521397519233e-03 -3.7232121398064255e-02 3.5224839612610370e-01 3.8453111061848108e-02 -5.0434452995690889e-03 -6.8014816086095324e-04 3.3539999127796191e-03 2.1269541963740771e-02 -1.5821408540683778e-03 -2.0717770917743142e-04 5.3569059410513821e-03 8.1005788249097210e-04 2.0890402320853530e-02 3.1765820360804636e-02 -1.1595532524730828e-01 -5.0264602078622267e-02 -4.1573718842389529e-03 1.8892732268986889e-01 1.2298256365333569e-02 6.4808670666437135e-03 2.3421188160423378e-02 -1.0338689255974065e-01 3.2093925677333920e-02 -2.8749552327969052e-03 8.5045527282406885e-03 -1.2226893852454630e-03 2.8484234275798818e-02 -6.6242448055709724e-03 2.7593379941099450e-02 8.9389811008498167e-04 -1.6726897949471409e-02 -3.2558991187696951e-03 3.1637332216646816e-03 2.1602690276489867e-02 -3.3445254996854246e-02 -6.4074104380147934e-03 4.7348244915865123e-01 -7.8695272133595118e-03 -8.4067092832666446e-03 -2.1425712803973707e-02 1.0261952899119769e-01 -3.4167771955889825e-02 -1.2281530083641329e-02 -1.3677356813112579e-02 1.7727819701789521e-02 -1.5897025518045643e-02 -2.3685826686197203e-02 -1.5395354616253909e-02 -1.0819576102079398e-02 -1.5482805792516107e-02 -2.0937321498663036e-02 4.6454947993552542e-02 2.4511376396500173e-01 2.6406477596755240e-02 -3.3462183887037478e-03 4.3170016596488259e-01 1.6974603961932542e-02 -1.1618283990138867e-02 8.4988083772452594e-03 1.4222103632712739e+00 -4.8538990837208341e-03 1.0951560940707344e-02 -1.9015382637583834e-02 1.0984030594386671e-03 -8.6300684526660315e-02 -1.9318712459002407e-02 -2.1075728870531218e-02 -2.8682431968050232e-03 -2.2012345644746342e-02 -1.0912808387105843e-02 2.0997588240526794e-02 4.6077822833300985e-03 -1.9302599031055367e-02 3.4737703780954514e-03 -1.4309794030453569e-02 3.8684753737252150e-03 -3.4850003418176297e-02 6.2871327839814084e-03 1.3657326832084371e-01 -2.3583276663825398e-03 3.5511735529701735e-03 -4.9491181392667845e-05 -2.3932703790618764e-04 6.8638579718891916e-03 7.2430697159573841e-04 -7.4667913040720882e-03 -4.3210871750457995e-04 -5.4074928880465788e-03 3.3215880894571751e-03 -4.0625986180958550e-02 6.4318583819076292e-02 3.1833395190135991e-02 4.4378340750692052e-02 6.7916271217723673e-02 2.8620440193823796e-03 -7.5594975369279518e-02 -1.7660856855669611e-02 -5.0593074319365472e-01 1.0784802099782977e-02 1.3952375054912668e-02 -1.1034951710277949e-02 -2.1051582595121702e-04 -9.4809019230434499e-02 -1.1409285122470442e-02 1.0623994678032093e-02 1.0873377864453401e-02 -1.1714854066965704e-02 -1.8032154626380980e-02 4.5920069998771844e-02 -2.4462906342362284e-02 -1.2042499741730855e-02 -2.5461648391219449e-02 2.2792255584487667e-01 -3.2941972335477779e-03 -1.3524240355732534e-03 3.4807275667639997e-02 5.4988270766714331e-01 -1.6155034720685649e-02 1.5644771249421884e-03 2.8613693687421179e-03 -3.5127805594875874e-03 5.3624804352034199e-02 4.9380102398792272e-03 -1.2270096839859052e-02 -9.4841385633272560e-03 -3.1029038884821211e-02 1.3402498857736009e-02 1.3131692376012229e-03 4.1875653102627017e-03 6.9586542910339468e-04 -1.0518321296210825e-06 -4.0108923654807302e-03 2.0513953307357930e-03 -7.3910797922897603e-04 8.3425852278589657e-03 -6.8211796828481863e-04 1.5464860211511521e-03 1.4038885876752000e-03 -1.1233610559283251e-03 1.5307423561974572e-03 -3.9638586374144183e-04 3.8511592586043623e-04 3.5406317965612152e-05 -7.3695770310344688e-04 1.3089533319980361e-03 -5.4901157739776097e-05 5.4336947532597143e-02 -3.1375607651081175e-02 -2.5504680433989013e-02 2.7034016168866106e-03 1.2581124535161026e-01 1.0056873234971064e-02 -9.4906135379509444e-03 2.4308335815223930e-02 2.3155216450702892e-01 -4.1472495862650637e-02 4.5467657950862229e-03 2.3833081103675326e-03 -1.0329326918698856e-02 1.1186317315219067e-02 1.2803033311723170e-03 -2.1935274176398303e-02 -2.1246121664421757e-03 8.4719011679344081e-03 4.9848993457922118e-03 -7.5884726950918302e-03 -2.1287325071901647e-02 4.5213324852618961e-03 1.5415819524847931e-02 -9.9424642437519306e-02 -4.3831611553947943e-03 -1.0633268995546320e-03 -5.8805051389963503e-03 -2.3682490737734740e-01 3.2231421711477583e-03 1.0053596657832904e-03 6.4025517234200802e-04 -2.7122424289733882e-03 -1.4310396492070745e-02 -2.6158983821710363e-03 2.4673367924297640e-02 3.5741039923552365e-03 2.0668171277076737e-03 -1.6568264298288810e-03 1.0376987030687172e-02 9.4164632294810924e-02 2.4231245797459368e-02 -4.5194562317102385e-03 -6.6269695359385504e-03 1.6262140058690392e-03 -1.4254206741267317e-02 -1.5867739222836831e-03 3.5969801307053850e-01 -1.2003566064972673e-02 3.1405339475610375e-03 -2.6553539263129760e-03 -8.9461397345351121e-04 -2.0611023438196766e-02 -6.9027651570599882e-04 -1.0595466262095217e-02 -4.4524506232691396e-04 -1.0102593832451209e-03 -1.4102550148495929e-02 -3.5224744358962175e-02 -4.0373593769931278e-02 -2.2541678586107838e-02 -1.2773368338558772e-01 -4.3403066173578703e-01 -2.2006851093949703e-02 2.6150506745199908e-01 -3.6271029519785170e-03 5.3798654910570098e-01 -1.3333056302428557e-02 -4.3301074995609666e-02 2.3907865332576606e-02 2.4865836345481656e-02 2.3014031530546519e-01 2.0227160294176642e-02 -4.8671669889666286e-02 -2.7163203432690672e-02 -5.7565332016026989e-02 3.0397213236720157e-02 9.2614149006538526e-03 -3.6697458897693314e-01 -1.1757158125504830e-01 2.7563517045231856e-02 -5.3568894400619538e-01 -6.9860835310275538e-02 -3.5062826913352474e-01 -1.1626615764161130e-02 1.2007167000628640e+00 1.6177024666884399e-01 2.0790566063731759e-02 -9.9640693075784950e-02 6.3504199385646500e-03 -2.5603023850726281e-01 3.7999979435327624e-02 -6.7697438261591802e-02 5.6110051459923316e-04 1.2573146384741518e-01 8.6558870480267391e-02 -2.5229906847678568e-01 
      </Row>
      <Row Index="66">
        8.5207927192872644e-03 -6.1457200766343312e-03 7.9554434347647307e-03 5.9261344314599090e-03 9.6899768173227107e-03 -1.7048524679533841e-02 7.2629370142378302e-04 -1.7317748771366132e-02 -1.6607398738646358e-02 -2.6637816766069120e-02 2.0518897525210762e-03 2.0203757152610028e-03 2.8694812995591614e-03 -1.8607237056905406e-03 -1.1810398682343096e-03 -2.4791261023277868e-03 1.0589187962119374e-02 2.2041575389822599e-03 -2.9293451467731326e-04 4.6732901517590117e-03 7.4038609052065885e-03 -1.8677678154022881e-02 -2.2022803210563335e-03 -1.2461523695105448e-02 -1.4391518873232687e-02 -8.1417465092293684e-04 -3.2949102622796891e-03 -5.7259317155878842e-03 -2.2672929627063975e-02 -9.2886696926222645e-04 2.2203107245534759e-03 5.3133100979444684e-04 -1.2603976868095900e-03 5.6296941509211690e-04 -4.7456190759114780e-03 6.3613107286371292e-03 -1.0384110848519826e-03 3.5202663539736778e-03 5.9485007016594343e-04 -9.9250051097232728e-04 -1.6580812284030244e-02 8.1583993508417690e-03 -2.1475240515729882e-02 -7.9478177805088063e-03 1.7747540667439471e-03 1.3077360026757308e-02 -6.0566355088633173e-03 6.2963389376057416e-02 8.6841271821877022e-03 -5.5687874939804038e-04 1.1782505792305178e-02 5.6513121076145340e-03 6.7406138890133832e-04 1.6661642990168975e-03 7.5183818682912351e-03 5.8695439676093291e-04 1.2880452841810275e-03 -1.4304534277057579e-03 -1.2405742224010297e-02 4.7939507852308785e-03 -8.6298439438489000e-04 -4.7406002270986562e-02 4.5573028263476301e-03 1.5436527566640712e-03 -1.2132931186921936e-02 -4.8538990836127678e-03 9.4599526393599170e-02 3.2608636067931948e-03 2.3635943156639656e-03 1.8205088348413508e-03 -5.3209996708880923e-03 6.7361021169703994e-04 8.9385407314587773e-04 5.4244451218057651e-03 -6.7541839210569742e-04 -3.7500664122710678e-03 2.9916300046146146e-04 -1.6429762728028298e-03 -3.8372139927753905e-03 3.6941541043734416e-05 -1.3748574767353480e-03 -2.5069965769627498e-03 2.1301190740251157e-03 5.5988978751236873e-04 -6.9909094549437667e-03 -5.3199654154484077e-03 -2.7119796201181899e-04 4.8357046795763619e-05 -8.1753044574275381e-04 -8.0369329242059909e-04 -1.3246607573894135e-04 5.4666850638742303e-04 -5.7010316025256466e-04 -6.7962886406449773e-04 -4.7542532197744169e-04 2.5610067101596024e-04 4.1423673958665549e-04 -2.4674704166580187e-03 -4.7720761696353389e-03 -7.6432056178179532e-03 3.5488709452752266e-03 4.6094915842016682e-03 4.1781518979277718e-04 3.8070637795557791e-02 -2.5864158879143832e-02 -3.2513689707251354e-03 1.1764624336721840e-03 -7.4110697353568511e-03 4.0572618577137520e-04 2.0572822258065472e-04 8.3136550948637944e-04 -1.3312444400482987e-03 7.9566922505389538e-04 2.5414309744619323e-04 -4.2616544986409492e-04 8.6016100642417794e-04 -1.8078279376013487e-03 -2.6346948203275311e-03 -6.7605492447406958e-03 2.4764741317078935e-03 4.0922515778099680e-04 -3.7149576241161109e-03 -2.7702316869142214e-02 1.6846152678806466e-02 1.7292706431859797e-03 1.8407549920129544e-04 -4.5982543394748297e-03 8.2741477771434589e-04 3.7787967229405421e-04 -2.1958014312773895e-03 -2.0574210119744646e-03 -2.3255614038565596e-03 2.0622742204607124e-03 -1.2837226724664445e-03 4.4389515546707056e-04 -1.0772257651837892e-04 3.9529107008009611e-04 1.2754815980036125e-03 3.0411517698513118e-04 -4.0573915379533396e-05 7.3211544126267037e-04 -1.3101429197494313e-05 -4.1567913472177146e-04 4.0960394951150121e-05 -4.5803167491481102e-06 -3.1984285515043178e-05 -3.9074779054324989e-04 -3.0123410875567129e-04 -1.6806258837731482e-04 -1.0949163177741960e-04 1.2082147590841523e-06 -1.0836243793357442e-04 -9.7473897382486969e-03 -4.5578889792886445e-03 -2.8701237482707843e-03 6.7875048386138049e-03 -6.9676439539525046e-03 -7.7961619718360641e-03 1.4889653092390980e-03 1.7432337668300393e-02 -2.1349027086907876e-02 3.0950297058903054e-02 4.2677568552672981e-03 -9.6142018324459619e-04 3.7388449428081378e-03 4.9068346711333716e-03 -1.9050621734913609e-05 3.5183176425363696e-03 -6.1756126897097507e-03 -4.6991918301369758e-05 4.7833297801800744e-04 -2.7546119553949200e-03 -1.2535945931946985e-04 2.4087708506775433e-03 3.0284068226710953e-05 5.2108746964667149e-03 1.3170508550861496e-03 2.2157146251049545e-04 3.0629638610796261e-04 1.8601092751537596e-02 -5.6917425724837649e-03 -2.4528662171777165e-03 -8.5132087800260901e-04 1.0179842508827079e-02 1.2261677824391506e-03 -1.1962983395020002e-05 1.5462558218562461e-04 1.4882373469063143e-04 1.4373593585790775e-04 -1.7065124074813059e-04 -2.3583096320212594e-04 -2.4900008841310514e-03 3.7308558474953173e-03 2.4934114954567534e-03 -1.9948380397037026e-03 -6.3397025275854888e-04 1.2542202269650890e-03 -7.9011566109846998e-03 -7.4665454701696773e-03 1.2183217619147866e-02 1.3214090986961738e-03 -6.8037936900895322e-04 9.7806638923917115e-04 7.6731153464938153e-04 3.4624595488535125e-04 9.2725111391390839e-04 -4.4166842422912788e-03 5.0697675655625777e-04 2.3506594573341195e-04 1.5551863196165147e-02 8.1900104361686838e-03 1.0666466680642204e-02 1.1363612713442578e-02 2.8375126196756905e-03 4.9977219179845010e-03 -1.4972320486800290e-02 -1.0374092311021989e-02 9.0966755187440480e-03 1.7586243359038051e-01 1.3543659997214854e-02 -1.5474245271579271e-03 1.1550436185340468e-02 -5.8740566560309924e-03 -2.1130663377064776e-03 -6.9040287492989211e-03 1.6890794372179874e-02 -3.3678540678563755e-03 -5.6206571406841295e-03 -1.6354966458366527e-02 2.8835569694675545e-02 -3.7823649931573340e-02 2.2758897125863625e-02 2.0466747025854985e-02 7.4436623642808550e-02 2.4512984612170399e-02 -4.6598705178476918e-02 -8.1424043498299362e-02 -1.3215270646816946e-01 -9.3855835630049650e-03 8.9216717957224332e-03 3.6179458631051716e-02 -7.0039554514228081e-03 -2.8401526126550537e-03 -1.2608081058560028e-03 -2.3342162594965427e-02 7.2008260875305527e-03 7.9160524807133058e-03 8.2992074832640414e-02 
      </Row>
      <Row Index="67">
        1.1038610986512933e-02 6.9919188725915821e-03 -3.5619514719493787e-03 -1.0864454290623101e-04 1.6349909053760502e-02 -2.8718431361547669e-03 -9.7516566027128215e-04 -3.1908655475917785e-03 -1.2096690288381536e-02 -5.0040547478476249e-03 1.0921791106293802e-02 2.0737764765638551e-03 -3.9387579356724833e-03 3.8310702088229474e-03 6.0540885290156121e-04 -3.9728173841868056e-03 1.5363556236890658e-03 2.5734256844484119e-03 3.2489212798500564e-03 8.2785889804959708e-03 -6.3077385936174679e-03 3.0852657077199142e-03 3.2139831043056372e-04 -4.0950172441620719e-03 -3.4570112218954493e-03 -8.4392498380324223e-04 -7.8058589892460867e-04 -1.0725452851823226e-02 -5.4233350705353983e-03 6.6602112537479507e-03 5.0100274208764173e-05 -3.1365680295641516e-03 6.7607982144674960e-04 -1.3982857475600997e-04 -2.9781043851646594e-03 6.0076309569384936e-04 1.6641993133967754e-03 9.6226555645934075e-04 3.2029785656183529e-03 1.5326090725201191e-03 9.2690359512790088e-03 5.1670671472487106e-03 -1.0519522603072831e-02 8.4059977039477318e-04 1.1825732646322806e-04 1.1145709527665901e-03 -4.4774905635590057e-03 8.2138018836777626e-03 4.3309840026462126e-03 3.1320827450014334e-03 -1.1269461236668027e-03 3.8300223704167830e-03 -3.0833689036286471e-03 -5.5452871084816276e-04 3.0285731163900986e-03 1.3622407935906327e-03 -7.4696653667465432e-04 1.5989104404891819e-03 9.6407971204707562e-03 1.9933653550596245e-03 -1.5420115759397352e-02 -4.2635305706958514e-03 8.2341712513016568e-03 6.6139804089077048e-04 -7.6027600434525056e-04 1.0951560940814441e-02 3.2608636067900446e-03 1.7742719703325235e-02 5.7151816581002476e-03 9.2771979436899465e-04 -1.6104731192586177e-02 -1.4092583581331586e-03 1.0071152031888714e-03 1.8537360990988124e-03 3.5933701397667800e-03 -3.1909995726186954e-03 9.0847341689352483e-04 9.1284400211920900e-04 1.0048149839126073e-03 2.7028494978834187e-03 8.3592170550769555e-04 -3.2966575968245435e-04 7.5407408226116964e-05 1.2230960802198099e-04 -6.6939447375249927e-04 -1.7436328538698448e-03 6.1486623975945788e-04 7.1990288736643979e-04 4.8207087397027703e-04 -1.1480037159401590e-03 -4.3798173971081430e-04 1.2581822429399369e-03 -6.2231868847774157e-05 1.0098122613547708e-03 4.5424543576226789e-04 -1.3773389940596788e-03 1.8835282985181266e-03 2.8858717697617447e-03 2.3495271681461868e-03 -8.7728854112006996e-03 1.7714285602074250e-04 6.4768301991492325e-04 1.1286515866456188e-03 6.5325798683682993e-03 -4.3018115516565572e-03 -1.0529867950646898e-03 5.8332339324212068e-04 1.6887392892933352e-03 2.7829027590109781e-04 -3.3436098513356534e-04 1.1806103925163631e-03 -1.5581096826108119e-03 1.9235906192212766e-04 2.0313572452580232e-05 -1.1715318642528314e-03 9.9115271951967770e-04 1.7079916586781804e-03 -1.4536357764322468e-03 -4.1790858053839608e-03 1.9378350859323209e-04 3.8405292961347145e-04 -7.2593284794476767e-04 -6.4623519991452091e-04 6.5083616987514597e-04 -1.6360196883390432e-03 -1.1558313704585995e-03 2.0679293375694538e-03 -2.3295885310461346e-03 -3.7850110310503498e-04 1.4018916166859039e-03 1.9709851450491083e-04 4.6307854049588287e-04 -2.3965120673949177e-03 -4.4378059567282916e-04 -6.9354403109654389e-04 4.6455793527370017e-04 -8.5228606635230321e-05 -6.7307703811664548e-04 1.1315576549945902e-04 5.1499483113701580e-05 -5.0328952011225337e-04 1.1663619368395459e-03 -1.7281553367389413e-04 -9.8985523775226670e-05 9.7800664418772190e-06 4.0067649748182308e-05 -4.4560480579379882e-04 -7.9538447189167705e-05 8.5890065447654816e-05 1.3874195938610512e-04 -8.0812487223222838e-05 7.5395143659535432e-05 -2.5999027105628146e-05 4.0602928065988886e-04 2.6188011630877001e-03 6.5708855356064796e-03 -5.3699215329429785e-03 -7.3991335190318880e-04 -2.3571326865157784e-04 2.1779428922447004e-03 -6.5472286563863225e-03 3.0206405884675657e-03 1.5600664348511201e-03 6.6604002873867042e-04 1.1558346324256285e-03 -1.0002808515071300e-02 6.5810947589482109e-05 2.6926926483655427e-03 3.5647940670859745e-04 1.1414090011896876e-03 -1.5086233887427064e-03 -3.1388121800558777e-03 -1.8762086813593690e-03 -6.2781137278822632e-04 3.3537306878062686e-03 -7.9546408075615530e-04 -8.1543456005282093e-04 3.2271419161943981e-04 5.6745127981688848e-04 5.3359276703936250e-03 -2.1636550430498731e-03 -2.4256174157328810e-03 -1.2160438979656497e-03 -1.3087641445238191e-03 7.8230842971074334e-04 -5.9663618147954721e-04 1.2018701553030003e-03 -3.3530642106351181e-04 -1.3020518387098869e-03 -1.6837490807664751e-04 4.8570621858181652e-04 5.0709651714612811e-03 -4.4613933468216102e-04 8.8889241979725800e-04 -8.3097325471945260e-06 7.3580887511658891e-04 4.6105837420709796e-04 -2.0328932375291934e-03 3.2572178284243224e-03 9.4131291190537839e-04 1.3159159821856288e-03 4.1572058913973196e-04 -2.4380748031462815e-04 -5.5195335049177873e-03 -9.4034878666996770e-04 1.3334257293804068e-03 -4.7081353280796403e-04 -5.1004589710369286e-04 1.2519465155442699e-03 5.5040838670812487e-03 -1.3972007842605921e-03 -1.6768537240534438e-03 -2.6770116978908139e-02 1.8184077611047490e-02 8.4424177286790986e-03 3.3832467982381105e-04 -5.5897287031841502e-03 1.2588383306411934e-02 1.7019301160349817e-02 2.5332226452057967e-02 -6.0380247993716482e-03 -1.2222648191344758e-03 1.6963390787068017e-02 -2.2639243432723676e-03 -2.7017925109279473e-03 3.3263464247781848e-03 -3.0272997622010872e-04 4.1920366306601757e-03 -8.3138441782822058e-03 -1.1380226070441646e-02 1.1725957270694096e-02 3.4612362354326784e-02 1.9968983518281358e-02 1.9221795357799082e-02 4.4585311815602685e-03 -5.5721404940352048e-03 -9.1513351946998830e-03 -2.3082801576477109e-02 -6.1298467464622225e-02 1.9516157782466629e-02 -8.9416439410613963e-03 -6.2537793203210165e-02 5.4301415709180831e-03 -3.6409601240249157e-03 -4.8619304992462324e-03 -4.7972253718390860e-03 -9.8641614079404590e-03 4.2337230225037874e-02 
      </Row>
      <Row Index="68">
        -3.0174909675342275e-03 7.1318926573372965e-02 8.5045198030785107e-04 -2.5122115340451157e-03 2.8042552819083480e-02 4.3695220321156650e-03 1.0712645490704165e-03 3.0310011300964057e-02 5.6160067006846628e-03 5.5655667144795880e-04 -7.1860644523840875e-04 -2.6412284925424337e-03 -2.5142777675542509e-04 -8.0712936518519546e-03 9.1993101679594172e-04 1.3206318968661300e-03 2.3765787441896984e-03 -1.3269281650596237e-03 -3.9300823877860629e-04 -1.8544753567471629e-02 -4.1334695256987755e-02 5.8279585828007185e-03 2.5117442254986126e-03 -2.2410124309546919e-02 3.8599409651050376e-03 -9.0605304263106489e-04 -7.5657143615440181e-04 1.7048444206415325e-03 6.5289646030967929e-04 -1.2940969301534766e-03 -2.2079194048737955e-02 -7.3284168371997400e-04 3.8128255009419326e-03 -2.2770267709254811e-03 -1.7292717388393553e-03 -2.5924076383842375e-03 3.4291053194040189e-03 -1.5507423749442362e-03 -1.1586319692458560e-02 1.7898187402409782e-04 8.4201688825339405e-03 -2.1297191921323400e-03 -2.7579940783107770e-02 5.0204057491678999e-03 -8.6841353426667101e-04 -3.0030038673711179e-02 6.4910534347262239e-03 -1.3909033006558047e-03 5.0430314552893651e-03 4.8486961365555775e-02 -9.9692011260278657e-04 -5.8064551102341155e-03 -1.7980305812772129e-03 2.3202613896918939e-03 -1.1929909115630966e-02 6.1192450982454471e-03 -2.1307846837211458e-03 5.3952305826820979e-03 7.3387060438779822e-02 -2.3198925867164710e-03 -4.7829033725382830e-04 3.2366546710584053e-03 3.0515579232825857e-03 5.4950813380305608e-04 1.8441409465887793e-02 -1.9015382637866236e-02 2.3635943157112871e-03 5.7151816581168108e-03 7.3832784189669029e-02 -3.4452889051714113e-03 1.2218941033859371e-02 2.4858731436385728e-03 1.2292330800501294e-03 -4.6903557071542798e-03 9.7242641663263310e-03 9.9044378287178880e-04 -1.4179309841026166e-03 2.3715538998857867e-03 1.1434902053212431e-04 -2.2877538998922814e-03 4.2595934228823618e-03 9.3090255860360386e-04 3.3596139803410718e-03 -1.6909333734810295e-03 -6.7331932311340825e-03 1.2587169473216031e-03 -3.7867725480316664e-04 8.8716831043064871e-03 1.2186117423516134e-03 -4.8135860363555352e-04 2.6763117325246842e-04 4.8420244177234308e-04 4.5342986297359014e-03 2.9284136407341319e-03 4.7873506060124450e-04 1.0679330068422761e-02 2.4234880858477192e-03 -6.4930289516240778e-05 -4.0308076562578041e-03 -7.1090117144934021e-03 4.3587436360697932e-04 9.3483291574892186e-03 -5.6565136090755593e-03 3.4863843339887644e-02 3.6905714313332592e-03 2.0665187496736637e-03 1.4211328160129001e-02 2.0636510392775119e-04 -2.2740076997740393e-03 1.2739460025985210e-03 3.8607848710545869e-03 7.9010334062678891e-03 2.5381200530626416e-03 2.6716179420144528e-03 -1.7588323949080650e-02 1.9475639024674526e-03 -1.0250418756284647e-03 3.6170483104228119e-03 -1.8051145008844038e-02 -2.3758976827534506e-03 1.1489833347351198e-04 6.7393864096835614e-03 -3.3104826601891700e-02 -2.1765758115604135e-03 -2.1531865247348316e-03 -8.7949811107852216e-03 9.9077526181233131e-04 2.7747942562397409e-03 -1.3500024146960779e-03 -1.6670860942401174e-03 -3.4735350458638594e-03 4.8759751315103792e-03 -5.8961244198420693e-04 2.2932344774690147e-03 -1.0012736961839124e-03 -7.9164855925111812e-04 -1.5240737035109429e-04 -6.4015651505592674e-04 -2.4161575294037453e-04 1.8306254870174526e-04 -1.4076765330807133e-03 1.0214769400463154e-03 1.9767364542742753e-04 -2.4129865512841187e-04 7.8272053610298827e-04 -2.0241917227811768e-05 4.4209107195628222e-04 -1.8161436916447105e-05 -5.9033957686302030e-04 4.0563652828338927e-04 -2.9855866232710574e-04 -4.9789054544452968e-04 1.7601067884238139e-02 -9.7235245620939589e-04 5.9263712905282514e-03 -6.7490186205006858e-04 2.3464267776765130e-03 2.1883548045569536e-03 1.0740709331429365e-03 -2.3366088357828958e-02 -1.2712508267553119e-02 -1.1675740466242732e-03 2.7532052555147399e-04 7.6207101787697292e-04 -2.1622907540790032e-04 6.8148116567431985e-03 -7.4698452944531280e-04 3.9063914785132962e-04 -9.5277378625713727e-04 6.5761094133221453e-04 9.5125427988360101e-04 -4.6687425298216900e-03 -1.0636922249674963e-02 -1.6549571617881127e-03 6.7551301909346247e-04 -4.2664476195084945e-03 -7.4025807376038467e-04 1.2648672041149778e-03 -3.9574825199963914e-03 9.9708469504587276e-03 -3.4584649064912758e-04 -2.1565903498290719e-04 -4.6565762963145033e-03 -5.2496692458038705e-04 2.0591105144526630e-03 -5.7069030691000208e-04 -8.4446885665695470e-04 -9.3544408143201240e-05 -3.7056649882262088e-03 -1.1998065673819794e-03 -3.9379350535586229e-03 3.3764457354067592e-02 -1.1483305891271884e-03 -1.3490400858537886e-05 7.1794114676804318e-03 -5.9089439415413480e-04 1.9531261144720502e-03 1.0360877624421052e-02 -1.0514006682160709e-02 -1.0565901265520451e-03 1.9418508381155398e-04 7.2444910945523976e-03 -8.5057661927258994e-04 3.3426070547704196e-03 -3.8396164875281432e-04 2.0502923282006789e-03 4.7270031403097929e-03 -8.0526068511477364e-04 1.1456457391379937e-03 -2.7143311902236497e-02 4.8849892450714007e-02 -8.2920193616795815e-03 1.0208063197585266e-02 7.1017280264591712e-02 -8.3411464159266150e-03 -3.1489921499670566e-02 1.9050653348498123e-02 -1.3013113302601235e-02 -1.2688716496224729e-02 -5.3518015471805021e-03 -1.0103199853592026e-01 -2.3532465894605084e-03 -6.3514781581551702e-03 -2.9541021571049797e-03 -6.3313803693689913e-03 -1.1542483973749750e-02 3.4760171292472974e-03 -3.7729713899104650e-03 1.0023714102117492e-01 -1.5467408952144113e-01 2.0441480429916892e-02 -8.7106616641992821e-03 3.9503929231858734e-02 -1.8610191098464554e-02 3.9866357729758356e-02 9.9453747866352887e-02 -8.8800007234029782e-02 1.1125166902589084e-02 -4.8731357431007769e-03 2.1617119606505925e-01 -4.7863417409172229e-03 5.9509248736156151e-02 4.0523006635856673e-03 -1.1841591517502859e-03 2.4379581690065849e-02 -1.8576310651844452e-02 -1.9091371074014631e-03 -1.5146793733896707e-01 
      </Row>
      <Row Index="69">
        -3.2337822691287316e-03 5.0852306215848353e-04 4.0048227572153997e-04 1.9431817449170941e-03 -1.2786630865797991e-02 1.0081700345538847e-02 2.8724681924252593e-04 2.2088533576327674e-03 4.5201983212690934e-03 -3.8386588741406344e-03 -6.7224354417329242e-03 8.8442535938495657e-04 1.4069425420782730e-02 -3.8653261024302822e-03 2.5809914777212366e-04 3.8105699983342154e-03 1.7130074957211947e-03 3.4299520900957711e-03 1.1730908567816156e-03 -9.5744945107583204e-03 -5.6847893159523571e-04 -6.9884337329506885e-03 -3.9945767999772439e-03 8.1336397771168689e-03 6.9801708841179463e-03 -6.8816506819788985e-04 -4.0771641885559221e-03 -3.7250797009946712e-04 -2.4646951434551360e-03 -7.0922626989608842e-03 2.4492004205412948e-03 2.4024596554877622e-02 -2.3270867849683845e-04 -7.9015994698497342e-04 -2.0646479261028361e-03 1.3905347947365254e-03 -5.9769354898328367e-03 2.9344453334868431e-03 -5.7586641548938375e-04 -6.8721221575485103e-04 -2.1968933597630858e-03 -1.2376260367901182e-03 2.0385473848252678e-02 1.1806362310372714e-03 1.2102420837167838e-04 -2.2764078116997016e-03 1.0123990820347928e-03 6.3861738739965368e-03 -2.1630930955572961e-03 -2.1370028643236741e-03 8.7502368611053552e-03 9.2609204274281265e-04 -4.4042191050380694e-03 1.5743095702982161e-03 1.6710284199497605e-03 -1.5414189443860734e-03 1.0370181732015996e-03 -5.1435314741559157e-03 2.4996403448611332e-03 -9.5391513537144285e-04 -4.4060100573875757e-03 1.1870256536092404e-02 2.5996621209636306e-03 3.7503495461471692e-05 2.2142036869358117e-03 1.0984030594070010e-03 1.8205088348379611e-03 9.2771979436818974e-04 -3.4452889051579398e-03 6.5656060344836648e-02 9.8002662479213520e-03 -1.5166540474182422e-03 -3.3297433629170536e-03 1.9051511672833182e-03 2.4866920202021719e-03 3.1820722714152039e-03 -2.0017757720869334e-06 1.4550280574150737e-03 1.3228180029979620e-04 -5.4933218285154568e-04 -3.4798471898608821e-03 1.8474291959074622e-03 -2.1572421138970504e-04 9.3351667686211726e-04 -6.9218239263701964e-04 -8.7299868482249021e-04 -1.6978871329485331e-04 -5.5039453614804334e-04 1.1879785758703387e-03 2.4837475615006313e-03 1.0431032996645990e-04 -7.5025325095676599e-04 -4.4840850264101927e-04 -1.2764598453190563e-03 -1.5180347210103713e-05 3.1293804544616317e-03 8.5055023128539236e-04 1.0783326111555138e-04 3.0920793019062172e-03 6.7034433506840425e-03 8.4518080207456069e-04 1.9966080327502619e-04 2.2592211625414678e-03 -7.0261019564187115e-03 -3.5408305993532329e-03 2.1012233972089200e-03 -3.4365410471177060e-04 -1.0219939704110514e-02 -2.1063358027717609e-03 -9.7352705094421940e-04 -1.1085656878285517e-03 -9.7839681739054357e-04 -1.5599448344615866e-05 -6.7421836127871796e-04 4.7321122288276948e-03 6.0204479529144808e-05 1.5540943913033879e-03 1.3036858427124135e-03 -5.4975444586973085e-04 -2.8038889689767799e-06 4.5597046605394928e-05 6.5620601639611396e-03 5.2652953986641023e-03 3.4255614230114314e-04 3.0435141746969355e-03 -1.0845315472247465e-03 -1.4566458897279040e-02 1.1929230348132443e-03 -8.5173278463377983e-04 -2.7602748059275140e-03 -8.6704104680884091e-04 -4.3585655103854006e-03 -1.2599296482999100e-03 -1.2234131263404817e-03 -2.5459460785564334e-04 3.6147042542090469e-04 1.8553153404927714e-04 -7.6458991165810836e-04 -1.3464681212331186e-04 -3.0221549688974562e-05 -1.2666920942437215e-04 4.2494832275683674e-04 -2.0740904758566759e-04 -7.1109721667186933e-05 7.0443824645945825e-05 -3.2057923481485602e-04 -7.3867720740242583e-05 8.2819880457838454e-05 7.8677780143756053e-04 4.2875517686225280e-05 -5.1118092258650054e-04 -2.8624404002452179e-04 3.8488441868475554e-03 -4.0161889211399836e-04 -1.1808025172803682e-03 2.0823145428126486e-03 -1.0641148523284024e-03 3.8790999614116911e-03 -2.4407312817034405e-04 -4.1807982720860025e-04 5.7129402697691069e-04 7.5083078099054965e-04 7.8489525711147737e-04 -1.8656572039865921e-04 -1.2216715986175039e-02 2.0016172498589805e-03 -3.8016734035596286e-04 -4.0401030217098958e-03 -5.8172425694780748e-04 -1.7909609221749326e-03 4.5910227797757680e-05 -1.2791627160936042e-02 -3.6684845997080121e-03 -1.4047655897081110e-03 -1.1821938680726970e-02 1.1360142968537048e-02 -5.0676435154999857e-03 -5.0883071416229358e-04 -1.1245152858297108e-02 9.5399685229811265e-04 4.0650046408507974e-03 -4.3699704953328831e-03 1.0235424886398913e-03 3.6436612835145085e-02 4.4935154038412877e-03 1.6166128826753529e-03 7.8369849370002465e-04 1.4879763121375250e-03 -1.5981937531361848e-03 4.4526626990756858e-03 1.1842989870600191e-03 -4.0053213265968217e-04 1.3099315820102901e-03 4.6908029525390257e-04 3.6709863836698986e-04 -7.3760378071890205e-04 -3.7770813890351286e-05 1.6994214541447578e-03 2.8017510436402771e-03 1.2876317858055914e-03 -5.1128105097505814e-05 -5.4776645626297118e-04 -2.4963845043192300e-03 2.9821766759778410e-03 -6.3759582430351815e-04 1.4124052914971596e-04 -1.0591003323598123e-03 4.7842663685659101e-04 -4.8604232749011034e-04 7.8941755661683759e-03 -3.6084023088345856e-03 4.4184898431208104e-03 -7.3760400577189220e-03 -3.7129525080843925e-03 -1.3315077465491713e-02 1.1059307819166417e-03 7.0169375395711976e-03 1.6365446730320796e-02 1.8878974988198707e-02 -1.7347382153120115e-02 1.6690725525275590e-03 2.6996083429616166e-02 2.4526697654699541e-03 2.0107673175266065e-04 7.9772443186582262e-03 2.0641459920518958e-03 2.4730785192519818e-03 1.0558345599763605e-03 4.5506722716566672e-03 -3.8201597293078121e-03 -6.6897435571497653e-03 6.1998498074243378e-03 -2.3725578380335611e-02 -4.0350201373388614e-02 -4.8339282807220718e-04 1.6755474938815448e-02 1.5465715857461045e-02 -8.9084083413461558e-03 1.3439989484010106e-02 -1.7098400341794932e-02 1.3210618114420397e-01 2.5188314732976884e-02 5.9518164856789011e-03 1.2890825619243708e-02 -3.8527223224089141e-03 1.7461081564337497e-02 2.0079645744098124e-03 -6.9908736441302549e-02 
      </Row>
      <Row Index="70">
        7.2106078464494574e-03 -1.4661192306132553e-02 -1.9657341127055153e-02 -3.1601933742530133e-02 -9.8293245868380421e-04 2.0228191606865412e-02 4.1995255548259169e-05 -6.4299670943729903e-03 -3.2563607554473253e-02 3.2082998589877135e-02 2.8958406874723362e-03 7.8400966945238893e-03 3.4714360433471623e-04 -2.6324230593217670e-02 7.9715003150065879e-04 -1.3822953410347394e-02 7.5568794643494485e-04 3.9880257125759350e-03 1.3214204358277731e-02 -3.1541363139785950e-03 9.2857795446013303e-03 1.9354965278568781e-02 9.0107750493743990e-03 -1.5242691689702048e-02 1.2591171845638949e-02 2.4498264940931540e-03 -5.2554501271015602e-03 6.2687566981534104e-02 2.2230764286823038e-02 7.5801974236228142e-04 -6.5147403991169250e-03 1.3536524224694473e-03 -1.3768968515161701e-02 7.7126458325694341e-04 1.3596844381242978e-02 2.8287150092508179e-03 -1.1098501328138388e-04 -9.5594737498257698e-03 -3.3486770238033425e-03 -2.1207908303412237e-02 2.4143661572292752e-02 -2.5592593679573117e-03 -6.1359738252940610e-02 8.1398627747267249e-03 -3.5386007787112650e-03 -4.5647598797457778e-03 2.8892467247678855e-02 -4.1543655046164613e-02 6.4368342967102421e-03 1.7945826163821593e-02 -1.0417738103239871e-02 -4.1144054985279122e-02 5.0100073426337099e-03 3.0295640521351905e-04 -8.0993626424988863e-03 6.4718396227882100e-03 -2.6963387847057763e-02 -2.0328871331411813e-02 3.4051919192269867e-02 -3.3027131099946094e-03 1.7277919807706960e-02 2.3589833259604863e-02 -9.1682242467675812e-03 1.5206374259335576e-03 -1.5529792936594955e-03 -8.6300684527500712e-02 -5.3209996708346030e-03 -1.6104731192563282e-02 1.2218941033919364e-02 9.8002662479274756e-03 2.9640908466150406e-01 6.5598469422770700e-03 -1.7742100840152930e-03 -9.0509517896192326e-03 -2.1063174342693600e-03 -2.4729006899343264e-02 -3.1518420528271404e-03 -6.6774789489821790e-03 2.1091918880482285e-03 -1.3241409352208773e-02 6.5094031465211732e-03 3.5899980994123053e-03 -5.1060758841364100e-04 -2.3010205941612627e-03 -3.0648460308641656e-02 1.3298425650516366e-02 -2.5336512147286854e-03 2.4422269213638104e-03 2.2345887074897426e-03 1.1783027773577820e-02 1.3866325235245016e-03 -1.1923292078061786e-02 -1.4627344671232425e-03 1.8761382223337385e-03 2.2703549493265232e-03 1.8918678727144062e-03 -5.9085096390693896e-03 1.5318364485199403e-03 -4.5336910593680863e-03 1.2510755357319350e-02 -1.9514986454245166e-04 -2.6863651082035638e-03 -7.7284017165637790e-03 1.2485940673707091e-01 1.7627250215109448e-02 4.3983414621120076e-03 5.6856106644799370e-03 -5.5965612809236610e-04 8.3098241183996793e-03 1.4448418151268277e-03 -4.4639404907069365e-03 1.8672838962381227e-03 -1.0321821928516183e-03 5.8580109444649024e-03 -1.4510848502721416e-02 7.0299038657963882e-03 8.2391427932852097e-03 1.6869341198003575e-02 -3.2826287730095008e-02 -4.0896970179064478e-03 1.3419392371553688e-03 5.4361143675028256e-03 -9.2538695216299802e-02 -1.0699711120181003e-02 -5.0321382923684344e-03 -4.8715285145946516e-03 -4.5766006842708857e-04 2.0494912235500512e-02 1.6578891363923940e-04 3.2847432753478146e-03 -2.6065297468074876e-04 3.4351577699449861e-03 -2.3256351301865708e-02 -1.7453926540684176e-03 5.0376589824677239e-03 -1.5202091169564948e-03 -1.0241754094350885e-03 1.9637307511169754e-03 -5.0030964641333703e-04 -2.4362547745203464e-04 5.6333455185176443e-03 -1.7058759862308048e-03 1.2474288178357829e-03 -6.0884039512674093e-04 7.8670550131005766e-04 -6.1584744044455701e-04 4.1889447262817431e-03 -1.6615066291839046e-05 -8.7996861523485510e-04 3.9295354039199702e-04 -1.2536770232502359e-04 -1.9541584539679602e-04 -6.4039113209034618e-04 9.4797014614272975e-03 4.2193729119563159e-03 -3.1468426870109797e-02 1.8814275950742566e-02 -4.7739853009181391e-03 2.4052020982894538e-03 4.0702163693500035e-03 -1.8854107551909187e-02 -8.2523343827857944e-03 -1.8154461932324496e-02 -6.1095909285210342e-03 8.0280203386030903e-03 8.9575936131707820e-02 1.8976656654885187e-03 -3.2525017597675680e-03 -5.9208763454114037e-04 -4.5570549587587699e-03 -9.3531038248147406e-03 -3.2722410459574136e-03 -5.6277524886125391e-03 -3.6945582261367280e-03 -4.7430405951319511e-03 8.2169177617632781e-03 1.1237484191337528e-03 -2.1247150276546140e-03 -3.1877895737826289e-03 2.7531944040852241e-03 8.7439393705372563e-03 1.7728777962965174e-03 -1.4370545856567385e-03 6.0851808790903343e-03 -1.3154866346252875e-02 4.4131458021595205e-04 -1.3702517039108630e-02 -2.5309153403211726e-03 2.2370471143287251e-03 6.5527075281212877e-03 -6.5645226082026364e-03 2.2045871236439207e-03 -8.2172625477057101e-03 -1.5531575819951269e-02 1.7003147995702347e-02 -4.8153123579188712e-03 -1.1850137009039139e-03 -3.1886026256127365e-03 -3.7837622837895539e-02 9.7926409283936259e-03 -1.1489660222776624e-02 -4.5782259767645616e-05 5.8990443507175461e-03 7.1647041904070355e-02 1.4306459405033153e-03 -5.5251337093330122e-03 -1.1523610871023078e-03 -3.8796281525306023e-03 1.5902138422272796e-02 1.2632540814406656e-02 -3.4807982590117047e-02 -1.9723359736206061e-02 4.1605938302044454e-02 -5.8414615831925344e-02 -3.2596955372946319e-03 3.0535652217031015e-04 1.4252971930989367e-02 -1.0106043328362871e-01 -5.9949457213452476e-02 -8.8494622627468926e-03 -2.7613327174692056e-03 -3.7854706578980025e-03 -1.7096972541037522e-02 3.9906792453874582e-05 -5.2910579377898892e-03 -6.8238730493967188e-03 1.3200822293439001e-02 1.3285669544875305e-02 2.3656408939532733e-02 7.3723265632645030e-03 5.0475253258823641e-02 -1.1365276319735461e-01 3.0778743268156855e-02 -5.6117039080607022e-02 1.0508045313704058e-03 4.2689876256193221e-03 -2.4359422762239508e-01 1.1105436603521000e-01 -1.1855278218746214e-02 9.6794685184154516e-02 1.1282030444023415e-02 7.0394790168582244e-01 -5.1239978529169644e-03 3.0495623639904258e-02 1.3556368822878806e-02 -1.0559258158432921e-02 -1.0516303056591256e-01 -2.1172395154759927e-01 
      </Row>
      <Row Index="71">
        -4.6853462813904742e-03 6.1162913379008976e-03 7.5556703019952895e-03 3.0984343321013451e-05 -5.5799765731912643e-02 -1.6079220782673105e-03 -6.9678241116283290e-05 -1.1627253510655966e-03 4.5624537561197104e-03 1.0242400819958650e-03 2.7291674568567844e-03 -6.2494720470353910e-04 1.3765001459945445e-03 -5.3711990962583243e-03 1.0653032526747978e-02 1.1581063819815964e-03 1.9287587618605625e-03 7.7774524181694477e-04 -5.8883653229879233e-03 -1.8206547795561120e-03 1.9838751525089182e-04 3.9791917393801057e-03 2.8140056666705118e-04 1.7852745468787123e-03 -1.7878901626228768e-03 -2.4522123919329610e-03 -3.1208168848276194e-03 -3.9176286790172099e-03 -6.9275610332646120e-05 1.0695589558883493e-03 -1.0781636815275775e-03 6.9536542001904329e-04 -1.2012430895354592e-03 3.9929605768114232e-02 1.2495234259062848e-03 1.4827602669957187e-02 -1.5251737496806347e-03 -3.2868297932688306e-03 -1.2957858150113511e-02 -3.9909631228092213e-03 7.4708008654849611e-03 -9.6451520324647433e-04 -2.0076351334996995e-02 1.2526343254023048e-03 5.7725976425060388e-06 4.5716987013693089e-03 -6.3521035727411024e-04 8.7331551680645825e-04 3.8980269868932327e-04 2.8279441870291203e-03 -3.6062811734388495e-03 -5.7075739031819742e-03 1.1097085299572867e-01 4.0889931714497389e-03 -2.2337692357092043e-02 -8.6842604635995347e-04 -6.6227608792080589e-03 -8.3038297483813417e-03 3.5897079967602149e-03 7.5452219077272523e-03 -4.1833373672470892e-04 -1.1140232684842481e-02 -1.5408745182557415e-04 -4.8378872562965247e-04 -1.8546367324345781e-03 -1.9318712458994497e-02 6.7361021169298069e-04 -1.4092583581368882e-03 2.4858731436426191e-03 -1.5166540474106267e-03 6.5598469422882217e-03 9.8326846367157772e-02 -8.2687732198688524e-05 -2.1078986640495866e-02 4.3369020894840592e-04 -2.5207706827466078e-03 -4.1785451992365948e-03 -2.0338796053947621e-04 1.7524902617106789e-03 1.3897568678895768e-05 -8.6583014967592208e-03 -2.1313675335731691e-04 1.1340259806586245e-03 1.0226164291776141e-03 -5.3537989392171415e-03 -7.1230212850761920e-04 1.1013674216278908e-03 -6.9136204004565977e-05 7.2805923853244562e-05 -3.4200896242646294e-04 8.1006045668757763e-03 6.8724735039349437e-04 5.8664755137502519e-03 -1.2176744169330594e-03 -2.1062230525101147e-03 -6.1064832128940125e-03 -1.1708898933140630e-04 1.9353626177272374e-03 -1.0521125771689364e-03 3.5558140210986341e-02 3.5992891459503472e-04 1.8483487275064981e-03 -1.2038800236433556e-03 1.8512431690041832e-02 2.0975901450677433e-03 -1.4853819745323793e-04 -3.6139900377819985e-04 -2.1724251536804086e-03 5.8149553992900116e-04 1.3802572650283956e-02 2.9844775396016760e-03 1.7531875908071703e-02 3.9307907874845216e-04 -1.1681110965721464e-03 3.8456153871329855e-03 1.2507070893704253e-03 -4.0994604799658892e-04 3.2106814686742912e-04 8.2659930649966601e-03 4.2678364005954922e-04 -6.0363052916819057e-05 -3.3041456056815809e-03 -1.8038487813037622e-02 -1.1299883950847008e-03 -5.5587737395741536e-04 7.3034311068292251e-06 -9.4848056778117388e-04 2.5712897238368087e-04 5.7026260738866066e-03 -4.1645165225699080e-04 -4.7018069645127277e-03 -3.2110278608185727e-03 1.9482016910731476e-03 -8.0913792677390277e-04 1.6757333876996411e-03 -6.4454287173439572e-06 -3.4486963091453387e-04 1.7336243234591113e-03 1.8186956631633888e-04 7.7910132572824427e-05 2.2189050842589603e-04 -2.0750834290262860e-03 -2.7526517304425591e-04 1.2623796538012200e-04 8.1297203333315928e-05 2.5787503416083363e-04 5.1492153604603796e-05 -4.7706555616667515e-04 -5.3348076790733854e-04 -6.1507306435111455e-04 3.3461594552349524e-04 -3.1068717807394711e-04 -2.8399223984140612e-03 -1.3076946456902561e-03 -3.0881818749310952e-03 -3.6480548778042255e-04 2.3305067988320322e-03 -4.6227583565771702e-04 1.2251630874004691e-04 3.4964225747559346e-03 -1.9396714255946496e-02 -1.6740237685321671e-03 -2.5521425257783270e-04 -1.0306585449874994e-03 -1.1539494967486514e-03 3.7453303610656841e-03 4.5079914593804784e-03 2.8279996009473638e-04 2.7896930547547157e-03 -1.8446587754907145e-03 1.1615844876385899e-03 -2.2086314237820814e-04 -3.1826022070389620e-03 1.3816252294193213e-03 -5.3071877717575594e-04 -1.5126049804856144e-03 2.1121728698492376e-04 3.5597499914960876e-04 1.3932130097159545e-03 1.1002366902997744e-02 9.0169288479553800e-04 9.1891874185939733e-05 -3.8626235690202709e-04 3.8874021909717847e-03 -2.8358137962340669e-04 -1.3527692220509768e-03 -1.1342417364060275e-04 8.8684476612542462e-04 5.1368617521655043e-04 -1.8551402823911468e-03 -5.7547534548822010e-03 2.6175843098042648e-03 3.9261753303439176e-03 -3.5797809149698111e-04 -1.4378630210243458e-02 5.3406317636315865e-04 4.6389204157492485e-05 -7.5056552095210797e-05 -1.2014283836301714e-02 -3.2162297117672929e-04 9.2664206997967449e-04 4.0626456127515519e-04 -1.1174076486757485e-03 1.0258574763686980e-03 2.0824569428347817e-02 3.9985452330114791e-04 1.0721639630066169e-02 -8.5005912462140327e-06 -5.4285167141708184e-03 1.0647830134070365e-02 5.3729750415111924e-03 2.2526156983513353e-02 2.0464664723992901e-03 -6.0861533121361208e-02 4.7449924197797699e-03 -5.5768355289527649e-03 6.3448413824237597e-03 1.8248056980723942e-02 -5.8455301171328735e-03 8.7220703386471955e-03 1.5289819155941253e-03 1.4663944898627810e-03 -1.7056006834992664e-02 6.1995002360704383e-02 -7.7085181093503874e-03 -2.6782966219328339e-02 -2.2991468952044706e-03 -1.4717193297228185e-02 -1.2858237568921627e-02 -6.9478936645009370e-03 -1.9717199414966535e-03 1.2431559598347301e-03 -4.4899090735805544e-02 6.1905837442010597e-03 1.6353935112324976e-02 -1.9926867219516330e-02 -6.4643202680345832e-02 4.5890738577697467e-03 1.4682027228704541e-03 5.3525592948893419e-03 1.1194235067461030e-02 3.0030743991739758e-02 -1.4782642299468107e-01 2.3258430452451789e-03 7.6037099169732919e-02 1.4944481569681645e-02 1.4224287379551450e-02 7.2953402956355884e-02 
      </Row>
      <Row Index="72">
        -1.1121694776981415e-02 -1.5269837599222236e-02 -1.1922430454858407e-03 2.4099930776934411e-03 -1.3043550399694782e-02 7.0093956294184495e-03 4.3505628268459412e-04 1.1130017511776946e-02 1.0816701118175544e-02 -1.2609292996578906e-02 -3.2146898321714322e-03 -1.1880166488595035e-03 3.2962825942801661e-05 9.5496109856989201e-03 9.3749165616777846e-05 -5.3665675897446044e-02 1.5333171818767382e-03 5.5111231793086857e-04 5.1726364371259062e-03 6.4628431460345054e-02 -5.5995862751694464e-03 -8.1394565292309817e-03 -6.1023159531228069e-03 5.8350342182795778e-03 5.3562460910069002e-03 1.2196046557470487e-03 5.6451832705091687e-03 1.1813346161090033e-03 -6.4218806258910452e-03 -5.0253098559602111e-03 5.1396356555403200e-03 4.6777324358175231e-04 -2.0192863573951638e-02 5.7657876204366548e-04 7.6410807364210909e-02 -3.4795626896335780e-03 1.4223862302238238e-03 -6.7456112662538925e-03 8.8223962478238757e-03 1.7655157550654943e-02 -6.2272012764452711e-04 4.4339246288374046e-03 -1.8268971166174874e-02 9.9587151570704191e-04 -1.4299255007373946e-03 -5.0397655275743747e-03 -2.5822971593743693e-02 5.7128312629153299e-03 2.0931374039462602e-03 -5.8974107955336863e-04 6.0148838003995508e-04 2.8307465029772494e-02 1.5089155899814799e-03 -9.4647915212450195e-02 -6.3194357496708653e-03 -6.1483739644254930e-03 2.5813572034610460e-03 1.0712447017779958e-02 -3.2359718350631464e-02 -1.2118796400336640e-03 4.5293330959781802e-03 1.7310093813571320e-02 2.1182755917582563e-03 5.2868399924754783e-04 1.9822354180010437e-02 -2.1075728870251553e-02 8.9385407309952591e-04 1.0071152031704556e-03 1.2292330800334830e-03 -3.3297433628863013e-03 -1.7742100839714487e-03 -8.2687732193442720e-05 2.0685138279571014e-01 -5.0301939325572351e-03 2.7583873117624641e-03 -6.5528633111189283e-04 3.0646514315502411e-03 -2.9231799341109897e-03 1.6552373773435873e-03 -6.7531534368775710e-03 2.1000041185140332e-03 1.5820671863969796e-03 9.1072766850161058e-04 5.8572574207184092e-03 -3.4726549757311265e-03 -1.1540428712198403e-03 -5.5361891326298799e-04 7.0174280365554813e-04 -5.7516173037652578e-04 -5.4275432747763223e-03 1.9781026575515815e-06 1.0588741064759606e-02 -1.1297662212796898e-03 -8.3421172307476419e-04 -1.2425422992023019e-03 -3.5097987135272193e-03 -9.9476166304241047e-03 -2.4337718987819733e-03 -3.6852012607177988e-03 -8.6934227159888439e-03 -2.1399077663907364e-04 2.8531011713494739e-03 -9.0261276627624787e-05 -1.3940593353673788e-02 -3.6945971242109865e-03 -2.5780947008751135e-04 2.7970291726100703e-03 -7.2963922422805520e-04 -6.5853655399695128e-03 -4.7280219189341937e-04 1.6441379045851103e-02 2.6410547570444864e-05 7.3635597068027515e-05 -1.0186277108695861e-03 3.6863661564695886e-02 -3.7949712538600314e-04 4.6395688955214783e-05 5.8706791801826303e-03 7.7706597752067027e-03 -8.7095283689449308e-04 2.4008477531167077e-04 8.9443835964666471e-03 -3.9449730143861338e-03 1.2642009771367958e-03 6.4753553862563506e-04 -1.4125187042621340e-03 -2.2260679191936938e-03 2.2216414088990002e-04 -1.1062159255174268e-04 2.5585239417277403e-02 -1.9850999160410322e-03 -7.7116482738204227e-03 -3.3591054844303602e-03 3.1430215490850831e-03 -8.8890522163974958e-04 -1.5805182952736486e-03 2.8919358260039917e-04 2.2069371605712776e-03 -2.3324196637609685e-04 1.6808779045446776e-04 -3.2513272030986638e-03 2.1381304245353424e-03 -1.3412521157903545e-04 -3.9709549132956672e-05 3.1535644310173741e-04 8.5259774659039202e-04 -2.2730997562111767e-04 2.7795653332618627e-04 -3.8193023829199415e-05 -1.0331422344686059e-05 2.8736097326368087e-04 -5.7006694550155448e-04 6.2615598947803400e-04 -1.0155403075892713e-02 -9.4654008058468846e-03 -1.8977436184529774e-02 1.5926172995761455e-02 2.9749891199776007e-04 -4.7758589051753514e-04 -3.4343242641285722e-03 8.2621067356228838e-04 1.0759716940229796e-02 -3.8478686879426321e-03 4.2235893165251132e-03 7.3944831954105440e-04 -2.1465192173372404e-02 1.8311249637074289e-03 7.4955577668333023e-02 8.0378708085756948e-04 6.4242683370272511e-03 -3.1573820379504677e-03 6.2117294337925566e-03 -1.2096441197467778e-04 3.1659700369935859e-03 -2.8980387704982090e-03 3.8950988630080362e-03 -1.4066161875825323e-06 7.0248700584442728e-04 1.4214258417869496e-03 1.2172139059592295e-03 6.6987195504837616e-04 9.9722947652622611e-04 1.1785995552179990e-03 1.6864977921848424e-03 -3.9860152409953234e-03 -3.4311818127672335e-04 7.8014828028780681e-03 -7.3166441531284155e-04 -4.4326057472815158e-04 -1.5893686224396075e-03 8.8657373686768307e-04 -2.3075541959241804e-03 -1.4401880569967006e-04 3.6099431397855781e-03 -3.6492426364458713e-03 5.5426854048102619e-06 -4.3433251442182345e-05 6.0672216850750074e-03 8.5116527488317002e-04 4.1310657542127817e-04 1.2318027540391893e-03 -2.1219425068199627e-03 6.3107164290324158e-04 7.9770339672841327e-03 1.4470108964433114e-05 -9.2611936855380925e-03 2.7412879540403405e-03 3.2302640734089790e-04 2.5397650849120299e-03 -7.6376543008485717e-02 6.6240883115642690e-02 1.1093663419488496e-02 8.0915576931647887e-02 -8.3858929823403122e-03 -1.8931834294852699e-03 -1.1298476739998783e-02 1.8670328301748172e-03 -1.1425399914497838e-02 -2.6103051995263627e-03 4.9785553339775860e-03 -2.6740096077426480e-02 -2.1815812514708460e-03 1.3370809724695226e-01 -3.4879920159386979e-03 -8.8303877217600774e-02 9.7828489190266744e-03 -2.6908252611846688e-02 2.6324199048981738e-02 -1.5787663595212409e-01 4.5370951326939593e-02 -5.9589265082215480e-03 -3.6433374193822719e-02 7.6439379265120615e-03 -2.4789190695293038e-02 3.0021951664100151e-03 1.5112161658917184e-02 1.0799801288431207e-02 -3.5950041458992305e-02 1.3629257323534798e-02 2.4868337617898049e-02 8.1850517392623827e-03 -1.2201913724481026e-02 -7.8022379501978820e-04 -2.6981014727438590e-01 5.6153379227534828e-03 1.9430192117472756e-02 -9.2904620698781321e-03 1.8711006449077319e-01 
      </Row>
      <Row Index="73">
        -6.4712834020182056e-04 7.1848395372964835e-03 4.0649313938697154e-04 2.0506482839394349e-03 1.4266573881686485e-02 8.8814989580697154e-04 3.4594526468649349e-04 1.0254730005365774e-02 -9.7937688392554234e-03 -1.0251812781869462e-02 -4.5935446383922563e-04 -1.8458423688152582e-03 2.5426086083821515e-03 -1.6876892411913774e-03 -3.0794285006245951e-04 1.7274339415058737e-03 4.4225402857754354e-03 -1.0866462808447747e-03 -1.4572855562603022e-02 -6.2600120513052505e-03 -4.5807798076760407e-03 -3.6440358420448266e-03 4.7237056614893216e-04 5.6336566135009730e-03 4.1491185973271342e-05 1.0010966991589026e-03 -5.9646838509883407e-03 -3.7403488691335612e-03 -2.5856562837126562e-03 -3.3199374051899582e-03 2.9304542294297242e-03 1.7584463937447582e-03 5.9780634781448879e-04 -4.7341227416934969e-03 4.6977781630224980e-03 -1.3426221098408304e-02 4.5000667757117505e-03 1.1066343778544648e-02 -1.4058347912352505e-02 -3.1157347458382889e-03 7.0793214372040225e-03 5.3869649223386093e-03 -9.5035867974069127e-03 1.5295212229021402e-03 6.5430976257280921e-04 -8.2350620246414673e-03 -4.3739003160113379e-02 1.4702187826516420e-02 4.8133391358356689e-03 1.7469777129611175e-03 -1.0887893851409675e-03 -1.5057464720975508e-04 -1.7083641156743334e-02 -9.7472057485052943e-03 1.1452551292331985e-01 3.6533739506699704e-03 7.1942036715891122e-03 1.0420270323910907e-03 3.8084735221147461e-03 -2.5219971946188295e-03 2.8212844599568090e-04 -2.4030515750900046e-02 -6.0379705254879137e-04 1.3313211815036557e-03 8.7493440340017381e-03 -2.8682431966678620e-03 5.4244451218012288e-03 1.8537360990991698e-03 -4.6903557071827882e-03 1.9051511672910811e-03 -9.0509517896645054e-03 -2.1078986640499217e-02 -5.0301939325301664e-03 1.0760491614321199e-01 7.2425334428964389e-04 1.5414253251138221e-02 3.1385535985750598e-03 -1.9206098245976289e-03 -2.0999850124652142e-03 1.8231486150569387e-04 1.0559943944582137e-03 -2.5516328016350880e-04 -1.1329432887424412e-03 -1.5360620650948092e-03 8.8984681506256158e-03 -1.1594143976650026e-03 -1.0788456396692736e-03 -2.4862953437737329e-03 6.3115602820985818e-04 -1.0829373317018894e-03 -7.0071234813671350e-04 -1.6406198306701788e-03 -9.0284407426939866e-03 -1.8326984452595244e-04 1.1184271673549179e-03 9.4332793572574365e-03 1.3070205511337904e-04 -1.5153797862497986e-03 -1.5489103530074509e-03 -1.4324837066855419e-02 -1.5629734356767586e-03 -2.5833793486821311e-03 2.2572038491420338e-04 -2.9479169046159465e-03 -4.9360648709189953e-03 -3.5726465296183189e-03 -4.6678007196450967e-03 3.9226837110138116e-04 1.6907288014190575e-03 -1.1231326777741046e-03 1.8049937859593787e-03 -3.2678685210174821e-02 8.7219767658727591e-04 4.8470646568744700e-04 -5.4186754720120609e-03 9.2098477043127359e-04 -2.4059015762565804e-03 -8.8903648260845380e-05 3.1344713159034551e-03 -4.7628240133007840e-04 1.2918541616543967e-03 -2.3636813759393346e-04 8.4776323542431337e-03 7.3695206967717202e-03 1.1676494115114638e-04 3.1141190852332656e-03 -1.5834272882589043e-03 -1.1258087549460643e-04 -2.1620830241522275e-03 -4.5505184925677400e-03 1.0412467591021664e-02 3.9848513948810976e-03 1.7903442916088464e-02 -2.6926558763798285e-05 1.1936663531168731e-03 -3.3953652857068590e-04 4.9159997110429215e-04 -1.4487197262938430e-03 -1.9831228649431628e-04 7.1841108015674861e-05 1.0611755331269655e-03 6.5202959735136709e-04 -3.0709083058328790e-05 -4.3722348812745099e-06 1.4364738406020077e-04 -6.3106811000146110e-04 -1.1086824438457976e-04 7.9588133013324257e-05 -2.8242608717861237e-04 6.5080729529443874e-04 -3.0898500470893757e-04 -9.2435567856049270e-05 2.3435079777188272e-03 3.0026516035228943e-03 -7.6863409853937048e-04 1.8234980811924159e-03 -3.8543245759135817e-03 -3.7852011183524411e-04 -8.4902814384666292e-04 -2.5571787966644933e-03 8.5472010983226026e-03 6.6873526958430435e-03 1.1508533589636889e-04 7.2127081750853221e-04 -1.2629114848316104e-03 -1.7131654424435310e-03 -1.0163163060419593e-03 -2.2137950604689174e-04 -5.0975123019337898e-03 6.6310578058406157e-04 1.0753396718846673e-02 1.3032563209142145e-04 -2.2011409902836301e-03 -1.8419490574329844e-04 -3.9771625875534376e-04 3.8130974019349216e-03 2.9548377829400306e-04 -2.1837494032205668e-04 -2.8914281803290032e-03 2.4709372815463568e-03 -3.1925928443704709e-03 -2.0463172308558559e-05 -3.8759308035237264e-04 2.9344640594101638e-03 3.8449935449400181e-04 2.2445331874350034e-04 6.2858547013375232e-04 -3.5965023278514926e-03 -8.1063179924803378e-04 -3.7559590488964231e-03 -1.2955974423627982e-03 1.9459872573228659e-03 -4.9524713315071377e-03 -2.1266305296874129e-03 -1.0783726240232855e-03 -1.2038900126565399e-03 -1.2387512006622713e-03 2.2603455408553245e-03 1.7536772086588989e-03 7.2311522409165916e-04 -9.1079123992751393e-04 -3.0106163126376222e-03 1.7719920345969241e-04 -4.7327484117748314e-03 -1.5557307904875538e-03 -2.4209764856120263e-03 -1.4396413495834899e-02 -2.3045443931753234e-03 -6.1719157334794075e-03 5.6648858469256561e-03 -5.4216944715563490e-03 1.3424169659030346e-03 -2.2516863895426318e-03 3.3821014161351137e-02 8.7196192100704481e-05 1.0815646400230652e-02 -1.1510832955070703e-02 -2.7448062322326473e-02 3.3655036050686725e-02 4.5423941011652471e-03 6.4484842817605307e-03 -1.2896960644175354e-03 -1.3732275895074759e-02 -8.7141267583953387e-03 1.0673905828365166e-03 1.0716084773197526e-01 -3.2590492846354389e-03 -2.4168729779696960e-02 1.2319186814919295e-02 -1.6106739653524570e-02 4.5912100947717903e-03 1.3860103808911995e-02 2.4749142271154406e-02 4.3207156960665787e-05 -5.8657704581646722e-03 2.4819829904996243e-02 2.7353175631733520e-02 -3.0318158362691590e-02 1.4472502668489090e-03 -3.0349859075664936e-02 9.4309789924934898e-03 -3.4408644506449995e-02 1.8188681412261001e-02 -6.8439478078143219e-04 -1.3726786624597009e-01 -1.3244281791554246e-02 7.0295216313826334e-02 2.9463872683464839e-02 
      </Row>
      <Row Index="74">
        -4.6343515781019917e-03 -1.7653504330166436e-02 -6.5111150532382589e-03 -2.0029936133713201e-03 1.0251115640422566e-02 3.1537751502265024e-03 -4.0857700998694901e-04 7.6882347905800619e-03 -5.8213749629911857e-03 -6.1089262362076756e-03 -3.1192358657232515e-03 -4.7059434990523517e-04 1.1467306353983885e-03 7.2580486908899889e-03 4.9537635625278645e-04 -3.9855068480077471e-03 -4.5725133246965163e-04 1.5571258513995354e-02 3.8624089550794451e-03 -6.0739630009841207e-03 1.3900352885596483e-02 6.0216718647895517e-03 -8.0089751303589196e-03 -6.6076188091327981e-03 7.4512238493406463e-04 -9.2669329710953188e-04 -2.6072190193939943e-03 -3.0274636792443355e-04 -5.4575923229764414e-03 -6.1217751984459917e-03 -2.2814542143575894e-03 1.8132527271807154e-03 -1.0035545248162706e-03 6.2531062138055336e-04 2.6871476866381361e-03 -6.6443435345462645e-04 -1.4400378561744843e-02 -4.3519024634390557e-05 -8.0488090469402439e-03 -3.4784911117109463e-03 9.6667400736017983e-03 6.7761206359959192e-04 -3.1206334070659175e-02 1.4013731851825403e-03 1.0891347723419320e-03 -3.1065209320245146e-03 -7.8369717903274821e-03 2.7632561342519346e-04 9.8838994500699551e-04 6.6891199501713239e-03 -1.3008718468885266e-03 2.2528138993073224e-03 -5.4754223220795234e-04 -6.0429726966442924e-03 3.8768223859966811e-03 6.7058637730471127e-03 -1.4570962510335201e-02 1.8101131479455468e-03 -1.9775318138844884e-02 3.7370938177430299e-03 5.6555789888888403e-03 -1.5234339287303774e-02 8.8632496122190846e-04 -4.0331615857885916e-04 2.8508424281362688e-03 -2.2012345644838838e-02 -6.7541839209228627e-04 3.5933701397718627e-03 9.7242641663346022e-03 2.4866920201953892e-03 -2.1063174342918546e-03 4.3369020895464572e-04 2.7583873117570656e-03 7.2425334429323737e-04 5.4343856848123206e-02 -1.8769657208809923e-02 3.0758173840276654e-03 1.6580295995624740e-03 2.0003520261573215e-03 -3.2701383965498027e-03 8.2918265840891490e-03 3.6260148312337496e-04 1.3092718127997835e-03 5.9873297224913302e-04 -6.8000813896091084e-03 -2.7657503741598810e-04 -3.9503506714618365e-04 7.2234443943505885e-04 5.6907357991687365e-04 7.8846538605601975e-04 2.4416364968777275e-04 1.7534791058963881e-04 1.7473387034007648e-04 -4.7408379713401077e-03 1.7972839955580390e-03 8.5060374720084507e-03 -4.3585368790975288e-03 2.5358192735350335e-04 1.3067471411252411e-04 -8.0426285518518017e-03 2.1831122996839248e-04 5.1184392234429757e-03 -1.5217287984577391e-03 -9.9900284290897392e-03 -1.3372281807029960e-03 8.3873444098673503e-04 2.2062257208197121e-03 -5.4348050406302054e-04 5.9380378164035255e-04 8.3607370685736127e-04 4.6112167510783692e-04 -7.7582653447850342e-04 1.4268489200221007e-03 2.6732398317508622e-03 3.5544428101268542e-03 7.7060368439785939e-03 2.3953076400623427e-03 -9.3988507045658348e-03 7.0008878498233236e-03 -6.0463982297495568e-04 -1.7947515972339674e-03 3.0299574186954965e-03 -1.2294178500663732e-02 2.4652497127926505e-04 -1.3388755834159724e-03 7.7899960935826464e-04 1.7012306686265681e-03 4.0196464871403246e-05 1.0862870914660405e-03 -4.9327936635922658e-03 3.1279992575570376e-04 -2.2767786527546924e-02 -7.3458871200595488e-03 1.1277673878461573e-03 -6.7343877274520902e-04 -6.8299102700676931e-04 -2.4004063796944608e-04 1.4384744568646016e-03 -1.2471590206784576e-04 -9.7261868603236445e-05 -8.4723748323266789e-04 -6.6831422969468616e-04 5.5597983026156616e-04 -1.9862861907598542e-04 9.4411131022204941e-06 -3.9823395447292193e-04 6.5014963353712904e-06 2.2408299937858218e-04 -4.8985110379193406e-04 6.1907261818556990e-05 -5.6017285707215701e-05 -1.2259998149406726e-04 1.1179526239511139e-02 5.9061061771547799e-03 2.9563179917208330e-03 1.4033470281232820e-03 -3.7289783542183087e-03 1.3284719595077646e-03 -1.9625713856284894e-04 -3.0858917563380090e-03 -1.6811244536372224e-04 1.4049142752896508e-03 1.5586947325622321e-04 7.5706444800811715e-04 -7.4869405821887715e-04 -3.4865074695015139e-03 -1.2912957531628045e-04 5.8552313756307286e-03 3.5206949840493136e-04 -1.3232542769239968e-03 -3.0615942156720336e-03 -1.3818060643028124e-03 1.5514530023692831e-03 -1.2051865053466226e-03 1.2744614089491911e-03 -1.2300718629751975e-03 -2.7027343058781065e-04 8.5449197945507149e-04 -2.8529891055543155e-03 3.3968580469045488e-03 -3.8569274663562830e-04 1.1997117189829088e-03 -1.5765732294076087e-03 2.0436249559279305e-03 -8.9582817816057439e-06 -2.7984357242191271e-04 9.0350403643232879e-04 7.1005263011346713e-05 -1.0389154891051714e-04 2.6797295888731400e-03 -3.6397710731254276e-03 -8.3350401144459858e-03 -2.3563593616583809e-03 -2.9423918848629532e-04 1.6537822084114295e-03 3.8921787635287143e-04 7.5996604659558898e-04 2.6684658263362807e-03 -2.5905322049484883e-03 3.4221055430855955e-03 -9.7343808333370162e-05 1.2995938543561318e-03 -9.1240045082074223e-04 -5.3628319122509135e-04 -6.3017931525869743e-05 3.1480265689031936e-04 4.6704188049736546e-04 4.1103557356388628e-03 4.5119564937987928e-03 -2.2847595593540191e-02 2.5191577168931362e-03 -2.0434531734311537e-03 -9.6177352243181392e-03 2.8140442357270094e-02 -2.3838713558405411e-03 -1.8973641662152502e-02 1.0449339126999559e-02 -2.6005629425489424e-02 9.0346499919131667e-03 -7.2729732201762282e-03 -1.1265512592818015e-02 1.9152087888263817e-03 1.8098113479938161e-02 -6.3874133076057514e-04 -1.0944099982524848e-02 2.9146640561845743e-04 -4.2579119682090421e-03 8.3635307205563606e-04 4.0754352794727736e-02 2.3277492838676472e-02 1.3607844962170662e-02 -7.1076420281708883e-03 2.8826257387231040e-02 -1.0791628610199631e-02 1.9508197446864058e-02 1.2347509425681347e-02 6.8223540507257856e-03 -1.7236781349511378e-02 1.9132527426303919e-02 3.6616822247860323e-02 7.0713806411469293e-03 -1.5109772266576418e-02 6.5269149796549474e-05 -8.9765544349983857e-03 -5.6784383425655931e-03 7.9360677585821063e-02 -4.6456380180020136e-02 -6.9048696460571865e-02 
      </Row>
      <Row Index="75">
        -4.4594511970090225e-03 2.8292645978106323e-03 7.4316766301739667e-03 -4.5648957431345836e-03 7.2540284610753167e-02 8.1554035391616930e-03 4.7008229272786639e-04 -5.1054118454664787e-03 -1.4311283812546479e-02 2.1761001856771951e-02 -9.8119991814459018e-03 2.8973231989015830e-03 1.2178918960998053e-03 4.5310572338157131e-04 -2.1290884073601191e-03 4.9796236441910779e-03 4.2409535586863840e-03 -9.6409805300553264e-03 -5.6029322069941073e-02 -8.5550110170177218e-03 -1.8378669070090448e-03 1.5345648068012530e-03 -3.6096244166760813e-03 -3.0120480420865237e-02 4.3658495353717363e-03 6.2769644118422030e-04 5.3750622509268764e-04 1.3114118927045837e-02 2.5022076211566255e-02 -1.0846006549953602e-02 -1.8396068409923805e-03 2.1741233868386623e-03 8.3193808057716381e-03 -1.4592744248877187e-04 -2.2131091431143446e-04 -4.0077253288293398e-03 2.1903619354794651e-02 3.3413437165123544e-02 -1.2989959503664494e-03 2.4984770587588301e-03 3.8810464939249556e-03 -8.3461016516422903e-03 -8.8190465466800760e-02 8.3460784301045421e-04 1.7842802321718920e-03 -2.2280519026028622e-03 -1.5139725076161847e-02 -9.2402679215386474e-03 -4.5753295848424136e-03 -1.2941245784006683e-04 2.2410991105028255e-03 6.0593549644593625e-03 -2.5985355286227141e-03 -2.6737926699917092e-04 1.5186601456847582e-02 -9.9187002730878309e-03 9.0235424809119807e-02 1.8271254838260198e-03 2.1079684155687773e-03 -6.1015625236552351e-03 6.1080048542225263e-04 -8.4036236707096174e-02 -1.1764733665684535e-03 2.3001250753308389e-03 -4.0072425693451486e-03 -1.0912808387231188e-02 -3.7500664122241401e-03 -3.1909995725988155e-03 9.9044378284147971e-04 3.1820722714005489e-03 -2.4729006899478680e-02 -2.5207706827743426e-03 -6.5528633106270995e-04 1.5414253251160553e-02 -1.8769657208828630e-02 1.4335195584728480e-01 8.3328662462707481e-04 1.2485913602401782e-03 4.3825387095320807e-03 -2.3979347734524696e-03 2.3211876695044716e-02 2.6529319898493846e-03 2.0365016560545497e-03 2.0869104663081561e-03 -1.5196929361232847e-02 5.2720931408870575e-03 1.3581166656609269e-04 4.8379348141138010e-04 -4.3176147047824156e-04 -2.4103307977673327e-04 -1.3304438704027917e-03 -1.5349335208220197e-03 -1.6668958020222072e-04 5.6527669103928367e-03 3.0686311601798169e-03 -1.7923452983701679e-03 8.6118300459649827e-04 3.5046670124928734e-03 3.5393127257303827e-03 -1.0854122929874808e-01 1.2083209087348232e-04 3.1063921020120211e-03 -4.3850070589405016e-03 9.9827378103413342e-03 4.0910135887614928e-03 3.2523427811884278e-03 1.5191813739586287e-03 -1.6835425994294242e-03 9.7631638672663126e-04 -2.0910575612272109e-05 2.4682952758730932e-03 -5.1674649018822461e-03 7.0577320367004393e-03 -2.0417583646814421e-02 4.1528108540901040e-03 2.7423042345153317e-03 -1.4233849471281224e-02 -1.4002815512163414e-03 5.2357108161729234e-02 -4.2844851238374292e-03 1.4026908992760380e-03 1.3864190383358899e-03 5.2173337521313271e-03 1.0176451723064426e-02 -5.1952599635867796e-03 -4.2484206859452461e-03 9.7067030944123465e-04 2.4011272602734394e-04 -8.3417340160792629e-04 -5.3796786657758135e-03 5.3466709547002745e-04 1.9388017233975978e-02 9.5100469900259887e-02 9.9283972058477167e-04 -4.8519179878351779e-04 9.0540179426480769e-04 2.8258793111089292e-04 -1.8348035462754627e-03 1.8967342885412822e-05 -6.7484613846071392e-05 -2.7433549569948895e-04 -1.0285199148006552e-03 -9.4254549779484477e-04 2.9416786695389622e-04 1.8244955775210644e-04 -1.7916708068519812e-04 1.6792210324459141e-04 -1.0861165542339134e-04 6.3283516464964775e-04 5.4945639778821668e-04 -2.3735076120121252e-04 -1.6243637822881654e-03 1.2118366169790635e-02 -2.4101872344033737e-03 -1.4688377524640995e-03 -3.6547789877269567e-03 1.2157908639757103e-02 1.2870919807486730e-03 1.6185134504767846e-03 1.1332138195170594e-04 -1.1014677277635297e-02 -9.0828602354956975e-03 -3.2522429992231563e-03 -1.0105782462549219e-03 -1.1881164625644493e-03 -7.5654447052619271e-03 -5.4140109593726633e-04 -5.9929496218380212e-03 -1.8222229257665295e-03 -4.8213511198912642e-03 4.1924963853098768e-02 5.3495566511946313e-04 -1.9227297621311409e-04 2.2328524697497465e-03 2.5529418052732712e-04 4.4762463832191332e-03 4.4541985161883173e-04 -5.5917481039816433e-05 1.3425980595474507e-03 -1.7586473486834592e-03 -1.2938579508537098e-03 3.7533083538648275e-03 6.2748674746861133e-04 -2.0952719225918980e-03 5.1579029833568983e-04 2.4253574303210708e-04 5.8788101095286205e-04 1.8654279158416475e-03 -3.7398842868384382e-03 -1.8683747480056967e-02 -3.1549919900375686e-03 3.5438774601355763e-03 3.4239385962893994e-03 5.7974459519507448e-03 -3.6988020545984046e-02 2.2173708962189621e-03 3.2883327034049153e-04 1.1544746211177221e-03 -1.3157487685218029e-02 -2.1437919096526283e-02 6.8060478994786920e-03 2.3730127178590195e-03 -3.0673228132250558e-03 -9.5274274337977076e-03 -7.2305272938828530e-04 1.3915923053239802e-03 -2.9628982414230780e-03 3.2851100940270847e-03 -4.6708802449004168e-02 -1.5144098537432177e-02 1.4693541761284176e-02 -1.9475880850021877e-03 6.1877400713021930e-03 1.1192201652099937e-01 -7.3672029780024878e-03 -1.2917792871009326e-02 1.4088148036330113e-02 -1.4825584118187657e-02 -5.1574892561175333e-02 -1.4260758598665817e-02 3.2790003726459807e-03 -1.2353240516840120e-03 -1.5293094855484694e-02 -3.3916803582110366e-03 6.0002866866165627e-03 2.3343499932726774e-02 2.0307041670387421e-02 -3.2575106021002345e-02 3.3129456559776546e-02 -1.3137715100198386e-02 2.1464918636338797e-02 -1.6712526454527209e-02 1.8499789235028105e-01 -2.6056420136492141e-02 1.4086123609290516e-02 -2.2038571204089086e-03 -5.8625752174511991e-02 8.1583416849731666e-02 5.9012700736890605e-02 2.2061455787499629e-02 -2.9608667222547590e-03 -5.8797071458088046e-02 5.4912386469024160e-03 1.9359759359965903e-03 -2.5237658137592801e-02 -9.8818230274906965e-02 3.8155044280503397e-01 -2.6270757607919754e-01 
      </Row>
      <Row Index="76">
        7.8272569143757274e-04 3.0142851333070375e-04 4.5007618396109006e-04 -1.1015075400454643e-03 1.1755721137166244e-02 2.3852783205240910e-03 1.4004283018980088e-03 -1.2829817494617146e-02 2.7299984133086746e-03 -1.4047549144774831e-03 -4.7266811025242009e-03 -2.7932826503766859e-04 -1.3773776349553027e-03 -2.0779741012382160e-03 -1.7021668552782802e-04 -8.8479899364858616e-04 -1.6143323189325739e-04 2.2940252675150707e-03 -3.7269015006102612e-04 1.4203204234804950e-02 5.7807942818774438e-04 5.6593047215883208e-03 -2.4582554367353973e-03 7.0939807358743057e-03 2.5355928360958871e-03 4.3753100739223356e-03 1.3293397034054300e-03 8.8953633363170193e-03 -1.4204504043632965e-03 -2.5691444604133279e-03 1.0584244145415422e-03 -1.3935685893676198e-03 -1.1138858869429013e-03 -1.4906982804570729e-03 1.6427196556908052e-02 -2.5570983947709415e-03 -2.2520400320093226e-03 4.8817108616565352e-04 1.7957073758371335e-02 -6.6507803790749609e-04 5.3851854451588688e-03 -3.2347036950788055e-03 -1.0868188936385970e-04 2.8974941881945715e-03 3.4090760598994019e-03 9.5866573036065689e-03 1.0224553621748622e-02 -1.0836006223471778e-03 1.4490958066305237e-03 -8.2000470815855875e-04 -1.4183521553758627e-03 -1.4376735927116996e-03 -4.4629727374990852e-03 -4.2861228952210499e-03 5.4384918884531341e-03 1.7117830936404605e-03 1.7209102626533426e-03 1.8979379177570865e-02 -4.5590983742734457e-03 -1.3818695335675174e-03 6.1818596344279109e-04 -6.5440722502928123e-03 8.2701705307737516e-04 4.2740746651614980e-04 -1.0378716444990332e-02 2.0997588240668746e-02 2.9916300044798005e-04 9.0847341688808647e-04 -1.4179309841139617e-03 -2.0017757550033766e-06 -3.1518420528251039e-03 -4.1785451992349398e-03 3.0646514315552931e-03 3.1385535985646272e-03 3.0758173840346840e-03 8.3328662458909131e-04 8.0282882346272816e-02 -6.6224484768366183e-03 -1.0774940315859127e-02 7.4271683478645493e-03 -8.5431551195676164e-03 -3.1314950150354184e-03 -3.9707082327610560e-03 -2.1902105888202406e-02 2.8035769068267657e-02 3.3978936362607515e-03 -3.0288762670063031e-03 -2.1108116337376034e-03 8.3870575451322656e-03 5.9424342887734504e-03 1.1697147478862964e-03 -1.7209289601732056e-02 1.5407525226812488e-03 5.5663292165468335e-03 -5.4457293238822776e-03 4.0722491024133339e-03 1.3729893121410622e-03 -1.7171354111418400e-03 2.8132085478593883e-03 -8.1703362624448821e-03 -1.0692308716421569e-03 -1.3013531600976113e-02 -3.5973168990616720e-04 1.3206228759376357e-02 9.1811674353636688e-04 -2.6761790150249239e-04 5.7029457917923089e-04 -3.0225170477165034e-05 2.0832322927193824e-04 -9.9486535822488936e-04 -1.2303506246596242e-03 -1.1168335235488963e-03 -4.7510542262703046e-04 -6.0141547536267641e-04 1.1412749888507774e-02 1.0052253212297353e-03 2.4591087906044523e-03 -2.8916088230048573e-03 4.3714367334710636e-03 1.3078259648652345e-03 3.2763946520191953e-03 8.9691187760411809e-04 4.7764596920232905e-03 -5.9363410698958126e-04 2.1591186895207359e-03 5.9665627886929494e-04 -2.4573189208309514e-03 -3.6182991387924239e-04 2.3996980863213546e-04 6.1901634290295743e-03 -4.2579844332725990e-04 -5.5545594209756334e-03 1.3494130548916566e-03 1.6553181899311873e-03 -1.0848272254809666e-03 -1.0471912979242489e-03 6.9618990178198833e-04 1.5730762835282786e-03 2.5841196739516224e-04 5.6697109831327494e-05 -1.1511802757762188e-03 6.9271498233829066e-04 7.3781478826391946e-04 2.7029142859075574e-04 -1.8833466476420111e-04 1.4084842913154893e-04 1.6366362184392673e-04 1.7181360628365895e-04 -3.3097464905902597e-04 -3.6712417519037862e-04 1.3947395517058180e-04 -9.9518199472292733e-05 -6.3776953597044269e-03 -2.7158302259793219e-03 1.7028520513020706e-03 2.9194564932552079e-03 -4.1701677389212365e-03 7.5366224016071856e-05 -4.0216692772012553e-03 7.8993572227976667e-03 -5.1138704325652366e-03 -1.5243398909432335e-03 -1.6915483752239758e-03 3.1202930151743598e-04 7.4731347440992768e-04 2.3125209574939394e-03 -9.1595326600699654e-04 5.6549842131206202e-03 9.9050790608020377e-04 -1.1683061594647270e-03 1.2357271175557193e-03 3.0719982962049142e-03 1.6919287520469374e-04 -1.8914433294875315e-03 6.3941060017653085e-04 -4.1171946394205419e-03 -1.0537766461904885e-04 -9.7361929735372693e-04 2.2422344478577882e-03 2.3769882097632276e-03 1.4112327387075067e-03 1.1364873854080376e-03 -5.2946061594630334e-05 1.0659682554104780e-03 -2.0854727934069197e-05 -4.5311912916416562e-05 -2.3753264802806040e-04 -1.3172588002810526e-04 5.6748220808604363e-04 -6.1609546055095554e-04 3.4734310307718650e-03 6.4714403521113663e-04 5.6732403023559226e-05 3.2169793244135906e-04 2.7132658912132346e-05 -2.4355790007376979e-04 -1.4046327209343266e-03 -6.6736123477942619e-03 2.0496250271338757e-03 -7.7575936684654283e-04 5.3574582552209601e-04 1.0026094664195869e-04 -2.8929757554679500e-04 -5.7815942478286434e-04 -6.7773669071579225e-04 -2.9234219015488666e-03 -2.2842514491031598e-03 6.8702480190519291e-04 -5.3414260893779194e-04 -5.7867455443659656e-02 1.0066425793470828e-02 8.5766406506177471e-03 -1.7733838359284444e-02 3.2205191333572109e-02 4.8462367937380565e-03 5.1975708808369672e-02 3.8170321051073895e-03 3.6278468204385649e-03 -1.5090035317075162e-03 6.5695027990896222e-04 2.2418856685518102e-04 -1.0112797033428366e-02 -7.3137174209804735e-03 -2.8343090342917683e-04 -2.8439735991252560e-03 -2.9381883595352484e-03 -3.5222417423851201e-03 2.2390932645402367e-03 -6.3628877889898419e-02 5.4566787023829222e-03 1.0451079743628591e-02 4.2414908335509059e-04 5.5420158902497359e-03 -1.0502381840806357e-02 -5.6856316132643810e-02 -3.9494261957793556e-02 -3.7555760676093418e-03 2.6664903090677346e-03 2.7134281582429500e-02 -2.9695280031651217e-03 2.6505412445460546e-03 8.8018362995900996e-04 8.1803762852979377e-03 -2.9993898998193661e-02 -1.1801211264305734e-02 1.2596758778094515e-02 3.4646517274003127e-03 1.1277401213858865e-01 
      </Row>
      <Row Index="77">
        1.7387824848565082e-04 1.2043367288966891e-02 3.7739160157856250e-03 6.6172541296408258e-04 -2.8718313699078075e-03 -7.5162005994604958e-04 -2.3614385904358569e-03 7.7833884910480516e-03 -9.3205721562095037e-04 -8.4681554534898646e-04 -9.1673312695885779e-04 -1.1211014283779097e-04 3.4298165308709809e-04 5.8789665332820802e-03 -7.8559337064592564e-04 -6.0050339129312513e-04 7.7056749357822636e-05 1.8944625429074616e-03 2.7455427250289215e-04 -9.7089231162415801e-04 -2.3180541279742096e-02 -7.8263803915137875e-05 -9.7691002725940231e-04 -2.9862067046157736e-03 3.9126646799124507e-04 1.1135484278943072e-03 2.3171347931417938e-03 4.3684431238163873e-03 8.1816225074439822e-04 -1.9696138416164244e-04 -1.4880390192054810e-03 3.0522536085294768e-04 -1.6399423731700870e-03 -4.5303652207394698e-04 -1.6929784782115376e-03 -4.3321971916850848e-04 -1.5931127669850075e-03 1.3521305939145148e-03 -3.8374924532852059e-05 9.2769185850793412e-03 6.6792123621374211e-03 8.3446584560563364e-04 1.5107192917389600e-03 -1.8610721887058618e-04 8.1932196115313410e-04 -1.2104673837949644e-02 5.6579675763884646e-03 -2.0991093173439723e-03 3.9276764204003445e-05 -1.4235309728979906e-04 5.3871734536139332e-04 -4.1003356167843008e-05 -3.8805906918387700e-04 2.8611698609739599e-03 -4.3996626943247630e-03 -9.0631851397579913e-04 6.5694701695892879e-04 1.8588894167509418e-04 3.8998547347604315e-02 5.8257323630791572e-03 -2.0425199187681688e-03 6.8857629970136575e-03 5.1391415475338098e-04 -5.8628893317491659e-04 7.2596133195334533e-03 4.6077822833124893e-03 -1.6429762728095293e-03 9.1284400211690681e-04 2.3715538998938680e-03 1.4550280574089636e-03 -6.6774789489680905e-03 -2.0338796053892549e-04 -2.9231799341229714e-03 -1.9206098246030284e-03 1.6580295995606911e-03 1.2485913602552356e-03 -6.6224484768417774e-03 9.0454939151728225e-02 -8.2320446626721402e-03 -2.1938539983774440e-04 3.8025536642404684e-03 -5.2657281545990739e-05 9.6784416939256599e-04 4.4891246668753326e-02 -3.3024734854367882e-02 9.2709215427473624e-04 -2.1652256697382911e-03 8.0837664456200990e-03 3.8466083743900035e-04 7.2600529893260598e-03 1.3421533422379303e-03 9.5331565219277303e-04 -8.8171094568222183e-04 1.0338535640271921e-03 -4.0383417034973888e-03 6.1412930447161463e-04 1.2891971587729770e-02 2.8681942708910927e-03 -6.9244685900746964e-04 1.8713770658771206e-03 1.7649924709658288e-04 8.8421479805543424e-03 1.6099880187598623e-03 -2.8975233072922098e-02 -1.0847689661732814e-03 7.6389352278480663e-04 -7.6838360734884546e-04 -1.6611744288435164e-04 5.9607484911488055e-04 3.4382052519261439e-04 -1.7896521986045808e-04 2.6035742455285046e-04 4.4218293914418489e-04 -1.7069288838403905e-03 1.9506140035062411e-03 -1.9707667499557074e-03 6.9433626512843498e-04 -1.3666898434445223e-03 -9.4843042510271681e-04 7.9580642486899885e-04 -9.1812823934821447e-04 8.4989489649009431e-04 6.9466734788634094e-03 4.1363980149240580e-04 4.1742682130921414e-04 1.5152607336588436e-04 4.1502268810392770e-04 4.6823641633260220e-04 -2.1699700907074299e-04 -2.1939096851879281e-04 -7.3024787560995233e-04 -1.9365729051580871e-03 1.1147683800900444e-03 -1.9160533689617284e-03 1.0583792565243659e-03 1.8330433450295487e-04 -5.8375522145828014e-04 1.5211210896152391e-03 5.6218031215573162e-04 3.5097294044108597e-04 1.8977828567118377e-03 1.4612113292360036e-04 -3.1089862431250576e-04 2.5536150882174777e-04 1.9003272847092258e-04 -3.6683720787116138e-04 2.0438361700011068e-04 -1.4346049750999583e-04 7.3511527814124305e-04 6.6138537212245564e-05 -2.6285312800096677e-04 -2.4725334485283321e-04 1.3866014150795919e-03 8.7345224171386134e-03 3.4764313576654028e-03 1.3157064654276602e-03 -2.2354345703902235e-03 -1.7133178284582014e-04 -2.1111690751575142e-04 -1.5706415624395148e-02 2.6196864705830096e-03 -7.2229210223705240e-04 4.9721005781934967e-04 3.5875754656754613e-05 8.5792333225638974e-04 -3.2650173796233356e-03 3.6561539955015112e-06 -1.1531674681438669e-03 -2.2590146382600400e-04 7.0436977419512786e-04 8.6287019549937186e-04 -1.8222471989414457e-03 9.9689889957316116e-04 -2.3052893177317041e-03 6.8197839218400334e-04 2.3818197666321227e-03 -1.1213859566196172e-04 7.4569278890271838e-04 -1.6570526639156369e-04 -8.4715686664146202e-03 -2.0644629786506496e-04 3.1903803259904131e-05 4.7078505161642428e-04 9.0375838930260844e-04 5.7877232881174451e-04 3.4828202025410731e-04 9.1886807897842426e-04 -1.0734668784240697e-04 -2.9966963599547229e-04 -3.9761464575623767e-05 1.8962688454074558e-03 1.5450678472370440e-02 2.4407281648733490e-03 -2.4753058958142267e-05 -2.5552042973032280e-05 1.0098648135301822e-04 3.2313114519879780e-04 6.2530064010795847e-03 -2.2531787651031980e-03 -1.0690860248307472e-03 2.2854455487747110e-04 6.4539317433381059e-04 -5.1106642645357505e-04 -1.4240668494590900e-04 -2.5734552143717797e-04 -1.0702786878579416e-04 1.2771850690304907e-03 1.0518152804732082e-03 -8.8906798623184327e-04 3.8654753537333154e-03 -5.0949887279302587e-02 3.2398719852716499e-03 -1.5984403886129778e-03 -2.3503973651653066e-02 -2.2112541912823989e-06 -3.4621158765765422e-02 -1.3234175470955825e-02 2.3992159899289725e-02 -4.5584264784844205e-03 -2.5903383767527967e-03 -1.8115485907907337e-03 -1.0091962854711922e-03 1.0190034035550837e-02 -2.6774598379133768e-03 -2.4821976761470578e-03 7.0057280443269927e-04 2.5194383119211379e-03 2.8676203007580300e-03 1.4693134189050668e-03 -4.9337535814084947e-02 5.3243179397147317e-03 6.6439504286553560e-03 -9.5382960713441545e-04 1.2392093168372715e-03 3.2603687308831286e-02 4.9088029952233228e-02 2.9052912443648098e-02 1.0207866655248922e-04 4.1946495512686418e-03 -3.4275759820508872e-03 2.3448031499992425e-03 -2.2092420502603127e-02 1.2939186168571411e-03 2.3661695815719351e-03 6.3226581945266570e-03 6.3390193171786076e-03 3.2655644058509434e-03 -5.3537051935856027e-02 
      </Row>
      <Row Index="78">
        1.3582783924565166e-03 8.1360276550102306e-03 -1.8360094015161199e-02 1.5263078180759321e-03 9.0261239201993460e-03 1.2878439550802340e-03 1.9667662437446651e-03 -2.0669822246666109e-02 1.6661206157978763e-03 1.7954320119314764e-04 4.3889135751194568e-04 1.3579323514835754e-04 4.8748654686393622e-04 -1.3394456969036514e-03 9.6224289781720977e-04 -1.7840731229144535e-03 -1.8473841058870859e-04 7.5334619970893191e-04 -7.8633444260681662e-04 4.4676502144338701e-03 2.5650948975430368e-03 4.3929512361443240e-02 5.0556393921879061e-03 7.0915913798708929e-03 1.4566644979247068e-03 1.2425720073245695e-03 -6.0735930150845191e-03 3.0575191524834802e-02 2.9918435278217352e-03 -4.7939845046584412e-04 -3.0472449712376504e-04 3.3264512958057165e-04 7.8018372643763947e-04 1.6008252180468377e-03 8.9858477016341309e-04 6.5562052071337995e-04 -6.3868277075466717e-03 -6.4786282394943551e-04 4.4587991729646628e-03 3.1248448580633026e-03 7.0222240305732098e-02 6.3907017525123982e-03 -9.3312314644789507e-03 2.8340124279585543e-04 6.5831038567706890e-04 7.7953861507967792e-06 2.5487597328930828e-02 1.1127978504150982e-03 -1.5160681155852174e-03 -1.0428808742715678e-04 3.0035475066673978e-04 -2.0348062080058904e-03 3.4493531846704339e-03 -8.4864790331683725e-04 -1.1908443221992360e-03 -8.3754398101950640e-03 8.5460808397747057e-04 -2.6290038031122065e-03 6.7657893858405413e-03 -2.0025479158032267e-02 -3.2004290031262608e-03 -3.0425327034988299e-02 -2.2571275237107807e-04 8.0269902757201805e-04 -1.4673400505455958e-02 -1.9302599031137652e-02 -3.8372139927801835e-03 1.0048149839117504e-03 1.1434902054917838e-04 1.3228180029504349e-04 2.1091918880597020e-03 1.7524902617105931e-03 1.6552373773285056e-03 -2.0999850124701971e-03 2.0003520261593494e-03 4.3825387095604920e-03 -1.0774940315864096e-02 -8.2320446626733997e-03 6.3065462162575844e-02 -1.3806011518929802e-02 -2.5478275106289576e-02 -2.4533543560224542e-04 3.2570785547874021e-04 1.4768273220246486e-02 -1.9369541655941180e-02 -5.8076910069699006e-03 7.5458676090003917e-04 -2.0195932493680220e-03 3.9430166049720869e-05 -3.3034739639886531e-03 -2.0873693567880084e-03 5.3343470834608803e-03 9.6514265107707940e-04 9.7215282409661447e-03 3.8084637192872849e-03 -2.4965731482499620e-03 7.5156793375442087e-04 8.7181576549371226e-03 -1.1871791968078669e-03 -3.1681282041656912e-02 -1.2917042138676045e-03 1.3679340991175663e-03 3.6353244149192644e-03 -2.5668988901118326e-02 -1.2099142077431988e-03 -5.8208094441978913e-04 6.5207809585642062e-04 -1.3169433884782048e-03 1.5870526268196884e-03 -2.7838368997795476e-04 -6.8454156119001253e-04 6.2801339930399630e-04 2.4590501331551626e-03 -1.0094131274151000e-03 2.8505884573515935e-04 3.2924520622039377e-03 1.1774395586090355e-02 -3.8542091904410301e-04 4.6054914395626152e-03 -8.6697060991313497e-04 -1.0527104888289921e-03 -3.8741127085577514e-03 1.2907376499248124e-02 -3.4029692599198808e-04 1.5707571078250131e-04 -1.0038150466086134e-03 3.6923760661299022e-04 -1.9015549250348224e-04 -2.0837798485753498e-04 7.4987797168692225e-04 -4.3490886779115639e-04 -1.9079592116716343e-03 2.0428815496761044e-03 -1.6801971750552286e-03 1.9345372283668575e-04 1.0816744363644558e-03 8.0859234805973811e-05 1.1024041469717880e-03 -2.5120175951817562e-04 -2.1701800699904710e-04 7.1749985498329783e-04 -2.2907704876981854e-03 -2.7085652084255722e-04 -4.3504572698602390e-05 -1.2749242701597612e-05 -4.2955229986371625e-04 -4.5971052994714747e-05 -1.3036329726941111e-04 3.9416967550106132e-04 5.7625027916082089e-05 3.0734395487964136e-04 3.7422558910491454e-04 1.6063029300270228e-03 3.0696116676057379e-04 2.6385995772887864e-02 2.4822149128692463e-03 6.1798256195346804e-03 2.3401165320081818e-04 5.6563530310067595e-04 6.2804282334927835e-03 1.6829981763672779e-02 3.9905649047836708e-04 -1.3773122515809771e-03 1.2023973163522936e-04 2.2625043811682244e-04 1.2429044510786299e-03 2.3291546716556479e-04 6.9930202774515574e-04 2.7918103083349953e-04 -3.9523453360400338e-03 1.4043019760248225e-03 -1.5028312764684137e-03 -3.1455196848248351e-03 -8.7592109735953327e-03 -1.5398707250698777e-03 -1.9687358871786249e-03 -3.1087444161020418e-04 -8.4034312191208233e-04 5.9357765477771052e-03 -1.1615697088068894e-02 -1.1854713160719139e-04 1.0741680170244547e-04 -2.6033858322928316e-05 4.1183257915625507e-04 -1.0680848010939702e-04 -1.3670607017155531e-05 3.3034119468808298e-04 3.0148331375992620e-04 1.9721615821489029e-03 -1.7598659205703138e-04 -1.6451940303282920e-03 3.4638168301540542e-03 -4.1933562113485347e-03 -7.7663119207815716e-04 -7.9225836178094550e-03 -7.4417733899715958e-05 7.5526753258842150e-04 -7.4489192105497339e-03 -2.3990605178250681e-03 -8.1267739189839106e-05 2.2115390620592202e-04 -1.4098424044774199e-04 -1.0939962154025575e-04 4.8783269225505038e-04 3.0316274667973486e-04 2.2602483772248732e-04 2.5323880203578889e-04 1.3125956880992169e-03 -8.8567574647524831e-04 -3.3331978832633977e-03 5.8632028480520805e-03 1.1729281919137940e-03 8.5455020406900034e-05 4.9682635504221077e-02 3.2649326714540402e-04 -5.9485738043188021e-03 -1.0842928199011930e-02 1.8417224968956102e-02 -2.4636357714203742e-03 4.4029717617534506e-03 -1.7011794643810585e-03 2.4590641160111460e-03 -6.1079045020231877e-03 2.3899820677357672e-03 2.4649215899047450e-03 -3.1957180548668365e-03 7.0986542818029449e-03 5.6733685651309861e-04 -2.3870717684082339e-03 -7.8100089536146111e-03 1.2515900757319146e-01 5.5186940479432026e-03 3.8484623702078252e-02 -5.6049511642008599e-03 7.0634852851465119e-03 -4.3207272460141603e-02 3.2528733623868017e-02 2.8067194253604752e-03 -1.9337367397185765e-03 6.3306592546990299e-03 1.6535920139300611e-03 1.4357039596388441e-02 -5.8536188918134153e-03 -1.6786370747032524e-04 2.5044458868917758e-03 -2.4636539752037959e-04 1.0463258551119209e-02 -8.4625838243594334e-02 
      </Row>
      <Row Index="79">
        -1.3035209341259206e-03 -1.9018040111789120e-03 -3.3568656164293526e-04 1.5396934419806217e-02 8.5345714552538879e-04 -6.8441033899460796e-03 -1.5780890766990685e-04 -5.0607251842951506e-03 -9.5555628463461773e-04 -2.8229709976750755e-03 1.8961753038467073e-03 -1.0998101153985257e-03 -2.1224390360741630e-03 -1.2177892484945072e-03 -3.9893507215320485e-04 3.9761300389462642e-03 -2.8318439515722158e-04 -9.4666817089765834e-04 1.2669710085787948e-03 -3.5812142778524035e-03 6.4789486398028617e-06 3.7564405881111151e-03 2.3898520330044287e-03 -5.6294670557487103e-03 -5.1094413173583715e-03 4.0401220143850946e-04 -5.4341568885048208e-04 -5.0103449964763805e-03 -1.5465699646520122e-03 1.5518965997941489e-03 4.0440876386987901e-04 -2.6146149223388380e-03 4.1542003095573158e-04 -1.2162720054154780e-04 -2.0346176751486200e-03 -1.1471147366277565e-04 4.5151405268737538e-03 2.0419038290732383e-05 -1.8373435282585324e-04 -1.4068004298776748e-03 1.6401914199266343e-03 1.3460545795901099e-02 -1.0196381103781210e-02 -7.5050593991494996e-04 1.2873078692527198e-03 7.3830592461111844e-05 -4.5329789676876175e-05 3.4546409112762716e-03 -3.8957927366838063e-04 -2.9198445769176157e-03 -6.9826858796968871e-04 -1.7544540674396744e-03 -6.0106556259078431e-04 3.0748938271931703e-03 3.9786151745299647e-04 2.6060248386290709e-03 -2.1140689094090691e-03 2.8374884631062192e-03 -2.4265467472266130e-03 -1.8335509172495018e-03 -3.0192851659308788e-02 -5.5796676371148539e-03 -3.6162280539511066e-04 -3.0816809519084443e-03 -3.0647261333999753e-03 3.4737703782117824e-03 3.6941541042626036e-05 2.7028494978834118e-03 -2.2877538999075703e-03 -5.4933218284820839e-04 -1.3241409352227730e-02 1.3897568680004690e-05 -6.7531534368629048e-03 1.8231486150200454e-04 -3.2701383965500139e-03 -2.3979347734796388e-03 7.4271683478677325e-03 -2.1938539983488818e-04 -1.3806011518928312e-02 2.9183786466707010e-02 2.3935981972777035e-02 -4.6767622606233910e-03 -1.3802458745705915e-03 -3.3472360737797358e-03 5.7783232954320141e-03 4.9160786001165024e-04 -2.1916973256938120e-05 1.3435034001055991e-03 9.2433848172625570e-04 8.8475370645440567e-04 7.1434352880498221e-04 -5.6806414712235907e-03 8.9652967399414865e-04 -2.3251839438546943e-03 5.6841481080804066e-05 -6.6377815068412616e-05 -1.2482842233089639e-04 -4.6497841487141457e-04 4.9065647113491597e-03 3.2780366109519212e-03 3.5702511474679313e-05 -8.1832069161704678e-03 -1.3735358138155926e-03 1.1102385716987045e-02 -2.0226182574389620e-03 -3.9703786111703243e-04 -4.2097176655826599e-04 1.3958722878915815e-03 1.2679545807671700e-03 -7.1110840017396830e-05 -2.3834243667265366e-04 -3.7994524955882285e-04 -3.6016019731620027e-05 1.1339649708556302e-04 -1.8498558029796410e-03 -1.5375804621359612e-03 1.0324115986170537e-03 -6.2411495364298082e-03 -5.9862535347295857e-04 1.3404061796618808e-03 6.3754837653542929e-04 -3.9798952277133280e-04 -1.2253596308886637e-03 9.9324106753262268e-04 1.5233490537552288e-04 9.8790153521337212e-04 1.5401881573056733e-03 -3.0247571149657850e-03 2.8244541800931042e-04 -8.8126503827470003e-04 1.9476266739616496e-04 4.1059796985278381e-03 -1.7481720952539246e-03 3.8615145117489524e-04 -8.1138711777265730e-04 3.8225768986117328e-04 8.5717623936522070e-05 4.8957617644100864e-04 2.6227999932857244e-05 5.7863668875052877e-05 -6.7539592323844801e-04 -1.4768804166780377e-04 -2.3801924296894443e-04 1.8813029016571641e-05 -1.8160459798305221e-04 9.0732756060646054e-05 -4.3039926196966334e-04 6.2461806001690070e-05 -1.6191325419012445e-04 -2.6319878429424958e-04 2.0764720967998723e-04 -1.0843553769388062e-04 -2.9403777091152935e-03 -4.5649363801941603e-04 1.0517985737584596e-03 1.4462780627327745e-02 -4.0839310746050459e-03 -4.3096657144197671e-04 6.2738639820389495e-04 3.2947077988449199e-03 -3.0221387788361993e-04 -8.5666238861730978e-04 1.7502493160730928e-03 -9.0387361931360921e-04 -1.3078127934581016e-04 -1.0957005028379424e-02 -5.3494815296954777e-04 1.4030866524871054e-03 -3.0092426583323091e-04 2.8784938444419493e-03 -2.3196424700198874e-03 1.0718127018652657e-03 7.6167859278526706e-04 -4.7702337103186498e-04 1.7929546827617868e-03 2.0723208913183593e-03 4.4180155205378194e-04 -4.0305523624301737e-04 1.2841087611653451e-03 2.7419623194754224e-03 -1.7372293078902535e-03 2.6966303383339839e-05 3.6733408739646201e-04 -3.3444437446184219e-03 1.0612717756234027e-03 1.3209993888526711e-04 8.9837122046965145e-05 3.8383254438116099e-04 -4.2263017779171306e-04 7.1528316634309613e-04 1.7337670183517062e-03 -8.5617177720472785e-04 -1.2824852904431525e-03 2.3590434879779696e-03 1.2737132751318488e-03 -2.0440233397135969e-05 -1.2392895115298562e-03 -2.8198290416337440e-03 2.6051136796651211e-03 -1.2873163636698210e-04 4.4606974580288115e-04 -4.3672832729327435e-04 -3.9949961621367882e-04 -6.8722899748971016e-03 -3.3854486865848361e-04 1.2095429102586244e-03 -1.3965865916529285e-04 -1.2505302522647971e-03 9.1738772268900475e-04 4.1596877337609422e-03 -1.2294406086605109e-03 1.5900944226188984e-03 -6.3699573158423617e-02 -7.8164335743900817e-03 3.1451933978751175e-03 2.5538142952649640e-02 -5.9763896555541096e-04 -4.7152209911945891e-03 8.9805064215484239e-03 4.0114245230961432e-03 4.1371611370450284e-03 -7.2429326094118054e-04 8.9883055238395761e-03 -8.0122034105690023e-05 3.1551203612742995e-03 7.6624730695316716e-04 -2.9792015358798061e-03 4.9807763176804671e-03 -2.8757754031082080e-03 4.4492979975359059e-03 2.3379617474951243e-03 7.7939588345643254e-02 8.3109781797229346e-03 2.4001740151536548e-02 -3.1619850678828894e-02 -9.2443218326821314e-03 -1.2496396128770260e-02 -8.5791014114443929e-03 -4.5100016210306067e-03 -1.1643545679547162e-02 -1.2680051099730749e-02 -5.8190083879552629e-02 5.7325621197335452e-04 7.0761646831213826e-03 -1.2292108844104573e-03 -1.2157763600318170e-02 -1.0308361415623718e-02 5.1713643629665726e-02 
      </Row>
      <Row Index="80">
        -1.4608608656100455e-03 7.4801128249628590e-03 -6.0363804832639228e-03 -2.2592312965591787e-03 7.9530761162101338e-02 -4.2699492969783398e-03 -1.2525261391237850e-02 -3.2848912276648712e-03 4.4887996633680011e-03 2.8183416845786327e-03 3.8816071606349190e-03 3.8190612950781723e-04 1.2807215650343763e-03 -3.5382627579725436e-03 -4.9325444033280173e-04 -3.1771680958077031e-03 1.2506386282230744e-04 -3.3323288949328594e-03 -1.0094954558796323e-02 5.4738481015448454e-03 -7.9604787670555649e-03 1.9377937302554132e-02 -5.2128596493354433e-03 -7.8474324608414359e-02 -2.1753850449220714e-03 2.1629544926838559e-03 4.4685753393593278e-03 4.9106444050972128e-02 4.0235108627603919e-03 3.4008034041841592e-03 -1.8438810983565368e-03 -2.9873818028259272e-03 -3.6413433045070602e-03 1.2204685702518446e-03 4.1711571541386827e-03 3.3606008919020809e-03 9.2647059948190030e-04 7.1442507138840261e-03 9.3945710757977613e-04 -1.1614780892896803e-03 1.2645078999722004e-02 -1.4355736565921928e-03 -1.3105632400253084e-01 1.0919053161416170e-03 1.0652425004090499e-02 -5.3121974999774113e-03 -2.7477380589793571e-02 4.0900372152231079e-03 3.9398846930798204e-03 5.9294608552334926e-05 -4.2904486254813218e-03 -7.4206964437068673e-03 -4.2364278917263187e-03 -1.9289528145294641e-03 -1.3579642568727901e-03 8.9460165525800106e-03 1.6346334410601258e-02 -1.8930608455672848e-03 6.2961303004148228e-03 -1.7067582878748780e-02 5.4629992076741241e-03 -6.0866577821427875e-02 -6.3594639047508117e-04 2.7167257416648716e-03 -1.8602307766831805e-03 -1.4309794030516160e-02 -1.3748574767136063e-03 8.3592170551834155e-04 4.2595934228686454e-03 -3.4798471898611488e-03 6.5094031464469244e-03 -8.6583014967678840e-03 2.1000041185391671e-03 1.0559943944705684e-03 8.2918265840865937e-03 2.3211876695028659e-02 -8.5431551195541133e-03 3.8025536642373723e-03 -2.5478275106299859e-02 2.3935981972787929e-02 3.8504507232989510e-01 1.2791139648465205e-03 1.9101091261504361e-03 -1.2047523749675215e-02 -1.1116600892497663e-01 -2.8202100407239944e-02 6.8979604548167206e-03 -9.8474943578784474e-03 -4.0961617607998503e-03 -6.6307984389609841e-03 -2.5596415655637604e-03 4.9962809321891771e-03 -3.4585306082965525e-03 1.0745729814988912e-02 -1.5063933738720423e-02 2.1924178893726687e-03 1.1598284019468455e-03 -3.4536143786782995e-03 8.7623047109928378e-03 -8.6880999835096673e-03 4.5091240254125971e-03 -2.7232663059615376e-03 -1.6462742809271992e-02 -8.2775112452102631e-03 -1.2691392105559647e-02 8.4552685216658773e-03 1.0411932801880509e-03 3.8925453237516686e-04 -6.1991179700594742e-03 1.3610644761117589e-03 1.0409751790056074e-02 2.1367183014174354e-03 1.1014172431212972e-02 -1.6062155506472456e-02 1.0471377537859313e-03 3.4911301888030672e-03 1.1381631575749264e-03 -3.0755947919506692e-03 1.8722089059201429e-02 -4.0424750186631234e-04 9.7538222280099153e-05 3.6651888231521573e-03 -2.0014659226224932e-03 6.6742838087307729e-03 -4.9004166476681408e-03 -5.6461692102008267e-04 9.4273829169288213e-04 7.6876268564323412e-03 -1.6014443036712223e-03 -4.7641855944362526e-03 2.3586613611588933e-04 -6.2859950542415504e-03 2.6029042029076310e-02 1.0927869304180749e-03 7.8186575706423983e-04 4.0751934120096062e-04 -3.7760804103580088e-04 2.4501204752261055e-03 -3.9888028005703675e-04 -4.4384050412503456e-04 -2.4639127833623871e-04 -4.3412083990915229e-03 1.3905419560873337e-04 -6.2741082139487585e-04 -2.6935152593730990e-04 -8.2641518860052630e-04 -8.0846898771278408e-04 -1.4376643109904861e-04 -2.4884334046113482e-04 3.1747280967050356e-04 -4.9797133413312139e-04 -4.8154750628486790e-04 5.6340237090032001e-03 8.3582537964351378e-04 4.3018868459206820e-03 -4.1473118279954264e-04 1.8679290019956392e-02 -1.0632740924922156e-03 2.4162977025377385e-03 2.5995604813718355e-03 2.6409227697187405e-03 3.1339880043455594e-03 -2.8283192927020190e-04 1.7007439475507789e-04 4.9946179425600871e-04 7.8264341558360907e-03 -4.4252508248308957e-04 1.5196984431843684e-03 2.9012773113724205e-04 -2.2949491503303199e-03 7.8769195975473116e-03 -2.4506383734257953e-03 1.3011283508880880e-03 -4.9509376941569427e-03 1.6321888990300654e-03 3.2160952992763329e-02 5.2628428993728438e-05 1.9331127321886438e-03 6.7590701707867518e-04 -1.6041601237167788e-02 -5.5635887418823832e-03 -1.1176192597830716e-03 -1.1188499128319054e-03 -3.4063227249125985e-03 -1.2960281422432635e-04 -7.1921676925001097e-04 4.2870895196286396e-03 1.4193406013789231e-04 2.3025217745557204e-03 -5.1329056359155287e-03 -2.8984512499647605e-03 1.2049079592336281e-03 -6.0319684467794038e-03 9.7312670591931437e-04 1.3458079464646926e-02 -6.3817451984623369e-04 -1.2614320299026113e-03 -3.9946617441618884e-03 -1.5059253968303198e-02 -2.3175964504765110e-03 3.9590899461104971e-04 -1.4102266554982508e-04 -4.9226785835517210e-04 2.4924764878394472e-04 -8.5132476805473373e-04 -1.0991265261861226e-03 7.9735890552905654e-04 9.6941040351702533e-04 -1.2201614691569017e-02 -1.4011047246575672e-02 4.7139365569230270e-03 8.3010211490363826e-03 -2.3245583822438829e-02 -1.0228510125606460e-01 -6.9513847356136669e-03 -9.6191906609305530e-03 2.2244710700432095e-02 -9.7291393806136120e-02 3.0642597218961516e-02 -1.0121777380111337e-02 -5.2134108726588774e-03 -4.4413324633267581e-04 5.3710880367734935e-03 -7.2749384681242051e-03 -2.6316218807079281e-02 -6.9448896479357945e-03 -2.3013264266200203e-02 2.2683220849698458e-02 9.1077810762397599e-03 -7.2692592297931291e-03 2.8793117364752176e-02 -6.9034796694922018e-03 2.0069755046085477e-01 1.2988704391262811e-02 -2.7156696093212800e-02 -8.4808339591378873e-03 -6.8853282070776262e-02 -8.4646760666771750e-03 -3.5113252681141106e-02 2.9328171109752062e-02 -1.0244301958525086e-02 4.1130971860461191e-02 1.2573441480528136e-03 -1.2336032163575483e-02 7.9903143756323500e-03 1.1237371233684498e-02 9.7849636976146251e-02 -1.1213617385056202e-01 
      </Row>
      <Row Index="81">
        1.4833488461568923e-04 3.7612385845238079e-03 -1.1403035814052612e-03 -1.9087507334343641e-03 -3.3222190882984011e-03 1.1558234954444219e-02 -1.4507840128273040e-03 6.2742380192426853e-04 -5.1373606920376361e-03 1.5363931246071207e-03 -1.0021759413265620e-02 5.6831495501901059e-04 -6.1852966405036010e-04 -1.2879076384050509e-03 1.4442415102726923e-04 4.9595845282036748e-04 3.9300893848411640e-04 9.3365862393206050e-04 -6.7432314974348985e-04 1.2698198635632913e-03 -2.7319410172380217e-03 1.5864546497681292e-03 6.8110078439447648e-04 9.2244314445290992e-05 7.9756833456675787e-03 -4.0868085266135886e-04 -4.1926497110870726e-04 -3.1722311284033454e-03 1.5106607747154875e-03 -7.6908223904073383e-03 1.1708030721877850e-04 -6.4792678003594746e-04 -1.2935414352650823e-03 -2.8154299714781535e-04 1.3040641411074319e-03 -4.0687101291749482e-09 -4.2436224294252912e-04 7.9531442576288771e-04 8.1438773696618314e-04 9.7171471362647588e-04 2.5561269609115922e-03 -1.2375254562764001e-03 1.3241550773366653e-03 2.2777191158761473e-03 -5.2111790393211295e-04 -1.2295169332496962e-03 7.9989045536267740e-04 -5.4058029484114374e-03 -1.1880878526099618e-03 1.0153511830158909e-03 -8.6852112903582600e-04 -2.3369824014281802e-04 -3.1458772853438979e-04 3.5897354929181825e-04 5.6172551827669837e-04 -1.5682401138071301e-04 1.4539086430429430e-03 -5.2770766239791655e-04 5.7502074122003236e-03 -3.9109104429382174e-04 2.5296149693071163e-03 2.0454648272587020e-03 8.7065123033210068e-04 -2.1282829652517071e-04 1.0634184561814017e-03 3.8684753737095057e-03 -2.5069965769634415e-03 -3.2966575968188102e-04 9.3090255861079938e-04 1.8474291959081901e-03 3.5899980994058716e-03 -2.1313675335914162e-04 1.5820671863877086e-03 -2.5516328016581577e-04 3.6260148312763419e-04 2.6529319898533376e-03 -3.1314950150399361e-03 -5.2657281544664109e-05 -2.4533543560268907e-04 -4.6767622606226442e-03 1.2791139648466597e-03 1.2111703745339125e-02 -3.8977766796458285e-04 2.8194925223901830e-03 1.0933515052081514e-02 5.0729507311161638e-03 3.8485382894217776e-03 -8.8478469678446889e-04 4.5849495049320168e-03 3.5773430964478334e-03 -3.2424347043446297e-04 4.2457661161046504e-04 -7.3855442925789354e-04 1.2147292796198771e-03 3.6534827707359772e-04 1.4903835179856651e-04 5.3519522666825722e-04 -2.6604547364560203e-05 -2.2143348401744742e-04 2.0122487311432530e-03 6.7360453169826144e-04 -1.9580846726335705e-03 3.3193512718655290e-04 1.3598276248717200e-03 2.5549345046689351e-03 1.8227368972380947e-03 5.1252794533801949e-04 -7.4847436407411575e-05 -2.2212896168080090e-04 -9.1077448963254170e-05 -4.7455509677073193e-04 -6.8514858850849607e-04 2.6832865667120165e-04 -5.0281174540798331e-04 1.3065178005175178e-03 1.0276032343039978e-03 1.4878087684712913e-04 1.1165964224767414e-03 1.8521953379966284e-03 -1.5500078663848275e-03 6.3448421620104594e-04 -1.9862167932816355e-05 2.0275159807857184e-03 -1.1294822114725892e-03 2.3633182189312417e-03 -3.3609628647917331e-04 -1.7406538285322721e-03 2.4891645950622426e-04 -6.1415100048999163e-05 1.3315703689695079e-04 5.7145014118921346e-05 -1.2106034119113993e-03 1.3089982004717599e-03 3.3078015332443076e-04 8.5424715351565335e-04 -1.3487459116952059e-04 -8.4064720160867965e-05 -9.2382548711418999e-04 7.6992720133987880e-05 -8.3401991166144639e-05 3.5007012799744529e-04 6.0093822433580446e-04 8.9237464909172560e-05 1.7066458035945055e-04 8.3230115879287002e-05 -1.0922942351128678e-04 5.0261252084208999e-04 -3.9418192078316280e-06 9.5922152054012347e-05 9.1863657719945644e-06 6.0542534351554775e-06 1.2273926402815472e-05 2.6805029828365912e-03 -4.3242745825011991e-04 5.2605791876214852e-04 -1.0266024656897439e-03 1.7614049122374035e-03 3.0268809878622590e-03 1.3188624933126441e-04 -2.3006974690179174e-03 1.0710015150284086e-03 -3.0802766616302686e-03 -1.5882327167725601e-03 1.3452187651149123e-04 -1.7612171501242388e-03 6.7245123091567896e-04 3.1363277172976917e-05 -5.0159499680986703e-04 1.2760840398497270e-04 -5.3887085227060586e-04 8.1819538246102603e-04 -3.8630251910907326e-04 -3.3109854909379663e-04 -7.5100977002750396e-04 -7.6484107246289510e-04 -1.6134260834545656e-04 -8.9665835846493487e-04 -1.2783716262841811e-04 -5.0083737746070382e-04 -2.6226364650633327e-05 1.4372075470784249e-03 2.5717555279007225e-03 -1.4627685827399905e-04 3.4119886903102060e-03 3.7307134517028926e-04 1.0376395520736976e-04 -1.8121854764672346e-04 -2.3766982133351742e-04 7.4246989630046903e-05 -8.8292594491764685e-04 -9.7000443736760546e-04 2.2035962253401167e-03 -2.2708534473539336e-04 -2.5555194440294535e-04 -1.1314913253753021e-03 7.2845083198498878e-04 -3.3275775233839101e-05 1.1161534108634534e-03 2.0585081646287313e-03 -8.1225759114074685e-04 1.0989400573426207e-03 1.9550202684285673e-04 1.4392741478834719e-04 1.0831711252484197e-03 -2.3887340750303794e-05 1.5890746728562140e-04 -2.1107270171026485e-04 1.0703556695444783e-04 -1.0484672334891360e-03 -5.2428619587255049e-03 3.5742684180800864e-03 7.7793125037244277e-04 5.1566155301187265e-03 -7.5264531207403585e-03 -1.2558746274543868e-02 6.7361253882211695e-03 1.3500459240387761e-03 -3.1234864270435103e-03 -1.1216465725145957e-02 -1.7764384975885061e-02 -1.1638013014298072e-03 -5.5265092515573285e-04 -2.5523665195572622e-04 2.8796474989903754e-04 1.8670710220407664e-03 1.0606115054061318e-03 -5.4946504754885273e-04 -8.4156275686846104e-04 4.3843848122332640e-03 -8.9159769148467113e-03 5.5478651139487809e-03 -9.5311284618707255e-03 -8.1619934804333730e-04 -4.0878089959546796e-02 -7.4659501056579683e-03 5.1727079729526823e-03 4.3397093600931079e-03 1.5037124130715916e-02 4.2584945768507465e-02 6.1176994996582036e-03 9.9023665746499744e-03 1.1082938261901369e-02 8.1856534741430430e-04 -1.1271522877485719e-03 -1.2382636751310551e-03 1.5035421459358076e-03 8.4197392369556173e-03 -7.4578708863414812e-03 
      </Row>
      <Row Index="82">
        1.8229856382038535e-04 -9.2446037639120071e-03 -1.8648406766863523e-04 7.5387446538444460e-05 8.2661658976734449e-03 2.4907259090862083e-03 3.0568794653026560e-03 2.0777388781878514e-04 -1.6539220694937962e-02 -3.2625656434560131e-03 -1.8325597586594036e-03 6.5740806670134958e-04 3.0606212641843124e-04 1.6087154056564751e-03 -3.4690242160511503e-04 5.2591015545483399e-04 5.7158323641735864e-04 3.1777737972199516e-04 -8.7394347540394892e-04 -3.5216160144232178e-03 8.2536145267916305e-03 1.0322277403859159e-03 9.7881045628873953e-04 -1.1395553562462912e-02 2.6428721706818481e-03 -3.0959739401268164e-03 -2.1644600513981427e-04 -3.6495825399779358e-04 -4.0296926537313205e-03 -1.2062953651978403e-03 -1.0352277714905656e-03 1.8820536976139424e-03 -1.4096881714615074e-03 6.7406002813930055e-04 -2.8131439352433452e-03 -4.0406483720810751e-04 2.1292177744247631e-03 6.1480418247911173e-05 -2.7314751473443005e-03 -1.8432319375039086e-03 4.5237595625913229e-05 3.4330196325260687e-04 -2.2660744394586541e-02 1.3001214238386738e-03 7.0468092662914761e-03 1.2637473044783132e-03 -1.3388563897584471e-03 3.0958361406283608e-03 1.4680827070895353e-04 2.5089051352971403e-03 -1.6878379756868345e-04 1.6424961091480728e-03 1.3980784390472678e-03 4.3573324357157328e-04 -3.4245299751916036e-03 4.0458393833079330e-04 6.1448203445890748e-04 -1.5723488685224218e-03 -1.4216941747517522e-02 -1.7194433903139628e-03 -2.2533107610190894e-03 -1.7611004989161926e-02 1.7096181135314859e-04 1.3427099296035916e-02 2.0713901689917158e-04 -3.4850003418378850e-02 2.1301190740232456e-03 7.5407408234751117e-05 3.3596139803441886e-03 -2.1572421143953302e-04 -5.1060758844581611e-04 1.1340259806706943e-03 9.1072766849731313e-04 -1.1329432887358382e-03 1.3092718127655015e-03 2.0365016561280092e-03 -3.9707082327503640e-03 9.6784416937964425e-04 3.2570785546530423e-04 -1.3802458745643537e-03 1.9101091261694340e-03 -3.8977766797219406e-04 2.8476023599242513e-02 -2.4067925891602115e-05 -1.1499828953705715e-02 5.7389199181678840e-04 -1.4351879025524513e-03 4.5022745680603948e-04 -4.1765394000430436e-04 7.8472665118439928e-05 -6.4964892920584883e-04 3.2340883421997052e-04 1.5003438828281050e-03 -1.2209775639568637e-03 2.9245172432375001e-04 -5.3447719321790370e-03 8.1375810581545919e-04 1.2238578215635538e-03 -4.7135443935226494e-03 -2.1919872438316237e-02 -1.8584990477941447e-03 6.6029193373030773e-02 -5.7705447162362722e-04 -1.5354147640822114e-02 1.7786018912660593e-03 -3.2987998153667167e-03 -1.0985629833512617e-03 1.3844052655595409e-04 4.8668835413959470e-03 -9.6539402991143634e-04 1.7735649895874253e-03 2.3549243311731805e-03 -1.7847368627743510e-03 -1.0298599421132274e-03 -5.8208351539357716e-04 2.1151595460227376e-03 2.2921312667729461e-04 2.7588763348577262e-04 -7.7459371070413472e-04 -5.2754537325112156e-05 -4.1452480401716878e-03 -1.6973885989139265e-03 -1.3714513106153056e-02 1.7352606017022785e-03 6.3247238323260280e-04 -3.7370608632819054e-04 -1.6304226157906490e-03 -1.5878718381866855e-03 -4.7531380170998984e-04 5.5232942689337162e-04 2.0564981825439203e-04 1.3678756512762746e-03 2.1841084569097450e-03 6.8119861221467332e-04 -3.1467193742422628e-04 -2.3375809135158312e-04 1.4425967017840083e-04 8.0339543847198608e-04 -1.2783181400773894e-04 5.0563280798788450e-04 -5.5883918725200795e-04 -4.4837227803008354e-04 -4.1404392639411664e-05 1.5077061839688560e-05 -5.7466681476793909e-06 3.3210736405560204e-05 2.7736862879834819e-04 2.2067911231527169e-05 -2.1951633145023399e-04 5.3812143115486021e-05 9.6781350685983108e-05 -1.2392864252137043e-04 -3.7589482286753376e-04 1.7592455587151887e-03 6.7427226401571062e-04 -1.0479170439715159e-03 -3.2535446182925549e-03 4.7045711875655057e-04 4.3816320186874013e-03 -8.3474998761254304e-06 -1.6351764651383084e-02 3.1267414642768190e-03 -9.1569480109288944e-05 -1.6771027468668166e-04 -7.5849385126073611e-04 -1.8322341463683734e-03 3.7681410893109556e-05 8.5221306881385587e-04 -4.1765119348634922e-05 4.4931904262079166e-04 1.4065894176732176e-03 -1.4516131547209210e-03 1.2990174354215595e-03 -3.4809957795267632e-04 -2.2238250564440268e-04 4.3296475205230577e-03 -3.9856054615649943e-04 4.0784246326836414e-03 1.6168544426875542e-05 1.0738493169867054e-02 -1.3628376868073490e-04 -9.7916613546970204e-05 -4.2803722559556223e-04 2.8195387566373447e-03 8.1972102095903229e-04 7.0650644307084840e-05 -8.0163974052493980e-04 -3.4377038113342286e-04 -1.2474142364784664e-03 -6.4586660322590861e-04 -1.5184814039829720e-03 -3.5482937960273704e-03 -8.7838500285068190e-04 -8.7078949136412697e-04 -3.8570235293759469e-03 -3.0752772969130468e-05 9.7586770100583937e-03 -2.4317554501844009e-06 -1.2848461072956566e-02 1.2763854836074151e-03 1.6978697790910874e-05 5.4078204146503731e-04 -9.2562379293930112e-05 5.9812135631085242e-04 3.1900583642335465e-04 1.9020212247225614e-03 8.9086700158837846e-04 -5.1527663678370503e-05 -5.6445268988720456e-04 1.5033899652591640e-02 -1.2317576678001160e-03 -3.6272094730155739e-03 8.8424196724332434e-03 2.9220683321748236e-02 1.8599568734946992e-03 -2.1207119267106159e-01 2.9529688504359441e-03 1.1544120710642009e-02 8.5522685152384465e-04 3.2350503203584162e-03 5.8867246923366423e-04 -4.3185881069178911e-03 -4.2785759446156736e-03 1.5177713059235272e-03 1.8250162349350025e-03 -1.6174465975815179e-03 5.3050036651010306e-03 2.3983445282130104e-04 4.9378506379160192e-03 2.2029360873931477e-02 1.1419866570964927e-03 1.3988645002209026e-03 3.2289934485978111e-02 -8.3432007717747676e-03 3.0068736334120988e-01 -4.9799453556564916e-03 -4.2970559601344216e-02 -1.3003229084666255e-02 6.7713827880594504e-03 1.0696304578956723e-02 7.4897025374627887e-03 -4.7247967007580938e-03 -1.8890890663214310e-03 5.2090082049307982e-03 4.4025343497724884e-03 -2.9786874856388285e-03 7.4618369981101496e-03 -2.7719984106635059e-01 
      </Row>
      <Row Index="83">
        -6.2495279934374325e-03 -1.0155537858137886e-02 1.1688299088268711e-04 -2.1893468435390346e-04 -7.4427999516320040e-03 -3.6820714597359666e-03 1.3085736173900544e-03 -2.2004415596269741e-02 -5.0379072238425013e-05 1.2181813328986254e-04 2.2630012300478850e-03 2.4966265871992344e-04 2.3636630955442992e-04 -7.7394255509040237e-04 4.8015770231283911e-04 1.4377178646200472e-03 1.0726228696823737e-04 6.8596119907223321e-04 -2.4475619274922939e-05 6.9294819626642447e-03 6.8847159035849738e-03 -1.0330797937749131e-02 -1.5266549539079202e-03 5.7604779864345174e-03 -4.0138752637024089e-03 1.2791156884383930e-03 -4.5631140590508441e-03 3.1458823077672032e-03 -4.0196626025990057e-04 3.1410483725116851e-04 -7.4233906956558404e-04 -4.2321807607558284e-04 -1.6679854355794686e-03 4.2497155595734668e-04 3.0490250276783565e-03 -3.3599343741785490e-04 -3.3210837039576030e-03 2.6083044664657051e-05 8.1638177495665619e-03 -5.5841651242092838e-03 -4.5249005147320609e-03 1.4965351830632800e-04 4.2022986159409859e-03 -2.2518839983471858e-03 -2.4955964932237146e-03 2.1324652681945420e-02 -5.1433483097403365e-03 4.1584592835675060e-04 -1.1161436082344316e-03 -1.5265765470898682e-03 1.0265993603755311e-03 1.2557843077989073e-03 2.0031167207063584e-03 3.4519517064690586e-04 -2.8485773871383957e-03 -1.5771949295165740e-03 5.4583447752307168e-04 -3.2733987884503712e-03 -1.3074180250084978e-02 1.1876611464221205e-03 -2.0587899081626684e-03 7.9599547432222476e-03 4.5147855652244787e-04 1.7518799620835079e-03 -5.6005793165689322e-03 6.2871327840502006e-03 5.5988978750543331e-04 1.2230960801993575e-04 -1.6909333734887750e-03 9.3351667686749490e-04 -2.3010205941556231e-03 1.0226164291781137e-03 5.8572574207231415e-03 -1.5360620650974625e-03 5.9873297224870975e-04 2.0869104662989968e-03 -2.1902105888201448e-02 4.4891246668754686e-02 1.4768273220249463e-02 -3.3472360737810650e-03 -1.2047523749677965e-02 2.8194925223910790e-03 -2.4067925894234775e-05 9.1706692662353526e-02 9.8562032942242639e-03 1.3501257619208812e-03 2.2276947739153646e-03 4.0165706749647982e-03 1.2464403008606252e-03 -8.2248771023574554e-04 -9.5699749311955996e-04 -3.0195310047599470e-04 4.3866345943498620e-04 -8.6766854301886169e-04 -5.9322713756131021e-04 -1.1676305876860429e-03 1.3582481369247244e-03 2.1440426268376344e-03 -1.6802597576373612e-03 -2.0097689094350896e-03 7.8949138107433964e-04 -3.6341827730580214e-03 1.2191378520474333e-02 2.1056184489090947e-02 -3.9363029450075143e-04 -5.4490900987119652e-04 -9.1738715019225119e-04 -1.1858625419585574e-03 1.0748399703343629e-04 -6.6305896218826267e-05 -1.3655719981141073e-04 6.7460474963718965e-04 5.2162922889536058e-04 -4.0237183486135182e-04 7.5466181506914417e-03 3.9238258447330063e-04 -2.1101821026397374e-03 -1.4472561062128363e-03 7.6451416694619124e-04 8.5202220299811747e-04 4.8071067175872143e-04 -2.5754174165195176e-03 -3.1931712987901262e-03 2.6311401979749123e-04 -3.8474034424294779e-04 1.5971979241445567e-04 7.0287564028677298e-04 5.8831954740497705e-04 -5.2519569571034003e-05 2.7517307208566565e-04 -3.3262328555091965e-04 -2.2561067848754796e-03 1.2006900963028450e-03 -1.3326580986604102e-03 1.9637081049827289e-03 7.4565535076428721e-04 -3.8212773659754924e-04 2.0862246487499461e-04 3.4814555482073835e-04 1.4249947828760142e-04 1.0405441334279775e-03 -1.6005940063455884e-03 -8.0478189305670136e-04 2.3293488830252964e-04 5.1587643715060171e-04 7.8470444806966189e-05 1.0491282812712720e-03 -2.9980559332667831e-04 -6.7046834912830951e-05 3.8719990081671746e-04 3.5724172831082615e-04 -5.2746279117438011e-05 -9.7457377083364893e-04 -8.7110612763664913e-03 -2.0037413495729243e-03 1.1660072831663404e-03 3.3900392431311299e-03 -2.3069170845321169e-03 -1.7580083934176218e-03 1.4781296440955766e-02 -9.3503998717694679e-03 -6.5432075997500947e-04 -1.5524843978110403e-04 -4.9844353596062321e-04 6.4006845796809046e-04 -1.1676264439208842e-03 -2.2606939733038774e-05 -9.7557356316866652e-04 -2.3814040036478743e-04 -7.7705274270992663e-04 3.4792604971501545e-04 3.6685616727018255e-04 1.8271144808305374e-03 3.7232619618911972e-03 4.6808637506569719e-04 4.9496102402588255e-04 5.9397033003465941e-05 -6.2454298388336070e-04 4.1921693292799878e-03 -1.3176631476695747e-04 -1.1013285416752346e-03 -3.4762564077398948e-04 5.1810104997808762e-04 -1.9629698545595934e-04 -2.0846946476479260e-04 2.6926052249542150e-04 -3.2035294712352835e-04 3.9962125626639370e-04 6.3750301351907246e-04 3.8237472234766388e-04 -2.8129109503097268e-03 -2.9667383381323346e-03 7.2340617958785479e-04 -3.9997041827481022e-04 8.0307464858121670e-05 1.7545848905496048e-03 8.8526581758216114e-04 -2.7996394121950069e-03 2.9829860940917517e-03 1.5279048262946977e-03 7.9849563697140724e-04 1.1006195277192565e-05 -4.6165232885873154e-04 -6.4016646453096768e-04 1.4599090516330030e-04 7.5810969910194590e-04 9.9556974154992105e-04 -2.7491006143541118e-05 -1.1948812058816278e-03 -1.4454585231468517e-02 4.6711166029611291e-04 2.2786363026816485e-03 -2.2902438487245394e-03 -1.4112957456569441e-03 7.8672406515782490e-03 1.9689817859971363e-02 -3.5446070692532049e-02 2.0083126479055070e-02 5.5105649643734760e-03 6.9998998633287795e-03 3.3132623227735717e-03 2.8947589450215574e-03 4.7978241522152916e-03 2.1012749827385713e-03 3.9955245699449110e-03 9.8822832120164282e-04 7.0847121686516169e-04 2.0530044009677666e-03 -2.5277960671548069e-02 4.1118555742130899e-02 -1.5778422263797220e-02 5.9840638425598669e-03 -1.2735082374440189e-03 1.6888755914900081e-02 -9.7487020492933937e-03 -6.2851897802021967e-02 -1.4511933426816559e-02 -7.7790638461760885e-03 -6.5493421143394256e-03 -9.1043235246460064e-03 -9.1472078850982845e-04 -2.6847057532927397e-03 -3.2333390918587918e-03 -4.5447512015666398e-03 3.8141339663550116e-03 7.8777914459840954e-03 6.5805887296020212e-03 3.6493219993125173e-02 
      </Row>
      <Row Index="84">
        1.1906674677078740e-03 1.1397252213110109e-02 -3.7241189290741772e-03 -5.4257516418163617e-03 -4.2072671161423408e-02 -1.3713632331223691e-03 6.5438916489751406e-04 1.3322383202364618e-03 8.3295971102012242e-02 2.5515535026377455e-04 -1.4954165085759377e-03 -2.1684330222175646e-03 2.2743697012601633e-04 9.4286655289861094e-03 1.7203002898014113e-03 -1.6484875865262483e-03 -3.3210540551492050e-03 -3.6829958290372361e-03 4.3955358650076687e-03 1.2865255360114958e-03 -1.0744606319227801e-02 3.5970561953749980e-02 -1.4126787919386020e-03 6.6357724931484896e-02 -1.4565609573000474e-03 -6.2832216685368967e-04 -1.6173200656499909e-03 1.0684914391409409e-02 2.2707104744597584e-03 1.4483124868596639e-03 2.6989941128949257e-03 -5.1459964725516644e-03 5.8541890526669083e-03 -3.7574024593509600e-03 -2.6924144614637879e-03 -8.8023995053048247e-03 -4.6777777643322582e-05 -1.3819451294253271e-03 5.2255773126603719e-04 7.9148054373019416e-03 4.0739338754335663e-02 -5.6178505049657157e-03 1.2162181154157631e-01 -2.4735580446742927e-03 -4.0517488335039681e-03 -5.9481016321003000e-03 4.1990992043538955e-02 -7.5249743308686418e-03 -4.2876827187977723e-03 -3.5792191264741868e-03 -1.4309818413700964e-03 -1.7129458239056872e-04 -6.0478238913304339e-03 3.5536189212270509e-03 1.3960475719666854e-02 -3.0489621719935302e-03 -7.1062443945863057e-03 9.7209209936399699e-04 2.0991289843985697e-02 -9.2270843675525543e-03 1.4201018567772616e-02 5.6194435178118451e-02 9.0614645814199313e-04 -1.1268407176615092e-02 2.1115802649163129e-04 1.3657326832075306e-01 -6.9909094549955447e-03 -6.6939447379491673e-04 -6.7331932310177468e-03 -6.9218239262695824e-04 -3.0648460308303458e-02 -5.3537989392175578e-03 -3.4726549758485881e-03 8.8984681505638388e-03 -6.8000813895671662e-03 -1.5196929361182832e-02 2.8035769068215088e-02 -3.3024734854365190e-02 -1.9369541655910837e-02 5.7783232953880180e-03 -1.1116600892494966e-01 1.0933515052091126e-02 -1.1499828953636524e-02 9.8562032941964528e-03 4.1164145305974092e-01 2.3948524133030141e-02 2.0095433017755749e-03 7.0347689461970381e-04 5.2112085142657152e-04 -1.6707026315596028e-02 4.0957171198109188e-04 -7.8747835504418395e-03 3.2991230950363973e-03 -1.0325957267856596e-02 1.6488520422746609e-03 5.4335486059145788e-03 -8.4434434509865035e-03 -3.3869380437765835e-02 -9.8734293655482457e-04 3.0227801149706864e-02 3.3372005476034680e-03 -4.2172671853097816e-02 1.6667932414082896e-02 -1.2115444816572939e-01 6.9574461639523204e-03 2.8419228210138101e-03 -7.8893119990050206e-04 -5.0748956251424459e-03 -1.7418341139751502e-02 -4.4063226348420130e-03 4.8156778778516386e-03 -3.4949645455704809e-03 7.2443224953217603e-03 1.2268674424943792e-03 -5.5658683826682702e-03 -6.7011517375449910e-03 2.1551367703307307e-02 8.3241854845055203e-03 3.8115220789823559e-02 -1.7680584374824184e-03 -2.3755061924638486e-03 -2.9824125612960307e-03 1.6536547523137554e-01 -9.2929846291493930e-03 1.1742546448587584e-03 2.3812502981509255e-03 1.7753292383567184e-03 5.5118227528703359e-03 2.1911462780357148e-03 -1.5505129148345471e-03 -1.2711288242293244e-03 -5.8985228688090991e-03 -9.9801328347259091e-03 1.6486228575645109e-03 1.4620722247123867e-03 -9.2364790443505559e-04 3.0594955280669714e-04 -8.3168422173685377e-04 4.3564754189502955e-04 2.6930614924756063e-04 -1.8601002947667750e-03 1.1298469970181472e-04 -9.3111615201846016e-04 3.8996293611890504e-04 -2.0072151184240728e-04 7.5809500903977855e-04 -1.5538956338397145e-04 8.6561607145191409e-05 -2.0736412429872762e-04 2.7255204177765801e-04 4.4041773540161701e-04 1.0184972520673832e-03 -1.0091077930822479e-04 -1.3532756491013501e-03 2.5225018492614576e-02 5.3899447170221177e-03 1.4183515237644133e-02 -2.3086216568517248e-04 -1.1115369085937857e-02 -8.9656064608095720e-03 1.5391043776238464e-01 -1.0267032599886114e-02 -4.7781251358760841e-05 2.5022159333120937e-03 1.2224102074660393e-03 -6.5025293579058577e-03 -1.2571786718740198e-04 -3.9969086964806713e-03 -9.7365009062402278e-05 -7.0296679644713447e-03 -3.0964545511875958e-03 6.0505242425956673e-03 -2.6778808632891005e-03 -1.2876856145599913e-02 -2.3309374030878426e-03 -4.0122545464960330e-02 1.2012407621328127e-03 4.1685706816146917e-04 2.6971916575494193e-03 -5.5546850398451197e-02 8.4354176292971011e-03 3.0999577373652925e-04 7.8200471652396797e-04 -3.7486942383711504e-03 -3.7556759559938340e-03 -6.7034645906794647e-04 2.1253416103136913e-03 5.2306076435264649e-04 3.9040045018728011e-03 8.4707776539055812e-04 1.1398764533132005e-03 3.6020471150581502e-03 -6.7042781466461563e-03 4.0524186741699693e-03 -1.0979052421245311e-03 2.4287782225737518e-05 -7.0999564679214136e-03 7.5905899757685680e-04 8.1557834428780937e-02 -1.4521270903027628e-03 -5.9608710629848187e-04 -8.5762792317958662e-04 1.8890169084304592e-03 -6.1843971123398088e-03 -1.2349357216483207e-03 -4.1710613586429083e-04 -3.8936224434203063e-03 -3.3823696446358626e-03 4.0235715253690929e-03 -1.7896736182149028e-02 9.3849399848386916e-03 7.2088145535902828e-02 1.7052842639058281e-02 5.7237949696664403e-02 -1.1019186445709473e-02 1.6059572256528043e-01 -3.3165597590936936e-02 -1.6289237752138727e-01 -3.1464179909868641e-02 -9.6595056363040221e-03 -1.2175181215428044e-03 1.7021401918836717e-02 5.9703586604496414e-02 9.4388831829435131e-03 -9.6624311881731983e-03 -6.4378152655877527e-04 -3.1463912634610736e-02 -6.5698200807160238e-03 -1.2363760900911402e-03 -3.1155725925010730e-02 8.3731109698281320e-02 -2.3917101926820880e-02 -1.4565944064419190e-01 -5.4306109409306275e-03 -1.8530693085693062e-01 2.9842719697636487e-02 5.1324005601513578e-01 2.6209541483246737e-02 6.8587405363388226e-03 -4.2339637569052041e-02 -6.4488964016823427e-03 -8.5145796993434386e-02 1.4225625077192355e-02 -4.3830601132749392e-05 -2.9557879319479063e-02 4.5755302378560070e-03 -3.8195794941519888e-02 -1.1289259683570160e-01 
      </Row>
      <Row Index="85">
        -3.2744639671415318e-04 3.5264127514156585e-03 -2.5874201716282463e-03 -5.5643765405728731e-03 7.0018610717460551e-03 4.3092476533442663e-03 8.5991044967193009e-04 1.8824064644803185e-03 -2.9816739835777928e-04 9.7279693874066549e-03 -1.4324640394279709e-03 5.0888871274924264e-04 4.4999604270276117e-05 -1.5486092697489131e-03 -1.6884388420747819e-04 -7.7922475670182123e-04 1.8016291301841791e-05 -6.8616466272201221e-04 -2.2608780062320713e-03 -3.4024322065289436e-03 -1.4883922049856863e-03 8.4742612463876155e-03 7.6259045169977356e-04 8.8702104228230161e-03 3.5313737268523916e-03 -4.3222515879189484e-04 -2.0134000945309510e-03 -2.7526995744170391e-03 8.7522719284624656e-03 -1.6773146843119396e-04 2.1615150017051388e-04 1.9181961847051221e-03 1.9606242831155087e-03 -1.4113126652175872e-04 -9.6740756619478896e-04 -6.7291523225062244e-04 2.6589906030843186e-04 2.9468536516850108e-03 -1.7307819531844869e-03 -2.9963191870330252e-04 7.1165245465579785e-03 -1.9936355935548655e-03 -9.2812763476470828e-03 5.7012756268191855e-04 1.7962626563957085e-03 -2.7962853041457875e-03 8.1961015502543810e-03 -1.3293090888838899e-02 -1.1921066353789700e-03 1.1872678317544072e-03 -2.0496700236944665e-03 -3.1572861764595922e-03 -4.7560900293090735e-04 2.5619903461072263e-04 6.5612013617549758e-04 5.4805962629685297e-04 2.6933446374423700e-03 -1.6155707584062373e-03 5.2662127808607798e-03 -3.9305086256791189e-03 3.6231272465137437e-03 -6.7037226339239529e-03 -7.1130625943383735e-04 1.7077741986361583e-03 1.0542171548347801e-03 -2.3583276664964348e-03 -5.3199654154396162e-03 -1.7436328538663684e-03 1.2587169473340931e-03 -8.7299868482986626e-04 1.3298425650515212e-02 -7.1230212851169927e-04 -1.1540428712304984e-03 -1.1594143976593353e-03 -2.7657503741676873e-04 5.2720931409142441e-03 3.3978936362617784e-03 9.2709215426928226e-04 -5.8076910069753893e-03 4.9160786001544148e-04 -2.8202100407226868e-02 5.0729507311151091e-03 5.7389199181321834e-04 1.3501257619210061e-03 2.3948524132985177e-02 3.1870669515631972e-02 -2.2042972931963886e-03 -1.2178700109971539e-03 -7.0556625045500683e-03 1.4139342335683805e-03 -3.2960615001944313e-04 -1.5391188766391069e-03 -2.2345162330435508e-03 -2.0932264466201368e-03 -3.0000216756035092e-03 -2.1274191652731288e-04 3.6511815990305499e-04 9.5543870994995491e-04 -7.5946444488021389e-06 -1.4594151995772691e-02 -1.0217120298081523e-04 5.6219296735322806e-03 6.5560454170647845e-04 -3.0578986148773780e-04 1.1988627626499822e-02 -4.4618846456884469e-05 7.7708305052133519e-04 -2.4636465077709384e-04 5.6942079002560587e-04 -1.4330324583969366e-04 -7.5810350111424145e-04 -1.8458474972592870e-04 -5.8779462304349070e-04 -6.3309848214723697e-04 -2.5368238372044534e-03 -1.1223547303880759e-04 1.1873395172434889e-03 2.6666700290517622e-03 6.2510814147278201e-03 -7.3655004499112073e-04 1.1472600815592364e-04 -8.1960141434927851e-04 -3.5682989961206063e-03 -3.0859609779867597e-03 -2.4204603111623564e-04 -3.1438748574758718e-04 5.8642498229308172e-04 2.2015017643632999e-03 -6.5255928133639535e-05 -6.4680436389856748e-04 1.8398096381325331e-04 6.0240024905752559e-04 5.7599506245970041e-03 8.3241194935038555e-04 2.1222897180919327e-04 -1.7399712323830653e-04 -1.5612091937993282e-05 6.9564919363087967e-04 -1.1469211944179972e-04 2.9512970524875365e-05 -3.9362355063485922e-04 -7.1060596065912116e-04 -2.1761326342813918e-04 5.6346127117065164e-05 -3.8607152230249638e-05 3.1532978982835169e-05 5.3715392385671266e-04 1.0394106123043020e-05 -3.2435362370950976e-04 1.7551073026277789e-05 3.3253511111827497e-04 -1.8317250158636039e-04 2.7401779592421491e-03 -1.7025632865348846e-03 2.0663448141589767e-03 -3.1401575864392819e-03 2.9402145572360516e-03 2.7116698092855517e-04 2.0507895462281286e-03 -3.6622502063312877e-03 2.3747215578897429e-03 -6.2471423333213079e-03 -1.9854356642589636e-03 9.6694047447246767e-05 -9.9881767383784700e-04 4.9044992650388456e-03 -8.5549901196184603e-05 -1.3398884110990463e-04 4.9649174734758047e-04 -8.6165751813769035e-05 1.4708281888368459e-03 6.4498023121295489e-04 -1.7671596916856778e-03 -1.9241542478123375e-03 -8.3201811288858684e-04 -2.5855317012026344e-03 2.2139175652007535e-04 6.1994369611216918e-04 -6.8363928313672218e-04 2.6795596812258602e-03 3.1009468267785942e-03 4.2490008342524607e-04 -4.9720134216767881e-04 -7.0741023359672693e-04 -1.4648697993010420e-03 -3.7185928792105689e-05 -5.5817145808761959e-04 -4.0694253526267303e-04 -9.4757968947021333e-05 -1.4499661218429598e-03 -1.0139991779860224e-03 8.1536782132650627e-04 -1.7970234284320279e-03 -9.3866300877961328e-04 -4.4380050458620313e-03 -1.6126760659886574e-06 1.4024651061070161e-03 1.1573397434077521e-03 1.6416734697494574e-03 -1.7065249945961820e-03 -5.6840994034589574e-04 -1.7013960729101216e-04 -3.4870022443934359e-04 2.8204528547173405e-03 -1.4628596374388075e-04 -4.2972498381339461e-04 -5.8933887620244525e-04 5.6961534822031856e-04 -2.9232338543189055e-03 -5.7920973004646232e-04 1.4541985666300162e-03 -2.8766232253117498e-03 5.4867249529044664e-03 1.4299033793217761e-02 -3.9376336394365639e-03 -1.7925730706517262e-02 3.6032064911052882e-03 -8.9355585343574885e-03 -5.1779413639040414e-02 -2.2111489319017468e-03 -2.7275006827116172e-03 1.0605341479579147e-03 -1.1398080654448623e-02 -9.6785372148661456e-04 -1.0055889512017337e-03 -1.3050195040952871e-03 2.3163437252440014e-03 -3.0781246437601361e-03 1.2241850045914682e-02 -7.8051628665785694e-03 1.8130653325453674e-02 -1.6799924560528433e-02 1.0800758383362098e-02 -1.5332186802657939e-02 2.7910362570167636e-02 6.6702260931423459e-03 -4.4638913158685165e-03 3.9779361544483291e-02 4.2996900867018507e-03 8.4193220308060902e-03 -1.0477598920212077e-03 4.0506876498596356e-02 1.3518007915784835e-03 1.1776903200501321e-04 -9.5467026363639344e-04 -3.1303413805168490e-03 2.1296782611192770e-02 -8.7472691301788683e-02 
      </Row>
      <Row Index="86">
        1.3162617827443372e-03 2.6353262230339319e-03 3.5714326618859517e-03 2.3823412722311739e-03 -6.0804348748731210e-03 -1.2246159233526011e-03 -2.4455896262752562e-03 1.3224540749917635e-03 -5.5820878802965088e-03 -1.9896808227281193e-04 2.0214895460974915e-03 3.2621846494095550e-04 -4.4815160007929489e-04 -2.9287413973854044e-04 4.5623601760733492e-04 -9.3138341261221266e-04 -1.1825726186520091e-04 -2.4781485948079610e-03 1.2559967562216447e-03 1.4095989524188571e-03 -9.8561124003615844e-04 -1.6329907183591161e-03 -1.2543073028405604e-04 -1.3264641428934604e-03 -1.2364202006090522e-03 -9.6242691894044322e-04 -1.4554247366999756e-04 -3.8492749493846366e-03 -2.8019178356524649e-04 1.7616711026658162e-03 2.3491756729693974e-04 -1.1612097175128064e-03 3.1111083965777806e-05 2.4573325770796232e-04 -3.1160593280310511e-04 5.5433055143566396e-04 -1.8019557888913178e-03 -3.5856872699409001e-04 1.5629228186319968e-03 1.2366337204092193e-03 -3.2856423841306076e-03 -4.5381751373776980e-04 4.3352227782824382e-03 -3.7654675545521765e-04 -1.1209068152496296e-03 -2.9041408076414810e-04 -1.2542536684432906e-03 7.0375241058125843e-05 5.4425803787810575e-04 -2.4846156409458198e-04 -2.4165850778917058e-04 5.7321267708339979e-04 8.8730063881587579e-04 2.1404554619418098e-04 -7.3147185882233012e-04 -6.7527880397815951e-04 -2.2283537558159643e-04 1.0360843527392471e-03 3.4841565784266846e-03 1.1626544158112803e-03 -5.6560284690617899e-04 2.1527366495165080e-03 6.8785431129688226e-04 -9.1395577043031084e-04 1.1099996210388596e-03 3.5511735529965838e-03 -2.7119796201362234e-04 6.1486623975812692e-04 -3.7867725480448438e-04 -1.6978871329195733e-04 -2.5336512147226447e-03 1.1013674216274333e-03 -5.5361891326100726e-04 -1.0788456396702063e-03 -3.9503506714474220e-04 1.3581166655924140e-04 -3.0288762670064515e-03 -2.1652256697374389e-03 7.5458676090135041e-04 -2.1916973258128466e-05 6.8979604548145409e-03 3.8485382894225487e-03 -1.4351879025546722e-03 2.2276947739151842e-03 2.0095433017862652e-03 -2.2042972931963778e-03 5.4903870508700298e-03 -6.8966245103496530e-04 4.0585295061854963e-03 3.8199047361412632e-03 5.1477619631413963e-05 -4.4912257041392219e-04 -7.0710868756379064e-04 1.5507033197737254e-03 1.3369393455332523e-03 -8.1461227606918697e-04 4.3674391409303528e-04 -9.4813086866846999e-04 -1.4182662131513628e-04 8.5872870286664189e-03 7.8164958404281296e-04 -4.5345371183679855e-03 1.4462936965554170e-04 2.6856517940454351e-03 -1.2124619097388652e-03 9.4117864797220127e-04 1.1102367445079981e-05 1.2555521524026860e-03 7.4379824669487541e-04 2.6487664298912027e-05 8.7356743951553378e-06 7.2739357782559272e-05 8.6125056801207784e-04 1.4170437418932198e-04 3.3262310579870567e-04 5.8433234081095098e-05 -1.0828811715545223e-03 -1.0100830243761412e-03 7.9548752277800892e-04 -8.1383394793024003e-06 9.0648989579633697e-04 6.5364493871881806e-05 3.6303968570552069e-03 1.4354517834107251e-04 2.1884153050368233e-04 -2.5465050486520990e-04 5.0190212043534500e-04 -3.3798496749104859e-04 1.4709997932764663e-04 1.9352938386050633e-04 -7.3490070659046108e-05 -3.9609909030120468e-04 -1.2802349808181167e-03 1.3115074788700809e-04 2.4612866593575188e-04 1.2580314226236499e-04 -6.8129182750051607e-05 -7.2785717285957197e-04 1.0193300167468173e-04 -5.4302252677330905e-05 2.1116833359038413e-04 3.3223789459334567e-04 3.6713531921213198e-05 -2.4777158711047204e-05 3.6992292545560199e-05 8.8090745023527116e-05 2.9996291034907534e-05 -5.0314331801174596e-05 -2.2230999852683377e-05 2.2538721494935336e-05 -1.5526212056250679e-07 2.6841766113506397e-05 -9.1488352471564508e-04 -6.9063784793365127e-05 -9.6004306078992761e-04 7.9862788123694311e-04 5.5374812225824493e-04 -3.0039511746574033e-04 -2.6824097518253129e-04 -1.1638684105880828e-03 1.9465121691123067e-03 -6.8848086753838422e-05 9.8215893168480603e-04 -1.4387053011690666e-04 6.1051498405727039e-04 -1.3950368102604571e-03 1.4637862138039398e-04 8.3602825849993999e-05 -1.8871115968139185e-04 -1.2190673718344539e-04 -6.8810652984876899e-04 -2.8390451471099060e-04 -3.0881816649180535e-04 1.6830451347064901e-04 1.2915266986616102e-04 1.4629574942305406e-04 2.1410269009817335e-04 1.2679678664145530e-05 1.7082194744342388e-04 -2.7274498928413606e-04 -5.6339890599547775e-04 -2.8905313041387496e-04 1.3784113681015141e-04 -1.4006499575375932e-03 3.4000033223075161e-04 9.1203790798400220e-05 3.8372545693571292e-04 -5.1182229206289648e-05 8.0165962762837346e-04 3.6924192701352082e-05 3.3981983950371903e-04 9.3199601837067915e-04 6.7731409056875501e-04 3.6697727244916527e-04 9.8492829422408166e-04 4.0046114626418687e-04 -3.7068569163979724e-04 7.2707590317974084e-04 2.2001435115921826e-03 -2.2231597351840389e-04 4.7574729870495720e-04 -2.3869470515176826e-05 2.5410055932744053e-04 -4.6113226786604711e-04 2.1315180237105566e-04 8.4864974936735082e-06 4.7865753144211699e-05 -2.3475408231301466e-05 2.3847342132919972e-04 1.7665069272027232e-03 -7.5313294874109220e-04 2.8440665402102812e-03 -1.2547283338053884e-03 -1.0220444456491295e-02 -2.8548410905524164e-05 1.5895076132524798e-02 1.4637611911206593e-03 -5.0037145964562310e-04 2.7249255527478514e-03 7.3870709798324469e-04 7.6619502798484090e-04 -1.9679467482291513e-03 8.5412805909690272e-04 1.2849811269000349e-03 -4.1164661091944166e-04 -3.4849394767382398e-04 -2.2105958829032189e-03 1.3986434232027207e-03 -3.2945321506098156e-03 -3.6487550117836314e-03 -6.0316696054842148e-03 3.2644657830513098e-03 -6.8879108543180977e-03 5.7691918943053484e-03 -1.7153498447780881e-02 3.4021426240442403e-03 3.4789740114979616e-03 -1.2392202570947516e-03 -9.9896602246336320e-03 -1.1578211202258296e-03 -5.1400554373857788e-03 -8.2501266839783358e-03 -1.5260998765646624e-03 2.5983433400582020e-04 1.7516363466272408e-03 2.6475538936111612e-03 -2.7569608605777277e-03 2.6576310340444127e-02 
      </Row>
      <Row Index="87">
        -5.4502007485740240e-04 1.0266846897942966e-02 9.5411005456302357e-04 -1.5086711747889577e-03 4.8234993400939324e-03 1.0855987408488416e-03 1.9063044908620335e-04 3.8998455055168878e-03 1.6377510736196726e-03 7.4337946872475927e-04 -6.9460784721418409e-06 -6.7889597649624367e-04 -3.6950310581507190e-04 -1.0189836592645520e-03 8.2955693975699830e-05 9.2309566574286239e-05 2.0840189874074108e-04 -1.8893931841379701e-04 -5.6188051128492787e-04 -1.1299915804997146e-03 -6.7554169589131904e-03 8.1545741585663592e-04 -2.2972839914089287e-04 -3.8518608692991591e-03 8.3758371226424089e-04 -3.5548347688254921e-04 -7.4389614176491141e-04 -4.2609849240005451e-05 4.1893386787629581e-04 -2.2251557168685276e-04 -3.1850897198469307e-03 -3.6863582851739767e-04 2.1985292716587433e-04 -7.7954307266172012e-04 7.4981824378474171e-04 -1.1983821601662368e-04 2.3511485875201913e-03 3.1159688248695236e-05 -3.8173513397137503e-04 -9.2654111620074642e-04 5.9233684669977166e-04 -1.9378624186976064e-03 -8.8318040023287192e-05 6.7702454204618401e-04 -3.4178077409020326e-04 -4.2426834157737979e-03 4.3383451068863092e-03 -6.5473732624240014e-04 6.0673211676538254e-04 5.6516423415730235e-03 -1.2762120237887892e-04 -1.7340454260663819e-03 -5.6381521603324214e-04 1.7739673260306027e-04 -3.0923640012680970e-03 1.2123908027160822e-03 1.3669314712722036e-05 2.2631978815199072e-04 1.1008314720836571e-02 -4.2249608456468475e-04 -1.6763363724351440e-04 5.8532141423625851e-03 3.5999758069520799e-04 1.4898873141972607e-04 2.2703997827989431e-03 -4.9491181430647013e-05 4.8357046802423656e-05 7.1990288736860277e-04 8.8716831043058626e-03 -5.5039453614839483e-04 2.4422269213563541e-03 -6.9136204005434965e-05 7.0174280365901606e-04 -2.4862953437698922e-03 7.2234443943467591e-04 4.8379348141393275e-04 -2.1108116337357069e-03 8.0837664456191050e-03 -2.0195932493702138e-03 1.3435034001079054e-03 -9.8474943578765045e-03 -8.8478469678515660e-04 4.5022745680428096e-04 4.0165706749662328e-03 7.0347689460387164e-04 -1.2178700109991697e-03 -6.8966245103478717e-04 6.1571204068497053e-03 1.4392204080467394e-03 2.5552314240573255e-03 1.0171592920069569e-03 -2.5910855790678439e-03 6.3461190156722603e-04 -1.3028234671505260e-03 3.7274431846124896e-05 1.3539974489797622e-03 1.0194008565072470e-05 -1.7529288896528194e-04 -4.3837633479605772e-04 -1.3560272378777118e-03 1.1705091153770613e-04 -9.1373711486478074e-04 -5.8781154353898914e-04 6.7159775400429311e-03 1.9183373334303385e-04 3.7946570667888284e-04 2.1674223685356413e-03 2.8641069971865635e-05 -3.8772034430361538e-04 8.4610183219751536e-05 2.6751615143723914e-04 5.2877896643234359e-04 -1.0888952422300910e-04 2.1912354720820965e-04 -1.4216617766208168e-03 1.6290575518608757e-04 -3.7713436154100579e-04 9.5390728286582716e-04 -2.9186123546397161e-03 -3.2795721606583686e-04 -1.0657039572987466e-04 8.6032662822787924e-04 -5.7629757538340742e-03 -3.2278391199922515e-04 -4.7990359408856800e-04 -1.1010959083192649e-03 2.9495961995072251e-04 4.1076243631684372e-04 -2.3987547442725786e-04 -1.4688829468569942e-04 -2.2642312275756370e-04 2.8856344025956823e-03 5.6532797845895396e-04 6.6871126864293488e-05 -2.1389978596802230e-05 -1.1186903979622218e-04 -9.3962941566969472e-05 -1.3247853701057509e-04 3.1611537719941117e-05 7.4804017282819311e-05 1.3611767911920328e-04 1.1785448310474078e-04 3.6122753655468075e-05 -9.8932022107460130e-06 1.3122435505529510e-04 3.8506239029650525e-05 1.6112410199301170e-04 1.8992672589521266e-05 1.3230397574557818e-04 3.3520185119499961e-05 -7.0131463026289751e-05 -1.2587121357364507e-04 2.9838426283150723e-03 -6.2698152085822437e-04 1.0262644825372405e-03 -8.7647163528343434e-04 1.3260279909159372e-03 3.8312765550782806e-04 9.5818234243776973e-05 -2.9923177590507090e-03 -1.4150140971982668e-03 -2.0831988035366126e-05 -1.4593836515367205e-04 2.7822187636377164e-04 1.3949811637573931e-04 1.4102168835192865e-03 -1.8428030388875904e-04 1.4936764980040193e-04 -1.7590959292065674e-04 4.8358477531081480e-04 5.0391454916579514e-04 -9.0379915326761068e-04 -9.2304552140978140e-04 -2.5313484734203195e-05 3.6400576269513457e-04 -1.8667273230980326e-03 -1.0521518984870943e-04 -1.8815555074604834e-04 -3.7178865790986337e-05 5.6759256942428594e-04 -1.2318419089002992e-04 1.3674456427736296e-04 -3.0395584767378692e-04 -1.7487260147772533e-04 4.5905646362149032e-04 1.1138713330952968e-06 -2.2895999269080536e-04 9.3735208388647602e-05 -9.8836525838057296e-04 -6.2831335693048183e-05 -5.7322600158253741e-04 5.4461244636287163e-03 1.5229862985162575e-04 -1.6916640031041104e-04 4.6373617972022445e-04 -2.9147971506729770e-05 -1.3639612029701112e-04 1.5885585231349654e-03 -1.7744470373689499e-03 -2.3387254106130371e-04 1.1977661148277819e-05 1.1644136431733045e-03 -7.5465294898567896e-05 1.1244040743991985e-03 -2.1771752993366119e-04 -1.5338062233795227e-04 4.4646858487898340e-04 -5.5296189690582623e-04 -6.6217753362887352e-05 -6.0025400104510435e-03 6.5276336376404618e-03 -1.6795962520154513e-03 1.7627640153749418e-03 1.6951467528105772e-02 -1.0819426680918061e-03 2.5663427353333889e-03 1.8073276599112082e-03 -7.0508985367305661e-04 -1.5964957662598976e-03 -8.2566327067774999e-04 -1.4336865222801528e-02 -6.6739825461729126e-04 -2.3547293740745091e-03 -5.0206318319265079e-04 -1.2585947315819392e-03 -2.6865177619994547e-03 2.9294122355530668e-03 -1.4889928437353890e-03 1.3664234222538931e-02 -2.2291747627392194e-02 2.5574448601148412e-03 -4.2758162765742834e-03 3.6869156920828925e-03 -2.9582999131833477e-03 -3.8388554097742657e-03 1.2132864889558918e-02 -1.1065065975377625e-02 2.3462714192178623e-03 -7.2137931786440913e-04 2.9767188971841021e-02 -1.5027265801362093e-03 1.2785670905461158e-02 1.6209548081249645e-03 -2.0547422862459922e-03 2.8953735772563214e-03 -8.8216529844064705e-03 2.0484660199858494e-03 -1.2633247030899027e-02 
      </Row>
      <Row Index="88">
        -6.8462498969466010e-04 2.3258118195820469e-03 3.1501836115355002e-04 -1.3066717912166258e-03 1.5727851032881789e-04 -2.8471773515610739e-03 -7.5843669419290707e-04 1.5993209991288851e-03 7.1648841311001358e-04 1.5409007149442232e-04 1.9913808747642663e-03 -1.9316555729767380e-04 -5.1035890607985745e-04 -1.4017221943818207e-06 1.0210054464784911e-04 6.5467626029468758e-04 -4.9563713294871773e-04 6.4565260315625024e-04 1.0470125153324396e-03 -3.1581291733760110e-03 -1.2145722745100472e-03 3.1913005287573584e-04 4.3466822436681292e-05 -5.3650834464170367e-03 -2.3345675041360086e-03 -1.6762870277427428e-03 -3.6287394853547596e-04 -2.5011314645851978e-03 1.8291746708741334e-04 1.1353164010571939e-03 9.1255997025004379e-05 -3.0297355091266596e-05 1.5079205303052570e-03 -7.5526478588986258e-04 1.4682440236109123e-03 -4.9096456946490902e-04 -6.2673262976312427e-03 2.6649906053099505e-04 8.1767175986292265e-04 -3.4186441461789285e-05 4.4683217696347283e-04 -7.1306850326030742e-04 -5.4055173823588584e-04 -3.5072120041506651e-04 -1.1791488349735648e-03 -1.7604302573950154e-04 -1.9925116045061593e-03 -2.1309438335034413e-04 4.0614187321106297e-04 1.0384626491540183e-03 9.7593012189568784e-04 -3.2413169733070714e-05 -1.0037440799560661e-03 -4.0454657254539530e-04 8.6591155894971336e-04 -1.5559425516445545e-03 -8.5383655294524402e-04 8.9039134082220112e-04 2.4759771575427244e-03 3.8132188524372251e-04 2.4068853514350712e-03 -3.3231265886607556e-03 8.6631959804968264e-04 -1.4513027855573360e-03 6.6803054658802485e-04 -2.3932703790632837e-04 -8.1753044574340954e-04 4.8207087396942789e-04 1.2186117423526404e-03 1.1879785758719544e-03 2.2345887074971893e-03 7.2805923852357901e-05 -5.7516173037654682e-04 6.3115602821007047e-04 5.6907357991831142e-04 -4.3176147047971607e-04 8.3870575451318527e-03 3.8466083743921801e-04 3.9430166050891374e-05 9.2433848172523265e-04 -4.0961617607995935e-03 4.5849495049325780e-03 -4.1765394000439196e-04 1.2464403008603797e-03 5.2112085142861156e-04 -7.0556625045496753e-03 4.0585295061852326e-03 1.4392204080469232e-03 3.2274728457159362e-02 -7.9507265294381096e-04 1.1832814601716235e-03 -4.5346315382700465e-03 1.0269354369480403e-03 5.7262948596829991e-03 -3.6239726066783712e-07 8.9070034372153043e-04 -7.9059405605248615e-04 -1.1247178099439603e-03 1.6522961299391382e-04 3.0413740181631579e-03 9.8408548534253829e-04 -1.9886739386525006e-03 -9.6360773906817949e-04 1.4074365001932720e-03 -2.1368141217976803e-03 8.9242755787760522e-04 1.5401025012857383e-04 5.0540179754223584e-03 -5.6481376628376317e-04 1.6956169728289043e-04 -3.8940106441788828e-04 -2.9795803008939720e-04 1.7016162176698398e-03 3.8229363937987892e-04 -5.9227759184220111e-04 -3.6483884693870052e-04 -2.5699990594387975e-04 2.7610651676250922e-04 -2.2778891035518788e-03 -4.5654745287988709e-04 4.4380600247337192e-04 -4.6725856160806638e-04 2.8883181179072421e-03 1.1468572886566769e-04 -8.1797541578429857e-04 -2.5419259604518899e-04 2.1762163603996293e-03 1.1660295243299894e-04 -2.8653572570840307e-04 1.1559999638793318e-04 1.4998227024476727e-04 -4.2370531722216035e-03 -1.8823998530501146e-03 1.3926548715224819e-04 -8.9490254659233817e-06 -2.3765380380044650e-04 6.8029200929825101e-05 2.5063274741922193e-06 -2.7915773496472608e-05 8.1809426172439138e-05 1.2515975094484381e-04 2.2009402216216102e-04 1.6521260617375093e-04 -1.2320717987110105e-06 1.9515064095543989e-05 -3.5105051707504120e-05 2.1242592559397004e-04 -5.0056549859617700e-05 -3.1336447575871289e-05 -6.8712090472101208e-06 7.7913122968160595e-05 -1.0776766495764861e-04 -1.4817604921924413e-03 -5.2513446384312885e-05 -2.8924956839584189e-04 -9.6944384207255292e-04 1.4261313663633188e-03 -1.2537126188717812e-03 -3.0514332886847023e-04 -1.5721033773457216e-04 1.0417325820401687e-03 2.2145756697329838e-04 -6.0178523568540199e-05 1.5619208376542885e-04 1.9712611585807269e-03 9.9913697349124581e-04 -1.1743448029304926e-04 2.8584052399960379e-04 5.4702197542301912e-05 -9.8853381127614044e-05 -8.8366228645866832e-04 -2.2990282045668962e-03 1.3104566296562327e-03 1.1699571659857730e-03 6.3151108836349314e-04 -4.6748895287734293e-03 1.3076949538697697e-03 -2.6834001918408816e-03 8.9026935964701959e-04 -8.8222195098910904e-03 -6.3458498730834846e-04 1.2945398686952837e-04 6.6550481069316812e-04 4.9197150946918896e-04 1.0274435303321856e-03 5.6707077094072904e-04 -4.4664501119020400e-04 -3.9348402186218821e-04 -1.2573815059864811e-03 1.6350294373716819e-03 8.6830054445776860e-05 1.3739629165539355e-04 1.9710122076868554e-04 -5.6620182809505608e-04 1.4519075571333819e-03 5.1194868348649236e-04 1.0872963822661355e-04 -2.2591023556612667e-04 1.4260452885139344e-03 9.4826082249060051e-05 1.0590618162006877e-04 1.9477253781293005e-04 1.5229180614861693e-03 4.9252144359535500e-04 -1.3541382717234508e-04 -3.1485078393756665e-04 -1.2990934915448841e-04 7.3550043316985214e-04 4.5408232313422301e-04 -2.6389512036500353e-03 2.6866560860938225e-04 3.0287659839530255e-03 1.2231449917518645e-03 -3.5936998138306996e-03 1.3187668742923135e-03 8.3759380105630915e-03 1.1460057795971393e-03 -1.6087448115924417e-03 4.1915109758991504e-03 2.0171208155659471e-03 -2.7253440156906721e-03 -1.1531525534024391e-02 -2.1136917036145520e-03 -8.4354093161154186e-04 1.4735506495269727e-03 3.2576665790220554e-04 -8.0786264500390045e-03 1.4276186013550886e-03 -2.7625063402160130e-03 -2.2900190942682988e-03 1.8346415366760722e-04 -6.2853756685664550e-03 -2.3784460525294948e-03 9.8456222267824991e-03 -1.2423715995418954e-02 1.3414450046764642e-03 4.9519246874592136e-03 -2.5180020406698339e-03 -7.9353861566138217e-03 6.2865818442427255e-04 -1.9067813074907904e-03 6.5949778429024841e-03 2.0583631027905843e-03 9.1811668491908766e-05 -1.0535333353043430e-03 1.2768223455651316e-02 -5.5268633934914668e-03 6.9288429213558494e-03 
      </Row>
      <Row Index="89">
        7.9300848266849154e-06 2.5650295783787164e-03 -9.8280683919929612e-04 -7.4866204996044648e-03 6.5185838870052059e-03 1.5732079195247307e-03 -5.9176138911794587e-04 -1.3252030013101296e-03 4.4435765080212165e-03 3.2304607520933018e-03 3.9872050559601729e-04 -6.9831091687557357e-05 1.6656622183853344e-03 -5.0563734544302073e-04 -3.3144406171056393e-04 7.0993637053366754e-05 -2.2615971058865012e-04 5.7310463513459212e-04 1.8116093589463100e-03 -6.3686993520169558e-04 -3.3624901771778931e-04 4.8948104751700694e-03 1.5740226399606899e-04 -3.9706697423086412e-03 1.6270471009175742e-03 -1.1112536634387449e-03 -1.1018889767785388e-03 5.8628677919948108e-03 2.2136945975950451e-03 7.3788667118131201e-04 -2.1456063709346385e-05 3.3003229481497172e-03 -1.4330150238447289e-03 -1.0232952519958743e-03 1.5134041114079344e-03 -1.4566272467996010e-04 -3.2786373623157825e-03 4.2554992966362115e-05 6.0689543174678034e-05 -7.5602515338624166e-04 3.9124418916540726e-03 -3.6965852567382718e-03 -1.2149121670895255e-02 5.8155863553383674e-04 -3.3304066130794563e-04 1.4599219198960511e-03 -1.3878442848249128e-03 -3.9372660370920951e-03 5.4414285820842540e-04 5.0814326155480816e-05 1.6437947496768246e-04 -2.9567087668025197e-03 -1.6333320508811339e-03 7.4756496531411427e-04 3.2798872037489990e-03 -1.6847225541108226e-03 -1.6925866964164205e-03 -3.3961043211505615e-03 3.6022720524339184e-03 -2.3004884301530068e-03 1.3997869564735397e-02 -1.3113128476057306e-03 3.6667084026300450e-04 1.4539684720561441e-03 3.4709776184949082e-04 6.8638579717943266e-03 -8.0369329242061666e-04 -1.1480037159398646e-03 -4.8135860362135460e-04 2.4837475614970135e-03 1.1783027773590587e-02 -3.4200896242639334e-04 -5.4275432747902391e-03 -1.0829373317010615e-03 7.8846538605862292e-04 -2.4103307975673061e-04 5.9424342887693382e-03 7.2600529893244899e-03 -3.3034739639892577e-03 8.8475370645417191e-04 -6.6307984389515438e-03 3.5773430964488326e-03 7.8472665127086441e-05 -8.2248771023779588e-04 -1.6707026315631396e-02 1.4139342335715011e-03 3.8199047361402380e-03 2.5552314240592459e-03 -7.9507265294459007e-04 3.4687240762045178e-02 1.9399861084691385e-03 -5.1708069851642870e-03 9.7411514281105184e-04 2.1144123043605047e-03 -4.3822581535902403e-03 8.7476693153419019e-04 9.8872399469224952e-04 4.5488853802385992e-05 1.2485450716899927e-03 -9.1915772097349198e-03 1.4467394036136517e-04 3.6305008616353517e-03 -8.7571809407568620e-04 -1.3807961661677375e-02 1.0255294120169853e-03 1.3292257154419651e-03 4.7454831900334553e-04 -8.9996421182859531e-04 3.7061726141481613e-03 -1.3488038735877899e-04 -4.9362527220816804e-04 -6.1542515824902257e-04 1.0588987143609000e-03 -4.9657604669017851e-04 -1.4339005792847737e-03 2.3760622030253625e-03 4.3249067359698570e-04 2.1005077714130755e-03 3.8042913460062042e-04 -2.4875690995169119e-04 -7.2547330015182714e-04 8.9851713488810561e-04 7.8812334007189316e-03 -9.8255801257602000e-04 -5.0661443564026720e-04 -7.1326781434948863e-04 -8.9362019033801079e-04 1.1423431996699820e-03 -3.2660787891725931e-04 2.3146734755596790e-05 -3.0299820645167180e-06 -3.2081644832200663e-03 -9.9949239772108463e-04 -5.4068429448874181e-04 5.6279592675020484e-04 2.5162720966738321e-04 -8.3714390964163393e-05 -1.5156580525327731e-03 4.3992591716513618e-04 -1.6923504369882917e-04 1.4603196880141305e-03 3.2216139651480955e-04 6.8763891565515095e-04 -1.8977314121427293e-05 1.2660074448056873e-04 2.0360559912878891e-04 4.4367666467406270e-04 3.7178606352648906e-05 1.6815063540907835e-04 -2.1160674258038651e-05 -2.6888217411837208e-04 1.0476132214513200e-04 1.3015606382271003e-03 -4.4750739494367519e-04 1.4397468976614207e-03 -3.3122363698685885e-03 1.8309526821477338e-03 -5.8037798995458432e-04 -5.6847300247198299e-05 -5.5068062398863724e-04 4.7831097276292691e-03 -1.5258069319278463e-03 -9.2069020916579400e-04 -2.1103094571743944e-04 3.7360467983379433e-05 1.0377347713651590e-02 4.6150666781982254e-04 -2.3206456980922414e-04 -1.0500359518784337e-03 -1.4991156803079869e-03 -2.7390866578398437e-04 -9.3808659110244941e-04 -8.0662847534986211e-04 -1.5162655608468856e-03 -1.1246338726813800e-03 1.1572395946193069e-03 1.2895508535414090e-04 1.0802768656187993e-03 -2.9287123219266797e-04 -3.5197955800209575e-03 7.7327636928687282e-04 -2.9621584889457427e-04 8.8084285612174962e-05 2.6427249629271564e-03 9.8062023752339437e-04 2.2370629394115885e-04 -1.3277851507459415e-04 2.3394873224118825e-04 8.2134378939196237e-04 2.2415191714364457e-04 -8.0301826865818160e-04 2.1578989762917992e-03 -7.1502065003066354e-04 -1.0287924300402221e-03 1.2856935447241901e-03 -1.5633952343237559e-04 5.0862516683526497e-04 2.5728079342691784e-04 7.8626827433714384e-04 -8.1342643104469724e-05 -5.4016002295565282e-04 1.3681877344399080e-04 -7.2632978538972459e-05 7.8154924396127302e-03 9.6479425975666046e-05 -1.4881225801698767e-03 -1.8853430279282637e-03 5.5794283619202477e-04 2.5081312327057898e-04 -1.9644865911579408e-03 6.7921707536589254e-04 -1.4134031184353871e-03 1.4322532172011045e-02 1.2644377520038955e-02 -9.1354494488488222e-05 -1.2149603097659386e-02 4.2932611700836005e-03 1.0160547695400937e-03 -6.4325408821563458e-03 -2.3249583209111481e-03 -9.3208298771929599e-04 -6.1073048013899353e-04 -1.9943924386938663e-02 -1.9215198612708084e-03 -2.9275498411029249e-03 -7.7419469156215343e-04 -1.0443631244651164e-03 3.6937552984420492e-03 -9.5674411076459090e-04 -2.1220806112733359e-03 1.0227765771696099e-02 -2.8565136212592723e-02 9.2177329676901391e-03 -6.9935972394039366e-03 1.0095408002739243e-02 -7.1152884832130191e-03 1.3460945762145236e-02 9.5781468246268556e-03 -6.5927563762187731e-03 8.8540107642119691e-04 9.0434402543521242e-03 5.1137227838906285e-02 3.0174645807441265e-03 -4.7822457047614394e-04 -4.8378837106364545e-03 1.0189255656246007e-02 -3.9966080489899618e-03 -4.7373430139078250e-02 
      </Row>
      <Row Index="90">
        -3.5765748209321056e-04 5.4481902691436851e-04 6.7769779991912367e-04 -4.7848740616937644e-04 -9.3143305924643666e-03 3.5708400262783862e-04 1.0484787759994533e-04 -4.0596889439685827e-04 3.7392384334260769e-03 1.0156443128336570e-03 5.6775802236898191e-04 -8.7429332370011131e-05 -8.3488149512114709e-05 -2.2727209036249195e-04 1.0087283161923474e-03 1.7328796039164235e-04 6.3401178549777780e-04 4.4553107498987270e-05 -4.2592496684820647e-04 -5.3532324607018233e-04 -2.4479067637373994e-04 1.2104602645591350e-03 -6.3418430813711466e-04 1.8346318601015765e-03 5.9561822891170645e-05 -3.9515950052832860e-04 -2.1579198935671191e-04 9.7501838625488162e-04 8.5141188301768572e-04 -1.0308710661296842e-04 -3.0793767562700691e-04 -1.5382918920083265e-04 -6.7631929373512031e-05 3.2616819170591363e-03 2.9930391338775508e-04 3.5707231349214282e-03 -2.2569607846054454e-04 -4.1457146098366343e-04 -3.2197314834653832e-04 -2.9739483226665087e-04 5.9010947274180936e-04 -1.2281417748775739e-03 6.6809534485570352e-03 1.0864067386340964e-04 -1.1022096942161150e-03 6.6660266664230264e-04 3.6069701922613502e-03 -5.6616805863638278e-04 -3.1328930865182590e-04 3.5379402525298476e-04 -2.6819878604860715e-04 -1.3506750891082407e-04 9.1997831202521446e-03 4.7159139125614743e-04 -1.8138133123142552e-04 -3.8728714763048904e-06 -7.9498451561252174e-04 -4.0650606537140366e-04 6.0316712893461900e-04 -6.1475873904188495e-04 8.1885494354902964e-04 3.1624262669285876e-03 -1.0003078165721387e-04 -1.2503779556285941e-03 -1.0804257734632061e-03 7.2430697159956217e-04 -1.3246607574047241e-04 -4.3798173971188164e-04 2.6763117325457231e-04 1.0431032996779943e-04 1.3866325235308359e-03 8.1006045668751761e-03 1.9781026549224590e-06 -7.0071234813629760e-04 2.4416364968803247e-04 -1.3304438703974700e-03 1.1697147478851207e-03 1.3421533422381445e-03 -2.0873693567873565e-03 7.1434352880421091e-04 -2.5596415655620691e-03 -3.2424347043412952e-04 -6.4964892920641761e-04 -9.5699749311983773e-04 4.0957171198213044e-04 -3.2960615001808441e-04 5.1477619631263476e-05 1.0171592920072792e-03 1.1832814601716827e-03 1.9399861084696554e-03 6.7354296799763576e-03 -5.1541671461729772e-04 -2.7075007257542846e-03 -7.5505216012957348e-05 1.0991712099190439e-03 -5.6953212049104215e-04 3.3866982707624256e-04 -1.1292522168887462e-03 -3.5024520064232741e-04 7.1276083666746851e-03 -2.3599105078864544e-05 -2.3868168952047466e-03 -3.6562273937750141e-04 5.5617614816410362e-04 6.5416050468675093e-04 -1.1201630405302156e-04 8.3522769807543493e-06 3.0575698721650187e-04 -2.0820431094796283e-04 2.1674688704184336e-03 -7.8910324732929743e-05 1.8450175535389022e-03 5.4920868000924930e-05 9.2594306965081944e-04 7.0734666264866551e-05 -1.0047479788853721e-04 4.0753906623765442e-04 1.5952614386896026e-04 -4.9497405737365923e-05 3.6199984061641984e-05 -8.5255270365735072e-05 -1.9641091373852424e-04 6.7888234330508511e-04 -5.3141167436953512e-04 -1.1360227395718746e-04 -3.6142528097447520e-05 1.0283653829590097e-04 1.2401648403457838e-04 4.2133821392433587e-04 2.7700560256402025e-04 -2.6408530752954187e-04 1.3977623373809398e-05 -8.1273882369209849e-04 4.0473184907430896e-05 -8.0554209843278240e-05 -1.7629808866122300e-04 1.0046523723323933e-05 2.0057995993110199e-04 4.5688170597552605e-05 -4.7685453809954948e-05 -3.6099376650670185e-04 -1.0967085143231854e-04 2.5772109608566062e-05 -1.4482883034718142e-05 -1.0129661154378443e-07 -2.2699572145923115e-05 4.7475799560971714e-05 1.9247357906734876e-05 -3.5734847465918683e-05 -1.9760384376285811e-04 -6.7996511917773272e-06 -3.1350794968998158e-05 5.5954020456874007e-04 -4.4914501547755421e-04 5.2815770481674242e-04 -4.8809246734487241e-04 6.4499240626592026e-04 3.0886845169215038e-05 -3.4036232178382217e-04 6.8614965873614055e-04 -5.0764503205704466e-04 -6.5069045105052971e-04 -2.2853746695755193e-04 -1.0342354518925008e-04 -2.5263493391463162e-05 4.8770240281315952e-04 5.4230290137690903e-04 3.3146669095067936e-05 3.3312659085554358e-04 -1.1506276928943663e-04 -2.2752246425926351e-04 -9.1713145046086464e-06 7.0999003816460591e-05 -2.8298504092965499e-04 4.8185097624190592e-05 -7.8670666321683125e-04 1.7394219740903612e-04 -1.4073034014250264e-04 4.2750699130921985e-04 -1.1261413882907370e-04 1.8449733135386155e-04 1.6528350341090591e-04 5.6646059158938639e-05 1.3976696917078910e-04 -7.4816315623793170e-06 3.1367962932817803e-04 -3.0460957483419843e-04 -9.3375089087782378e-05 1.2778029914821642e-05 1.9282144650011827e-04 -3.1712907877225075e-04 1.7365958982423356e-04 -1.8659302474545810e-04 -6.6366828374545887e-05 -7.9951984769628670e-04 -6.3295229015450073e-06 -4.9941677769047325e-04 -4.3795403376491356e-04 6.5932033579596126e-04 -1.1785402777594574e-04 -8.6810071439666591e-05 -8.3845283988677539e-05 -7.7055425180393985e-05 2.3242296732797226e-04 2.3531288197691080e-03 -5.0532042646188335e-05 1.6904807078551756e-03 -1.7327425698382580e-04 7.4298604493952655e-05 -3.7092808387280440e-04 -7.2406258670521515e-04 1.8878725365278981e-03 1.9986113326094295e-03 -7.0422685908634770e-04 6.8339163261805027e-04 9.0078361635090674e-03 1.1789566144508419e-03 2.4756148707820924e-03 -2.1433835107572525e-03 1.1716220255286458e-03 -2.6819124942702513e-04 -1.0245503265925169e-03 -1.4200331059154958e-03 2.8362731895320240e-03 2.5542251347991651e-04 1.1080299956250927e-03 -4.0757363330986239e-04 -3.1445769233881338e-03 3.9706457593485333e-04 -4.6865923683070063e-04 1.9827497005018421e-03 -3.2304501054098676e-03 -1.4524365636979234e-02 -9.0551163762227693e-04 -3.9757522364415928e-03 -3.0302539507696237e-03 -1.4574852043672407e-03 4.1110126725409065e-03 -1.1104985267810781e-03 1.5728550082332029e-03 -1.2303404430476965e-04 4.1446589143941288e-03 -1.6334188437315586e-02 6.4575217413475770e-05 9.8661197191741989e-03 4.9917016906499026e-04 -2.4697379623085242e-03 1.4130905232176746e-02 
      </Row>
      <Row Index="91">
        1.6756822291779693e-03 -2.8429329196750300e-03 -1.0637697756482566e-03 1.0330551675109983e-03 -8.1484260721913400e-04 -1.3572035314545448e-04 1.3200127841893660e-03 2.3921872726336349e-03 1.0656817909678561e-03 -1.1857482854287860e-03 5.4723111277030093e-04 -3.7621453011412874e-04 -7.6051382733270938e-04 2.4117154576439271e-03 -1.3428224714904288e-04 -1.2400197167759874e-02 1.9505837972989397e-04 -8.1897611664025899e-04 -2.2936696412018478e-05 1.3094152776715738e-02 7.4230017517319322e-04 9.2707759757376662e-04 2.9325907981227750e-03 -1.1948630838265195e-03 4.9166874568497363e-04 -1.0725837887145073e-03 5.7596561683662117e-04 -3.9372375065437094e-03 -1.3407685734237625e-03 1.2275718311343543e-03 1.6844474066990203e-03 1.5054047484566475e-04 1.4497732622183223e-04 7.0563565642744932e-04 1.1769949926791048e-02 2.2749673211973549e-03 3.9011340534290465e-03 -2.7491366779119897e-04 -3.5802335259167966e-04 1.0862897537398941e-03 -4.7779345010823537e-03 -2.4153339739504849e-03 6.5789986815406876e-03 2.7884461758227383e-04 2.4513256161702822e-03 5.3930417962966271e-04 2.0283111733111203e-03 2.5530732412164560e-03 -9.7105862149476918e-05 -1.0411984876139944e-03 1.2772309285502548e-04 2.0703762745110724e-03 7.1930354891052914e-04 -1.3080861652860033e-02 -1.0411444161231576e-03 -1.3350191751302699e-04 -2.8858270581080293e-04 2.7883115076355880e-03 -6.9821898531663177e-03 1.2335451361162909e-03 -2.2338913719554734e-03 -2.0004477973984683e-03 4.4324762162440551e-04 -1.0053366725289586e-03 2.0286085646155361e-03 -7.4667913040036005e-03 5.4666850637673237e-04 1.2581822429364852e-03 4.8420244176753053e-04 -7.5025325095687614e-04 -1.1923292078051997e-02 6.8724735039807361e-04 1.0588741064761140e-02 -1.6406198306757676e-03 1.7534791058608588e-04 -1.5349335208289724e-03 -1.7209289601730994e-02 9.5331565219320194e-04 5.3343470834618326e-03 -5.6806414712259681e-03 4.9962809321840180e-03 4.2457661161114397e-04 3.2340883421240344e-04 -3.0195310047641255e-04 -7.8747835504142383e-03 -1.5391188766373728e-03 -4.4912257041332740e-04 -2.5910855790682733e-03 -4.5346315382693726e-03 -5.1708069851623588e-03 -5.1541671461610141e-04 3.9942965774812253e-02 -2.2350066700389886e-03 -4.0526376327900031e-03 7.1760862038628250e-04 -2.1214761292046476e-03 2.3368955748748568e-04 -4.9588301010189471e-04 1.2012266492356766e-04 6.0578381081516260e-03 -4.0351932106135504e-04 5.5474700939947899e-03 -3.9437625074220054e-04 -1.3561493260608678e-02 -7.3619895683765596e-04 -9.5015892819405123e-04 -1.3477723605156587e-04 3.8347088592743245e-04 -6.6048368459120524e-04 2.4121544501756243e-04 9.4252075876832958e-03 6.0581828762281287e-04 -2.3368538858718887e-04 4.8763486295935342e-04 7.0706943014483253e-03 -1.3926248395069486e-03 -4.7535333100940822e-04 -9.1444042358783070e-04 -3.4819503397881969e-04 4.8214875054915576e-04 -3.9630974989613918e-05 -6.1771352677087582e-04 7.9118284736149191e-03 6.3797626493911313e-05 1.4249371675787294e-04 1.9531923465977333e-04 -1.5720349840056297e-04 -1.3062610908141082e-03 5.6027042060496630e-05 3.6712922374773681e-03 2.7183089842048409e-04 4.2498391314009639e-03 -2.0198609036613468e-03 1.8664961670488014e-04 6.6121103503481769e-04 2.3632908127040511e-04 -1.6118159902962911e-04 -1.6588346013494334e-03 -1.0422605728538720e-04 -2.5094562038062874e-04 -4.0280180820226617e-05 4.6073601551712714e-04 -2.0282657858536519e-04 -1.2597614164326583e-04 2.6000141242429301e-04 -1.3076505468207773e-05 -2.7173509287419005e-05 -3.1644361409886282e-05 -8.5354205316395891e-04 1.0757376220793222e-04 1.1643339028499238e-04 1.1248747093811864e-04 9.7988784029905259e-04 1.1679610821942010e-03 1.6161624170588588e-03 4.4916589447590704e-03 -4.6029220819839567e-03 -3.8037834059482503e-04 -1.9970118759442823e-03 -2.0284161633013125e-03 -5.4393926342575635e-03 5.4809232073733873e-04 1.0208198401527105e-03 1.2586619059810269e-03 1.2930757117090908e-03 -3.2458137570219353e-03 3.4130853946896691e-04 1.7324420009221853e-02 1.1003640408206766e-03 2.4624013324451720e-04 -5.4796182026293767e-04 1.7364118069430196e-04 1.4727023078038616e-03 7.1967363901913328e-04 6.9430254415138969e-04 2.2600904432655061e-03 -2.4479100133844613e-04 -2.5700383368852621e-04 -2.9978004832208194e-04 -2.2387888338938969e-03 -8.3965614814066752e-04 -2.7688768929614530e-04 2.1939502658527635e-04 -1.3009288051119977e-03 3.4285668226514987e-04 -1.1134589330810021e-04 5.1088371107349539e-03 -1.2528850364519411e-04 -7.2444781000666778e-04 -1.3982683494174857e-04 -1.6559672286522390e-04 -2.0254761219654772e-03 -8.6495028669883803e-04 -1.4012800161423525e-04 1.9341164737872812e-03 2.0576339489657017e-04 1.0826874616103981e-03 1.0128997561856430e-03 1.1889835007270039e-03 2.9424534657385284e-04 1.0016781761666981e-04 -3.5982253340295498e-04 -8.8901195087958844e-05 -3.1152859954275591e-03 9.8067264494540495e-05 -2.8153460695351891e-03 6.3059818116887581e-04 -5.8170070001685578e-04 1.0711729163323130e-03 -4.3073698727321558e-03 -2.1400889394620655e-03 -1.1273540422941503e-02 -1.3989998473509036e-02 1.1062203049573258e-02 2.6815163187140076e-03 -9.4790663387760068e-03 3.0986740300399046e-03 2.5051493204480288e-02 5.1411071452249716e-03 1.4838259342477662e-03 -3.5752184939347349e-03 -3.0654295744840386e-03 2.6942898076800755e-03 -5.9533139652058562e-04 -4.8826561994846626e-02 -2.7223139070160053e-03 2.8267949914648465e-03 -1.5921080917064420e-03 -2.1751919279158691e-02 6.3496358215057395e-03 -1.2063713407751602e-03 6.7326531255381692e-03 -5.1873288909669787e-03 1.8379207686633394e-04 2.1065561446230459e-02 4.1259941731419877e-03 9.7363588937117336e-03 -7.0585239783754012e-03 -5.9873314583197713e-03 -1.6064850834171529e-04 -3.9931598470604795e-03 -2.9880786900637002e-02 -2.6607369874863860e-03 -4.7835024315485503e-02 4.3623778758640451e-03 -1.0489692354418210e-02 -7.0565948955415804e-03 2.5802129443849964e-02 
      </Row>
      <Row Index="92">
        -1.3471809029142465e-04 7.5024066441754106e-04 1.0619270872786676e-03 1.0155628372640131e-03 3.5049477765773918e-03 -1.0630002155424473e-03 1.8575506640267254e-04 -8.1892071452586632e-04 1.8368856760716569e-04 -4.0304118177681938e-04 -3.1295110193827564e-05 -2.7461765257146421e-04 -2.6387851400120238e-04 -3.1926328068502966e-04 4.6520262298169668e-04 1.2413435158982189e-03 -7.2261629591291270e-04 2.6634023932165744e-04 7.9675154587339342e-04 -1.5700891337225645e-03 -1.7293933743436135e-03 5.9309621419910419e-04 -3.1396386508201080e-04 -1.8217524223061721e-04 -8.7593253597315415e-04 -4.1697421220439324e-04 6.0917120054439396e-04 -3.9436059540634595e-03 -1.1763134490304530e-03 3.7810104679780049e-04 -2.3408942422373617e-03 -3.5322902492568423e-04 -6.8983855936729501e-04 4.7438151687169503e-03 -2.0282994919594566e-05 2.6454471221304468e-03 3.3565160521344291e-04 -1.3859411271902582e-03 1.5496706245961640e-03 1.7502419488918397e-04 -1.4337016392505161e-03 -3.6549576485912609e-04 -6.6992380183572078e-03 -4.3398471328160576e-05 1.9996015768598396e-03 -2.5112818652012897e-04 8.1537486940945238e-03 1.6580050399571805e-03 -1.3023860223401046e-04 2.8905779907424049e-03 2.8765120013603956e-04 3.5452455987996200e-04 7.4441326586159266e-03 5.4977740992182326e-04 -1.6618818990496866e-02 -7.3628141534302460e-05 7.9775888173469478e-05 1.2759173255881481e-03 1.3828170462887920e-03 3.4973840855199480e-04 -1.4533529527923561e-03 -1.7823230039666126e-03 6.6109346515642528e-05 1.7112747235270148e-03 -9.6220001037723712e-04 -4.3210871753128835e-04 -5.7010316024924852e-04 -6.2231868846780378e-05 4.5342986297372597e-03 -4.4840850264392992e-04 -1.4627344671230284e-03 5.8664755137514679e-03 -1.1297662212795198e-03 -9.0284407426924947e-03 1.7473387033769845e-04 -1.6668958019924913e-04 1.5407525226816959e-03 -8.8171094568385670e-04 9.6514265107470890e-04 8.9652967399465704e-04 -3.4585306082949934e-03 -7.3855442925910254e-04 1.5003438828266129e-03 4.3866345943522483e-04 3.2991230950244546e-03 -2.2345162330439337e-03 -7.0710868756345964e-04 6.3461190156749274e-04 1.0269354369482400e-03 9.7411514281011812e-04 -2.7075007257540778e-03 -2.2350066700388659e-03 1.5341239799943481e-02 -9.8158753019435795e-04 2.5101286242313822e-03 -7.3743204499350100e-04 -9.0065764999953859e-04 8.0820769509379418e-04 -9.1637556529823843e-04 1.3077737082649798e-03 1.0128559518143872e-04 3.0701534963864579e-03 -4.2303666997360259e-04 5.8177312716849207e-03 -1.8695739483137774e-04 2.4273071663431014e-04 2.5349325751388449e-04 -3.9827460935777984e-04 -6.4377875262601556e-04 1.9940097708556212e-03 5.6158741159666788e-04 9.7148856067510152e-03 -5.2726391412839682e-04 -1.0904825471533717e-03 2.4961686985972877e-04 -1.1538991505731385e-03 3.4928755459445152e-04 -5.4244456608360393e-04 -4.5875839373170531e-04 1.3019442865520016e-04 4.7645410056457638e-04 -5.4748456981650756e-04 -7.8882121538746946e-03 9.8167105453846851e-06 -6.7850327192893380e-06 -5.9881860827707073e-04 1.7043059497139011e-04 -2.0398071930669977e-04 4.8752242588510377e-04 3.3781608306105142e-04 -2.2691893973047148e-03 1.4565111732121671e-04 -1.1098280148173650e-03 -2.0130106701104621e-04 9.0351414419608428e-05 1.3240496420928677e-04 -2.1251841773913688e-04 2.6674518369371782e-04 -2.3826062812895607e-05 1.8161439133874892e-04 1.2912785261944844e-04 1.9283489669836564e-05 -1.8116792909499496e-04 2.1423647889942970e-05 6.7073366429703949e-05 1.0848389089516562e-06 7.6731369277176540e-05 -6.8003522329178790e-05 1.2526756987736698e-04 -1.6290730885785049e-04 7.7615987353091953e-05 -1.9222317877196947e-04 -4.9682532838957400e-04 -6.2026961406132426e-04 -1.7573548884086367e-04 1.8082468235591754e-04 -1.1013517991606948e-05 -8.6775941144547585e-05 1.3362165730020905e-04 5.6448970129435727e-05 -4.4940249509602733e-03 6.0578501034376725e-04 3.3110244897357512e-04 -2.1981647951555390e-04 7.5128645681630941e-05 -1.3183953377799121e-03 5.6027990582716838e-04 -6.4342122504524647e-05 1.1681946336874302e-03 2.1262147680545205e-04 -6.3279819254320269e-04 -7.0161163737727378e-05 1.1667296432774435e-04 5.5180637936159960e-04 2.9601843323572675e-04 -5.2990374300978865e-04 -8.4809142825489697e-05 1.3495546787900092e-04 7.1607275961018887e-04 1.6577383596229605e-03 -3.3042737413646345e-04 -6.2209736608423969e-05 -2.5794801377086903e-04 -3.8205834057938046e-04 6.7405016136067649e-04 -4.1187782431338074e-04 -4.3362631404366553e-04 1.3182203231808507e-03 -2.4692434537822118e-04 1.2303790194407964e-04 -5.2066212657032884e-04 1.1134815071949064e-03 1.1197978647431079e-03 -2.2295696722641198e-04 5.2446205814357682e-04 -5.3256837220456265e-05 -6.6403803328080524e-05 -5.4950176488845789e-04 -5.4121201462539311e-03 -2.5308262287385944e-04 1.9496319204935513e-04 7.1634916728484984e-04 -4.1701893766542015e-04 -6.6675302633028297e-04 1.9356596926460190e-03 1.4535789347451160e-03 4.8543973753160568e-03 2.2993680622409609e-04 3.1526162820081434e-04 -1.7023416824558746e-03 3.1584652047349044e-03 8.5046807893512065e-04 -1.0434950399643924e-03 -4.7708364761042017e-03 2.9814963849677433e-04 -1.1162431995373458e-02 -3.5625683904635496e-04 2.3755004606052571e-03 3.4159575614901036e-04 -4.4151723609537274e-04 -5.9121177020184041e-03 -2.7852232529993311e-04 4.3240162345426743e-03 3.0749359245907885e-03 2.8845707532012535e-03 -2.1877652033673232e-02 1.1080202781758386e-03 2.5517551949757614e-03 1.8888382239544063e-03 -2.5665982973034386e-03 -2.0184261915755226e-03 2.6145650944376939e-03 5.6223630517797298e-03 3.8102009184549715e-03 1.0814940158930938e-02 -1.1223339351742953e-03 -1.7263239670633514e-02 -3.4429698608225215e-03 1.9350664831700394e-03 1.1368487579086768e-02 -1.4415548920670546e-03 -3.5296166448141840e-03 -1.5891229502284440e-02 2.6664721183739621e-03 3.4016685490293359e-02 3.6469360103521219e-04 -4.3977081035541325e-03 -1.1484055620006305e-02 
      </Row>
      <Row Index="93">
        9.9859887688513857e-04 -2.5050729422980283e-03 2.7834049243297826e-05 2.0283660220441467e-04 2.0385497408128778e-03 -3.6870716696976811e-04 2.0599012493667003e-04 -1.4908784675646269e-03 1.2604457561288564e-03 2.2461251027278860e-03 2.6461281352635133e-04 7.4177227960121103e-04 -1.3634739858456528e-03 2.0196896039843992e-03 -1.7337128002627069e-04 -3.8958669551139927e-04 2.8364232325611097e-04 -9.4518666832023781e-03 -1.7784356975694146e-03 -2.3621039594824058e-03 2.5675804594056922e-03 -1.5444671609611757e-03 3.7090573546908752e-03 -6.1000474785430844e-03 2.1768100898526301e-04 -1.0672692983656569e-03 -1.4160623267759197e-03 -3.0729351695821978e-03 1.5354406011132485e-03 5.8611261561757663e-04 4.5744312990049149e-04 -5.9729290269277587e-03 -1.9414703362138589e-03 -4.8299166267654981e-04 -1.0874095355266275e-03 2.2254943173624035e-04 1.2868187644396178e-02 -3.5606743594453899e-05 3.9435362754068962e-05 -6.3611587076853326e-04 4.3631247213456320e-03 1.4660091958626185e-03 6.1208677787650406e-03 4.5050026783213099e-04 -5.4620783473703291e-04 -1.0706529005136047e-03 4.4248977424356933e-04 -5.7028079980578003e-04 2.4883375904287061e-04 2.2871963600879404e-03 -1.6310894245690870e-03 6.6632850575492480e-05 -2.2816415002876733e-03 2.7989761616187487e-03 -4.3880902662422894e-04 8.8438276628063277e-04 3.4941981138776248e-03 4.4234596123192554e-03 -3.1535739032023053e-03 -8.6068011038455475e-04 -4.4480774557633680e-03 9.7585713042903990e-03 2.9255866871377711e-04 2.6024386488547602e-04 -9.6137622701691905e-04 -5.4074928880556566e-03 -6.7962886406194682e-04 1.0098122613570910e-03 2.9284136407330469e-03 -1.2764598453213725e-03 1.8761382223290218e-03 -1.2176744169358211e-03 -8.3421172306891861e-04 -1.8326984452286029e-04 -4.7408379713386852e-03 5.6527669103896751e-03 5.5663292165508693e-03 1.0338535640257128e-03 9.7215282409647968e-03 -2.3251839438509529e-03 1.0745729814991943e-02 1.2147292796194102e-03 -1.2209775639696347e-03 -8.6766854301648794e-04 -1.0325957267860522e-02 -2.0932264466229228e-03 1.5507033197745333e-03 -1.3028234671504787e-03 5.7262948596834467e-03 2.1144123043578787e-03 -7.5505216013324649e-05 -4.0526376327899944e-03 -9.8158753019493995e-04 2.5284119603723308e-02 8.5630347617702586e-04 -1.7778918966064659e-04 -1.0030642443207330e-03 2.2327668403459284e-03 -5.9788117807594936e-04 5.7172850698603422e-03 4.3027776952663752e-04 -9.5521901110906852e-04 2.5019250858720121e-04 1.7478981419519919e-03 7.3995714761700723e-04 5.0538406273433856e-04 8.7632393644309161e-04 2.7337561602091380e-03 1.4628993303310075e-03 -2.3888332025467061e-04 -1.9965702689110293e-03 -4.2769762406869114e-04 4.4372790630205078e-03 -1.1779709758455275e-04 -4.7826082169697762e-03 -5.5208468346378903e-04 -6.6061073072032689e-03 4.1913795797090926e-03 -1.0213345081475807e-02 -9.8951174608663279e-04 -2.5350919037794460e-03 -8.6022576329039405e-04 -6.7673584521140044e-03 -4.7861314134814073e-04 -8.4198309377922725e-04 8.8637826675435705e-04 -7.9659035578534261e-04 -3.1900157670433525e-03 4.3387797015716711e-04 3.7549526497201689e-03 8.7482744026591021e-04 2.4685173748360899e-02 2.0716330702246605e-03 4.0739103532781609e-04 -1.0252469869943183e-04 3.0323014023136464e-04 -7.1088081311455325e-05 -8.1427566615691754e-04 1.7717732424882241e-04 2.2068019263263540e-05 3.2451960057885678e-04 3.0351855014520111e-04 2.1003001336872111e-04 -8.5551795271574649e-06 2.5641895273072901e-05 2.8495815084230791e-04 -5.2438813354842951e-05 7.1546791767536404e-05 7.6390020375819662e-05 1.2781873653930638e-05 7.5606572083215890e-05 4.1945908664114240e-05 1.7064482502798719e-03 1.3813570545158412e-03 9.5047651269782453e-04 -1.5295891124962255e-05 4.4173873672098468e-04 -1.9172894185731269e-04 -1.9926805087490813e-04 5.6519916617865738e-04 -3.7716537288973091e-03 -7.2780176908105343e-04 -3.5609373041150833e-04 -4.5473287073670530e-05 1.3689149522282231e-03 -1.3739519643207136e-03 -5.6473860296900422e-05 -1.6009608228001993e-03 -5.5028662157354815e-04 9.0601797592976480e-04 1.0770295212800647e-03 8.9535571992888086e-04 7.2809786455918860e-04 4.7977110461691619e-04 2.5623277068633887e-05 -3.0485936855785892e-05 4.6821356535738101e-04 -4.3782493483465919e-05 4.0313768337059408e-04 -5.4724754171441882e-04 -4.7695471154863287e-04 2.4928113174521729e-04 -4.2867148662026865e-04 -4.3771377160386196e-03 4.2019500626977555e-04 -1.5090026332055772e-04 -1.6324024808280838e-03 -1.8827744187473714e-04 -1.1803503586645585e-03 -6.1315647668294237e-04 -5.8598329654871483e-04 -1.0866843277812094e-03 4.6463950004585263e-04 -1.4609482934589230e-04 -1.2343356319170645e-03 -3.1610170447320932e-04 1.4379395832936408e-05 -3.2346204740941206e-04 -1.1001253740704621e-03 -1.6676880059081133e-03 -8.8738524795255080e-05 4.0645137106811889e-04 7.8821045873740810e-04 4.5343291744705982e-04 -4.9773398898870884e-04 1.2853949298035302e-03 2.3633011335255101e-04 -1.5035857168774573e-03 3.3341709647084902e-04 -6.3152835032667378e-03 -1.9795013563972045e-03 -9.4401831827578032e-03 4.1401234539867326e-03 -9.7801317895208906e-03 -2.7831749072968169e-03 5.7497762286591462e-04 -5.0352777524316624e-04 8.0213268460119988e-03 -4.7830509046236803e-03 -1.7366237087366109e-04 -1.6318769300033079e-03 -7.5896953146741969e-03 2.4365887655515128e-03 -7.7395076289865812e-04 1.0484046795451328e-02 4.2614267611989914e-03 1.6984797647993606e-02 7.0884708431308448e-04 1.2547719496902459e-02 5.8892958731066973e-03 9.9032551011894732e-03 5.0216601923547925e-03 -1.3806631435847375e-03 -6.6084135387890612e-04 -8.7043270528257433e-03 -1.2763023013377256e-03 -6.1796915109530396e-03 7.3436129420817618e-03 -4.5399172667179612e-03 1.4717365978905798e-02 -1.8038116059448397e-02 -4.8379187425773729e-04 4.5836832898589102e-03 6.3070856883849172e-03 3.5551174970741006e-05 -7.5872048811376366e-02 8.2652450255911395e-03 1.8266691711252454e-02 
      </Row>
      <Row Index="94">
        2.0535934086536212e-03 7.1827488749220958e-04 -1.2005259224796144e-03 -1.0752429822598012e-03 4.0437005756692899e-03 1.4403661246134916e-04 2.2358747694324003e-04 2.0848598510273195e-03 1.3875998853550564e-04 1.3728705553012774e-03 2.0928076685070109e-03 4.0387087177616988e-04 -4.0281746934687932e-06 1.6739612828129413e-03 -7.3744122056742644e-04 -2.7637376915836537e-04 1.1967442865761550e-03 -1.3171271482510620e-04 -2.2990399053490094e-03 3.4920012315739664e-04 3.3919396482584574e-04 -8.0948971421955507e-04 -4.2487799321952891e-04 1.0545277667614594e-04 -3.0587136180732985e-04 -1.3540069312932264e-04 -2.1592004326052329e-04 -1.3983578677302377e-03 1.5165042627633581e-03 7.3213451177572657e-04 1.0666911878141894e-05 -2.7615458055012438e-04 8.0235213470991563e-04 -1.0281012198712896e-03 -8.0560130155939158e-04 -1.0688207904344796e-03 1.6645306203239355e-04 5.0034758552281594e-04 -4.1850050837968777e-05 -3.3589227402852639e-04 3.4434716018397205e-04 -8.7212926500664090e-04 -2.4147314625920097e-03 -1.0459282722588212e-04 -1.2105682871769996e-04 -1.4905198904014878e-03 4.6359704965604209e-03 -2.1567181735021208e-03 3.5180032194728761e-04 3.4988397522346323e-04 -6.0249504418852240e-05 -9.2294326924280412e-04 -2.5502146015233818e-03 4.5340177908555126e-04 2.4182636682951730e-03 1.4255435094242559e-03 1.4657787372071001e-03 1.9705705584724398e-04 1.8235160957419303e-03 9.5693524531731064e-04 1.0596261235593374e-03 3.0574199431194484e-03 1.9150700591875902e-04 1.4711500843549163e-04 1.1382017228310781e-03 3.3215880894285274e-03 -4.7542532197506968e-04 4.5424543576339307e-04 4.7873506060157507e-04 -1.5180347211558171e-05 2.2703549493227780e-03 -2.1062230525104031e-03 -1.2425422991999280e-03 1.1184271673558197e-03 1.7972839955566885e-03 3.0686311601850549e-03 -5.4457293238799054e-03 -4.0383417034987844e-03 3.8084637192855961e-03 5.6841481081948333e-05 -1.5063933738717379e-02 3.6534827707353852e-04 2.9245172432106211e-04 -5.9322713756081169e-04 1.6488520422643926e-03 -3.0000216756042100e-03 1.3369393455334453e-03 3.7274431846333334e-05 -3.6239726080276608e-07 -4.3822581535910669e-03 1.0991712099187271e-03 7.1760862038653273e-04 2.5101286242315219e-03 8.5630347617730949e-04 1.8456379409279636e-02 -4.3847807872205791e-04 -5.1252214509624574e-04 2.8244301766080073e-04 2.5269570867975685e-04 -1.7057580914484949e-02 -1.4717672505589467e-04 -4.3388876122406236e-04 1.9231247843620215e-04 -1.9167250418019007e-03 -7.7471138472594249e-04 2.3436407950551328e-05 1.6168049464016803e-04 -6.9308117781150523e-05 -6.4584679355098832e-04 2.7339363882264108e-04 -4.0757301534959480e-04 -9.4227578428968724e-04 -5.5793990854949836e-04 7.7614212231929245e-04 -1.3573879291465391e-05 -1.5232673840653154e-03 1.2880885336945804e-03 -4.4000104060344468e-04 1.1403801855130943e-02 -3.6417059159056812e-04 6.2267662199841801e-04 -6.3644849137482057e-04 -1.0703225629939404e-03 6.2784338089589154e-04 -1.0656801118912407e-03 -2.3046405402539749e-04 4.7674466628746322e-05 -4.7615098466668933e-04 5.7964985530912930e-05 -7.7540985188441426e-04 -8.6945100054189523e-04 2.1974388664864285e-04 4.4175573370867959e-03 5.9745427268313549e-05 -9.7944227866288876e-05 3.1875539445977322e-04 -2.2446848253497470e-04 -6.0968542918618171e-04 3.8266759962330414e-05 2.8315743495187091e-05 1.9240458768654144e-04 6.2482407793372811e-04 6.5076511617939323e-05 -8.5182770163157002e-05 -5.8188147761371748e-06 -4.3340680486656229e-06 4.2769352115826307e-05 6.9707675684273522e-06 8.9691170746751569e-05 -4.4428861936337356e-05 2.2297750469524113e-04 -1.3420201466305196e-04 -5.7624367405721504e-05 3.6696978307860243e-04 3.0511641950202559e-04 -1.3442882765573412e-03 2.9143124921275484e-03 -3.0123258049028520e-04 4.3505368145603231e-04 -1.1301775398155954e-03 2.5263945506519376e-03 -1.9689183315848451e-04 -3.0617402734870429e-04 -7.7245353738966460e-05 -7.1413121393170271e-05 5.6635926485935342e-04 1.5737095492351623e-04 -6.7960831139805811e-04 -9.8853980651305369e-04 1.0272759263345622e-03 2.3268653753873909e-03 -1.6619519642159519e-04 2.9123169454754044e-04 4.5570692401160351e-04 2.6904920655149199e-04 -2.4998989073833598e-03 -1.5084229584068397e-04 -7.0569973638860001e-05 3.9611520596220806e-04 -1.6694523995535102e-03 -3.2033062842025525e-04 -2.9994723750692456e-04 -3.8248906509500552e-05 3.1444916408048364e-04 -3.1773234920524939e-04 2.8405463015634199e-05 -4.4699098448314212e-04 2.4117522791916352e-04 -2.3021493807242306e-04 1.5185449744161555e-04 1.1565502319363114e-04 8.1236265883404899e-05 -1.4401916021699706e-04 3.2225801632454411e-05 -3.8368413191540987e-03 2.7772346187763532e-04 -4.1696921295290173e-04 5.2090883563744601e-05 2.2871936012670781e-03 -2.2459405581286382e-04 -8.7718987186667267e-05 1.1787853977185988e-04 3.3750444299002734e-05 5.3198732591287182e-04 -5.6217416928255187e-04 3.2520069816013646e-04 5.8121323703318282e-04 1.7276751152440280e-04 -4.9081236109045591e-04 5.2263190784226712e-03 -1.1704303722841602e-03 -1.5794621002267195e-03 3.2325788016650441e-03 2.3246814322549526e-02 1.6575047715047598e-03 1.2281832697642026e-03 -2.2564967048792047e-05 -2.7604643434939809e-03 -3.9723271819946861e-04 3.1725523666074132e-03 -3.4847265039689764e-04 1.0464884342469183e-03 1.9169905180648746e-03 -3.1669815423462197e-03 -1.8735953042997577e-05 4.8347861439865317e-03 -1.5251417972498963e-03 -7.8573368615769204e-03 2.4686085235661841e-03 -1.8755554906329467e-03 -1.0143177211273304e-03 -4.7384996633180135e-03 1.4977565388789284e-02 8.0331084928846671e-04 2.7745589885942307e-03 7.1518314265713138e-03 5.4810319712918238e-03 3.1797712526204294e-03 -9.7634652163622188e-03 1.1345197718298054e-03 -2.8874922290025417e-04 6.6109088557495740e-03 4.3886079881724415e-03 2.1015274421091580e-03 -5.1580994424744557e-03 1.5390732997681298e-03 1.7683532343763370e-02 -2.8802199585853117e-02 
      </Row>
      <Row Index="95">
        -2.2563196183412987e-02 4.7166228225719586e-03 -5.3741385989208856e-04 -4.6697186023472743e-03 -1.0600298519347125e-02 3.7212179572163745e-03 8.3486847179938678e-04 3.5322476611208076e-02 -8.8904694205092505e-03 -1.5710407562864938e-03 -4.7495230374242359e-03 -1.9957602733197003e-03 3.6690498471326229e-03 3.1149987172042655e-04 -1.1107949921040326e-03 3.1734834828089920e-03 -1.7308668991167916e-03 3.9057010630074579e-03 2.9379257777582286e-03 -5.8596870693773923e-02 3.9912743905256842e-03 -3.8512289959011792e-03 -1.8625494948885379e-03 -1.6487119239462056e-02 2.4675299568934980e-03 4.9716926005977241e-03 -4.4925221346989869e-03 -5.1315692987141878e-02 1.5360569169122623e-04 -5.1382529920127526e-03 -3.9497443490186801e-03 2.4014601022733957e-03 -8.9010664182457774e-04 -2.4061361804802103e-03 -8.4721073027804183e-03 -7.9722033205986906e-03 1.8635884577923728e-03 1.9982039616645852e-03 -4.3958686368454555e-02 2.9822002251673752e-03 1.5342739277884876e-03 -1.1021134977055314e-03 -1.4489498991802408e-02 -9.2882793231577332e-04 5.2923724536400318e-03 -2.7044222349719163e-02 -9.0020621234229797e-02 1.6700373456318141e-03 -2.9956738365844032e-03 7.4140122104497802e-03 4.4609669855096429e-03 -2.1608584947042375e-03 -6.7266034224732624e-03 5.6652787081111176e-03 1.1039782208219440e-02 3.4088696004191347e-03 -1.8652339659480238e-03 -2.0634906532696284e-02 2.5585631230851738e-03 3.0140125111829674e-03 4.2889339953320477e-03 -4.6239988757232862e-03 -9.8297508613542917e-04 -1.8207318462881705e-04 2.1888653623383325e-02 -4.0625986181228813e-02 2.5610067105485967e-04 -1.3773389940516037e-03 1.0679330068454547e-02 3.1293804544538367e-03 1.8918678727251684e-03 -6.1064832128951974e-03 -3.5097987135419562e-03 9.4332793572693471e-03 8.5060374720199207e-03 -1.7923452983380633e-03 4.0722491024029472e-03 6.1412930446888558e-04 -2.4965731482551670e-03 -6.6377815065177953e-05 2.1924178893864381e-03 1.4903835179347607e-04 -5.3447719321359421e-03 -1.1676305876850424e-03 5.4335486058047500e-03 -2.1274191652848051e-04 -8.1461227607197532e-04 1.3539974489835543e-03 8.9070034371913596e-04 8.7476693152870391e-04 -5.6953212049359360e-04 -2.1214761292052201e-03 -7.3743204499006690e-04 -1.7778918966079860e-04 -4.3847807871932529e-04 1.1109523234828207e-01 -1.3961928860209152e-02 -5.0177309327640021e-03 4.4005829500444130e-03 5.1720303168882268e-03 -2.1238878440798933e-03 -1.4820642990065970e-02 -1.5317162090833669e-02 -1.1714884734982955e-02 4.0882437838927858e-04 -1.8494986098025962e-03 1.3175273817287309e-03 -1.9844721354124193e-03 3.5634955425348841e-03 -5.6217124725972429e-04 -7.3689477784372355e-03 -3.7039994041729307e-04 3.0909023650630934e-03 -4.4617387758991711e-03 -4.9847501801906217e-02 1.0473894442095779e-02 -4.3212029809255158e-03 1.5513760780877723e-03 -2.4607403964654758e-03 -2.4597022071348451e-03 3.7242140569533192e-03 1.7464565529034248e-03 -2.1409055683241918e-02 1.0374082806733640e-03 -1.1529215209607920e-03 -2.9889159990023240e-03 5.9303451578032445e-03 1.4036815450617828e-03 5.2797405633476656e-04 -6.3743694664270146e-03 -2.6253330937886558e-03 3.7143237842991884e-03 -2.0251115624413145e-03 3.1339695462860983e-03 -2.1547134117892836e-03 1.8291050152731311e-04 -2.2455606639940477e-04 9.8790332458305449e-04 3.4959190038322924e-04 1.7534620981940490e-04 -1.7446545844485542e-03 4.0272354775188410e-03 9.4661836544215037e-05 9.1273397287979172e-05 -3.9272036104277721e-04 5.3070794780138170e-04 -6.2395475449875267e-04 2.6729625231152964e-05 -3.3255696424700713e-04 1.6234091005780859e-04 6.2112270665396331e-04 2.7308620423146699e-05 2.3963959737239738e-02 7.0831605620279483e-03 -5.2318643183276309e-03 4.8551141724554117e-04 1.7499737355192179e-02 3.6740659193726008e-03 -5.5384827719135192e-03 -1.8319119851319076e-02 5.1880332205859886e-02 -1.5266813626639984e-03 2.2437842486086072e-03 1.8026507662466901e-03 5.8567133382031629e-04 -1.5085824052614758e-04 -2.3742023706346915e-03 -5.0979556255912294e-03 1.8999239241211125e-03 -2.0785570972054403e-03 -2.9084165958455227e-03 3.0290776155363908e-03 -3.4188570491124198e-03 1.6140941522547747e-03 -6.7373656965383569e-04 -1.0414194684342723e-03 3.4536721618223798e-04 -6.7393961552792911e-05 -7.3162129327662417e-03 -7.6696937513376692e-03 4.3349270502835921e-04 8.2274473678442192e-04 -5.9545911928651080e-04 -1.0911638019776427e-03 -5.5330110703173500e-04 7.0015609835159711e-04 9.1476855025179882e-04 2.7284784306823339e-04 -3.4708085931120830e-03 1.5773200116712821e-03 -9.3538405781467757e-04 9.3041682998138212e-04 -1.8740532288757700e-03 4.8191305259404239e-04 -1.8829383141885530e-03 -1.1293180091079174e-03 -1.6753336631574632e-03 1.3401726886510068e-02 5.7661486026318841e-03 1.7827372265438982e-03 -8.3522893777363363e-04 -1.8220144384023057e-04 2.5523530789221156e-03 1.2163446080885681e-03 -2.0840121808950608e-03 -1.1884962573360941e-03 -4.0162892377221910e-03 3.0725610199613122e-03 2.7059801610097454e-04 -1.5673295706435611e-01 3.2293956759605405e-02 6.3393810316383567e-03 -6.3165872770341355e-03 -6.5592432109366022e-02 -1.1131032888060039e-02 6.0139253021561992e-02 2.8856360153642527e-02 -1.8595818120614413e-01 7.1493944466201626e-03 -1.3151493084455984e-02 -2.1415258368068124e-02 2.4863560044968345e-02 -1.2604343671249966e-03 -3.5509951500401369e-03 5.6014863974998830e-03 -8.6042384881435605e-03 2.3110834298856762e-02 1.2974313726038085e-02 1.6048075920730043e-01 -3.1427991458284399e-02 -3.4880612628989879e-03 -1.2207437200199747e-02 7.9578039944872628e-03 -1.6842526739586930e-02 -7.1965729217232585e-02 9.1402813966780683e-02 8.5249251731380815e-02 -3.1632926572199294e-03 1.7412162056288920e-02 4.6436625635768523e-02 1.4230959694957329e-04 5.7442917347101941e-03 1.4199069479136770e-02 1.5992682197806869e-02 -2.4531726701493253e-02 8.1730778696664785e-04 -6.1641016074976112e-03 -1.4774444336027734e-01 
      </Row>
      <Row Index="96">
        1.4705535772038415e-03 5.4441641437361799e-02 -1.4370207897107523e-03 1.0558104184710290e-03 -1.5705306363560358e-02 6.2395992327173022e-04 -3.0329993934516963e-03 1.3431735011206869e-02 3.5018188499703354e-02 4.0959879996429454e-03 -2.7986981415387135e-05 8.2592826959994206e-04 -4.4741294038248359e-04 -8.1083607576201908e-03 -5.8097001505890561e-04 -8.5389272217054057e-04 2.7832971195892687e-03 -3.6900642432002861e-05 2.3222241612299286e-03 6.9086623478316900e-03 -6.2102708295000530e-02 3.6870083615399563e-03 8.2801403072721436e-04 3.0896644071848833e-02 -6.9710656567365664e-04 2.1833129865721319e-03 3.7024982575212806e-03 -2.1903420668939327e-02 1.6094357936373288e-03 -6.6465580556590576e-05 -1.6731044583444543e-03 -3.9774948668255475e-04 6.4695422104808532e-03 2.5486570014725957e-04 6.9239084343980517e-04 -2.2589875501599285e-04 -4.8481859709732789e-04 -1.6101917369298890e-04 -2.4031123232699687e-03 2.2190360128358400e-02 8.6597981309395333e-03 -3.3177746877839087e-03 2.1634286076349540e-02 1.4335785495925152e-03 -1.7913095223262288e-03 -1.9509428983514612e-02 6.2758538033129585e-02 -2.6276338247636921e-03 1.2384330982945918e-03 -2.7903925898700721e-04 -1.0283953771297316e-03 -2.5974640483092531e-03 -2.3849638997258671e-04 2.6375134652218898e-04 -6.5588563171325998e-04 -3.6799087763900382e-03 1.3802352913740851e-03 -2.0163543869929912e-03 1.0623824946903737e-01 1.4501009282629485e-03 1.6310502403902444e-03 -1.3967535889343397e-02 1.5106185606826306e-03 -2.3036223552250212e-03 1.1926721965688891e-02 6.4318583819226116e-02 4.1423673958917995e-04 1.8835282985235693e-03 2.4234880858109795e-03 8.5055023129403107e-04 -5.9085096391488859e-03 -1.1708898934176259e-04 -9.9476166303968661e-03 1.3070205512890481e-04 -4.3585368791032898e-03 8.6118300456727859e-04 1.3729893121530723e-03 1.2891971587730991e-02 7.5156793375209113e-04 -1.2482842232044815e-04 1.1598284019299493e-03 5.3519522666796784e-04 8.1375810578349604e-04 1.3582481369302513e-03 -8.4434434509346179e-03 3.6511815989265228e-04 4.3674391409571044e-04 1.0194008560379664e-05 -7.9059405605104698e-04 9.8872399468627817e-04 3.3866982707631173e-04 2.3368955749179798e-04 -9.0065765000490669e-04 -1.0030642443230320e-03 -5.1252214509913199e-04 -1.3961928860220074e-02 1.0592704507880688e-01 -2.3642784445632075e-03 -5.2716119519161005e-03 -4.8341530773028402e-04 3.2513472110023338e-04 -9.9148121161391715e-04 4.1430998610153182e-02 5.4344402088145359e-02 9.6572326228830906e-04 -3.5381837200574239e-04 6.3317063162261888e-03 1.5225273304164139e-03 7.1138850148565235e-03 5.8995710061954243e-04 -1.0069030226261093e-03 -1.3528007794178371e-03 -5.6517350287977452e-03 -2.8952906286415039e-03 4.9457041175275480e-03 -1.5166152017887468e-02 7.5757935788114115e-04 2.2005882077121897e-03 2.3925563848648723e-03 -8.8144431018883024e-04 8.4964772573840278e-04 7.0568312139743551e-03 -3.3951103354627671e-02 -3.3175797351665979e-03 -5.0406018937648104e-04 1.3067661677632330e-04 7.6626514574873353e-04 1.4480518212048035e-03 2.9442361191445794e-04 -2.0418840467803460e-03 7.3868923134529237e-04 -2.6659498922579623e-03 1.2725228729953291e-04 -3.4043801311811534e-03 3.9344500312699753e-03 4.3042043095021642e-04 -6.9839955841931225e-04 -2.5813253457196172e-03 4.5941826500490237e-04 -4.4972339462773714e-04 3.2848462226520133e-03 -5.8984728161650931e-04 2.6564950852685210e-04 1.6847210352500717e-04 4.1400512979650260e-04 -1.1386163930232846e-04 7.2081946911170601e-04 -1.1889682127964560e-04 4.1435890755925163e-04 3.5161174180420817e-05 -1.5774377110669522e-04 -2.2997922692525428e-04 3.2868800743974039e-03 -3.2910636237715868e-05 5.6417175416743747e-03 2.4295878553331476e-04 -1.0260800504318712e-02 1.3089929046244146e-03 -6.6714542677954536e-04 -2.5989310831131800e-02 -4.5897514237223415e-03 -3.6436372950515890e-03 1.1930938824828040e-03 8.8090131642687940e-04 -9.8474233376326294e-04 2.2856939627118830e-03 1.0893971961974485e-03 -5.4276073113515783e-03 -5.1691685970291722e-04 -2.4537084618634210e-04 1.2787021049520866e-03 -3.3963551432923400e-03 -5.9068808129045724e-03 -2.2256578780228131e-03 -8.7804999694061480e-04 1.5255132439163620e-03 -8.1515054749178167e-05 2.5577657715046293e-04 -4.3667931288071671e-04 1.0646061549569319e-03 -1.6620482231808273e-03 6.0364820735964771e-04 -3.9595891782263914e-04 -1.0262600869046304e-04 7.8155631453637317e-04 -4.4247418388728761e-04 2.3072942977263033e-03 9.8926587224139047e-05 -1.7360548876118838e-04 -4.6758099413571341e-04 1.4052800530510064e-03 3.5910147955034645e-02 -7.1804804540850486e-04 4.3246095504133873e-04 -9.4535683765147871e-03 5.4504684279777708e-04 -6.5652443424858275e-04 7.8040864705449242e-03 1.5421447752772679e-02 -1.4153363266906115e-03 6.5605913206091121e-04 1.1604769470394531e-03 5.9315225160405942e-05 -1.5947338683179350e-03 2.6003398415467617e-04 -4.0381642261078385e-03 -2.4781572171204795e-04 -1.1861428861878647e-03 -4.3936014549779282e-04 2.2843022999494804e-02 -1.9865741875266790e-01 -1.9369919629251321e-03 1.5026396174733907e-02 -3.3424612011715066e-02 -6.8890008012518437e-04 -3.4578108159372921e-03 -8.3578022849796929e-02 6.5943348105026584e-03 -6.4332398110125161e-03 5.4840420705061337e-04 -1.2921841693334796e-02 2.1394085299351519e-03 -4.2233979911524992e-02 -4.3184481143854914e-03 -5.5898813362363492e-03 7.4570029186595381e-03 1.7233792649507989e-03 6.8984750962071259e-03 -2.3905676498719025e-03 -1.6226396550190100e-01 1.5447723548830700e-02 -5.2940975404683413e-03 -2.8173554603519439e-02 -5.3308889148109186e-03 3.7725182248360412e-04 9.9202587033963702e-02 -1.3293638327334587e-01 2.0210805191327119e-02 -2.1856159313706110e-04 -7.3648911850333482e-03 -5.2393855141838388e-04 -1.8933832652703875e-03 1.1018990700714243e-03 1.4638857754154929e-03 -9.4745501048414810e-04 1.3082014613366763e-02 1.4466490162766271e-03 1.3546340792631781e-01 
      </Row>
      <Row Index="97">
        7.2176696712951947e-04 2.2999040776646010e-02 -4.8349141001726020e-03 2.0139555224630641e-03 4.4935903818995029e-03 3.5903415839532854e-03 8.5446737934842185e-04 -1.2459949792674410e-02 1.3407756052107020e-02 5.3169711203159432e-03 -2.2509757470764455e-03 -2.1807194262859131e-04 1.6819543166333512e-04 -3.5627379724506381e-03 -7.2374675758888479e-04 -9.5876141742459731e-04 1.9707101023162484e-04 3.0371359169384313e-03 2.6790747060694226e-04 5.3242801117889260e-04 -2.5863576042600839e-03 -6.3769132332940903e-03 4.8023803239288978e-03 2.0284374081898482e-02 3.1669091163716630e-03 1.3308138124216479e-03 -4.3644266215453614e-03 -6.1588331889662729e-02 1.2159767809573153e-02 -3.6319837364605784e-03 -6.7410614851570738e-04 1.3300546392040410e-04 2.8289258269429381e-03 1.2896284824643143e-03 -1.3214151871600577e-03 1.3166856210137809e-03 -6.2747644497269245e-04 -2.5776364513379821e-03 -3.7280471546666770e-04 1.1832712697955161e-02 1.8026508905949368e-02 6.0942336229232452e-03 -2.0520356219832697e-02 1.8894884173505794e-04 2.2445970103764021e-03 -1.1616093457105237e-03 -7.3277342376060040e-02 2.5691555992684856e-03 -1.5786068012046545e-03 -6.0801650932985202e-04 -1.8224339934585360e-04 -2.4339530995976730e-03 2.9611523599845646e-03 2.4577044133505116e-04 -4.4079489696782770e-04 -1.6517146157328634e-03 7.0525151916821238e-05 -4.4600023461490723e-03 2.4324613288042782e-02 4.4137538252956854e-03 -8.3247050375387342e-03 -2.4957881496927934e-03 7.8776762812811374e-04 5.6418473189773222e-04 -7.0156260220948785e-03 3.1833395190193209e-02 -2.4674704166443781e-03 2.8858717697706100e-03 -6.4930289534845254e-05 1.0783326111817731e-04 1.5318364484473192e-03 1.9353626177209260e-03 -2.4337718987642309e-03 -1.5153797862371664e-03 2.5358192735054977e-04 3.5046670124772514e-03 -1.7171354111359949e-03 2.8681942708927294e-03 8.7181576549322723e-03 -4.6497841486133062e-04 -3.4536143786818331e-03 -2.6604547368033445e-05 1.2238578215511371e-03 2.1440426268420076e-03 -3.3869380437753310e-02 9.5543870994027613e-04 -9.4813086866653642e-04 -1.7529288896816000e-04 -1.1247178099430455e-03 4.5488853795433437e-05 -1.1292522168892824e-03 -4.9588301009779144e-04 8.0820769509160929e-04 2.2327668403437414e-03 2.8244301765902730e-04 -5.0177309327761044e-03 -2.3642784445608821e-03 6.5599930083559077e-02 -4.7272311648231067e-03 -1.8749888672905744e-02 1.4937069444731855e-03 1.6776521271946413e-03 4.5687986628987938e-03 3.5770900775018252e-02 1.3986108793643580e-03 1.9469422983712510e-03 -5.7160351845444231e-04 1.7481650063287146e-03 -6.0336825033736087e-03 -2.9016675591196943e-04 6.8259260294538035e-03 -1.1887883987789227e-04 4.9234786511790545e-03 3.3274108153111600e-03 -5.7485844631778131e-03 2.2699364274570465e-03 -1.4190701353988115e-02 -1.0224969941212201e-03 6.9443951929459551e-03 -1.1127184224170123e-03 -6.2552060408232698e-04 -1.1831214801982202e-03 -5.4065230624745456e-02 -1.8337727823755736e-03 -2.1023227927610883e-04 -1.4850914581444278e-03 -1.1008261813540169e-03 1.8841126113205364e-03 -7.0091661491093770e-04 -2.8823928696421544e-04 3.4168740171474396e-04 4.8505748492604223e-03 1.8013251495830741e-03 -5.7336541588480809e-04 4.1922251921591887e-05 1.9259152348651470e-04 -3.2930087582100126e-04 7.1712875614968153e-04 -7.6610452020142331e-05 -2.0033187263834628e-04 6.9315676803474659e-04 6.3548378504893130e-04 -7.9684180155360483e-05 1.3361647192211638e-04 -1.6617300573923736e-04 -2.3997469081365959e-04 -5.1736462175191154e-04 -3.5134593478183907e-05 4.0243642948654750e-04 -2.7661447280788980e-04 1.7146333008145827e-05 6.1458112664476185e-06 -7.8745418264922554e-04 6.7202249264762710e-04 -6.3746481908478515e-03 6.9178463220986646e-04 -1.0205206570293248e-02 1.7976561652776279e-04 1.0155264057636730e-03 6.7865128403156588e-03 -4.8130795253760544e-02 -3.7588680611222646e-03 -1.3685856207274892e-03 -4.0072860189694964e-04 -8.5961005882531681e-04 3.4522143502128616e-03 -9.2675817643294179e-04 -1.8750220867359748e-03 2.3794302611230937e-05 2.3649400620739465e-03 -1.0585969588147322e-03 5.2988068993703452e-04 -6.2939104469801332e-03 4.9322783301730955e-03 8.3607764834711835e-04 5.3570188939425743e-04 1.5955067694593903e-04 -6.3441916706892011e-04 2.5838895653088195e-03 2.5237806407424200e-02 9.6920030809579565e-05 1.0342296057622054e-03 1.5458876538392355e-04 1.3866185998409840e-03 -8.9248046540471668e-04 4.4497396594590907e-04 -8.8413956969540797e-05 -2.7004523746079995e-04 -1.0285899030935102e-03 2.5749072098989884e-04 -1.4923457010154149e-03 1.0099678109711728e-02 4.3707982111794424e-03 -1.6475274123260398e-03 -8.2789652995321674e-03 2.5656453902827111e-04 9.0314317357243054e-04 -3.3882928307410061e-03 -1.3033761195088683e-03 -1.6812130025290178e-03 7.8936161094003959e-04 -4.1802322647419178e-04 1.0854865050626233e-04 -4.3703619404580007e-04 -1.0654111307723511e-04 -3.2838406938624862e-04 -6.1759314872851946e-04 9.1330307640455832e-04 -1.8731470263604318e-03 8.8034115724987400e-03 8.0879006374908677e-03 -1.0279616098268606e-01 -3.4545891031127138e-03 -2.0280018133442032e-02 -6.4826871762616537e-03 -7.0205883297948142e-03 -1.8539750053706644e-02 4.0011687550806731e-02 -1.1862816760773203e-02 -4.4624557959059260e-03 3.9244414874842204e-04 -4.6723449715315325e-03 -3.8322148455977346e-03 9.7069738993174354e-04 -1.3309715094999952e-02 -1.9512280557223184e-03 5.5878763565265599e-04 -4.9633070183927334e-04 4.4133373299724832e-03 -3.7894312651822921e-02 7.6794219846534565e-03 1.8363873694287523e-02 1.1671749853512315e-02 -1.2474309289864455e-02 1.2849008420275823e-02 -2.9915925455518022e-02 -1.1584619375217235e-01 2.2617885395347186e-02 1.0228807418782371e-02 8.8628091975156646e-03 2.1779568416024509e-03 1.1581203946448460e-02 -4.9120673447090347e-03 1.5524654585396709e-03 -3.0271958118735509e-05 -1.1448252673665893e-02 1.2802956991314203e-02 6.1696661188521643e-02 
      </Row>
      <Row Index="98">
        -7.2724669650403703e-04 2.1741816495063279e-03 -3.5219935028319386e-03 -2.0567580274026094e-03 1.3139997176281521e-02 -2.1316111840494634e-04 5.4632562852769415e-04 -1.1973149235623287e-02 -1.4606049513432518e-02 -4.9767894622685478e-03 2.8718771146866149e-04 -7.3716186593394224e-04 3.8042351598653293e-03 2.2113405809126687e-03 -1.6674665652798926e-04 4.0006961791970615e-04 3.2151685892881803e-04 -3.3968047121611406e-04 -2.5454428000221433e-03 3.9758980829776519e-03 1.0559008425889346e-03 1.3401118069901984e-03 1.0705157704132952e-03 -1.4485141555458537e-02 4.5973649687632619e-04 1.0724444477791747e-03 4.2867366729839153e-03 -1.8187266596911923e-02 -6.8208766869700260e-03 3.9744254908346101e-04 9.5560107841515841e-04 2.5719023390561452e-03 -1.0648781616739284e-04 -1.4853170007105103e-03 5.5746716592571036e-03 -1.3773946157544627e-03 -1.4210720242753203e-05 4.6265565352796804e-04 4.6367328621152292e-03 -2.6649693430055438e-03 1.4511330382428397e-03 2.4465242928838910e-03 -4.2832982119908616e-02 -9.9094425136335429e-04 1.5105207130763146e-03 -8.1905660544548137e-04 -4.2072563374037995e-02 8.3948291165186154e-03 -1.9080580500382546e-03 -4.6697633898104551e-03 -8.0849434327474271e-04 -2.7373430772707910e-03 -2.8898098797534941e-03 -4.3703244887085602e-04 4.2027647797440136e-03 1.2305112798684681e-04 4.9293551607223528e-03 2.9691085823800520e-03 -9.1047805094320196e-04 -2.3561435326150170e-03 -3.5172649889237701e-03 -3.9921890791444828e-04 -5.9787854568703162e-04 -5.0589818784184323e-03 -6.5372583717589888e-03 4.4378340750739972e-02 -4.7720761696414885e-03 2.3495271681411105e-03 -4.0308076562580834e-03 3.0920793019156602e-03 -4.5336910593485116e-03 -1.0521125771585892e-03 -3.6852012607142444e-03 -1.5489103530203063e-03 1.3067471411756337e-04 3.5393127257140420e-03 2.8132085478562840e-03 -6.9244685900292369e-04 -1.1871791968041906e-03 4.9065647113438757e-03 8.7623047109885738e-03 -2.2143348401433772e-04 -4.7135443935114934e-03 -1.6802597576400374e-03 -9.8734293653407815e-04 -7.5946444468531771e-06 -1.4182662131594992e-04 -4.3837633479647557e-04 1.6522961299363271e-04 1.2485450716946446e-03 -3.5024520064111278e-04 1.2012266492295530e-04 -9.1637556529580288e-04 -5.9788117807863298e-04 2.5269570867870192e-04 4.4005829500496103e-03 -5.2716119519266259e-03 -4.7272311648289995e-03 3.5918709801600265e-02 -1.7865965075186490e-02 -3.5180957991237127e-03 -1.2574782704394495e-02 -2.7584743579665838e-03 -1.7339873330440292e-02 -1.1669536885945855e-03 -3.8465772406906366e-04 1.3689155379401981e-03 -1.7870217733935731e-03 -5.8313305899717780e-04 3.1847910699231582e-04 -5.6536155351171596e-03 -2.7749210303740514e-03 -2.4249279947664930e-03 -3.4142760805929871e-04 4.6026711606234946e-03 8.9513785288188128e-04 -2.2922644438702383e-04 -7.1320206094334874e-03 9.6180172223383643e-03 1.0138824488527297e-03 2.4674144581621020e-04 3.6104345586122069e-03 3.4614638726724253e-02 1.8407550971138991e-03 1.6123102895771082e-03 6.1387523614156729e-04 -8.3221588472684406e-04 2.2305327012473305e-03 4.2848263484568806e-04 -5.9034529027270598e-04 -1.1295173960610962e-04 -3.1265878986499237e-03 5.0241328841737730e-03 3.9773037788823503e-05 -3.8201099508058196e-04 -5.0071956258979650e-05 2.6021378705726173e-04 -1.8152952826621055e-03 1.4905837408733076e-07 -5.3459472818763570e-05 5.8270686193357692e-04 2.4316328181027977e-03 5.0326913424442556e-04 -1.5106625208985980e-04 3.3169894686689108e-05 -1.2162866572446572e-04 -5.1480633041487008e-04 2.1021794592301565e-04 1.9732371371074416e-05 -1.2541433364296231e-04 -3.0647686167472942e-04 2.8291767953359090e-04 -1.4730265792090996e-03 2.9099383826211066e-03 -2.9103631935845685e-03 -4.8383340725790050e-04 -9.5450982957116272e-04 -3.6301825291225331e-04 6.2652210011868918e-04 3.7690064801053323e-03 -1.7857213233978469e-02 7.2008497695835059e-03 -3.0492180048757758e-04 1.2355494310996242e-05 -1.8962885298923478e-03 1.2798427596852843e-03 -4.7232856457314067e-04 4.6230607466817529e-03 3.1280063678105130e-04 -2.3682757501533635e-04 1.9751483177582979e-03 -1.7513565167536459e-04 -1.2481674270108834e-03 1.1467150402211627e-03 2.3850701765318191e-03 3.3005093481853296e-03 -4.7534704961929488e-04 -7.3153202240348924e-04 -1.0666729803886256e-03 -6.0871926684904955e-03 -3.5762020093278550e-04 -1.1733194560057973e-03 3.7107111215021506e-04 2.1534720605144008e-03 1.3605912295956701e-04 1.5900521146875772e-04 2.0085430983619243e-03 3.1997672199940864e-05 1.7434759838817022e-04 -2.7194655273838535e-04 2.1115837586059560e-04 -3.1988548129117641e-04 -1.2182859731437235e-03 6.0248380053675278e-04 2.9656534515329330e-03 -1.6574570430697788e-05 -1.7747010923611765e-03 -3.6951545378796601e-03 9.7951812884268727e-03 1.2892758088521306e-03 7.6412319956306227e-04 -3.5470073271990081e-04 -1.6888909887014935e-04 -1.0191284225880325e-03 -7.2301079094948739e-04 -2.1956917458471788e-03 -1.5876620234214474e-03 -2.1433183649646130e-04 -2.5785387295066704e-03 -1.5786233395532694e-02 7.8226322895210750e-03 4.8475390797475641e-03 -8.5158266412364098e-02 4.5482007517417759e-02 7.5668035461690757e-03 4.1155418812456657e-02 1.2644430605246214e-03 6.1215363364847626e-02 3.2758908772431150e-03 5.0318934528250595e-03 2.6891796827432646e-03 7.3054042083232325e-03 -3.2221654368512244e-03 -1.1119175021187303e-03 -4.5107400333624630e-04 2.9898725917451292e-03 -7.6243290296739916e-04 -2.6525529497223267e-03 -1.9287958132190652e-02 -9.8715494013616734e-04 -6.5253526396478936e-04 1.3617443360426952e-02 4.8587620942769354e-02 3.0791377191421807e-03 -5.8038315326969118e-02 -1.7140925841992533e-02 5.4962063244489406e-02 -2.4825549460838450e-02 -5.5025258188295921e-03 -1.4614618775988854e-02 1.0307143749970502e-02 -1.4881520757561724e-02 5.3289241112507209e-03 -1.2375216104551265e-02 -1.0928049575301736e-02 8.9316945255715555e-03 2.0891226587088842e-02 8.4235713753323845e-03 
      </Row>
      <Row Index="99">
        -1.4672346803769901e-02 -1.2200763314658136e-03 3.9174589836948992e-02 -8.8319625487528093e-03 -4.6202485408317495e-01 6.0378589895701551e-03 -8.0288364595742512e-03 4.0014881849768980e-02 -4.0322302905861584e-02 4.2463500946302773e-02 9.6740541769756994e-03 2.1610386376807217e-03 -3.7017341940394364e-03 -6.3505647982513742e-03 8.6599501128674788e-03 8.7681629795841598e-03 1.8338425181707758e-03 5.2855630435558743e-03 4.7925850055218398e-02 -1.0434008656174165e-02 4.4194370018942886e-03 -6.2141120361036917e-02 -3.2436456502333663e-02 2.7860554016018035e-01 -3.6537804461573564e-03 2.6432369898198808e-03 1.0399666297260746e-02 -3.5204933391567272e-02 8.2362669572799391e-02 -6.6430986872496045e-03 3.4345358481604471e-03 1.2909785624064362e-03 1.3526836913675205e-02 9.4637450922582522e-03 3.2910968126684814e-03 2.3080778468192668e-02 -1.7141070612766263e-02 -8.0020773430027892e-03 2.8094390701221716e-02 6.9699258911946060e-03 -7.3746276139804223e-02 -6.9746662475368648e-02 9.0515344680272913e-01 -7.5262517729053346e-03 -3.5979003011663568e-03 2.0073135308078693e-02 1.3820351371675654e-01 -1.7881220982616131e-02 -1.4883117266734747e-02 -1.1572501914479671e-03 3.0692569016076421e-03 2.0135019867309256e-02 2.7588999642356726e-02 1.3768523992083170e-03 -1.2750471735300639e-02 -2.2658394314579444e-03 -5.1374701283818380e-02 5.4472087181514084e-03 7.0737432577846898e-03 6.9753768581037656e-02 4.0017385188829857e-02 5.7894704616130022e-01 -1.2859986791150524e-03 -1.0012308932696001e-02 2.8140413075188775e-02 6.7916271218197766e-02 -7.6432056179338570e-03 -8.7728854112874566e-03 -7.1090117143611797e-03 6.7034433507021651e-03 1.2510755358007497e-02 3.5558140210976141e-02 -8.6934227161918898e-03 -1.4324837066869975e-02 -8.0426285518022667e-03 -1.0854122929873128e-01 -8.1703362625435982e-03 1.8713770658942419e-03 -3.1681282041583547e-02 3.2780366108600342e-03 -8.6880999835389633e-03 2.0122487311565566e-03 -2.1919872438243046e-02 -2.0097689094682458e-03 3.0227801149927291e-02 -1.4594151995689808e-02 8.5872870286511152e-03 -1.3560272378569660e-03 3.0413740181694134e-03 -9.1915772096628490e-03 7.1276083666793819e-03 6.0578381080919064e-03 1.3077737082552304e-03 5.7172850698797018e-03 -1.7057580914464021e-02 5.1720303170869064e-03 -4.8341530783396758e-04 -1.8749888672955933e-02 -1.7865965075227100e-02 1.1126498397413518e+00 -6.2339352698508217e-04 -3.6388522961931284e-02 2.0669213723993413e-02 -9.6513607621144540e-02 4.3017372893468672e-02 -3.8930853350676812e-03 -6.4232049939214678e-03 -7.0717217144061761e-04 1.2591040955677993e-02 5.2533128938016746e-03 -2.0504182085153394e-02 4.2145904342838769e-03 4.4701461209114401e-03 5.9265917220883320e-02 1.0907383918151298e-03 -8.3344224837184535e-03 1.4542510568624030e-03 1.7592949183890316e-02 -2.5415571188234271e-01 2.6710548778831273e-03 -3.1303557701983422e-03 -8.6084427112753659e-04 1.2238660130416633e-01 -3.4955069209715146e-02 9.6959944025344254e-03 4.5651866009343497e-03 9.7909245258124816e-03 -2.7871989865018969e-03 1.3057195382213831e-02 6.3954807822539650e-03 -4.6837674819722765e-05 -6.7025366691191822e-03 -1.3633737683268887e-01 -5.9483551948695144e-04 -1.4116775941426974e-04 7.9455414192650966e-04 -5.9977754213591679e-04 6.3705611284294531e-03 -1.2326840137280217e-03 -1.4707526571147496e-03 1.8100571415714283e-03 -4.5384644157808575e-03 -2.0338726147944883e-03 1.2276072547608781e-04 -1.3572840387239104e-03 -1.8503121303909116e-03 -1.9689979882674417e-04 -4.5352932886125983e-04 2.1938091301564604e-03 -8.7395705615877291e-04 1.2734363272017177e-03 -7.6980719452261531e-05 2.6444816876906082e-04 -3.8087554445623353e-03 -2.9032459987266401e-02 -2.1457652830230357e-02 -6.2966300067402975e-02 4.0054177966695956e-03 -5.8056533708962989e-03 -3.1150268744939619e-02 9.7249171254801592e-02 -4.4492502331107395e-02 5.1067280005546176e-03 2.7594999370043781e-03 4.1260941671204254e-03 -7.2925610184201243e-03 4.5733367560985786e-03 -9.4066581915373156e-03 4.1529846180112656e-03 2.7392268873539152e-03 -5.2758813641281349e-02 -1.3788372760710210e-03 4.5249800214264280e-04 9.7084234943642933e-03 4.0234686341106603e-03 6.7257732755631253e-03 1.2224589200868982e-03 -6.3688180489110402e-04 -3.3131834276958205e-03 -4.1319877825260004e-02 -1.7783241613971261e-03 1.9987561908246048e-03 -5.5735643548049385e-05 -1.1137152089422262e-02 -4.1889564557518570e-03 -8.1627544929881559e-04 -4.2003785526323334e-04 -1.3119905363482599e-04 3.7327162682554726e-03 1.7186355040862161e-02 9.3274233968896336e-03 5.1688610328989859e-03 1.2042019576467198e-02 2.3762450983471481e-03 8.8468316705517247e-02 -5.6036485314481634e-04 -7.5158134812229769e-03 1.6623162807290752e-02 1.1391690965113749e-02 -1.3162503611072842e-02 -2.6654541157965571e-03 4.8130763337746294e-04 2.5169066157372478e-04 2.4764015877936298e-03 7.3908573019060234e-03 -4.3524523463381593e-03 6.6165415985989257e-03 -4.8181926016538663e-03 5.9783028831345890e-02 -3.1075577014664974e-02 -4.4215156009094654e-03 4.5758551084049116e-02 1.1863635632410127e-01 -1.4897689977306587e+00 7.6455468994530741e-03 1.3842549129558462e-01 -4.4219084476533749e-03 5.5582455952560839e-01 -1.5825931783246366e-01 1.6123749420054213e-02 2.2979350895953710e-02 1.2349076860991881e-02 -2.9311985212104374e-02 4.0131085483958960e-02 4.5640334889742840e-02 -1.1989202884429600e-02 -3.3321643255204231e-02 -3.7199313616792309e-02 2.0781905459143567e-02 -1.8404816023113169e-02 -1.9719424180062051e-01 -1.4273421598963359e-01 -1.2966931587914132e+00 -1.2060104584792009e-02 -1.7336563738290905e-01 8.7963284554017279e-02 4.5949691298905943e-01 2.4928617473197320e-01 2.5020265922180984e-02 -1.9173170924864272e-02 -1.7786490465765498e-02 -1.8943305622509898e-02 -6.3802284532555542e-02 2.5362753627387651e-02 5.9569796037819533e-02 3.7591739344075059e-02 -5.3276422000723422e-01 6.6888422092410604e-01 
      </Row>
      <Row Index="100">
        -2.0263084868504654e-03 -3.1805828955318079e-03 3.2519894754176951e-05 9.0823536154115668e-04 5.6751641059626205e-03 -6.7828517203319932e-03 -3.2873157839416489e-03 -2.7102216190908876e-03 3.5378871004374875e-02 -3.0760229853421420e-04 -8.5351092270248216e-04 -1.2428340036896562e-04 -1.0287333231676164e-03 1.7158456027672499e-04 -4.0826495099956727e-04 2.8367960378634406e-04 -2.2949453459289622e-04 -2.5888258444153943e-04 -6.0093030895524405e-04 -1.3879438234935806e-03 2.5264540214483058e-04 -9.5530727984183619e-04 -1.8651055002424487e-04 -1.0572026181995847e-02 -5.8125872788766112e-03 -1.0288791474315244e-03 2.1222127194323905e-04 6.4607181307581394e-03 2.3965935138479228e-04 -6.6936219001894606e-04 -6.2393027337325456e-04 -1.8488306340569641e-03 -7.9701910892108498e-04 -4.0565875849091172e-06 -8.7833660000848079e-04 5.7859729322195792e-04 4.6422648072381653e-04 -3.6279370867955008e-04 1.6016498637951352e-04 9.8635160121705867e-04 -2.2168068972155987e-03 7.0474081549290555e-04 -1.3494461971776112e-02 -2.0398540613803442e-03 -1.5959549069952854e-04 3.4044168120693787e-03 -9.0476101842510703e-03 6.8502523244215636e-03 7.7228425077210689e-04 1.1123120418331635e-04 4.2975982755199052e-04 -3.3037363662323993e-04 4.3829258887839728e-04 5.6617760386213647e-04 -1.9134253904612274e-03 2.2969163979432491e-04 4.7881079578214122e-04 -9.0422728260857246e-04 -1.7157328204161087e-03 9.2321334209854566e-04 -1.8372170098144428e-03 -4.4432564253475545e-03 2.1849591360766345e-05 -7.9925375376536066e-04 -2.5360689654460380e-03 2.8620440193587917e-03 3.5488709452767926e-03 1.7714285602110570e-04 4.3587436361018541e-04 8.4518080207628176e-04 -1.9514986453826383e-04 3.5992891459363067e-04 -2.1399077664175162e-04 -1.5629734356783676e-03 2.1831122997116961e-04 1.2083209086798411e-04 -1.0692308716451944e-03 1.7649924709698533e-04 -1.2917042138671372e-03 3.5702511474307763e-05 4.5091240254112796e-03 6.7360453169812743e-04 -1.8584990477868437e-03 7.8949138107435243e-04 3.3372005475937917e-03 -1.0217120298070155e-04 7.8164958404242351e-04 1.1705091153789199e-04 9.8408548534215470e-04 1.4467394036168392e-04 -2.3599105079006330e-05 -4.0351932106113219e-04 1.0128559518182874e-04 4.3027776952612345e-04 -1.4717672505607166e-04 -2.1238878440782323e-03 3.2513472110050757e-04 1.4937069444738442e-03 -3.5180957991257462e-03 -6.2339352698093748e-04 1.3127556485592733e-02 -4.0175092474114653e-03 1.0384300414215050e-03 2.5256833810364133e-04 7.0421262099237001e-04 7.5009536734953735e-03 -6.9573916123209247e-04 5.2484298351421549e-03 2.4838734451931490e-03 -9.7725693628806509e-05 -7.7438748218822259e-04 8.7465143527027680e-04 1.2888302774383008e-03 4.7632589016595732e-04 -3.1021223338729325e-04 -2.7416466864590657e-04 -6.2892088415462000e-04 8.5692814904231394e-06 -2.8077639668219519e-03 -8.2055708426495349e-04 9.7812366098189033e-04 -3.3805286374706772e-04 -6.8865503706765901e-03 1.0757641453781844e-03 -2.0054002427056048e-03 -1.8197357664344338e-04 -1.1020731148713360e-03 -2.1534382840060831e-04 -1.4334395698577447e-04 1.7900370486492387e-04 -3.0896475551357174e-05 1.1140406464776424e-03 -7.1631544861886734e-05 4.3337104058008920e-04 4.9111263275350165e-04 -3.5483105132707991e-04 1.4595565720447053e-04 1.6131980088734022e-03 -6.3812965126403741e-05 -6.0361846613455204e-05 -2.6794041523147132e-04 -2.0253522778518793e-03 -2.4649022750938512e-04 -7.5089130214325134e-05 -8.0151946146545482e-07 1.2183524445249908e-04 1.2556695720743015e-04 -1.1037635645514646e-04 -1.3487407054207664e-05 1.5639298440052926e-04 9.2796741028536504e-05 -2.2729272853052782e-04 -5.3730026449446300e-05 -7.8929994390914077e-04 -8.9298060767941875e-04 -7.0170302775291165e-04 -3.8898486127620846e-03 -2.5056280326646529e-03 -1.3853254986282738e-04 2.7555079659936305e-03 -2.1470465756072109e-03 4.7513262188431677e-03 -7.7934111162338568e-04 -1.8270343399080441e-04 -1.4083277985432047e-03 -1.8345656597377330e-04 -6.8988719421666714e-05 -2.3789389634877155e-04 -4.6992713354700378e-04 4.0279007460672757e-04 4.4278981592559485e-04 6.2206797886840345e-05 8.9925477510928442e-04 -2.6167254152309645e-04 -3.9240992799609298e-05 1.7929545664893548e-03 1.1826119050684439e-03 -9.3162850449588289e-05 -1.8801545761963027e-04 -4.8036703267031466e-03 -4.7913169771083425e-04 5.6745142897727705e-04 -3.8094536901174796e-05 2.3746118593827477e-03 5.8963551563966446e-04 9.5678322076765947e-05 1.2263169020631029e-04 1.0463106305125009e-04 -4.3715379442695859e-04 3.1396352660912740e-04 -9.1269012514702888e-04 -5.5267558137862306e-04 7.6155595772716984e-04 -3.3751482779635015e-04 2.1663290057735794e-03 2.2901358251681378e-04 -4.6536399524627829e-04 -8.1956545325104560e-04 4.1188647855532209e-04 9.1422736658430045e-04 6.1097993853579270e-05 2.5691498343488259e-04 1.9567580825256836e-04 1.8982815145124874e-04 1.5490376629388917e-04 3.9472873502088612e-04 1.4572541585746964e-04 1.0771725307026061e-04 2.3221012868078201e-04 1.1974735611081518e-03 -2.3734405752373266e-03 -3.0562608570647259e-03 7.5040791895823831e-03 9.7842004822243558e-03 -2.2248638697735666e-02 1.4178850284774773e-02 -1.2118083984060015e-03 -1.0273014585670816e-02 2.1123542114165252e-03 -1.3687748189509637e-02 1.4163909770431721e-03 -7.7917133283668706e-03 -5.5333483371300812e-03 -2.2888367535706014e-05 3.1408701385908962e-03 -1.6844740170601433e-03 -1.4128803361219359e-03 -1.3855800579487274e-03 3.1508526549814636e-03 6.6419043800815154e-03 -4.2960264029362344e-03 2.8334067824065823e-03 1.0528939745787162e-02 1.9578369709432879e-02 -1.6044774682599100e-02 -1.1070553447708825e-02 2.2029041267455840e-03 -1.7899986231319900e-02 1.8547431286358822e-03 1.7955767542943693e-03 5.1913842552971361e-03 -1.9236253530977767e-03 -1.1946024688071794e-03 2.7859684694687150e-03 3.1420590265961688e-03 -2.9562783804179824e-03 -8.7694598407099880e-04 4.0088137089827926e-03 
      </Row>
      <Row Index="101">
        4.0751999277161347e-04 -3.0106093066563311e-02 -8.0297482896585226e-04 1.2856821144996121e-03 2.7772094538965703e-02 6.8011709412256205e-03 6.9763801763999822e-03 -1.3957143082954371e-03 -2.4647065529585843e-02 -7.6654202849727486e-03 -4.0659783771626878e-03 1.9074444889359337e-03 1.0098107462710238e-03 6.5022986940553550e-03 -1.1243124364795909e-03 6.0336041246000782e-05 1.5218197265442776e-03 1.2308906405602005e-03 -1.5784788232079431e-03 -9.3868402925689765e-03 2.3929822091113162e-02 2.8996410036925546e-03 2.5196275565417814e-03 -2.7744971358510284e-02 7.4894936993044614e-03 -1.0521977747535294e-02 -3.5177720211015950e-04 2.8839033049444796e-03 -6.9863940971914285e-03 -2.3395820840804715e-03 -2.2142794012827149e-03 4.5110606205015094e-03 -4.4151580245222477e-03 1.6783952398062019e-03 -8.4087324478820946e-03 -1.3057182159980016e-03 3.5498002836182874e-03 -6.1012587621811498e-05 -6.8105225839477090e-03 -5.4861968176327380e-03 1.5166791306739924e-03 2.4293853949850508e-03 -4.9022487825174821e-02 4.0150191660939250e-03 1.9919674656590169e-02 5.0266090648052320e-03 -1.3976049301013260e-02 5.2542713471536162e-03 1.0817785996577456e-03 7.1938982035829602e-03 -2.3678646191072072e-04 4.2337112476861227e-03 2.2237089177955527e-03 1.1046591900222141e-03 -9.4449077244029844e-03 6.9464056005879432e-04 1.3038980450030824e-04 -3.4585213243989443e-03 -4.3428257487481726e-02 -4.2265092444593311e-03 -8.4577926069500653e-03 -2.9651297933509319e-02 7.5652436241613330e-04 3.6104332172636422e-02 -7.6505654903247233e-04 -7.5594975369866368e-02 4.6094915841873307e-03 6.4768301993245458e-04 9.3483291575227612e-03 1.9966080313671419e-04 -2.6863651082353335e-03 1.8483487275391397e-03 2.8531011713111010e-03 -2.5833793486740031e-03 5.1184392233553644e-03 3.1063921022319585e-03 -1.3013531600957640e-02 8.8421479805191883e-03 1.3679340990854216e-03 -8.1832069161610205e-03 -2.7232663059017503e-03 -1.9580846726538065e-03 6.6029193373047274e-02 -3.6341827730534959e-03 -4.2172671853297317e-02 5.6219296735509072e-03 -4.5345371183638933e-03 -9.1373711485642772e-04 -1.9886739386523605e-03 3.6305008616173418e-03 -2.3868168952034668e-03 5.5474700940110200e-03 3.0701534963928079e-03 -9.5521901107223361e-04 -4.3388876121423781e-04 -1.4820642990163946e-02 -9.9148121153308511e-04 1.6776521272261619e-03 -1.2574782704430021e-02 -3.6388522962179252e-02 -4.0175092474309254e-03 1.8995385417693264e-01 -1.8856607724099090e-03 -7.6002176386876480e-02 4.6785691948400352e-03 -6.4082756303681238e-03 -2.3386475874033245e-03 7.8789376373203856e-04 7.4915598242418172e-03 -2.1373581296936883e-03 4.2562067011092455e-03 6.3091742896718983e-03 -1.9493432544308493e-03 -2.5221701709718463e-03 -1.9876166124022715e-03 5.4486176885933267e-03 5.7798650081753236e-04 -2.9731020685038172e-05 -8.9953840579739706e-04 -6.4847335706776706e-04 -1.2518608342510578e-02 -4.4729474248120238e-03 -9.9178450003613410e-03 3.1289781172504959e-03 8.1579251736013745e-04 -1.0622641364085440e-03 -3.3198931931473631e-03 -2.9391922730782616e-03 -1.1780691718485102e-03 1.3726342377490893e-03 1.3433330907593094e-04 2.9350184648202324e-03 3.0636811552390217e-03 1.5251703488424581e-03 -1.9320063299197679e-03 -1.5714238281649211e-04 2.0658196877454404e-04 2.5308258500541594e-03 -4.3064779865577290e-04 1.1763499285338762e-03 -1.8034409505355853e-03 -1.7660164006076992e-03 -2.4994765197670920e-04 3.3792271297365098e-06 -2.4860378161052578e-04 -1.5941581204496140e-04 6.4455298051077625e-04 1.6669310982504715e-04 -3.6828586984426816e-04 -7.2154649981515504e-06 2.6933402142939209e-04 -3.7403588915753535e-04 -1.7897053930091766e-03 5.1499757255013510e-03 1.7223162243830555e-03 -2.9053153466818580e-03 -5.6533585743185752e-03 1.4678319013054272e-03 1.1307149031536894e-02 1.0937901502885983e-03 -2.5220826289552644e-02 5.1987581465706856e-03 -4.2169411912876574e-04 -4.4223202748098919e-04 -1.0511297756133344e-03 -6.2319256587646680e-03 1.0177391709964483e-04 1.9906776749398667e-03 2.0041973383816143e-05 1.2430501702785995e-03 2.5173901617018559e-03 -4.1146080775684712e-03 4.4599350849759811e-03 -1.9920402468653897e-03 -5.5780190531928972e-04 7.5057786658009294e-03 -1.0195499878535631e-03 1.1373377322374860e-02 -1.0626268937976580e-03 1.4057310136318030e-02 9.9659758726582028e-04 -4.5704524990189112e-04 -1.2775689370530530e-03 7.3872393043738650e-03 1.6286234531344625e-03 2.6071898270134852e-04 -1.3127649455078050e-03 -1.2063037979198935e-03 -3.5864478830435441e-03 -1.4352414876361852e-03 -4.2966499313210615e-03 -1.1505202596234269e-02 -2.7020585738432236e-03 -2.5974408437991355e-03 -3.8197973780124991e-03 -4.3973697000950938e-04 2.6219790967811570e-02 -1.2243569565152756e-03 -2.7079980115979358e-02 2.4876806803958958e-03 -5.9793730102828725e-04 1.2681593875285486e-03 -4.6473357262347500e-04 1.4716310857458908e-03 5.8527405163195977e-04 6.0031221039575913e-03 2.2540297359120430e-03 5.2412755045452104e-04 -9.2906928764334320e-04 4.1362601705660952e-02 -4.3059923884557995e-03 -7.5511877964949108e-03 2.3160787480598334e-02 6.4284803251492564e-02 1.8476661841804573e-03 -5.9696862384956628e-01 6.6382025063380212e-03 2.1938525184249991e-02 -3.1902579198598104e-03 4.0355002316679461e-03 -3.6339112665140227e-04 -1.0302980338043687e-02 2.5106398996917593e-03 2.3247841205606603e-03 5.0903273360697332e-03 -5.3693043033203628e-03 1.0110995215184843e-02 -4.7359063434009008e-04 1.0635312186609333e-02 6.9236566749151393e-02 4.6004932077872811e-03 6.6641962889948565e-03 6.8952676880497887e-02 -2.3634543719486201e-02 8.2165860194633489e-01 -1.8961722967547778e-02 -3.6885127100481918e-02 -2.3214110032581906e-02 1.3570433637184839e-02 2.8477929861683113e-02 2.0202534967722417e-02 -2.1313952863979080e-02 -2.5057985949145656e-03 1.4272126081215371e-02 1.2818022030005177e-02 -6.7807839732740294e-03 1.1196080535573527e-02 -8.1087482464585336e-01 
      </Row>
      <Row Index="102">
        6.8494026628153314e-03 -2.7317945802782115e-02 3.7592396469771153e-03 1.9889795237253245e-03 6.4285223848228957e-03 -1.2601505044456205e-03 2.2998015383133060e-03 -1.2666144962237877e-02 -2.4952108549099954e-02 2.7615881944614003e-03 2.6639856273440029e-03 -1.8055017929892664e-04 2.8663565480765104e-03 1.5112968421910891e-03 -1.5251131518949877e-04 2.7819130259421621e-03 1.2212359099316639e-03 1.1950343785606873e-03 -1.2537162073969449e-03 8.2952956875576751e-03 1.8577869215307678e-02 -3.5599924385468495e-03 2.7290161848953724e-04 3.4899590863611163e-02 -1.8987989339035449e-03 1.9256292273848834e-03 -2.9519140670692518e-02 -2.7079466639504259e-02 7.8960566980614631e-03 1.1554970738147860e-03 8.6077393099586591e-04 -1.0036243707348045e-03 2.6493699221330552e-03 -1.2702310102926193e-03 -3.9688958597796364e-03 -1.3869169409979338e-03 1.2713822546855449e-03 -4.6199852518949425e-04 -3.3841009083464702e-03 -8.0037223994975371e-03 3.7510895451009496e-05 6.9676529862937320e-04 3.0646663436654994e-02 3.7418055744520284e-04 -2.9131080049860369e-03 2.0293478154268099e-02 2.2824073044787424e-02 -6.3847357680569400e-04 6.9217317213576823e-04 -3.7384076104205466e-03 -3.6850378435892180e-03 3.4925216830792583e-03 -1.8186001145938692e-03 -6.4501468312889564e-04 4.7497539949051260e-04 -1.8509258172507660e-03 -3.1244577562266132e-04 -2.1109896903531988e-03 -3.5128505965747112e-02 4.4885024972829285e-03 -3.4604276701633088e-03 3.3453969386556308e-02 9.2961993852734917e-04 1.6420253075644098e-04 9.8003959883973812e-03 -1.7660856855667373e-02 4.1781518977914919e-04 1.1286515866377952e-03 -5.6565136090516261e-03 2.2592211625396159e-03 -7.7284017165029535e-03 -1.2038800236464364e-03 -9.0261276657788159e-05 2.2572038490667728e-04 -1.5217287984519504e-03 -4.3850070589162571e-03 -3.5973168991618176e-04 1.6099880187588865e-03 3.6353244149247566e-03 -1.3735358138234734e-03 -1.6462742809264082e-02 3.3193512718761591e-04 -5.7705447161378342e-04 1.2191378520468713e-02 1.6667932414090342e-02 6.5560454171681437e-04 1.4462936965362830e-04 -5.8781154353550885e-04 -9.6360773906847743e-04 -8.7571809406882320e-04 -3.6562273937803830e-04 -3.9437625074791906e-04 -4.2303666997223471e-04 2.5019250858931714e-04 1.9231247843917894e-04 -1.5317162090808127e-02 4.1430998610140032e-02 4.5687986628950980e-03 -2.7584743579682110e-03 2.0669213723943560e-02 1.0384300414216507e-03 -1.8856607723809859e-03 8.9886500890311791e-02 -3.1063866950671759e-02 5.1923362429196866e-03 -1.4296414344341347e-03 2.0737743344754461e-03 -1.7910912881056594e-03 5.8782264335580092e-04 -4.5667899477215351e-04 -2.5535854134416201e-03 -3.2875158030335628e-03 -2.6357938700702381e-03 9.0259843106431674e-04 2.4966481170208676e-04 1.4699490811223830e-03 2.0262760979807858e-03 2.3010742523773987e-03 5.6169028803592048e-03 -1.6379890977531055e-04 7.1190965947964737e-04 -1.5518028151905113e-02 9.6230561581882486e-03 -1.8371125938652208e-03 7.6683837407406810e-04 6.0258262064612081e-04 8.0135905407067618e-04 -9.0393014351910323e-04 -7.1054203306885949e-04 -1.2103155989827800e-03 9.6680743477483709e-04 1.3027562149452807e-03 -2.6502273376748020e-03 -1.8117751093252256e-03 2.4143465968445230e-03 1.6894524538499080e-04 3.3567370871985172e-04 -1.8805916071036046e-03 -2.8124636969692322e-04 -1.2856965104464214e-04 2.6019310666570601e-03 -8.8149953499837264e-04 -6.8679135109039663e-04 -1.7512262799968532e-05 6.5184467492216183e-04 5.3681062802057411e-04 3.0813987097198244e-04 -2.4556530521561862e-05 -6.5263654995622211e-04 1.5081584803855360e-04 -1.0633293993730279e-04 -1.0994486733269169e-04 -3.2747412168932909e-03 -1.3422093414953370e-02 1.2235802944080016e-03 4.6570172745317382e-04 -3.0106944804904594e-02 9.6758772371899760e-04 -2.7246335580161604e-03 1.1924021876090634e-02 5.1625125134619393e-02 -2.2757604762053182e-03 1.3713379107179553e-03 -1.5396962181625577e-04 -5.7907476256293647e-04 -6.0686222143854921e-03 -5.9823845309395890e-04 -3.7050471107856761e-03 5.9160168954592142e-04 1.2102785870918738e-03 1.6753375281280613e-03 -3.6128801653635689e-04 4.3857503447712956e-03 -1.3508503972881059e-03 -1.8584995339143528e-03 -1.0102948655299697e-02 -2.9200532081292410e-04 -3.1641175725840263e-04 3.2338915896133469e-03 1.4628593190724182e-03 -1.3797465039750035e-03 -1.2750559023156642e-03 7.1850700315666087e-04 -9.6617964235518744e-04 -2.0311963718725855e-04 -3.0205436605827739e-04 -2.8031500929144582e-04 6.9905818658858672e-04 -7.3152968492735796e-04 9.8582070728998709e-04 -4.9483760510005137e-05 -1.1737193828084851e-02 8.8620658034494512e-04 1.1290879797814354e-03 4.7037964714560119e-03 9.2400739604811338e-04 4.7227236539958508e-04 9.0965287545062556e-04 -2.6053859771365886e-03 -1.0138655459003452e-03 4.1907097864677019e-04 -4.6688719437722236e-04 -6.3275756668896167e-05 -2.3706986976851836e-03 -4.4626589607693314e-04 1.0395858890576036e-03 -1.2838463774476601e-03 -7.1123627812674957e-04 1.2308758371400988e-05 2.7845474628305937e-02 -7.7856620473786692e-02 9.5617268356820891e-04 9.4053527696511575e-03 6.3770127365823798e-02 6.8859405873406671e-04 1.6962379624435218e-02 -1.5878799153370551e-01 -5.5617271610843580e-02 -1.9245654057575487e-02 8.2547519496822576e-03 4.7523747862200649e-04 9.2218851065096440e-03 3.5546402160053208e-03 5.9108036792899447e-05 1.3741824567634772e-02 5.6628473398560508e-03 3.5825089674165972e-03 -1.1437242595792929e-02 8.0460726180068415e-04 9.0286662947493476e-02 -3.9083131699723869e-03 1.0443701760027714e-02 -5.3399637498550485e-02 4.8569200701088344e-03 -3.5472332366099507e-03 -4.9987261250970631e-02 8.7670479397137790e-02 2.3252878683123125e-02 -1.1650819521774646e-02 -2.6014724382895808e-02 -8.1203192887868540e-04 -3.1508952758622727e-02 4.6827727505374499e-03 5.8260641520255698e-03 -7.4193469860020789e-03 -2.0960866437426465e-03 -8.7898290804047999e-03 -3.7560896453963266e-02 
      </Row>
      <Row Index="103">
        1.1027601650974023e-03 1.4312024239010857e-01 3.0417277833894030e-02 1.6282121811025355e-02 1.5863190383835296e-01 -2.8069113457811601e-02 5.7845320617128104e-03 -2.6541691408918489e-02 -3.4225483165069481e-01 -3.3650285525479502e-02 8.7501372405096867e-03 1.7830313760478938e-03 -9.4134247504716901e-03 -1.0490742707849617e-01 -1.5847182736699605e-03 1.2704432603692251e-02 4.0913335333012460e-03 8.5542368042303973e-03 -4.1471087049595456e-03 -1.7306215013805692e-02 -7.5825622543580495e-02 -7.0777754226702072e-02 6.3524199817440730e-03 -9.9677069193246481e-02 -3.7869013493419534e-02 5.8167977419608559e-03 5.1264450234775882e-03 -3.5406493015673668e-02 -4.8786427939867982e-02 -2.6654797393452778e-03 -1.8953779897883383e-02 1.0527256937489174e-02 9.6934794145558389e-03 1.1296459867523534e-02 1.7624398787027928e-02 -1.5572002586083378e-03 9.7936788147767739e-03 -3.4693222153590053e-03 -2.6228288483007012e-02 1.8860917677024247e-02 -9.2596580412205753e-02 -1.9189332231488443e-03 -3.9273960489482462e-01 -1.2218731135480443e-03 -1.0412335880157109e-02 5.7041230185554959e-03 1.7578979866939326e-01 4.7830749702854725e-02 1.7451251754354136e-02 2.5730666132551816e-02 2.7084687671892205e-03 -1.0289017543478440e-02 2.3089327683772920e-02 2.0413611147737099e-03 -7.5338158652442644e-03 1.8232886368151180e-02 1.9348713565625619e-02 -1.6784249832573650e-02 1.5557759699662305e-01 1.9465969665646954e-02 -1.3997270255510230e-03 -3.8605943793654884e-01 3.2278706786605937e-03 -3.9588895473841035e-05 -3.4714208139138947e-02 -5.0593074319206011e-01 3.8070637795857731e-02 6.5325798685680336e-03 3.4863843339115408e-02 -7.0261019562678495e-03 1.2485940673527074e-01 1.8512431689988063e-02 -1.3940593352897324e-02 -2.9479169042836428e-03 -9.9900284292067099e-03 9.9827378096584152e-03 1.3206228759669258e-02 -2.8975233072892292e-02 -2.5668988901228595e-02 1.1102385717219720e-02 -8.2775112454679944e-03 1.3598276248486946e-03 -1.5354147641304564e-02 2.1056184489234298e-02 -1.2115444816533483e-01 -3.0578986177776102e-04 2.6856517941029334e-03 6.7159775399349142e-03 1.4074365002081368e-03 -1.3807961661840673e-02 5.5617614816988459e-04 -1.3561493260474844e-02 5.8177312716001794e-03 1.7478981418745931e-03 -1.9167250418752890e-03 -1.1714884735481768e-02 5.4344402088293831e-02 3.5770900775032088e-02 -1.7339873330258104e-02 -9.6513607619450756e-02 2.5256833808201540e-04 -7.6002176388155193e-02 -3.1063866950557961e-02 1.7292418036747337e+00 -9.8187309409230282e-04 -9.7523892498644540e-03 1.4701819125868482e-03 1.6288586571077509e-02 5.7485798634023678e-02 4.7536723089527571e-03 -6.3785591943876776e-03 4.2653429889839556e-03 -4.0127121019953180e-02 2.6290017174242616e-02 5.8504557230338664e-03 -2.9076155987567170e-02 -4.4594098610446151e-02 1.3192314563362700e-02 -2.4301301038498763e-01 8.5436606261812334e-03 1.9242688257523559e-02 1.7484504417551006e-02 -9.9613737641555100e-01 1.7955615742398529e-02 1.9662519005255309e-04 7.4608843506784699e-05 -7.1597042556967427e-03 -2.2969213318715334e-02 6.0331854705354942e-04 1.9751276882902270e-03 2.5983424144425333e-03 1.2136819741958942e-02 -6.6554484056842583e-03 6.5602123995672562e-04 1.7778415565376999e-03 -8.5773039290159105e-04 -1.7254024059432580e-03 -1.1853290439913733e-02 2.0602636721860973e-03 -8.7104449192412336e-04 3.0968296225058647e-03 1.8239165008646870e-02 4.0318524513123719e-03 4.7293691601053281e-04 1.0601008308157357e-03 -2.5165398741290785e-04 3.4541576640671474e-03 -8.2718707913883530e-04 -1.5512622110391287e-03 6.4998567674429629e-05 -1.4207178601972105e-03 -1.0739493586824191e-03 8.9367730844739854e-04 -5.6120203820378758e-02 -4.0772462022378206e-02 1.8468224445884456e-03 -1.0820556270552524e-01 -1.1312220758794461e-02 4.8058163793585542e-03 5.1805942536303329e-02 -7.1322243651307415e-01 3.3020202381190918e-02 2.2229601862600321e-03 -5.8080526123793679e-03 -7.6718082676627579e-03 5.5037802487284883e-02 1.1591980468352904e-03 -2.0713904449313125e-03 -1.0929030127537582e-03 9.1756830317637206e-03 -9.2414130889352172e-03 -1.2655852192953176e-03 -2.0052278059480386e-02 3.1653824717453816e-02 -3.2291187769686574e-03 1.1517912902442089e-01 1.5797928009460942e-03 -1.0280953864758064e-02 3.3971544536646192e-03 4.1696552762164196e-01 -1.7074024981597196e-02 6.2617659300103455e-04 -4.9609930629580523e-03 4.2054328487083001e-03 1.3889930259826273e-02 7.0214747959998611e-04 -1.4547929946425953e-02 -2.7489990363753951e-03 -2.7726716701052057e-03 -1.5693250378001622e-03 -1.3482195257070728e-03 6.2678600687506289e-02 5.8453991786902573e-03 5.4429857249256516e-03 -3.2182701928983024e-02 5.7589891895259079e-03 -3.5583298307638594e-03 -2.0329247677696661e-02 -2.6555620912473538e-01 2.2197671976903692e-02 4.3947828452589191e-03 4.3623627582881916e-03 -8.0743809546459928e-04 1.4468481389400153e-02 1.2191254488921378e-03 -5.0880875357290807e-03 5.4891843836089547e-03 -2.1832705722989038e-03 9.7208898331109118e-03 6.2462972789858649e-02 6.0081225949507579e-02 -1.0659564879968472e-01 4.5760424062036606e-02 -3.6897441032054917e-02 5.6069047112750847e-02 2.6750050702669270e-01 4.1532180936181794e-02 -4.0560044854236121e-01 9.7210580793118687e-02 5.3654665093917593e-02 -7.8932636026007863e-03 -4.2168751027695503e-02 -3.0406980868695321e-01 -1.0318883368704889e-02 8.0541363782869468e-03 1.6658819520088047e-02 7.1358836166872289e-02 7.1847425295322488e-03 7.1202072315137421e-03 -2.7023930324575063e-01 -1.6581781583874405e-01 4.1205051492731751e-02 4.0434058761519009e-01 1.3262222975340368e-01 -2.3143688523929296e-01 -7.0810450613123077e-02 -2.8734355044293132e+00 -1.7161208364379252e-01 2.6384799027142969e-02 1.6350800689872796e-01 -1.0576094540291535e-02 4.6231382020344602e-01 -3.6903886970480415e-02 8.6830301987098624e-03 2.7941867978731549e-02 -1.2151050351034032e-02 -4.6325053978158476e-02 2.1694626184122869e+00 
      </Row>
      <Row Index="104">
        -1.3486376852255336e-03 8.1858343474074391e-03 -4.1274203354772498e-03 -5.9020019833887112e-03 -2.3900574044968370e-02 1.5116748128848223e-02 1.9687969314641507e-03 -2.7403407671849900e-04 3.4803091868796890e-02 3.5851999860214229e-02 -4.1611055413467851e-03 1.0477176598209059e-03 -5.6137281354922608e-03 -1.2643283107985001e-03 1.6017667125502663e-03 -7.3116880657481120e-04 -4.0608831533160694e-03 -2.4887749156869282e-03 -3.0294138122245579e-03 -7.6826427259457097e-03 -3.3486465554508349e-03 9.2489224020664285e-03 -2.2517715841624437e-03 6.6576927878057190e-02 1.1402958014791312e-02 1.2120053034171624e-03 -7.8407081273249024e-04 1.2622555432013155e-02 3.8489723039881352e-02 -6.3065397242146465e-04 7.2042450016937543e-04 -1.8655325462014903e-03 4.0657168010207415e-03 1.4565928008915298e-03 -4.8944646749810028e-04 -1.7693055119417152e-04 4.3578426727566982e-03 4.2366183081181119e-03 5.6767062803548748e-04 -3.5292148244203680e-04 5.0675363617920244e-03 2.0478111770375063e-04 5.7722987420374738e-02 4.6899724857612929e-03 -2.0421441862053524e-04 4.0429192486816368e-03 2.3082114003678544e-03 -5.6332597175096769e-02 -6.1207367388545209e-03 2.3962998982707817e-03 -6.7294622773108465e-03 -5.6238259994838974e-03 1.3027403727047110e-03 -7.2256559649756802e-05 -3.2860306040659593e-03 -7.0961832556061012e-05 2.0182624460462206e-03 8.0094629774840609e-04 8.3175116641205239e-03 2.7067812418603288e-04 -6.2682787654497196e-04 5.2763860907358295e-02 1.2523358893962305e-03 1.5278702341513517e-03 -1.5560581562734654e-04 1.0784802099600976e-02 -2.5864158879132612e-02 -4.3018115516565841e-03 3.6905714313863001e-03 -3.5408305993648720e-03 1.7627250215169733e-02 2.0975901450507872e-03 -3.6945971242666187e-03 -4.9360648709081516e-03 -1.3372281806927691e-03 4.0910135888246740e-03 9.1811674352590411e-04 -1.0847689661864918e-03 -1.2099142077522801e-03 -2.0226182574373929e-03 -1.2691392105528426e-02 2.5549345046667472e-03 1.7786018912508456e-03 -3.9363029450628639e-04 6.9574461638763352e-03 1.1988627626506876e-02 -1.2124619097399064e-03 1.9183373335122239e-04 -2.1368141217976209e-03 1.0255294120154537e-03 6.5416050468328386e-04 -7.3619895685073447e-04 -1.8695739483123516e-04 7.3995714762367659e-04 -7.7471138472195653e-04 4.0882437843184349e-04 9.6572326229778932e-04 1.3986108793828510e-03 -1.1669536885992350e-03 4.3017372893287331e-02 7.0421262099286744e-04 4.6785691947825560e-03 5.1923362428982420e-03 -9.8187309357844477e-04 6.6062938993327339e-02 9.1239157089427687e-04 1.2390392354056790e-03 3.3588040611525435e-03 1.3312816735996779e-03 -2.1198214861072994e-06 -4.2228319886254834e-03 8.5134524245034093e-04 -6.2250122380459521e-05 2.9997263411134455e-03 -4.5128631013225881e-03 5.9793251415662853e-04 3.2371749438723542e-04 3.3715056567374100e-03 -9.3606057507274309e-03 -2.7527532926748038e-03 -1.9281648604080640e-04 2.8082236219032185e-03 1.3592741410408414e-02 -1.9586948123392373e-02 -1.3352923444243264e-03 -4.5154255307500667e-04 3.8766676809092343e-03 1.5192158034559643e-03 4.5053393057241050e-04 -2.2206094159672035e-04 1.1533515322733471e-03 2.6447881055841780e-03 2.0025846160546812e-03 2.4440682809847257e-04 -1.2493416548983542e-04 -6.1617128714260411e-06 9.1291190049750071e-05 2.8685158652228481e-05 -4.4355327464793310e-04 -1.2410358767105486e-04 -1.4567068556868633e-04 -2.4346203716861452e-03 -2.9693027843437424e-04 1.7243932145062185e-05 5.6535295053058842e-05 4.6159841836472884e-04 2.9874346364807064e-04 6.1094266248101943e-05 1.5937490971473119e-04 1.1411662799364439e-04 -4.4318682952102753e-05 -2.3999083697562589e-04 7.8313877545810977e-03 -4.2650527323959877e-03 3.7475276441514133e-05 -1.9354552190426787e-03 -1.7991512535277865e-02 5.3660316174240618e-03 2.1381561917081793e-04 -3.5492838074247662e-04 1.5283052109113888e-03 -3.7476470442041603e-02 -5.6210330023782765e-03 -8.8951765814366342e-04 -2.8183908707873026e-03 3.9042269596953568e-03 -1.0658431025982141e-03 -1.6087034070404438e-03 2.1233584400617766e-03 -1.3583515141345210e-03 -5.8979380299401473e-04 3.2266040330395374e-03 -5.8785683152047085e-04 2.0266944084862404e-04 -4.0600560288428077e-04 -6.7780521388125002e-03 -6.0661373878791473e-04 4.6705286215509810e-04 -3.8831534348729435e-04 -1.3790144169333302e-02 5.8352867186682103e-03 3.2623772127684560e-03 -6.6118231640092950e-05 -1.0436885379089818e-02 -2.0134658217869843e-03 3.0383785124896652e-05 -1.5105071648793822e-03 5.6326116090620092e-04 1.4540004427463819e-03 -2.8171475469333102e-04 -4.1945661668940648e-04 1.9565585297013719e-03 -1.3458661736856059e-03 -7.4583011830563933e-04 -1.2059517217235617e-02 -5.7952348277068159e-05 9.7223039294840985e-04 1.3007287145734509e-03 3.3816187539453943e-03 -1.2531378986925322e-02 -1.8417425972121785e-03 1.0851984037325212e-04 -4.7601966010341621e-04 1.7592195120178821e-03 -2.2227020130428780e-05 -1.4199870645362970e-03 1.8832523102221134e-03 -1.3786845835937430e-03 -1.9407248219550986e-03 -8.0554003062449364e-03 8.8712302213218922e-03 -8.2491080974474093e-03 8.7856633098382115e-03 -9.0538258080076400e-02 -1.2716312498346960e-02 -1.4324462281019704e-02 5.8602926601290873e-03 4.7603835938921119e-02 -2.1852827732899915e-01 -1.1451540343949117e-02 -3.5379169881775696e-03 -8.4073758031600818e-03 -2.4525491829424661e-02 4.8228760516310963e-03 6.0453398782972026e-03 -9.1658218832554508e-03 -1.2038372700821920e-03 -1.2379961777506880e-02 2.7072163893497626e-02 -9.0661692088689627e-03 8.3793278326875931e-03 -1.2499608457147416e-02 -1.0916032625154852e-01 -6.3905026613875413e-02 2.8071220971427807e-02 2.0194548477423802e-03 5.1950110423597616e-02 1.9029119267260394e-01 2.2942390843002761e-02 1.7961253602591716e-02 -3.5740583832623532e-02 5.1142432266104092e-02 -2.9436614503504472e-03 4.1777193811755060e-03 1.1412112515279092e-02 -1.4154427645140778e-02 7.2102021428971756e-03 -1.3006132699676951e-01 
      </Row>
      <Row Index="105">
        -4.7233749609891344e-03 2.4853805534387763e-03 -2.7449182987688350e-03 -1.1152370313677806e-04 2.5552671061156364e-02 2.2859834761491523e-03 -4.2567223480605206e-03 -4.4751492250237196e-03 5.9341330521049465e-02 -1.3272067281557610e-03 -1.7208160545820205e-02 2.1457101625984090e-04 2.6705635490462650e-03 4.1494640061151168e-05 1.2060946894194629e-04 -1.5569772510934110e-03 -1.0303648743698556e-03 1.6524841957533832e-03 -1.8861523687112387e-03 -2.9675942794162198e-03 -3.4464080749218827e-03 3.2615132731938432e-03 1.0511259591027885e-03 -2.7412080393488872e-03 1.5952555419997830e-03 -1.2115201879167408e-03 3.6633981727032701e-03 2.2554899876073644e-02 2.1906798879981924e-03 -1.0638993747261990e-02 -1.2435654264719154e-03 5.4349892430970138e-04 -8.0474002923706022e-04 6.4704627920133054e-05 -2.0711080041228846e-04 -3.0984439475478429e-05 8.4745780855760913e-05 2.8862986761152981e-05 -1.1097991500318731e-03 2.0096526390915859e-03 4.5094955110687313e-03 3.1581577150863877e-04 -1.7320653458943062e-02 1.7770058999272732e-03 -1.0524045487459339e-03 3.7730864417657248e-03 -1.6864892825645544e-03 -2.7256624117121993e-03 1.3410743563761762e-04 1.0345637008898900e-03 5.3789223234724376e-05 -1.4103345397713900e-03 -3.5027928355943830e-04 1.1377600962895595e-04 -2.9239841483493095e-03 -4.1828506507106313e-04 2.4342279991159555e-03 -2.7572796227805091e-03 7.7335851710936109e-03 -5.4601296361764251e-04 1.7638929604142893e-03 1.8688249182285985e-03 8.7825639325492602e-04 -1.9012679067757637e-03 -5.5380240543244919e-03 1.3952375054855679e-02 -3.2513689707228070e-03 -1.0529867950635294e-03 2.0665187496859061e-03 2.1012233972111469e-03 4.3983414621121047e-03 -1.4853819745679064e-04 -2.5780947010416166e-04 -3.5726465296232507e-03 8.3873444099494786e-04 3.2523427811892609e-03 -2.6761790151072495e-04 7.6389352278598277e-04 -5.8208094442022910e-04 -3.9703786111653836e-04 8.4552685216672478e-03 1.8227368972373839e-03 -3.2987998153489067e-03 -5.4490900987276547e-04 2.8419228209863312e-03 -4.4618846455221628e-05 9.4117864797086835e-04 3.7946570667982214e-04 8.9242755787657490e-04 1.3292257154413466e-03 -1.1201630405380074e-04 -9.5015892819467172e-04 2.4273071663635792e-04 5.0538406273380274e-04 2.3436407950616373e-05 -1.8494986097949140e-03 -3.5381837200557618e-04 1.9469422983757921e-03 -3.8465772407394842e-04 -3.8930853350856564e-03 7.5009536734957152e-03 -6.4082756303214987e-03 -1.4296414344373183e-03 -9.7523892497908549e-03 9.1239157089570075e-04 1.3898971012741249e-02 -3.1438139780886947e-04 3.7540344217115024e-03 3.3074049634235557e-03 4.8819078772528387e-04 -5.9740660401041371e-04 5.1251985005478905e-04 3.9641030906298173e-04 -3.5785017521470640e-05 4.6859413852825237e-04 9.0102929329251812e-04 9.8746088091164778e-04 7.8338671263891843e-04 -3.7635263914011677e-03 -1.5197024287857798e-03 1.2315711604313417e-03 8.2307359911144070e-05 -1.0459195776048657e-02 5.7493166147588946e-05 1.0499961868362965e-03 -5.0539841895581405e-04 -1.9108309463449452e-03 4.8738969635516143e-04 -4.6142949081591413e-04 1.5444813720853941e-04 -2.5497925580554581e-04 7.5482305366592452e-05 2.3942033715247061e-03 -2.6217140622587787e-04 5.1561112504444400e-04 1.0284112269524933e-05 -2.0081137718956144e-04 3.9252170182523026e-04 5.2083595629277721e-05 -1.1483224446500118e-04 3.2817831324658659e-04 -1.4622525032823126e-03 1.8974456890996194e-04 1.5011765608974033e-04 2.8474300822475747e-05 -2.3050113651984906e-04 1.8442770479350072e-04 -6.2992952973591962e-05 4.6262440433658453e-04 2.1785562431260821e-05 -1.2132205987942264e-04 -2.6372772712291706e-04 3.0797769456896891e-03 -9.9302498660006414e-04 9.7226806950193381e-04 -6.4085590787134241e-04 2.7736134813161444e-03 4.4082086001964174e-04 -6.1384118857271935e-04 3.1066052399886849e-03 2.5598736421565196e-03 -2.1744009957608886e-03 -3.1920437309153529e-03 -1.4257892370588500e-04 -1.4630377724478560e-03 1.7105800846635598e-03 3.5098240839973548e-04 -5.1001022936178388e-04 -3.6755327140291052e-04 2.3105443099270036e-04 1.3806023665832285e-03 4.6062648008023122e-04 3.5370998210640381e-04 -1.8191886980968991e-03 -1.3918983000221624e-03 -3.4281860001923736e-03 7.5709154292929320e-04 1.6752537749039134e-04 -1.3064516562124179e-03 -1.3814422495153786e-02 2.2984741927804808e-03 4.5243332927219059e-03 -7.6336091649713625e-05 2.5164499285275400e-03 8.0622988769218614e-04 -1.9010781782718175e-04 6.7123501649632433e-04 3.8496720094703912e-04 -7.7173566613503316e-04 -4.1851861479748603e-04 -1.8042451501178169e-03 2.9352536179606207e-03 5.9119366673732773e-05 -2.2671356384816707e-04 3.1848429568212674e-03 4.7921649282485880e-04 -1.1029494686214734e-03 -3.0079084847055839e-03 9.4795405812683189e-04 -1.2362166983462273e-03 9.3256635177121016e-04 4.8808243204630187e-04 -1.1453476972614449e-04 1.6287626352920843e-03 -1.0357695868507990e-04 2.8488557578694245e-04 5.9985308749268564e-04 3.7520678119802792e-04 -1.6394993872514642e-03 -3.2899014729427375e-03 2.4357780478493794e-03 -1.8298395989571619e-03 3.7136087405523683e-03 6.5483291792977436e-03 -2.0003025038791894e-02 2.1997310627004149e-02 2.5819920889612997e-04 -1.4492429741744858e-02 -9.5735960464351129e-03 -4.7633676690333929e-02 -2.8032088667750976e-05 -6.9968979340816403e-03 -7.4470135739053821e-03 -2.0912142871163451e-03 6.9646324674423055e-04 -2.3128927172641270e-03 1.1283428932785354e-03 -2.4871230097771586e-03 7.2208599565797994e-03 -6.0301412735487411e-03 8.5644380954895648e-03 -6.3240145016147881e-03 1.9392066157171949e-02 -1.7230588770323251e-02 -2.8077878136085532e-02 -1.3973525927609809e-02 7.5345986048532551e-03 9.0763856080732438e-03 8.4939890382252942e-02 8.5892506382196140e-03 9.1109111198328704e-03 1.2751904487338164e-02 4.0654658022011201e-04 1.3745990794508385e-03 5.5781845247081692e-03 -5.2741318261201168e-04 1.0577978490002051e-02 -2.1453656384159709e-02 
      </Row>
      <Row Index="106">
        -3.3062360232757426e-04 1.2515397800503841e-02 -1.4383471394260119e-03 -2.3684572618270102e-03 2.2264230734043277e-03 1.9634344330086255e-03 9.0878257870430704e-05 6.0512959725284934e-03 2.1240349708714218e-04 2.7390770878283890e-03 2.4635600948890758e-04 -1.6354553569474675e-03 -1.4741743796188161e-04 -1.2808695114492298e-03 -5.3216997153869485e-04 2.0014437464994234e-04 6.2358231214385104e-04 -1.1891044388293373e-03 3.2879096937704844e-04 -5.9775479478370933e-03 -6.8573250113595149e-03 2.8909894948155185e-03 -2.3221158877430662e-04 5.9104612460636752e-03 1.5148015780123720e-03 -1.5585382573147485e-04 -9.4138133573300892e-04 -4.6475345787999611e-05 2.4845123033335435e-03 -2.6216752114709661e-04 -4.5612561132548496e-03 1.1962271678206719e-04 -6.6220477629683108e-04 -1.8593562699268252e-03 -4.5388812259974931e-05 2.2298561987913997e-04 1.1951484071285531e-03 -9.3918043701302426e-04 -1.3306442675742186e-03 -2.5472619279431896e-03 3.9367227195542809e-03 -3.1585486019768613e-03 -9.1306835157084765e-03 9.6898576372608791e-04 5.3902136736415363e-05 -8.2977645034889615e-03 -1.0355714235761301e-02 -9.2920788582096653e-04 1.2923794303511260e-04 1.0265856268338803e-02 -4.3758114866937828e-04 -1.0738894989634970e-03 -1.2443990228135117e-03 1.1415897840694840e-03 -4.3634365031252620e-03 2.3943566757888106e-03 -8.5488892521395562e-04 -3.9792152233397715e-04 1.0747202952607005e-02 -2.3500809440563965e-03 -4.1436011986714649e-04 -1.5556929488797919e-02 -8.3641104544264488e-05 -2.7811183393405825e-04 2.8030356780630317e-03 -1.1034951710353139e-02 1.1764624336856044e-03 5.8332339324577119e-04 1.4211328160132581e-02 -3.4365410471204685e-04 5.6856106644713987e-03 -3.6139900378068246e-04 2.7970291726122920e-03 -4.6678007196382524e-03 2.2062257208211727e-03 1.5191813739653601e-03 5.7029457918059828e-04 -7.6838360735016417e-04 6.5207809585327535e-04 -4.2097176655529018e-04 1.0411932801923400e-03 5.1252794533662737e-04 -1.0985629833488962e-03 -9.1738715019110129e-04 -7.8893119993120320e-04 7.7708305051865656e-04 1.1102367444884229e-05 2.1674223685361656e-03 1.5401025012821100e-04 4.7454831900076676e-04 8.3522769799078585e-06 -1.3477723605131043e-04 2.5349325751379027e-04 8.7632393644271854e-04 1.6168049464024021e-04 1.3175273817247271e-03 6.3317063162329143e-03 -5.7160351845004695e-04 1.3689155379408768e-03 -6.4232049939728459e-03 -6.9573916123229435e-04 -2.3386475874029007e-03 2.0737743344683892e-03 1.4701819127698190e-03 1.2390392353898725e-03 -3.1438139781078634e-04 1.0570300512517073e-02 9.2994191283526277e-04 1.8336902839330292e-03 1.1740936273158351e-03 -1.3047896223402512e-03 1.1698007889147481e-03 -4.6624356958129866e-04 4.3110624532840760e-04 -5.7455511944475559e-03 2.2749801260673287e-03 -1.0475235844324749e-03 1.9643708199475365e-03 -8.8574917566209242e-04 -8.7846660911048498e-04 -2.3673136790609470e-04 2.1772808116043811e-03 4.9597102241017820e-04 -2.2359807831606182e-03 -5.3554145721169033e-04 -2.7838189860479568e-03 -7.7844446381383254e-05 1.4208265506950745e-04 -6.1132190828272113e-04 -4.7786486923639526e-04 -2.1245070677153446e-04 1.9924947265155001e-03 -2.2695123774833478e-04 -2.4245769186446222e-05 1.5745627453394077e-04 -1.1530360670606537e-04 -1.1525632150871896e-06 -1.0557947176757575e-03 -1.0632681418359493e-04 -1.0190963790764415e-04 3.4293528816219229e-04 2.9099862203455347e-05 2.3665294992451926e-04 -9.9084464726243723e-05 2.5764944073490895e-04 -3.5578368271887951e-05 2.0766182281844875e-04 -1.6159871231344981e-06 -1.7679112944906533e-04 1.4348791543388210e-04 -1.2462039175096932e-04 -9.2484893888491971e-05 5.0993450855055522e-03 1.1953959210252894e-03 1.7683302387047687e-03 -4.6585915546611708e-04 2.5085028727259988e-03 4.1152421305789102e-04 -1.7449223931859277e-05 -4.6217988519878482e-03 1.9258693084411296e-04 -1.8914118218741568e-03 -3.8097733355515155e-04 5.8166086153877989e-05 -5.6456140865277296e-04 1.5177760219186830e-03 -1.5510910244790374e-04 8.0801614595202471e-04 -8.0249619553988320e-04 -1.3662354468591930e-04 1.2759552208636138e-04 -1.8067481882009587e-03 -1.9067237376568778e-03 -4.1509222910712795e-04 3.4064005789812219e-04 1.3191049956433713e-03 -1.9911283008055506e-04 -2.5971316049920590e-04 -2.6670198553378072e-04 2.2252263995535121e-03 -1.8651016713932015e-04 -5.0003507521577230e-05 -6.4519841977166495e-04 9.4054299512147865e-04 4.0242311002089220e-05 -1.6729648974141061e-04 -7.3081060770681383e-04 3.3407914130695354e-04 -8.8710100725003375e-04 -3.1563599123360375e-05 -1.0825410132340868e-03 6.7183729185676198e-03 -8.0785244560719954e-04 1.8650075356710963e-04 -9.2829350941623073e-04 -9.7278114820594546e-05 -3.4634283906672802e-04 2.7729444317167620e-03 -1.4275519110410017e-03 -1.0785950604891325e-03 1.1538903386855410e-04 1.7272542022420180e-03 -2.7307403464385625e-04 2.5540824647594116e-03 -4.5247115727371702e-04 8.4061887305302355e-04 -2.7274784909968384e-04 -6.4621751787281747e-04 2.3343296148465860e-04 -4.3005534695810012e-03 -1.3094959881730164e-03 -2.6042617169601688e-03 -1.6420630297994954e-03 -1.3001718938662039e-02 -8.4455025168086160e-04 9.1356796805996104e-03 -1.8393532835176624e-03 -2.4430880906229788e-02 -6.6288453892105704e-03 1.5194749849413911e-03 -3.6779779556412776e-02 -1.5065815776252700e-03 2.9404058363844839e-03 -4.6461491343627601e-03 2.6054629704256593e-03 -6.7906166389454332e-03 3.9644197238435800e-03 1.5140279769173867e-03 2.8941174124593381e-02 -2.8896616805170985e-02 8.5915017477305733e-03 -6.3644622659273994e-03 2.0453757340977417e-03 -7.2336038165946416e-03 -1.0459720075427083e-02 1.9898245576661817e-02 -1.1779147920682354e-02 1.1792461699093468e-02 -3.9976803359779885e-03 4.9745115287939658e-02 1.7991795605283136e-03 1.9917836865879786e-02 5.2671878931212016e-03 6.7461230767450068e-04 1.7884960802577315e-03 -7.6219268710717150e-03 -3.9577298412934222e-04 -3.2221948050760327e-02 
      </Row>
      <Row Index="107">
        2.3281989425157192e-03 -8.4457951900451800e-04 -1.2590857964167729e-03 1.9680621772618411e-03 -7.5158684870082620e-03 -7.7504961084254864e-03 -1.1447454522078571e-03 1.3166524753820963e-03 1.7502898911469847e-03 9.7398589584085631e-03 4.8152610366411410e-03 -3.7142878378061683e-04 -1.3260300660230004e-02 8.9229661005594857e-04 -9.6273749674332179e-05 -2.2768783163524542e-03 -1.3523827110595052e-03 -3.7828062726066106e-03 1.1883249622302540e-03 -1.2198012508398554e-04 -5.1598098914139995e-04 8.2075990059340964e-04 2.1674208588935324e-03 1.8591854615154696e-02 -5.9825098735189972e-03 -2.1517672275832818e-03 6.9179388168007228e-04 1.4628590834598096e-02 7.9601481304185494e-03 4.5064974696995795e-03 2.6889838608008809e-04 -2.0493657554278687e-02 7.5334129647718160e-04 -7.1814493053446414e-04 1.0403939001877027e-03 -5.8255814235786633e-04 6.0198933334578153e-03 -1.8762676152398669e-03 -5.9332627903131777e-03 -1.3897150171074957e-03 -1.4576649680929088e-03 1.1003978145207455e-03 8.5846207689875553e-03 -1.4251599821038380e-03 -1.7178618797946271e-03 -8.7820715299465058e-04 1.9417951914946399e-02 -7.9083280238827214e-03 1.9843072970691239e-04 2.1982198793311231e-04 -4.2737379340576712e-03 4.8020874495437182e-04 -3.6135834449740056e-03 -2.8325641088694075e-03 6.7579262675335205e-04 4.3487621990412340e-06 -1.6498410908843894e-03 1.3031613377547102e-03 -8.1489286663033803e-04 -2.3731352019141783e-03 4.6097436069565678e-04 1.1488546391545779e-02 1.8169326468370287e-03 -1.4406658333168954e-03 1.7045636120863183e-03 -2.1051582593784035e-04 -7.4110697353505436e-03 1.6887392892957695e-03 2.0636510391743024e-04 -1.0219939704107783e-02 -5.5965612808737963e-04 -2.1724251536845152e-03 -7.2963922420529737e-04 3.9226837111454652e-04 -5.4348050406670574e-04 -1.6835425994398620e-03 -3.0225170464040496e-05 -1.6611744288948932e-04 -1.3169433884822092e-03 1.3958722878952600e-03 3.8925453237522063e-04 -7.4847436406738285e-05 1.3844052651861656e-04 -1.1858625419534363e-03 -5.0748956251440436e-03 -2.4636465078300973e-04 1.2555521524047382e-03 2.8641069971618166e-05 5.0540179754238078e-03 -8.9996421183158835e-04 3.0575698721644392e-04 3.8347088592709765e-04 -3.9827460936207870e-04 2.7337561602074900e-03 -6.9308117781691214e-05 -1.9844721354188716e-03 1.5225273304250997e-03 1.7481650063335766e-03 -1.7870217733857892e-03 -7.0717217144533259e-04 5.2484298351421453e-03 7.8789376362659090e-04 -1.7910912881074284e-03 1.6288586571240271e-02 3.3588040611406047e-03 3.7540344217112010e-03 9.2994191283558023e-04 4.7525304564248111e-02 1.6355566289602882e-03 8.4087502766111595e-04 -1.4740276703433832e-05 3.0738032107394467e-04 4.3408676256532306e-03 1.1113493599567796e-03 -3.8503171055120806e-03 2.1508738575176916e-04 1.5955930643045488e-05 -2.2823939725018948e-04 -6.4723138214159356e-03 -2.7106632265415441e-04 6.6120713276415495e-04 1.5863404351675499e-03 -7.1186173827612626e-03 -3.2308634236440960e-04 -2.5433043105248018e-03 -1.1389694506765830e-04 7.0602071824140411e-03 4.5439429890667838e-04 -9.5228935685767475e-04 7.8300399359695558e-04 9.7967722252180868e-04 5.1355250329934094e-03 -1.2000264886811063e-03 6.7898579872716861e-04 3.3625282683123281e-04 2.1988123417535587e-04 -3.7227297896948110e-04 -1.7465928262705083e-03 3.5595688720740964e-04 8.7491194453893722e-05 2.5260858092268428e-04 7.3905230173902442e-04 5.6250988756446983e-04 -4.3129878637389665e-06 1.2772936495922726e-05 5.6003534232240714e-04 2.9350197243949107e-04 -2.1301350438075945e-04 -4.9902575998938615e-04 3.3117780501825897e-04 2.9952778423096918e-04 -1.3682548413308684e-04 3.7542204926248445e-03 -5.3227394164765893e-04 1.4401088698722947e-03 1.2209687717012422e-04 -3.3650056925706613e-03 -3.5603414439624058e-03 3.2257934571777920e-04 1.8149384639258911e-03 -9.5952219478784399e-03 -4.4224830662680861e-03 -1.2651750178780750e-03 -4.1615899346957074e-04 6.5248789781403339e-03 1.6183900738161545e-03 -3.8196182185943044e-04 1.6058121532346419e-03 7.7582096587026873e-04 -1.1322113520272504e-04 -1.2485637960379628e-03 4.2632826507483651e-03 -1.5955207428330898e-04 -4.1756208346880874e-03 5.6957459014868430e-03 1.1833092146754626e-02 4.4186116285956818e-03 -2.3256553783739323e-03 8.5026613185622268e-04 6.1586186492530032e-03 -8.4920570651327368e-03 4.0631521936189564e-03 1.3544645036619764e-03 -2.6341158244029023e-02 -4.3077435239393599e-03 1.1919924775365041e-03 -1.5670905349792486e-03 -7.9165258496569123e-04 3.4920648997384747e-03 -1.2999062072364086e-03 -1.0871614160188059e-03 3.5385427282265186e-04 5.4688384174776282e-04 -4.0015277398112645e-04 -4.9433022371645685e-03 3.4488714014510786e-04 3.6366312195392045e-04 8.0536884276089524e-04 -4.0195334935882853e-03 -1.6945836167644975e-03 -2.6235550084395759e-04 -1.3946646357449691e-05 3.5704723588629366e-03 -1.7215509495973691e-04 -6.7897385404140924e-04 -3.2114625356323900e-04 -1.2120831645539122e-06 -9.6422036901992725e-04 8.7246790372703259e-04 2.5713932589430432e-03 -4.1038947180478298e-03 -7.0971199415048418e-03 4.0729579222490821e-03 -3.0297894359939497e-02 -1.8366801508442709e-04 -2.1798493632821840e-03 4.4961890291658497e-03 1.4411983545504006e-04 -1.8426804088030525e-02 3.4873283641062690e-03 -2.0047112371298775e-03 -8.3121843115238764e-02 -5.2170138166113753e-03 -4.7708227460328736e-03 -4.0496959626075621e-03 -1.9232102678643703e-03 -4.7323095411563789e-03 1.2537049449441130e-03 1.3878486289707434e-02 3.6054085648485196e-03 2.0715243662398561e-06 3.8862242116259813e-03 -2.0432263007019440e-02 2.9924675858563208e-02 -7.2205651613318350e-04 -1.0400643696729661e-03 -4.3979140568180745e-02 3.1146120117796997e-02 -8.4099771209501413e-03 -2.9965548968946816e-03 -1.0261575755638433e-01 1.6249252038234609e-03 4.5848483607048452e-03 -6.5303364404284163e-03 1.2088115645788895e-03 -1.9219105421120843e-02 -6.7408755710288183e-03 6.7176589887314397e-02 
      </Row>
      <Row Index="108">
        2.1194923213966651e-03 -1.3084881541348986e-02 -3.5897341746052996e-03 3.3350301583292951e-03 -6.4448041748374797e-03 -3.6203337325847913e-03 4.9181258833203706e-05 2.6066339508022396e-03 -2.7260256713271744e-02 1.5165751204491242e-03 4.4214863472389308e-04 -1.7077439863937699e-04 -2.3084046779569762e-03 -6.8165013645659113e-03 -1.0232938727672940e-03 2.7424954794604550e-03 3.1528565680088934e-04 -9.8026961473855756e-04 3.1055678177563416e-04 -5.6849114014633842e-03 9.5831142116948112e-03 7.1248303159304471e-03 8.8909230848972093e-04 1.1346367004232805e-02 -3.6193952984504285e-03 -1.3745293423302869e-03 1.2824872168089099e-03 2.4646375743731949e-02 1.4826264010246483e-03 -3.5617597552464741e-04 1.0910867262645119e-03 -1.5581380824556993e-03 -4.1734097240239982e-03 -2.5627184351717739e-03 -2.7678242879296266e-03 6.9531658818072989e-04 2.4702542464533073e-04 1.6257634834560622e-03 -2.5418383890960256e-03 -5.2037648807891079e-03 4.1347549219971635e-03 1.4278033868054818e-03 -1.9124208629215378e-03 2.3728209438451248e-04 -2.1427546637001194e-04 3.5525914591503643e-03 1.9911482426449537e-02 -4.9328742189798380e-04 1.7957620763328630e-04 -3.1334823387561134e-04 1.3207030209988480e-05 3.6692158217103005e-03 -5.0958980002866749e-03 6.4037102594229015e-03 1.2082289870495033e-02 -4.9076854764198811e-04 2.8966534076382833e-04 1.7263553323214609e-03 -1.4398150817380643e-02 -4.5581803027148204e-03 -3.9387828931392935e-03 -4.0619305059225327e-02 3.2718332467006339e-04 2.5003022381388240e-03 1.1945899636894852e-03 -9.4809019230431779e-02 4.0572618578078867e-04 2.7829027591490252e-04 -2.2740076998139340e-03 -2.1063358027809953e-03 8.3098241183023197e-03 5.8149553993175340e-04 -6.5853655399283340e-03 1.6907288014396463e-03 5.9380378162514347e-04 9.7631638670774706e-04 2.0832322929406621e-04 5.9607484910974284e-04 1.5870526268080380e-03 1.2679545807826849e-03 -6.1991179700701428e-03 -2.2212896168168766e-04 4.8668835413522085e-03 1.0748399704399447e-04 -1.7418341139763482e-02 5.6942079000962820e-04 7.4379824669926729e-04 -3.8772034430818378e-04 -5.6481376628275204e-04 3.7061726141348634e-03 -2.0820431094677183e-04 -6.6048368458337600e-04 -6.4377875263071059e-04 1.4628993303333632e-03 -6.4584679355513507e-04 3.5634955425010301e-03 7.1138850148780818e-03 -6.0336825033614986e-03 -5.8313305898824441e-04 1.2591040955742355e-02 2.4838734451897750e-03 7.4915598241151729e-03 5.8782264335374701e-04 5.7485798634307667e-02 1.3312816735772288e-03 3.3074049634157538e-03 1.8336902839241305e-03 1.6355566289675560e-03 5.4848324339798027e-02 2.3480217916914325e-03 -4.2872683845039342e-03 -2.3833463400942147e-03 1.6342187525785427e-03 -4.6041154799981920e-03 -1.5627549052547509e-03 2.4652998113805094e-03 2.9091315191141255e-04 1.2932405100498316e-03 -1.7321814224688141e-02 6.2646378163369913e-04 5.2726694477280944e-04 -1.1926810430135104e-03 -6.1183532457669401e-02 -8.6266479455291757e-04 -2.0818533268027054e-04 7.3276528889540870e-04 1.9447266145921028e-03 -1.0652916315378416e-02 -6.6009020584473135e-04 1.9542886010728427e-03 2.6985779452960070e-03 4.2111841913773165e-03 -6.8879794570259837e-04 -9.6749924139238365e-04 6.4473520714878664e-04 -7.4442845854959293e-05 1.0921534794674094e-04 1.4860618310000050e-03 8.1461834405731532e-05 1.5291052864443684e-05 1.0350568278189539e-03 -1.1886435041480680e-03 -2.1219689575497052e-04 3.1543921956409795e-05 9.2729697613631087e-05 1.3868461582825994e-05 5.6319877405742720e-04 4.6755474281505449e-06 7.7849741622732047e-04 -2.1917210221893862e-05 -1.4514330464618710e-04 -3.8522251045088616e-04 -1.0695869522705653e-03 -3.5007438558910028e-04 4.6973501613285298e-03 2.6718077481528721e-03 -1.0263196348440549e-02 -6.8492910643531209e-04 3.1259995707546336e-04 9.1478446998885174e-04 -3.3518331094321771e-02 -1.3541988656493786e-03 6.1255112599509784e-04 -7.4873614921595064e-04 1.7408004846550477e-03 -2.9970329701143363e-03 1.2265856083904696e-03 -3.9848932840290518e-03 -2.8280724503130360e-03 1.9733081027774758e-04 -5.7047139806319994e-04 2.7998444015533974e-04 2.1013839515251348e-03 3.5082786897575047e-04 -2.4946376539190449e-04 5.9466066605227815e-03 8.2246661136856081e-04 8.5538883860156179e-04 -4.5820527432113844e-04 1.8675643179318427e-02 -6.5841684898806582e-04 7.8123863330766419e-04 4.8476336128065040e-05 -5.1662278751356079e-03 3.0969813465701931e-03 1.6221427336377632e-04 -1.7142848326835991e-03 -2.5140491832225547e-05 -6.5540866677875082e-05 3.3679813482628829e-04 1.2455808024051107e-03 -4.2494122141936213e-03 -1.7949792101433111e-03 1.6458024979708115e-03 -1.0252831853403050e-02 3.4319368050650753e-04 1.8720021541511847e-03 8.4828363353169935e-04 -3.1275517463893954e-02 -1.0439111372185287e-03 7.1203938104207921e-04 2.8510130603691267e-04 1.6945042673119424e-04 3.3649726896217945e-03 9.2345355340652619e-04 1.7505318770548155e-03 -3.3681503518205860e-03 3.8499204618143369e-04 1.7193033512990178e-03 3.8609613534242712e-03 -1.5805767085783594e-02 7.4690971983237507e-03 -1.8541774336594333e-03 -6.2090939222464954e-02 -7.0219636383512130e-04 -2.6049259151854336e-02 3.4595750165822420e-03 5.1987303431087109e-02 -8.5370664052224123e-03 -4.3608609942538080e-03 4.2901332191992991e-03 -3.0122535420805709e-03 -1.0713338142399814e-01 -7.4741745798277770e-03 1.6280810505694493e-02 1.0434977232993661e-02 4.1182390913321208e-03 1.1946519879027617e-02 2.9305788121450488e-03 2.8048383465103938e-02 1.0158383535291311e-02 9.9121121000524878e-03 6.1263114140246745e-03 1.2469349370186556e-02 3.9812448877244430e-02 -4.0288940003229412e-03 -1.4307184836845496e-01 5.5174195204487804e-03 9.3728097302348337e-04 -8.8581275175855650e-03 -1.5967431524532616e-02 4.5467446989365945e-03 5.3281407762633681e-03 1.7256451618086290e-02 -1.3286078312121273e-02 -1.6134761602025816e-02 -9.3980556948360956e-03 6.9374983920536051e-02 
      </Row>
      <Row Index="109">
        -8.2787801227274011e-04 -2.9480528737172145e-03 -1.0994936198985865e-03 -9.4137070575464089e-06 3.0839567023323682e-03 -4.2460312843957556e-04 -5.0847271595924354e-04 -1.1194850136031342e-03 -6.3752279925740713e-03 1.9198952575603312e-03 3.1957386041757077e-04 -4.7825673316361276e-04 2.7754438067457423e-04 -9.9223698711233465e-04 2.9605570019014462e-04 1.0844855211857010e-03 1.0515855029243400e-03 1.3357965455299513e-04 -1.4813107106537598e-03 -1.5341415630936044e-03 2.6978769812523451e-03 2.8736946172861749e-03 -5.4841188487307808e-04 2.6911435244317116e-03 -1.8241487215822139e-04 -7.3412684838852814e-04 5.3375446995687116e-04 -3.0674065550867395e-03 1.8366496772733423e-03 8.9709188089974468e-05 -6.8662918790910257e-04 -5.5018615721031381e-04 -8.7702966792415021e-04 6.3783023300582296e-03 6.2346246815826213e-04 8.5988510381786454e-03 -6.3771910601588674e-04 -7.9433223333395375e-04 -7.2325098985928041e-04 -1.3499722576228723e-03 1.1169172456439620e-03 -6.1501756998978436e-04 -1.2223557637807246e-02 2.8288604785135481e-04 -8.2819107217919647e-04 5.0104799329858457e-04 -2.7144808867258351e-03 7.7838287071132703e-04 -2.1285076916165505e-05 1.4761223105088689e-03 -1.3602908705164993e-03 -1.1108095229384069e-03 1.6009081323332206e-02 9.1100494162919571e-04 -1.5592679279506222e-03 -4.1964623900297380e-04 -1.4897665146079960e-03 2.5522264644240941e-04 -4.7628767987711786e-03 6.1865999531941079e-05 -2.7084774403702237e-04 -9.3801452681558511e-03 -1.4143746543409351e-04 -1.4200555299397153e-03 -8.7300364732781355e-04 -1.1409285122474570e-02 2.0572822257903947e-04 -3.3436098513415038e-04 1.2739460026009867e-03 -9.7352705094372501e-04 1.4448418151320433e-03 1.3802572650282955e-02 -4.7280219189481561e-04 -1.1231326777731700e-03 8.3607370685628867e-04 -2.0910575605386991e-05 -9.9486535822477205e-04 3.4382052519191676e-04 -2.7838368997855183e-04 -7.1110840017769416e-05 1.3610644761152049e-03 -9.1077448962917850e-05 -9.6539402991634041e-04 -6.6305896219269814e-05 -4.4063226348443965e-03 -1.4330324583855351e-04 2.6487664299007301e-05 8.4610183220238397e-05 1.6956169728311949e-04 -1.3488038735869176e-04 2.1674688704184809e-03 2.4121544501626204e-04 1.9940097708552691e-03 -2.3888332025406639e-04 2.7339363882271340e-04 -5.6217124725789838e-04 5.8995710062197896e-04 -2.9016675591035857e-04 3.1847910699064029e-04 5.2533128938032159e-03 -9.7725693628416426e-05 -2.1373581297076043e-03 -4.5667899477275448e-04 4.7536723089867273e-03 -2.1198214815450851e-06 4.8819078772609627e-04 1.1740936273168926e-03 8.4087502766298479e-04 2.3480217916915245e-03 1.1186485267950087e-02 1.6434400746536499e-04 3.3468141790350858e-03 4.7658083047413786e-04 -1.4053450366258464e-04 1.0989111136303314e-03 9.3083182638148995e-04 -2.6968312570983431e-04 1.5810047001391721e-04 4.8355386317139011e-04 3.6498366638670597e-05 -1.4935193341493333e-05 -5.7794521219854515e-04 -6.3732905657289292e-03 -6.2230181573704813e-04 -3.5931423499709108e-04 -2.4857069151488153e-04 -1.9060171644788163e-05 -3.2167761628050230e-04 -1.2249883671343114e-04 -2.2918160837770082e-04 -8.3380689278613992e-04 -5.6196771029960290e-04 1.8222316613917347e-03 1.6332942876063527e-05 4.9551525395827669e-04 6.7635093536653275e-06 -7.9155700806379179e-05 -2.8681787485375755e-04 -6.7073561744825799e-05 9.1982598897452469e-06 -5.5153837979745983e-05 -6.5734678342536782e-04 6.0207538073291653e-05 -6.5654806090512460e-05 1.7653430505642638e-05 -1.5329522989880113e-04 -2.9410674993183449e-05 -5.9114631953424571e-05 -1.8696969967246473e-04 -1.5147589241881645e-04 3.1159740079392007e-05 8.0646340492797694e-05 -1.5839119609368474e-03 5.6529063962771145e-04 -1.0700374392389497e-03 4.2531407358370877e-04 -1.4001713681384329e-03 -2.9965761088492462e-04 -2.2811335239319902e-04 4.2843739332339820e-04 -2.8033050299073811e-03 -1.1292672939235346e-03 -3.1912021588944000e-05 -2.3471175579642102e-04 5.3834988778532142e-05 3.7855681361070404e-04 1.0745046052788503e-03 2.8493226111247442e-06 8.2806353559750437e-04 -5.5216914653487553e-05 6.4595483783186477e-04 2.1940672142648898e-04 8.0722884191808397e-05 1.9378612540739935e-04 2.2292732286370315e-04 1.7283673951402911e-03 9.8279160892279262e-06 -3.4163628417975024e-05 -2.6256045111312798e-06 1.4418966900077469e-03 -3.6314881356291602e-04 -9.7488850144049192e-05 -1.5845654970051315e-04 5.3783912723368547e-05 1.3478007805465463e-04 -1.0163955524151632e-04 -2.7143524643280514e-05 3.3274270229245674e-04 -7.0570927466853748e-05 -3.5515710324226591e-04 -1.4701186830882920e-03 -1.5057407676708238e-03 1.4555406982563577e-04 -1.3502147195817689e-05 -2.2987858318822296e-04 -1.2579321707948060e-04 -6.5018950046589346e-04 -1.2931312363823901e-04 -6.5929132318011596e-03 -8.4881525350748968e-04 1.3679361420334743e-05 2.2482935045511172e-06 -6.5008946732643316e-04 1.9514885870434360e-04 4.2394545916164547e-03 5.5939446169299542e-04 4.6734380960566507e-03 -2.4222599384391948e-04 -1.4430258488011757e-03 -8.4760703230490073e-04 -2.0694052736388874e-03 1.5626345655597557e-03 -1.9707065675652028e-03 -4.3182934886307936e-02 5.2110612827283975e-04 7.7922525514153036e-03 7.0149743631170609e-04 -1.0598099138456187e-02 -1.6636967818339198e-03 -1.5794996170124154e-04 -4.7476323145361470e-03 -2.4229399496736650e-03 -5.3309731419192699e-03 -9.1944675256394170e-03 2.0336206299587378e-03 3.5767147082109603e-04 -2.0788963585938584e-03 -2.2381045420208716e-03 -3.8202589979565407e-03 6.0482101066233092e-03 2.1550503437882569e-04 -2.0370185102617892e-04 4.6446145950975477e-03 1.6213259625517261e-03 -1.6945463904317840e-03 -3.8414721620724304e-03 -1.4944408368938972e-02 6.0119725933335429e-03 -1.2865751295694592e-03 2.0384077088469021e-03 -1.9040348864635711e-04 5.8137300213931811e-03 -3.0270386716471739e-02 1.9963992392993853e-03 2.7241034901943371e-02 2.4160923168299476e-03 6.7805343411493245e-03 4.3392531724461688e-03 
      </Row>
      <Row Index="110">
        -8.7597416322221034e-04 6.1914560524748558e-03 1.3825454029738476e-03 -1.0178517065927762e-03 1.3055077560737451e-02 -1.5393580842297805e-03 8.1236687598310042e-04 9.7869542276935173e-03 -1.7839270226316161e-02 1.7390348203927190e-03 -1.2556586584888353e-03 -9.8104573132808972e-04 -2.6013742267702415e-03 -3.3676197548911635e-03 4.2277605118479483e-04 -2.2476923613736696e-02 -9.2858004797795259e-04 -2.5112387114627453e-03 -1.2993139244724112e-03 9.0673806663700493e-03 -8.5915333099745167e-03 -3.0441454394527639e-03 2.1635722523845793e-03 -1.7435770169010725e-02 -4.9684008592375609e-04 -1.0765473426893859e-03 -2.1378225729124269e-03 1.4930762095079847e-02 -3.7694339188122806e-03 3.0074370275067035e-03 7.9165989684081006e-04 -7.9566986130682690e-04 2.4197201756560012e-03 3.2829972826167592e-03 1.3967257771915903e-02 3.3425839003940003e-03 -2.1469693052904304e-04 1.0995469117266524e-03 2.0495105612074876e-04 4.3803557520297742e-03 -4.3975378522141395e-03 -8.2447804227675503e-04 -1.7442858935554362e-02 -5.3294157145813287e-04 3.1938800577760301e-03 -5.9459776755000950e-03 -5.5763039406287865e-02 2.8660724704084178e-03 -5.7917117898030612e-04 -1.5278840867069543e-04 -6.9775900961042275e-04 -2.5069952453321692e-03 4.6227308736310965e-03 -3.0548975304041465e-02 1.0212373369007099e-03 -1.3304274190087924e-03 5.1387610520144816e-05 9.4243907877325506e-04 2.7612667503244676e-03 -1.5163569408523994e-03 -2.8324360103228197e-05 -8.3100460511615765e-03 1.2350884487144151e-03 -2.6712410372897732e-04 1.2676581640106155e-02 1.0623994678014836e-02 8.3136550948238047e-04 1.1806103925131317e-03 3.8607848710570164e-03 -1.1085656878272038e-03 -4.4639404906901495e-03 2.9844775396017376e-03 1.6441379045848276e-02 1.8049937859570221e-03 4.6112167510416364e-04 2.4682952758803695e-03 -1.2303506246569978e-03 -1.7896521986315167e-04 -6.8454156119159004e-04 -2.3834243667455925e-04 1.0409751790057226e-02 -4.7455509676895568e-04 1.7735649895797942e-03 -1.3655719981309211e-04 4.8156778778521286e-03 -7.5810350111218949e-04 8.7356743951804913e-06 2.6751615143804502e-04 -3.8940106441791951e-04 -4.9362527220665059e-04 -7.8910324732865775e-05 9.4252075876819427e-03 5.6158741159635997e-04 -1.9965702689104785e-03 -4.0757301534939151e-04 -7.3689477784360802e-03 -1.0069030226257415e-03 6.8259260294534704e-03 -5.6536155351175205e-03 -2.0504182085148995e-02 -7.7438748218757771e-04 4.2562067010873447e-03 -2.5535854134430443e-03 -6.3785591943539971e-03 -4.2228319886185063e-03 -5.9740660400765388e-04 -1.3047896223389787e-03 -1.4740276704222101e-05 -4.2872683844987292e-03 1.6434400746548686e-04 5.4416022102941615e-02 1.7165092341016059e-03 -2.5449579324219583e-03 -5.0630119673228770e-04 2.2060771344252147e-04 3.1445368162223318e-04 2.2890241715011915e-04 -1.1700090766678358e-03 4.1505678342649080e-03 4.3994588161338089e-04 -2.9942464457947428e-04 1.1127859751072335e-03 -3.2565372060006450e-04 1.3785874765308635e-03 1.7384490315857748e-04 -4.8838536454715725e-04 -1.0323154739596990e-03 3.6386829404819235e-03 -2.3209076675898043e-04 -7.6954919096293151e-03 -5.2537768562452010e-04 -5.7881316505832168e-03 2.8689471264492753e-03 -6.2828808235237976e-05 1.0399531565712101e-03 -6.9304238807192648e-05 -9.0735618758058480e-05 9.8567484806569728e-04 -8.1352202262851517e-05 -1.0842048015511785e-04 -3.4855080138899270e-04 -8.6098366018539502e-04 9.0893328043707526e-07 -1.5137084284875366e-04 7.6598508791530948e-05 -5.2218466459549298e-04 1.8117302402768308e-04 -1.0660154103040099e-04 6.2569566901945811e-04 -1.6536776502755663e-04 1.0097834442202762e-04 -2.4813987351562027e-04 -1.4044565739306653e-03 -3.6934310170566708e-03 -3.6682222453496066e-03 2.7725920649361458e-03 -7.0742257566075335e-03 1.0598727852480542e-03 -2.0017392613305204e-03 -3.7155376331415354e-03 4.6389032137484063e-02 -2.5709414213535486e-03 2.9977969037786600e-03 2.5688430323200558e-03 2.1436122252012574e-03 2.7503738925444962e-03 9.5633090597571592e-04 1.6853679416824426e-02 8.6956596658491680e-04 1.6118967763447914e-03 2.3988941373199275e-03 2.0005945638575801e-03 -7.6446500699256861e-04 -3.9920507406365768e-05 1.1300201018667423e-03 -1.2166310428396530e-03 -1.5329933943292098e-04 -3.3482875607204754e-04 -3.0848401817815119e-04 1.1119410089892801e-02 -1.0340748946196122e-03 4.4620512020874040e-05 2.4754806618782800e-04 1.3494877133039124e-04 3.2519721668057870e-04 -7.1776151112000420e-05 1.0411135450224276e-02 7.4371406249693290e-04 1.5966277904853824e-03 -1.3400112121964534e-04 -3.1021532605934043e-03 3.2474827841053886e-03 1.2823107692473666e-03 -1.0970589941927996e-03 1.2330980069513949e-03 -2.4190829549859504e-04 1.0415762998018266e-03 5.0071781080161335e-03 -8.6716238409782383e-03 7.6379903255370443e-04 -5.2170779391314871e-04 1.3908250410163924e-04 -8.3840794413315707e-04 3.5744935395380699e-04 1.0396212075237327e-03 -7.2894398948725129e-03 -1.1255802972264002e-05 -1.0378988177831227e-03 -1.9565924169325862e-03 -2.0631063202251427e-03 2.1149527302876836e-02 -8.2923365107275410e-03 -1.1140822109595907e-03 6.8569202092619005e-02 -1.3589895345149025e-04 -9.2275221912964216e-03 4.3867738798800075e-03 -1.6897892895441158e-01 2.6893996933305034e-02 -7.0533808996466156e-03 -9.1731501750243194e-03 -1.0990422475016443e-02 -2.1644753655193092e-03 1.3433902384593919e-03 -1.4076324000605961e-01 -1.0660607317242502e-02 -1.3587714052699843e-02 -5.8608753193794046e-03 -1.5309421281823023e-02 -1.1997885545675404e-02 -7.2644694007035805e-03 1.5429368886905794e-03 3.3671763732278377e-02 2.6940767136138400e-03 1.6584326588189285e-02 2.3013083137490981e-02 1.8967470112038164e-02 -3.9026858674658035e-03 -4.0857491354164737e-03 1.5912402184320291e-02 -3.5465327191145759e-03 8.6211409587652402e-03 -1.1073973631660607e-02 -7.2077028311675007e-02 4.4993963343414860e-03 1.6381518150563643e-02 1.3541356851162738e-02 -4.1744935206437322e-02 
      </Row>
      <Row Index="111">
        2.8867058048042521e-05 -1.8473251473142133e-03 2.1371018260123165e-03 1.4225721817293538e-03 -5.9748516598071219e-03 -2.7564869834961810e-03 9.1214395111017740e-05 -8.5002240241126292e-05 6.2828398355012881e-03 1.2223409232739284e-03 5.9679547868710147e-04 -9.1629695470549991e-05 -7.6785305783587030e-04 1.5602391125899202e-04 7.1021466015976954e-04 8.6674520968803292e-04 -1.3414840307629430e-03 8.8087067066321828e-04 7.4298395992091334e-03 -7.3209936777138274e-04 -1.0678182347014960e-03 1.8955436264997405e-03 -1.5846222450455385e-03 -2.0394670395149500e-03 -1.6710721212981868e-03 -1.8572325798751742e-03 1.9389356852483452e-03 -1.6375812274641022e-04 -7.2971608945013311e-04 2.2390940633915200e-03 -5.1533572823199356e-03 -2.9632352460017171e-04 -1.7547690419879784e-03 1.3118629447093123e-02 -1.3741562936447071e-03 9.8740458096739838e-03 -2.8950349407349044e-03 -5.4426327268212206e-03 2.2741479591464348e-03 2.1969678566578499e-03 -1.4673584191027822e-03 -5.1868294864884645e-04 -6.4371595880588495e-04 -9.8339461751350069e-04 3.7782785401995617e-03 2.6575106476398047e-05 1.8957951980143294e-02 2.7786855917467240e-04 -1.6906552944805225e-03 5.5685706945315140e-03 -4.0112136281515720e-05 9.7129016141171698e-04 2.1301415843438837e-02 2.3647081601974023e-03 -5.3869503510952724e-02 -3.6928596198662180e-03 -4.0807975064895731e-03 1.2594629143828084e-03 6.8271388986584111e-04 1.2816548096701401e-03 -1.0626297223047358e-03 1.9775220174344634e-03 -3.8747957009530737e-04 2.8855244066687408e-03 -1.4342922156814208e-03 1.0873377864367935e-02 -1.3312444400451449e-03 -1.5581096826114711e-03 7.9010334062830610e-03 -9.7839681739778084e-04 1.8672838962669625e-03 1.7531875908076061e-02 2.6410547555602570e-05 -3.2678685210175515e-02 -7.7582653448193383e-04 -5.1674649018633514e-03 -1.1168335235543642e-03 2.6035742454875305e-04 6.2801339929998562e-04 -3.7994524956140065e-04 2.1367183014243127e-03 -6.8514858851100534e-04 2.3549243311783907e-03 6.7460474963552952e-04 -3.4949645456082007e-03 -1.8458474972178618e-04 7.2739357782294293e-05 5.2877896643453368e-04 -2.9795803008918892e-04 -6.1542515824868430e-04 1.8450175535394621e-03 6.0581828762037038e-04 9.7148856067519641e-03 -4.2769762406586181e-04 -9.4227578428891789e-04 -3.7039994041697388e-04 -1.3528007794057668e-03 -1.1887883987096877e-04 -2.7749210303844698e-03 4.2145904342887740e-03 8.7465143526905056e-04 6.3091742896806552e-03 -3.2875158030368536e-03 4.2653429891908040e-03 8.5134524246074494e-04 5.1251985005013685e-04 1.1698007889180044e-03 3.0738032108610096e-04 -2.3833463400792787e-03 3.3468141790362581e-03 1.7165092341023145e-03 3.7749484706010451e-02 -1.2192361819012623e-03 1.6783653925010790e-03 1.1310893051015222e-03 -7.8902805122485096e-04 1.4270449728501452e-03 -3.9853354529188626e-04 -1.8847053411733393e-03 4.5677087879948859e-04 -1.3608967688467422e-04 -3.2947152597028080e-05 -6.4032915040578356e-03 -1.2374263307921118e-03 8.0144253989913828e-05 -1.8388212761953657e-03 7.7646734298363225e-05 1.3819994630540355e-03 1.7586285309432600e-03 2.0855332732714615e-03 -7.8916113475414502e-03 -3.2468773506859274e-03 -9.3204409043623863e-03 4.2333552600585655e-06 1.2622937906277135e-04 -2.0677272358062831e-04 -1.0855156076683954e-04 7.5852455089159970e-04 1.4570380911549071e-04 2.2154547556694381e-04 -3.1416964967100600e-04 -4.8770430413102672e-04 -2.6395478936979750e-04 1.4040019955047955e-04 1.3421279354658915e-04 4.1313359672497693e-04 3.8142136108027051e-04 1.8691666397387970e-05 -2.2085711451348981e-05 -5.4208299893480244e-04 4.2671529930434372e-06 1.7579975868241957e-05 -1.7438399998700566e-03 -6.7434626318009679e-04 -2.4375051323708005e-04 3.7511648252476438e-04 3.1942950763668024e-03 -3.7322264997063985e-04 -3.2045867288849200e-05 6.6949718357930781e-04 8.9209973667420345e-04 -1.1209869287516412e-03 7.0195303532373846e-04 -1.1290707726558653e-03 3.9334659751426196e-04 -8.1966999803556313e-04 1.9061139006694189e-03 -1.1162463028624237e-03 3.5907235954221370e-03 -7.1622510049376492e-04 -4.9164490617838600e-03 -1.4012665053408924e-04 3.3007910734544205e-04 -5.2163090425569325e-04 8.1053541228291769e-05 -1.2441288786329240e-05 1.6580229990442209e-04 4.0966813181512324e-04 9.3294543401533508e-04 -7.1159721962617620e-04 4.6887172491326401e-04 -2.5108288900349833e-04 -3.9233863612444381e-04 1.9304129677140489e-05 3.1502051809603309e-04 -6.6719066669743078e-04 -3.1318384124395804e-04 2.5620291402250793e-03 4.1111154985934222e-04 1.1884989550849240e-03 7.4629609902494148e-04 -4.4833036585064322e-04 2.6287163473429466e-04 -1.4122805704355922e-04 6.2388390852592228e-03 2.4942558459139971e-04 4.4423107073870050e-04 -1.3112105199502601e-03 4.0598383587361550e-04 8.3031827616887697e-04 1.4709176315060035e-04 8.7260786584361844e-04 -5.2395955078090586e-04 -3.2641550778130511e-04 5.6751511716999466e-03 3.2428243181646908e-03 1.3508722070717223e-02 1.8795921555893056e-03 2.3724515547086265e-03 -2.4590782459813008e-03 1.4673897529042246e-03 3.7031078784719226e-03 5.4067526803065150e-03 -1.6132205933758297e-02 -9.0150428956489248e-05 -1.9899448226064480e-02 3.7593826023420100e-03 -3.0811099297950291e-02 -2.6349500713664696e-03 -8.4812021488341353e-04 -1.2740489810828327e-02 -2.6771810031485052e-03 1.6575746733807854e-02 8.8398571600407025e-03 4.1062403485635710e-03 -7.4234881904929440e-02 3.8848033604066594e-03 7.1807805747885227e-03 -2.0971797899800582e-03 5.0621256461231418e-04 -1.8858848611681162e-03 1.0056693428665362e-03 -1.2573728963822327e-02 9.4647165871927872e-03 3.0102017983377888e-02 -3.4516173635997021e-03 -2.0994372856294130e-02 2.1591069945060652e-04 -8.0940853117242046e-05 1.8340217532212686e-02 -8.3549748501510332e-04 3.5855068194913797e-03 -4.5424233093424672e-02 6.2212948254962144e-03 1.0202573013700703e-01 1.1060358629444808e-02 -3.3501955426281031e-02 -3.2473127312341525e-02 
      </Row>
      <Row Index="112">
        2.3455856328659930e-03 -1.0616392507462796e-02 8.8866308919574588e-04 -5.6026808186527459e-04 7.8742457236450902e-03 -1.5771096430336681e-03 4.8598302836307811e-04 -3.4012738434876233e-03 -3.6588908097267489e-03 1.5451044306242091e-04 1.9286338650744183e-03 1.2185633863963233e-04 -7.9516658103131327e-04 2.0731753334947943e-03 -1.7336006264746621e-04 -2.5248775622533776e-03 1.1205784040504612e-03 -5.0466388598915252e-03 -2.4700802930982006e-03 -2.3408869630716297e-03 9.0484656774541330e-03 3.7591887687771497e-03 1.2022513287806291e-03 -1.8405637072042291e-03 -1.9602240279971775e-04 -1.9268298723800641e-03 1.0401063488662890e-03 2.3706906549712997e-02 6.2936632973031870e-04 3.1845870174716309e-03 -4.7294796873308120e-04 2.5256201954475016e-04 -7.7180632309347720e-04 3.6807278549911247e-04 -5.5410880125239537e-04 -9.6246984527176586e-04 -2.8622417974377909e-03 9.0766347534164404e-04 3.4727210245505055e-04 -2.5279067388358500e-03 7.9734362979079765e-03 6.8020626304129972e-04 -1.0667435503284306e-02 -9.3886416170044229e-05 -2.8496693012920737e-04 -1.5121653049281411e-03 -1.3510312064897556e-02 1.1736974985983584e-03 -1.2301990740329338e-06 2.0166912955289010e-03 3.9668561149672904e-04 -3.5634471709723725e-04 2.7441645643205143e-04 -2.7684778858966946e-05 4.5352260815678669e-04 -3.1211079972934003e-04 3.1053433479742709e-03 3.5693263200758385e-03 -1.5093931663824112e-02 -1.5225950211812805e-03 -2.4475491537110025e-03 -1.3436436013865440e-02 -1.1201175708400180e-04 3.9855996238891134e-04 -3.9552034196602137e-03 -1.1714854067018082e-02 7.9566922504897830e-04 1.9235906191818544e-04 2.5381200530822509e-03 -1.5599448350493705e-05 -1.0321821928072419e-03 3.9307907874552850e-04 7.3635597049342971e-05 8.7219767658195703e-04 1.4268489200252883e-03 7.0577320367196383e-03 -4.7510542263268229e-04 4.4218293914239509e-04 2.4590501331574581e-03 -3.6016019735808300e-05 1.1014172431224687e-02 2.6832865667206695e-04 -1.7847368627703199e-03 5.2162922889187335e-04 7.2443224953089858e-03 -5.8779462303820695e-04 8.6125056801113816e-04 -1.0888952422002940e-04 1.7016162176699324e-03 1.0588987143639629e-03 5.4920868000284465e-05 -2.3368538859102478e-04 -5.2726391412675176e-04 4.4372790630231220e-03 -5.5793990854769750e-04 3.0909023650783213e-03 -5.6517350288010082e-03 4.9234786511787249e-03 -2.4249279947693575e-03 4.4701461208597939e-03 1.2888302774397200e-03 -1.9493432544219194e-03 -2.6357938700753702e-03 -4.0127121019908091e-02 -6.2250122373803604e-05 3.9641030906593087e-04 -4.6624356957663008e-04 4.3408676256601218e-03 1.6342187525857418e-03 4.7658083047421706e-04 -2.5449579324212240e-03 -1.2192361818982554e-03 2.7408753920060432e-02 1.3944968622101709e-03 -2.6172584516250185e-03 2.4095622061581722e-03 -2.3348468000482688e-03 1.2047437818394225e-04 1.0926020612088168e-02 1.1387888769004387e-03 -3.3899626120666615e-03 1.1205864389330876e-03 4.6580654439443127e-02 -1.6926109925443278e-03 8.7330487161490404e-04 -7.8978746369233086e-04 1.3110142135304209e-03 -4.2607980276666103e-04 7.7281037452735192e-04 5.5796746823488785e-04 -1.5357946022393400e-03 -4.5406158623994761e-04 2.4924404225151438e-03 1.1986635258449574e-03 -4.9821372539163701e-04 -2.3962865310128288e-04 8.5891292700232590e-05 5.5920772791613887e-04 -1.0147306486425353e-04 -5.5372466845940850e-05 -1.0051463249518681e-03 -1.9893315242433746e-04 -4.2128506234252478e-04 -1.0479623605730424e-04 -5.7666089660540805e-05 1.7584479090596180e-04 -1.9328609573373147e-04 1.7190578082386108e-05 -3.7301919849321014e-04 6.6357167743909517e-05 1.1340196813770480e-04 4.3925749071236188e-05 1.1004274756056974e-04 3.1625044652519758e-03 3.7022444267614681e-03 -5.3221934475322261e-04 6.3640913091120321e-04 -3.7865594777630707e-04 -3.8828390018330790e-04 3.5843544512619060e-03 9.0432392345361455e-03 2.9255040868314465e-04 2.2921487838367590e-04 -1.4910819341616634e-04 -3.5356766462761808e-04 -7.5474106329930998e-04 1.4166398740806036e-04 5.9717382636374728e-04 -1.1332477425099350e-03 -2.6056632683767889e-03 1.3754569872669123e-03 -8.6426206145782947e-04 1.4152068353558492e-04 -1.3487562994801694e-03 -1.9151335330662650e-04 4.5077734762285007e-04 1.2322130934477979e-04 1.4146978168053104e-04 -2.1767706586528490e-04 -7.2564796415102882e-03 3.5825831694189045e-04 -5.2021648557956787e-04 -3.4436828960539984e-04 1.6294840265267136e-03 2.6839079376971258e-04 -1.6966842426199282e-04 3.8378512066283843e-04 -8.0794717382843585e-05 1.9489850496564078e-03 -7.5893612472135996e-04 5.7337069076704439e-04 -5.2179450822853572e-03 -9.1271596817956574e-04 1.2754879633128212e-04 -1.3089877187778005e-03 -8.7474443687169656e-05 -2.6477490912701017e-05 -2.2227760209569203e-03 -3.8700157294633847e-04 -1.1627339418564479e-03 -2.1977340627777616e-04 2.8006481332294584e-04 2.0515701548328707e-04 3.7959460285701772e-05 -3.1363061619877372e-04 3.4059773520706867e-04 4.9654381342532580e-04 9.0796807554767087e-04 -1.0899262667093429e-03 -2.2262650950359087e-03 3.0295422599337352e-03 -1.1762556215835168e-02 4.1799679234460234e-03 7.6138084988255118e-03 -4.3175193935817216e-04 5.0125039585600358e-03 2.3581333339181866e-03 2.9298271546418432e-02 -6.2761166749354166e-03 3.2841204111697022e-03 -1.8044735676662066e-03 -5.0203113117836210e-03 8.0900971300575390e-04 -1.5401631539874764e-03 2.5935874105046976e-03 6.0149001121110393e-03 -4.7529390387513214e-02 -5.3110143187379564e-03 3.4681165177766447e-03 2.0335703176803860e-02 1.9104228031921692e-02 3.6933385106540859e-04 1.6039522629903248e-02 5.4458117515682088e-03 -1.0782981112346032e-02 -1.0184140163245023e-02 6.4997798131943993e-02 2.1177799761806747e-03 -1.3036840955688451e-02 9.9662565906343936e-03 3.3844162637507134e-03 -5.0434175715202145e-03 3.3770645096608577e-04 -2.2009457310391556e-04 -3.8384793183403668e-04 -9.1533653368797915e-03 1.5693774906532995e-02 -7.1569931872879550e-02 
      </Row>
      <Row Index="113">
        1.0869165972956884e-03 3.3884126956207350e-05 -3.5959139240737681e-04 4.1889035142875057e-04 -1.7212392679604643e-02 -1.2769467088301831e-03 1.1661565476353622e-03 -3.1089421099047276e-03 2.0628963415908336e-03 4.6465070222456153e-04 2.6948840807707944e-03 2.5079941647168191e-04 3.9930420201182584e-04 -6.5415720868019654e-04 -8.9995285506801193e-04 -6.6298864310976313e-05 1.9569996472433484e-03 2.6834297559385628e-03 9.5224611854967424e-03 1.2964950156675592e-03 2.0749074283244462e-03 -3.7142598066595700e-03 -1.2878666953927004e-04 1.8500871305884625e-02 -1.1893909586629392e-03 -7.4194428459162438e-04 1.9273955225969364e-03 -7.2154028188991526e-03 4.6358882546555860e-03 1.3485438148618592e-03 -1.3558810595718507e-03 7.6272810707438718e-04 9.6170153646261969e-06 -7.6793528111188808e-04 1.0623955373721961e-03 -1.8350265957346127e-03 -3.6372836415859144e-03 -4.7329721759536564e-03 1.3474372450157715e-03 4.1102145171678650e-04 -4.1420081741034842e-03 -1.1617232850090198e-03 4.3876602288849487e-02 -1.5469595588039897e-04 -1.1678498432372703e-03 2.3131230969704319e-03 -1.4992321877364406e-02 6.1611503034525450e-04 3.7544577308908089e-04 1.9894978335778107e-03 -1.7021298496714826e-03 -3.4612192952525184e-03 -2.2799388496197587e-03 -1.6504282350828653e-03 5.7745764251321274e-04 7.7847293873742774e-04 -1.4957481872875142e-02 -1.5281126934456601e-03 -1.6796574166930058e-03 1.8717983859413562e-03 5.5447319283627450e-04 -4.9860882205519444e-03 -3.1048410608583432e-04 -8.5322295256073932e-04 -2.8420771331532091e-03 -1.8032154626289265e-02 2.5414309744281605e-04 2.0313572450483819e-05 2.6716179420052440e-03 -6.7421836127137813e-04 5.8580109444674316e-03 -1.1681110965679475e-03 -1.0186277108720776e-03 4.8470646569105311e-04 2.6732398317529660e-03 -2.0417583646826554e-02 -6.0141547536768369e-04 -1.7069288838357927e-03 -1.0094131274105134e-03 1.1339649708232494e-04 -1.6062155506482545e-02 -5.0281174540854449e-04 -1.0298599421028959e-03 -4.0237183486174777e-04 1.2268674425230941e-03 -6.3309848214615494e-04 1.4170437418875234e-04 2.1912354720658028e-04 3.8229363938004426e-04 -4.9657604668730537e-04 9.2594306965202572e-04 4.8763486295911457e-04 -1.0904825471550264e-03 -1.1779709758672277e-04 7.7614212231966531e-04 -4.4617387758981164e-03 -2.8952906286503141e-03 3.3274108153048551e-03 -3.4142760805903546e-04 5.9265917220926737e-02 4.7632589016356058e-04 -2.5221701709363673e-03 9.0259843107448612e-04 2.6290017174014080e-02 2.9997263411188635e-03 -3.5785017524068985e-05 4.3110624532661027e-04 1.1113493599485427e-03 -4.6041154800123257e-03 -1.4053450366219473e-04 -5.0630119673192482e-04 1.6783653924998948e-03 1.3944968622152543e-03 3.4642127943539727e-02 -4.4596570094740731e-04 -1.3669692529595706e-03 2.4515716115317519e-03 2.7619689167289463e-04 -6.4435320885570441e-02 2.8041661102467174e-04 -1.1643291015913200e-03 9.1467097856170326e-04 -1.6230096986952193e-02 -1.3536269503594512e-03 3.0109120897378952e-04 -1.9933609821968503e-04 -5.9425833966695067e-04 -8.2417356090066759e-04 2.8634776742659266e-03 8.7985545665308917e-04 -3.3113612643511899e-03 -3.3540118734325160e-03 -2.8363258704601966e-02 -1.6347896134317349e-04 -2.5101354208803257e-04 1.5421733112328006e-04 6.3884964500469807e-05 -7.6444899805907683e-05 -3.4415429532231689e-04 -2.0739865687861918e-04 -2.9350823285529890e-04 -8.9248585136780638e-04 3.1152178803947768e-04 -2.2595736609122216e-04 -4.4514399700397930e-05 -5.5944605313498351e-04 -1.1909021528123059e-05 -5.5881124615376234e-05 1.1987345086961968e-05 6.2925228531765341e-05 -9.0339541877574689e-05 5.0589908271426304e-04 -3.0102891540981776e-03 -5.7199700591681454e-04 -1.6541546196297881e-03 -8.3053947107453131e-04 -2.5873986762805889e-02 -9.4986347376049905e-04 -6.3669956177301199e-05 2.0302480240882784e-03 -1.4713932496117143e-02 -1.4411137050359157e-03 -7.1137044425169198e-05 -3.3898081742953726e-04 -7.8303840834259173e-04 3.2106564695379616e-03 8.7181242661963135e-04 1.3979305645337157e-03 -1.5620461802205534e-03 1.4377819571018836e-03 -1.1031826948188004e-02 7.6964636264365005e-04 3.3324362488065806e-04 4.4671581243710401e-04 3.4434252362781567e-05 6.9172863496095478e-03 2.8650109169922741e-04 -3.5552470476801767e-04 -1.2274057939301586e-04 9.7457581944639243e-03 -1.4203008223772669e-04 -6.1195335739818021e-04 -2.4740242145594032e-04 1.4602128666972962e-03 6.8590438327854756e-04 -3.2194782128873868e-04 -4.4437040180328458e-04 -3.5631798554401368e-05 6.0079787283093462e-04 4.5576233318647269e-03 -4.3075548685608811e-04 -1.6902191464916814e-04 -3.0734765154060767e-03 -4.9498925883631082e-06 2.4024968864860309e-02 1.3648659789701020e-04 1.0798685242181345e-04 -2.3127553905295975e-03 -6.9116018152518511e-03 6.6796230081318190e-04 -1.0489932611787711e-03 -5.9256874107685529e-05 2.4690391134737520e-04 2.8568634337060015e-03 -2.3187412401060436e-03 -4.8239968631531995e-04 1.6238938865199555e-03 -1.1983239476173601e-04 1.5379787597762432e-02 1.1371771445812929e-02 7.3761627355898446e-03 -1.1971269907694086e-02 2.2392136036125942e-03 -1.5241347956459709e-02 2.5957806545927895e-03 1.0547270386808477e-02 -5.5132232364114939e-03 9.9812577339544253e-03 -1.0893561566064944e-02 4.0510996089604696e-03 -2.9636196785280955e-03 -1.5786192445452259e-03 4.3398089769037494e-03 -4.5261302176322436e-03 -2.1654506622908049e-03 1.0053664101790701e-03 -6.5546706418082041e-03 -3.9937212989728604e-02 -8.5954527314299478e-03 2.2095620769639612e-04 -9.3843000421948031e-03 -3.7035231919554067e-03 -9.8160496574418249e-02 5.1535628388156840e-03 -3.7621162286867876e-03 -6.4167174348182809e-03 -4.6142536899659491e-02 8.0163501997049941e-03 -1.1224694370107459e-02 6.0690810522065347e-03 3.0624455531634244e-03 2.7837882909873421e-02 4.2020870115912672e-03 -8.7281510695688333e-04 -4.9352099891537896e-03 1.6672716998568309e-02 -1.1233195850085136e-01 1.3134424262979350e-01 
      </Row>
      <Row Index="114">
        1.3995556057791996e-02 -2.4299955047687671e-02 6.0435660525428592e-03 1.9756273219417378e-03 1.7946744718777552e-03 2.0598626343231730e-03 1.3999631321759409e-04 -3.5393762204291801e-02 1.6181612165132031e-03 -4.8938807586845021e-03 -6.9990962495328490e-03 3.2825434400530328e-03 7.2426138752549746e-03 2.5813584922711580e-03 8.9259710561083450e-04 -2.1659557882738656e-02 2.4834841666757784e-04 8.4845070931409694e-03 -9.3134332509113051e-03 1.7212119029813694e-01 9.7898739538934132e-03 6.2967034551988377e-03 -5.2450635454034666e-03 2.9241899082052658e-02 2.5620875103192498e-03 1.3305396824811310e-03 1.7842206082698708e-02 2.1517665292365429e-03 -7.1402738226066798e-03 -5.2418097074376502e-03 9.5591878064633651e-03 9.5823046710262379e-03 -5.3403793762743720e-03 4.1875594529165727e-04 7.0958478794894253e-02 1.9751298901668803e-03 -7.2771739176832329e-03 -2.0958206031898574e-03 1.6157873385316054e-01 -2.3090130045826385e-03 -5.5938740873320292e-03 -7.5805298967009938e-03 2.9362320156702815e-02 2.0714174700328658e-03 -1.8323826089253759e-03 4.1074557900746267e-02 -2.0026511936119817e-03 4.1669588275264902e-03 -6.6809574398418725e-05 -1.0706227669798840e-02 2.2453672523475299e-03 -4.0850319453192840e-03 4.6539139671500918e-03 -1.8675311873971423e-02 -4.9140644658662858e-03 -1.0361541883738279e-03 5.0354433304704016e-03 9.5230618182319038e-02 -2.5325772434554042e-02 1.0281225503755154e-02 1.9848468876536574e-03 7.3191299645102292e-03 1.4056519352512176e-04 1.3509163246263611e-03 -1.7627658149927061e-02 4.5920069999592306e-02 -4.2616545000562223e-04 -1.1715318643008565e-03 -1.7588323949139138e-02 4.7321122288903061e-03 -1.4510848502617635e-02 3.8456153871566645e-03 3.6863661564690231e-02 -5.4186754721010505e-03 3.5544428101314945e-03 4.1528108539227726e-03 1.1412749888506601e-02 1.9506140035278063e-03 2.8505884576571217e-04 -1.8498558030109954e-03 1.0471377537171755e-03 1.3065178005447556e-03 -5.8208351546440440e-04 7.5466181506766983e-03 -5.5658683823305299e-03 -2.5368238371867857e-03 3.3262310580042115e-04 -1.4216617766294182e-03 -5.9227759183750478e-04 -1.4339005792504550e-03 7.0734666274913094e-05 7.0706943014396811e-03 2.4961686985926212e-04 -4.7826082169760836e-03 -1.3573879302550274e-05 -4.9847501801853822e-02 4.9457041174688354e-03 -5.7485844632171774e-03 4.6026711606226983e-03 1.0907383924845474e-03 -3.1021223337489301e-04 -1.9876166125273546e-03 2.4966481177748912e-04 5.8504557211931374e-03 -4.5128631011657760e-03 4.6859413857386410e-04 -5.7455511944516612e-03 -3.8503171055552696e-03 -1.5627549053603904e-03 1.0989111136386585e-03 2.2060771343370360e-04 1.1310893051404980e-03 -2.6172584515758851e-03 -4.4596570093519833e-04 2.1111300211873671e-01 -1.5128445456660627e-02 -1.9056162826045209e-03 -2.8112460726047797e-03 1.1572927782265034e-02 3.5340104034393277e-04 4.0668581446156855e-04 -1.9356765678061993e-02 1.0129298075785560e-02 3.4506338258546293e-04 2.6376869818193777e-04 4.3697716768296615e-03 -1.0751581204637239e-02 1.4172412996425751e-03 2.0714666350032844e-03 1.1407998777597905e-02 -8.1675406911158131e-04 -1.2021654950237312e-02 -9.1127144993498376e-04 5.3864054346511770e-04 -1.2815318347279023e-03 -6.6094432317384251e-04 2.8664406167773834e-04 -1.6215762620855477e-03 -2.4543477061083588e-05 -2.4074639960672156e-04 -1.8304803765026257e-04 1.5913635364505866e-03 5.3037304074313304e-04 1.5933016589553796e-04 -9.1959858838595447e-05 -9.7913731174077007e-04 -3.1095969467835724e-04 -1.4094300010772365e-04 1.4013185390687472e-04 -3.1190181628526080e-04 -5.7403630946295959e-04 1.1791615097010201e-04 -7.4859022869001174e-02 -1.9582796366268856e-03 -1.6065692550395572e-02 4.8185268047208716e-03 -2.6025525319753919e-02 -3.8807649700016672e-03 -1.1662625745092461e-04 7.6999056797462939e-03 2.1387120740518815e-03 4.8608540892331742e-03 -2.5438596993063336e-03 -3.4786973562848820e-03 2.3368455822387075e-03 -4.0538510957319153e-04 -6.5155830402805848e-04 1.1934361497819814e-02 1.1786816038243529e-03 4.3691632196485126e-03 8.4942649182425112e-03 3.0169440875399411e-03 4.8820010463393494e-03 5.6773512841183926e-03 -4.9432127695156133e-04 8.2622369092757164e-03 -8.4089474172476322e-06 -5.7296705864129382e-05 1.0415260880371480e-02 3.7231612352423560e-03 2.2134680442913082e-03 1.6555786101304557e-03 1.3949539589366566e-03 2.2189737620970196e-02 1.4673571955162376e-03 -3.2066531540716971e-04 9.8279795574203188e-03 -5.1519270316054567e-04 -9.6174511146044543e-04 -2.5077692939625418e-03 2.0739821241816170e-02 -1.1768998286281349e-02 4.6756396649117364e-03 -6.5381183498582941e-04 7.6315371942700730e-03 2.2861785436747613e-03 -3.1677245570248139e-04 -1.3883282102956708e-02 -5.5067800763608701e-03 -4.0590648563841635e-04 2.4795868128429750e-03 -4.2182213942320017e-04 -3.9250286273577149e-03 -4.0068963853732795e-03 1.8663422771401836e-03 -9.0770297038737340e-03 4.8758952296567280e-04 1.9523382461065987e-03 -4.6795345189489333e-03 -5.5181103245890303e-02 -4.0600137015824336e-02 4.0893118369553394e-02 -2.1207264999104528e-02 8.2352359446962314e-02 1.2239398185331176e-02 7.3040070740351985e-03 -2.7651698772270562e-03 -2.2481193786421105e-03 1.1045312758493808e-02 -4.7844392279370665e-03 3.7153647680781166e-02 -8.7439815209524960e-03 7.0171694662358626e-03 9.2787460998867057e-03 -3.2369054423153298e-02 -7.3995283269378299e-03 -1.7986573639404001e-02 -2.6457075735737239e-02 -5.5227303875140443e-01 6.5359468229422291e-02 -2.7110651761723628e-02 -7.5622233307892639e-04 -1.7712291912326456e-02 -5.7412224718909610e-03 -9.3214895277351772e-03 -1.0233776295593267e-01 -8.7113937251342421e-03 -2.4143017107056609e-02 4.2569351658530666e-02 -8.9579946281456393e-02 7.4449993509526510e-02 -3.0809057084928301e-02 -7.0345327099095682e-03 -1.3155523585461809e-01 6.3887575660509788e-03 5.1192584747415483e-02 2.3334114851910157e-02 5.2428125903596423e-01 
      </Row>
      <Row Index="115">
        1.4382872381083116e-03 -2.7231589438283577e-02 2.0197789371713959e-03 -1.9930870650100227e-03 7.7585849174613419e-03 5.3107745032653433e-03 -5.6588319268432302e-04 -6.6246473154480956e-03 -2.7269318364916778e-02 1.7876361404783750e-04 -4.7325982197535289e-03 -3.0503870278407895e-03 2.2302629173729044e-03 2.6300708567256774e-03 8.8129102518305635e-05 2.0407120272009083e-04 7.2378849103737781e-04 5.3353057905777129e-03 -6.0948720031733274e-04 -2.0179161624852386e-02 4.6242067624174224e-02 2.5514667609384811e-03 -1.6135893596742022e-03 -6.6045438783745580e-03 3.0080235702186139e-03 3.2252650563708782e-05 -1.5296675321185435e-02 1.3806494950161924e-02 -4.1402815126789089e-04 -4.6713134521473854e-03 -1.3750685600928958e-03 -6.3799695501602941e-04 -1.6044968061417874e-03 1.4539011155364004e-04 -7.4297089047826725e-03 3.4683885447600680e-04 -2.0527208117483708e-03 1.0801548647841608e-03 -7.0610469765067865e-03 -1.7417175536361684e-02 1.2646782756921326e-02 3.1515034460585789e-04 -9.1555488384013617e-03 1.7502528654056160e-03 3.3056615507717768e-04 1.1646770280035759e-02 -3.3485632965938150e-02 -3.7438714820590413e-03 -4.0632569996437717e-04 3.0534525501292875e-03 -2.0922750989913197e-03 7.2040884190429505e-03 1.9935548793579283e-03 1.1399798743070774e-04 1.4917591612254033e-03 1.6756542830050495e-03 1.5131900375430635e-03 -3.1679305114565848e-03 -5.8864619842215221e-02 1.6948089270797384e-03 -1.4001107853814365e-03 -2.6519085154364276e-03 3.9183477401567857e-04 3.9469097776678730e-04 4.8934555005786251e-04 -2.4462906342527679e-02 8.6016100644313587e-04 9.9115271952526091e-04 1.9475639024870411e-03 6.0204479517975140e-05 7.0299038657905925e-03 1.2507070893712502e-03 -3.7949712539797620e-04 9.2098477043794577e-04 7.7060368439774950e-03 2.7423042345597753e-03 1.0052253212241014e-03 -1.9707667499577752e-03 3.2924520621997674e-03 -1.5375804621349850e-03 3.4911301888187543e-03 1.0276032343000023e-03 2.1151595460512126e-03 3.9238258447277241e-04 -6.7011517376135421e-03 -1.1223547303712555e-04 5.8433234079597815e-05 1.6290575518849298e-04 -3.6483884694032053e-04 2.3760622030216949e-03 -1.0047479789021194e-04 -1.3926248395059911e-03 -1.1538991505704657e-03 -5.5208468346133743e-04 -1.5232673840624433e-03 1.0473894442088072e-02 -1.5166152017878382e-02 2.2699364274650210e-03 8.9513785287693298e-04 -8.3344224838511512e-03 -2.7416466864846334e-04 5.4486176886599947e-03 1.4699490811085764e-03 -2.9076155987276253e-02 5.9793251414136037e-04 9.0102929328478396e-04 2.2749801260695639e-03 2.1508738575863097e-04 2.4652998114042379e-03 9.3083182638174083e-04 3.1445368162355547e-04 -7.8902805122494507e-04 2.4095622061513482e-03 -1.3669692529677206e-03 -1.5128445456675271e-02 1.1107883172293198e-01 -2.1687218134389813e-04 -3.9895713730568258e-03 -9.3544465460053167e-04 -6.9564192895945937e-04 -3.6601898719002724e-03 4.3549772114341009e-02 -1.7641804327476099e-02 -1.8828343554819675e-03 6.1644145601505158e-05 6.4691061448369181e-03 2.6358228273513690e-04 1.0954899490944955e-02 9.6775153087198936e-04 -5.1122713379542217e-03 -9.9328778685706326e-04 -2.8652829687804459e-03 -1.5591573030125129e-04 -6.1591099737245492e-04 -5.0110643923503336e-03 4.6168233593597206e-04 -5.3856374109418487e-04 9.6296974924905141e-04 -4.3734833312236352e-05 2.9163420234444429e-04 -3.2295864377513642e-03 -1.0256435379996955e-03 -3.8733155047105121e-04 1.8130598308914800e-06 -2.9515046818543063e-04 -7.4467158795524875e-04 -8.8526139546110519e-04 5.5971240460581605e-05 6.4381377325970531e-04 -2.7712687149865947e-04 -3.9025185917386605e-04 3.3388479208986549e-04 1.3067818327938470e-02 -9.1323862907025793e-04 -5.5132930037413153e-04 6.2776331249313720e-04 1.0443941006751858e-02 2.6398803656087176e-03 -8.4501809385360252e-04 2.5426355669384604e-02 -6.4333124413951115e-04 -1.1936346387046593e-03 2.7187490212337732e-05 -1.1756036995673453e-03 -7.8827190903779458e-04 4.0602450700498015e-03 -7.4044850728061465e-04 -7.0327570551564390e-04 -2.1488637300160222e-04 -1.7538033643047434e-03 -9.3970577618212063e-04 -1.4463271644233056e-03 -9.6378452938604073e-03 -3.4262469816912500e-03 8.0104942424303726e-04 -2.6161971751447553e-03 -7.5203604665200386e-04 9.1347076424792839e-04 -8.8307662031887335e-03 6.0291526994418285e-03 4.6855387101870684e-07 1.1256128643097353e-03 -6.6943457205106971e-04 1.3457905999061008e-03 -3.0423625353825910e-03 -2.6425558313267466e-04 7.9158153186104085e-04 6.3321542246676666e-04 -1.2533937092487090e-03 -2.0366103408110681e-04 -3.1259519619342147e-04 -6.8191235065444477e-03 3.6978313540497439e-03 -1.1936951194318653e-03 2.4511004479766895e-03 8.4213615181976407e-04 2.6154339065715283e-04 5.9457722326374200e-03 -1.4343807522194357e-02 3.2661903377474222e-04 1.3633520848151282e-03 -5.1761402927719916e-04 5.5696021750179588e-04 3.1223294825520652e-03 1.3551502702323424e-04 4.7229497476767961e-04 -8.8731963096639515e-04 1.9609871748457451e-03 -4.5822512890661389e-03 -1.4103805655164550e-02 1.6959514112049742e-01 2.0982857480789055e-02 -1.1953329282778185e-02 2.3660928012208399e-04 -3.5157036310267185e-03 -2.4317115524728386e-02 7.3720529489136419e-02 -1.1193617056198499e-01 -1.3695739026068450e-03 -9.2198628070935332e-03 2.6549786429278625e-03 7.7592475279091161e-03 2.2986147299735665e-02 2.5568734926688279e-03 3.2683849763916195e-04 1.2141385248484648e-03 2.5147169088463227e-02 -4.2210417709363096e-04 6.5929216640820618e-02 9.8532657193784984e-02 1.2051253034111153e-02 -3.8712747711666662e-06 1.4212677931654384e-02 -1.7441250104064259e-02 2.2277174757092483e-02 -8.9896350448558537e-02 3.0354894041952848e-02 6.8552349113866831e-03 2.6184185705452327e-02 3.2688258116329229e-02 3.4243297446599433e-03 -8.1790824328960982e-06 -3.5026751620849013e-03 1.1922299529969631e-02 -3.4649770981788684e-03 2.1811236218782941e-02 1.8532640282172774e-02 -1.3250457632705018e-01 
      </Row>
      <Row Index="116">
        8.1719395955409039e-04 -7.7039632631961674e-04 -3.1315334651679516e-02 -5.6783004762675400e-03 -1.0996015626737382e-02 4.5849351623342624e-03 -4.6585767930291261e-04 -3.8595072554757998e-02 9.7085310107594622e-03 -2.1938384770509847e-03 3.0149411806673857e-03 7.4083054338498072e-05 8.7251715291990044e-04 1.7491082644285625e-03 -4.1632441887093537e-04 3.5989449074842750e-03 -8.9616473485768324e-04 7.9288904012606819e-03 3.2958341457446742e-03 7.9125192288368590e-03 -9.5406183585800691e-04 6.3490683207025805e-02 3.1225313743688324e-03 1.0541067128056469e-03 3.3413617499165015e-03 1.0629234491459517e-05 -4.2671574334706558e-04 5.0571883887221329e-02 1.1433541586621139e-03 -1.1089412607355430e-03 9.5499142549744509e-04 8.7929632322875084e-04 -3.5183257734992673e-03 -5.3173711945980404e-04 3.5737452865077513e-03 7.5228723418605849e-04 -9.4818029300074852e-03 3.6585369950211805e-03 1.0024755910344504e-02 -2.0779661704709573e-03 6.1339509221772281e-02 5.3862920163266353e-03 -1.9054871634976656e-02 -1.4827393029174379e-04 -1.4187689535025833e-04 4.4503245862489368e-03 7.1933774670093889e-02 -4.7796148544273359e-03 -4.4768242441534586e-03 -3.0778908137236993e-04 -1.1821925103867592e-03 -5.2324139844746251e-03 -7.3005358405980186e-04 -4.4101943411278717e-03 -2.7455100149806344e-04 1.7750098345376132e-03 7.0370541920566909e-04 3.4344573623425467e-03 1.9044943797907163e-03 -1.6686600369310335e-02 4.5526177611418736e-03 -1.2216931263541937e-02 1.3182709039293028e-04 6.7268993881006156e-04 -3.0680671871953613e-02 -1.2042499741764023e-02 -1.8078279376247605e-03 1.7079916586684486e-03 -1.0250418756020769e-03 1.5540943913034955e-03 8.2391427933463882e-03 -4.0994604799038381e-04 4.6395688925532363e-05 -2.4059015762723929e-03 2.3953076400668270e-03 -1.4233849471259857e-02 2.4591087905918019e-03 6.9433626512947766e-04 1.1774395586094943e-02 1.0324115986053524e-03 1.1381631575736687e-03 1.4878087685091354e-04 2.2921312670271888e-04 -2.1101821026479617e-03 2.1551367703295354e-02 1.1873395172571910e-03 -1.0828811715573611e-03 -3.7713436153758231e-04 -2.5699990594519446e-04 4.3249067360481321e-04 4.0753906623840035e-04 -4.7535333101397272e-04 3.4928755459718783e-04 -6.6061073072014951e-03 1.2880885336965815e-03 -4.3212029809092042e-03 7.5757935787866548e-04 -1.4190701353985081e-02 -2.2922644439831927e-04 1.4542510568465242e-03 -6.2892088415503200e-04 5.7798650088799108e-04 2.0262760979809988e-03 -4.4594098610503674e-02 3.2371749442353624e-04 9.8746088091513197e-04 -1.0475235844265684e-03 1.5955930645674896e-05 2.9091315192173069e-04 -2.6968312570899503e-04 2.2890241714926957e-04 1.4270449728593995e-03 -2.3348468000464638e-03 2.4515716115271697e-03 -1.9056162826731060e-03 -2.1687218133069653e-04 9.2458348149227834e-02 -1.1869029522412772e-02 -2.1008711235548684e-02 1.2142855126819540e-03 -3.9323557260850361e-04 1.2020763176474743e-02 1.8565138810370529e-03 -4.7307315263213539e-03 2.4000642390248940e-03 -1.2264961118063939e-03 -6.1749696564567045e-04 -1.5155508694934964e-03 -1.8902387947984760e-03 -9.9176431000802534e-04 -1.4923507106469199e-03 -1.7821951612475219e-02 -6.6426237521323194e-03 -9.8369990500686371e-04 1.5981636734676093e-03 5.2693612910439730e-04 2.0061577799129716e-04 1.0554457513097296e-03 -1.6305199928280195e-04 7.2974243478980178e-05 1.7053320333924719e-03 -1.6469627815103023e-03 1.9073086760102451e-05 9.7596968462014528e-05 -3.6527168073680337e-05 -4.2294235918250659e-05 9.8072916077563950e-05 -6.1253659622081285e-06 6.2497947685865576e-04 -5.4753243748455118e-04 2.2678416297878501e-04 2.4802837332049205e-04 -8.8476808575938294e-03 -5.5336210679385349e-03 2.9926430512760668e-02 3.6499503025224245e-03 1.0507683980720411e-03 4.6887226315936860e-04 -7.6112283984466726e-05 1.3128289914411175e-02 4.4854005193840488e-02 -3.0098268500916184e-03 -3.4932675268895532e-03 1.0172664879032453e-04 4.9784349997220988e-04 3.1249808804617481e-03 4.9593090254509888e-04 5.9781083429860903e-03 2.1210016152005892e-03 4.6145600599550585e-03 3.3964953192758192e-04 1.6624588207990731e-03 4.3543385994459366e-04 -1.6848085312544669e-02 -1.1107356995858943e-03 1.1122304085838322e-03 -9.7095105844654389e-05 1.0270166975766271e-04 7.4886632617042481e-03 -2.3340558294378991e-02 1.4994281858322460e-03 1.0426332395345174e-04 5.3430811678602946e-05 3.0195834561479815e-03 3.6400140874624873e-04 -2.7265234303377306e-04 6.0064070523049851e-04 6.3133602282359721e-05 1.9456564585304823e-03 4.9932015115978362e-04 -5.1621410580089677e-04 2.7221807979899574e-03 -9.7611017429117854e-03 7.2954765819115684e-04 5.5361731535789223e-03 -4.7294262276250369e-04 -5.5739225168692573e-05 -1.6498193265213366e-02 6.4733237267492029e-03 1.9842785419840457e-03 -9.2054962602885169e-04 -6.3508485238229794e-04 -3.0751360654454347e-04 9.0619670341604021e-04 -9.1888116081834700e-04 -1.4114605631925393e-04 9.8779997997092855e-05 9.3155202257135146e-04 4.6942182635535540e-03 -9.4508842220868833e-03 1.5315958639039617e-02 1.0941298310757841e-01 -2.2766938895325082e-02 -3.7710315802191946e-02 1.8549393580762708e-03 -2.8661763831615492e-03 1.3555168854575306e-02 -4.4795249169273327e-02 -8.1270880757602568e-03 1.0309104221365935e-02 -1.5923644073195103e-03 -7.2185343755124757e-04 -1.4968239398711284e-04 -6.1793894730733717e-03 2.3059026767408286e-03 -1.2787598770258927e-02 -1.7053776795519435e-03 -1.2834668964397286e-02 -4.2405785146669699e-02 5.6303346409085075e-03 1.1136607748865809e-01 -7.3570985623828827e-03 4.5127492252200821e-04 -1.7291342270750104e-02 2.6290456809585500e-03 -6.9730243440914871e-02 8.8259374609550856e-02 8.1027854230958304e-03 -1.5177892567447811e-02 -1.5651993113664848e-02 8.7946815582997471e-03 2.8896302850431321e-02 2.2908013952111098e-03 -1.1453929498328491e-02 5.5201411885968665e-03 8.9579357746362775e-02 -3.8939216431249840e-02 -6.1281673042384563e-02 
      </Row>
      <Row Index="117">
        -1.3230452300980715e-04 1.9499680271753347e-03 -7.3154677249187457e-03 -2.4442185568329604e-02 -7.0706659424358345e-03 8.5447395620027664e-03 1.1946606936672241e-03 -4.6297391302285475e-03 1.7940560725829481e-02 3.8764771080156898e-03 -1.5620850246182093e-03 8.0213840763766547e-04 3.5564333240420730e-03 -9.7050395078388408e-04 2.9876328636190127e-04 -2.4953771318886112e-03 4.9706736506366009e-04 -4.6554683939184424e-03 1.7213990087848788e-03 -6.0905811283399076e-03 -1.9021792203218948e-03 4.5845211484471585e-03 1.9791849610675009e-03 1.1665015965959445e-02 7.8892021617308836e-03 2.4947391488208562e-04 -4.2900172533100779e-03 1.6158769733982659e-02 2.4551848802156638e-03 -4.9947417161371431e-04 -5.9161892768103824e-04 1.5218052811242541e-03 -3.2336941138856757e-03 -3.2024510279480894e-04 -4.3786162892464134e-03 -7.2222310330173351e-04 8.9495249966057931e-03 -2.3846583426119072e-03 -8.3181902545941527e-03 8.2460001271261740e-04 1.1384798709511486e-02 -1.5597171616436346e-02 4.4307117748860980e-02 4.0613624658681659e-04 -1.2948925134340615e-04 -1.5555307984374146e-03 2.9865031814753282e-02 -3.2595380142374855e-03 -8.0911938377369215e-04 4.4707803148250295e-03 1.2993018809734878e-04 2.9922200555791909e-03 1.4311739543573440e-05 1.1821872075854513e-03 1.6071128175268456e-06 3.9445866013178548e-03 -6.6861982045690847e-03 -9.0744793772814941e-03 2.5013282202102898e-03 3.6507712840183285e-03 4.6355599874194887e-02 4.0556073970946308e-03 1.0798660613575654e-03 -1.3609518134293994e-03 -3.9946340065517422e-03 -2.5461648391342618e-02 -2.6346948203215207e-03 -1.4536357764283218e-03 3.6170483104362794e-03 1.3036858427090845e-03 1.6869341198005573e-02 3.2106814686006652e-04 5.8706791801722870e-03 -8.8903648246981687e-05 -9.3988507045610469e-03 -1.4002815511954033e-03 -2.8916088230060422e-03 -1.3666898434472659e-03 -3.8542091904636682e-04 -6.2411495364245693e-03 -3.0755947919424015e-03 1.1165964224772132e-03 2.7588763348420351e-04 -1.4472561062121650e-03 8.3241854844587418e-03 2.6666700290518749e-03 -1.0100830243769633e-03 9.5390728286783976e-04 2.7610651676120601e-04 2.1005077714093207e-03 1.5952614386777891e-04 -9.1444042358996159e-04 -5.4244456608502087e-04 4.1913795797138016e-03 -4.4000104060282338e-04 1.5513760780931727e-03 2.2005882077240635e-03 -1.0224969941083754e-03 -7.1320206094371806e-03 1.7592949183779717e-02 8.5692814898413565e-06 -2.9731020698216948e-05 2.3010742523686132e-03 1.3192314563658013e-02 3.3715056567294194e-03 7.8338671263977126e-04 1.9643708199505927e-03 -2.2823939724629237e-04 1.2932405100618488e-03 1.5810047001173179e-04 -1.1700090766724827e-03 -3.9853354530092894e-04 1.2047437817677329e-04 2.7619689167447735e-04 -2.8112460726449646e-03 -3.9895713730536608e-03 -1.1869029522427955e-02 4.3807999816405874e-02 1.1373046786228707e-02 -5.5513061956489543e-03 1.5262914437486049e-03 -7.7456653917541470e-03 -5.6217693228254647e-03 2.5630717916021292e-04 -1.0552425273403590e-03 8.8454316035763733e-04 -7.3530706796625192e-04 1.0230130173897317e-04 1.4487681653670538e-04 -3.6855295603057496e-03 1.1115130009440740e-03 1.3123840854502068e-02 -3.9722282065153504e-03 -9.4001402404073325e-04 3.4773441769207812e-04 6.1344950707449900e-05 -1.9623917501133975e-04 2.4385904615524456e-03 2.4060895272948153e-04 1.8240083881458362e-04 6.0018759359586763e-04 -1.6930577863559617e-03 -7.0811147364621642e-05 2.4944471317634635e-04 -9.7221651840452434e-05 3.0850006985035078e-04 4.9175781303033663e-04 -2.0685980086912280e-04 -8.9364379970397357e-05 1.7521058975124705e-04 1.6079145876439363e-04 -1.8291124116546012e-04 7.2538211439987822e-03 -8.8380723073875483e-04 3.0936482640186343e-03 -1.6414141853025893e-02 1.0613970297175205e-02 6.4069926358375270e-04 3.3100338209435362e-04 7.6859306640281915e-04 1.3557199888144541e-02 8.8475469067536691e-04 -2.6898113876681127e-03 3.5674365132349023e-04 -1.1435948852910251e-03 1.5673921240706788e-02 5.8178962402025711e-04 -4.8625844198996494e-03 -1.6643220052642580e-03 2.8672246574946983e-03 -2.0029115914235842e-03 -1.5596339035378048e-03 5.4411626647705991e-04 -1.7384244550806560e-03 -4.8858735393131044e-03 -1.6553053926363324e-03 6.8590793637847165e-05 -4.9367135505229420e-04 1.4793694484944407e-03 -3.7257338753290750e-03 1.7507225319304594e-03 5.1400081952087629e-05 -6.5163028544322054e-04 1.3056000116939987e-03 3.8321359674074783e-04 -3.4827068464539249e-04 -6.7804198904545393e-04 -3.6871144010520366e-04 -1.8411817276068952e-03 2.7128238887523005e-04 -1.8424850658414829e-03 5.7828855474872844e-04 8.6128791631734781e-04 -1.7439086672628647e-03 -2.6563093242602358e-03 -3.6531551662402433e-04 -1.7302388970376505e-04 -2.6524768809452213e-03 -1.0094370128662022e-03 1.0664128492326465e-03 -1.1578596554049571e-03 4.7951872266091815e-04 1.0502750929559737e-03 1.0195808373910988e-02 2.2297936321291633e-04 -8.1823329600629741e-07 2.2852543530935186e-04 -2.2037208042678721e-03 3.1703484331794133e-03 9.6886392270032710e-03 -5.2555907305971749e-03 -1.5189227901831493e-02 1.2769610473376508e-01 -2.5411184433808034e-02 -1.1416518811331487e-02 1.7516866431215067e-03 -1.3742641167784130e-02 -1.7963291545555565e-02 -9.2213948182487890e-03 -6.1649854652683330e-03 -5.7694232310614400e-03 5.1455458807329445e-03 -8.3846714217073008e-03 6.4259694143050544e-05 -2.4408609367204681e-04 7.3650628878830001e-03 4.0082172113208303e-03 9.9269320180159805e-03 3.4598457660726292e-02 -5.9986885094883702e-03 2.6427504517341202e-02 -1.0442474034953177e-01 -4.0361590661547112e-02 -3.1160624302350372e-02 -4.9010778176609808e-04 -3.9704067460659548e-03 -1.4155466507125673e-02 1.0593148906827556e-02 -5.6465754671515007e-03 1.8690081098992867e-02 5.6537302991086632e-03 8.1899900981673560e-02 1.0104736623396966e-03 7.9666811875708701e-03 -9.5394493990376720e-04 -5.2101587225957785e-02 -1.7479134718306727e-02 1.4493816135734330e-02 
      </Row>
      <Row Index="118">
        2.5497928435796735e-03 -8.0865841200241650e-03 -1.0234556447809018e-02 3.7844796742430194e-03 -2.2391298130367776e-02 6.1635877223686908e-04 -2.2799421632632710e-04 6.9411278024162915e-03 4.3159519382071299e-02 4.5183616394410550e-03 1.0932105289174772e-02 -1.7796810012622845e-03 2.6125652012375447e-04 1.6087628944219591e-02 7.3450533651223116e-04 -2.0793264030577463e-03 3.0130032767470265e-03 -6.0366037864627575e-03 -2.3071779391107099e-02 2.0884893895851631e-02 1.3993740709736913e-02 -1.1276612929731922e-02 -1.3642812897328577e-03 5.5916841439009213e-02 1.9262817558817757e-03 2.9558691026972768e-03 -5.2447239643433341e-03 -2.8724143408622338e-02 2.5888407643136768e-03 3.9540897187818891e-03 5.1527651064543489e-03 -1.2585980263828334e-02 4.6125820598021602e-03 -1.9779156325573644e-04 3.7393739763253997e-03 -1.0681129996014879e-03 9.2643023537652969e-04 -3.6257839928712787e-03 -3.3463522740317525e-03 -2.1312614688362430e-03 -2.7603113592293838e-03 7.4933116964016611e-03 2.9498082698488304e-02 -4.2428752332767661e-03 3.0268256502353208e-03 -1.0044652939883825e-02 -4.6028311000296807e-03 -2.0187383483621590e-02 -8.3918071968097641e-03 -1.1958304473098369e-02 -3.1570812061879616e-03 2.6378701825633399e-03 1.3073936767351024e-02 -5.9646975258699358e-03 3.9923850869796329e-03 5.8173007501742743e-03 5.6026722394512118e-03 1.2593296082528127e-03 -1.1923489250494333e-02 9.3220966433776309e-03 -8.2154625375283619e-03 1.2641419232737211e-01 -1.8186781983227096e-03 -1.9264338332467545e-03 1.2942082155186885e-02 2.2792255584437704e-01 -6.7605492447528892e-03 -4.1790858054054636e-03 -1.8051145008751546e-02 -5.4975444588040157e-04 -3.2826287729889908e-02 8.2659930650124114e-03 7.7706597751578954e-03 3.1344713158499710e-03 7.0008878498224320e-03 5.2357108161835753e-02 4.3714367334711790e-03 -9.4843042512293696e-04 4.6054914395541602e-03 -5.9862535348881307e-04 1.8722089059259692e-02 1.8521953380064571e-03 -7.7459371071065056e-04 7.6451416693901209e-04 3.8115220789663562e-02 6.2510814147518357e-03 7.9548752277450868e-04 -2.9186123546251497e-03 -2.2778891035546769e-03 3.8042913461185102e-04 -4.9497405739777622e-05 -3.4819503399501073e-04 -4.5875839371664617e-04 -1.0213345081465194e-02 1.1403801855134121e-02 -2.4607403964359564e-03 2.3925563848873066e-03 6.9443951929783823e-03 9.6180172223209182e-03 -2.5415571188266750e-01 -2.8077639668071253e-03 -8.9953840584567962e-04 5.6169028803084442e-03 -2.4301301038405443e-01 -9.3606057506995244e-03 -3.7635263913739885e-03 -8.8574917564082992e-04 -6.4723138213942915e-03 -1.7321814224610627e-02 4.8355386317830082e-04 4.1505678342629165e-03 -1.8847053411442938e-03 1.0926020612072700e-02 -6.4435320885590536e-02 1.1572927782206699e-02 -9.3544465460422034e-04 -2.1008711235580957e-02 1.1373046786266994e-02 6.3967787166849377e-01 1.7459649935020576e-03 7.3854383809474570e-03 -7.9879236858119568e-03 1.3000304563412582e-01 -2.0669259384912878e-02 2.9189245431623621e-03 -1.0807202880011031e-02 -4.3266169454744575e-03 -8.1156085795927937e-04 -2.7179687062934763e-03 -5.7632507848467407e-03 -2.8045653176007046e-03 -1.9170862539043237e-02 6.7637080902640617e-02 2.0647707610309462e-03 7.8575050061668416e-04 -1.1445282960506676e-03 1.4054096772293787e-03 -3.3759965270464994e-04 2.8192215261018175e-05 3.6135717710173592e-05 -1.6208744003949733e-03 -2.1217315731048478e-03 -6.7778902813684294e-04 1.8125662272770276e-04 -3.4310766971715439e-04 1.5640357120638229e-03 -9.8258540873481424e-04 8.2832802095490136e-04 -9.9385624383546440e-04 -1.0536650690583561e-03 6.3361804505706297e-04 -1.1162984429189705e-04 -5.3075074284481836e-03 6.7403627526771079e-03 -2.6461935076005630e-03 3.0547786549213855e-03 1.0902669208266458e-01 1.5109401487075843e-03 -1.6012055113577050e-03 -8.3051725115877023e-03 1.2220599949562891e-01 -6.2665432301756002e-03 -1.0402840554106902e-03 -6.7812934850313387e-04 3.5975824271012877e-03 -9.6709990698856871e-03 -2.3960505747224552e-03 8.0785342973317530e-03 1.5367977803312357e-03 1.7272145568651177e-04 3.5800158198451851e-02 3.2476052944365730e-03 9.6393284480979658e-04 8.6702102347602228e-04 2.8831866114584275e-03 -7.2335852455402180e-02 2.7882877185542165e-04 5.9654429610217496e-04 -1.6253422591967492e-03 -7.7153011271155869e-02 5.7177491666994748e-03 -2.0315705289384797e-03 3.5190861887228753e-03 -8.2692129047604937e-03 -6.6417864943850331e-03 1.4419091557459178e-03 3.4338583221258379e-03 8.2238504708835244e-04 6.4306356307163972e-03 -9.6382838075960153e-03 -1.3323416995049131e-03 -5.7851893794862858e-03 1.2321720202681671e-02 6.8485819298336854e-04 -7.8140279659769413e-02 3.7272868817928603e-04 -3.1525138154756540e-03 1.2758351440646187e-02 1.0896909704261050e-01 -6.7836091310921817e-03 1.9484265423800060e-03 -2.3079896218755119e-03 4.1186588434732050e-04 -2.7636014434722720e-03 8.2919750917993303e-03 -9.5267026316751043e-04 -6.7646993751322212e-03 8.8963645129882304e-03 -4.4649926486235669e-02 -1.2734297049595070e-02 -3.3378776466173377e-02 -2.7836140275865472e-02 1.3015030410989730e-04 7.4877268881809345e-01 6.0273772616704384e-03 1.0161470418811887e-02 4.1705996872272028e-03 -2.7689289903916930e-01 -3.4125628202143224e-02 3.7444014691194460e-02 -3.3570323261788992e-05 1.1929873090870435e-02 6.2395327198130318e-02 2.9553584902653439e-02 -2.1148376726505880e-02 -1.1505877859990105e-02 -3.5765601749544386e-02 -1.0853744754483304e-02 -2.8605585502015918e-02 6.0852908824756413e-03 -9.6085645919217408e-03 2.4462936038851274e-02 2.0763084876276861e-01 -7.3422792913147156e-03 -1.6293839172004054e-02 3.8386505366920509e-02 4.6833602743943403e-01 2.1109532636836431e-02 -4.2255490867582637e-02 -6.5432454331548262e-02 -2.5375445972680832e-02 -1.0794526366151053e-01 -2.1824489195064758e-02 -3.2193433827465000e-02 -1.3020598704227254e-02 6.6375082953222697e-02 3.6494649505144533e-01 -5.1183414019197093e-01 
      </Row>
      <Row Index="119">
        3.4753860521106873e-03 -3.3352185595354189e-03 9.1499101052267690e-04 6.9442093969703021e-04 -1.8828201992021898e-03 -9.3313751128171699e-03 1.4909691546881321e-04 4.3908409462209419e-05 -1.1940217859377336e-02 -2.9556572819740283e-03 -1.3158865996825897e-03 -8.4119783397781749e-04 -3.7138207183868817e-04 2.5530413234989596e-03 -2.4716025325589343e-04 -2.9663378781301375e-04 -3.1215393223510635e-04 -3.8632332592931674e-03 2.2443776353098400e-03 4.9108740455751539e-03 3.7197000836743238e-03 -2.6512540032236770e-03 -1.0416087567698702e-03 3.5584153755044978e-03 -6.3454237141238792e-03 1.8521728181509524e-04 4.1938787071820818e-03 4.7127323185208736e-04 -2.2626057399726986e-03 1.0719282390690386e-03 6.5308773084024607e-04 -3.0121366447527346e-04 1.7768417791696081e-03 2.1563945142790905e-05 1.4188437299468282e-03 2.8332694791866997e-04 -2.1769368118220792e-03 -1.4069245040009143e-03 6.4640048443988293e-03 -8.9314032301857083e-04 -5.0310490688158516e-03 1.2963247285537743e-04 6.4304203490211931e-06 -1.1077149839226752e-03 1.8032253995211439e-04 1.0794648776769507e-03 2.6590002060462026e-03 5.0775238107404960e-03 2.6043597974587107e-04 -1.6608462761573753e-03 4.0142224866760584e-04 9.3703647083534514e-04 4.5085228653815590e-04 -7.6885245777819425e-04 -1.2819597797556481e-03 -2.2848653647651162e-04 -2.6879289667628460e-03 4.0903514029893839e-03 -5.5368585264632215e-03 -3.3171584755672598e-04 -2.9018426743117436e-03 -2.9047375643692624e-03 -1.1498469479830423e-04 3.5755358950642635e-04 -1.2388245933488418e-03 -3.2941972334687986e-03 2.4764741316979158e-03 1.9378350859027005e-04 -2.3758976827651492e-03 -2.8038889668957623e-06 -4.0896970178970985e-03 4.2678364006404346e-04 -8.7095283688683189e-04 -4.7628240133627993e-04 -6.0463982297764493e-04 -4.2844851238574254e-03 1.3078259648681145e-03 7.9580642487075970e-04 -8.6697060990978229e-04 1.3404061796592676e-03 -4.0424750187299362e-04 -1.5500078663838589e-03 -5.2754537331140645e-05 8.5202220299829268e-04 -1.7680584374485664e-03 -7.3655004499098564e-04 -8.1383394786409269e-06 -3.2795721606740380e-04 -4.5654745287877860e-04 -2.4875690994871982e-04 3.6199984062848349e-05 4.8214875054984098e-04 1.3019442865476027e-04 -9.8951174608804399e-04 -3.6417059159143516e-04 -2.4597022071389321e-03 -8.8144431019396632e-04 -1.1127184224238862e-03 1.0138824488542218e-03 2.6710548779554991e-03 -8.2055708426454974e-04 -6.4847335707776308e-04 -1.6379890976786493e-04 8.5436606260003434e-03 -2.7527532926648526e-03 -1.5197024287844385e-03 -8.7846660911265750e-04 -2.7106632265525401e-04 6.2646378162528431e-04 3.6498366640073596e-05 4.3994588161433510e-04 4.5677087880221894e-04 1.1387888769052619e-03 2.8041661102585526e-04 3.5340104036905937e-04 -6.9564192896213399e-04 1.2142855126928732e-03 -5.5513061956469134e-03 1.7459649935158744e-03 1.2867660688722853e-02 4.5231692156954726e-04 3.8527837815314982e-03 6.9627931242986366e-03 6.1426198700452036e-03 6.3715271683822856e-03 -3.9415247191329397e-04 4.3404838277972015e-03 1.1023218883519292e-03 -2.7845296494007093e-04 1.4346873347138855e-04 -3.7996505900800661e-04 1.0002231638470474e-03 -2.6469892596537609e-03 6.8669188584807113e-04 -3.8745419510356570e-05 -2.3969081396618881e-04 2.9337239659016524e-04 -3.7443138034198582e-04 -1.0891160385274274e-04 -1.1123895657814622e-04 -2.9943712698888577e-04 9.3409673687349596e-04 -1.4047385894278220e-04 -7.6487446691775719e-05 6.6413818231887345e-06 1.3393266174164658e-04 -1.2177870123958291e-04 5.4243067956849284e-05 -1.8374056683833744e-04 7.0915823453055181e-05 -7.5287127958991506e-05 1.2945351188707558e-04 -7.8095351158411781e-03 2.5026870485336580e-03 -1.0510726435895503e-03 2.8829802249063542e-03 1.9677792877684677e-03 -3.6009775329605793e-03 1.7447263821811362e-04 2.2095142922529320e-03 -4.8334789486038539e-03 2.1122996798992565e-03 -3.2173351991089465e-04 2.3824060256053404e-04 -7.1351561230887945e-04 -1.0003461803426619e-03 9.5472637188216019e-05 1.6515037748231519e-03 3.8102896739213303e-05 1.3101123392739499e-03 -2.9498490833576446e-03 5.5059468908741360e-04 -2.5068906594073737e-05 4.1941560717659310e-04 1.0752755658720776e-03 1.0888378315672652e-03 -2.4227844120562852e-04 -1.2172603847613456e-04 -9.9602947623579630e-04 3.0478409906381579e-03 -1.3389333006994407e-03 -5.5890215086747868e-04 3.4307327507288043e-04 2.1976214983335414e-04 -2.8075074098545233e-04 7.1652854423301816e-05 7.4261335666202244e-04 9.0506136431383081e-05 2.9564869311990048e-04 9.9472617841506183e-04 1.8769047506227848e-03 -1.8435595459402963e-03 -5.4031613081907638e-04 4.1022873059482520e-04 6.7890680543833209e-04 1.2780108455947908e-04 1.7290095535778100e-04 -4.4021441489219132e-04 -1.1864846849959951e-03 1.2816208685337350e-03 -5.2845520677056415e-05 -2.6467822114668431e-04 -2.2305398705856723e-04 -1.1153774380414745e-03 1.2489720555141539e-04 -6.5567593126277099e-04 -2.6411126091892436e-05 1.7339399583728241e-04 1.3289361274608480e-03 6.5164721339807750e-03 -5.8588704254067241e-03 1.1261611314364690e-03 -1.6502214997245364e-02 -8.5788868802703956e-03 2.9150083770281554e-02 3.6789438856893279e-03 -2.0454813020198822e-04 2.3231616626235439e-02 1.8030078355786981e-02 1.4080709925173209e-02 8.0491638319896489e-04 8.5354778202212621e-03 4.7568725205078440e-03 -6.6234820395275908e-04 -3.5942272308323482e-03 -2.0285476299163724e-03 -3.0247888859859795e-03 4.0190962732342961e-03 -3.2742895693740802e-02 6.9433315889476967e-03 -9.2894588640589464e-03 1.0928611398534046e-02 -4.9875175009056472e-04 2.5974545474722690e-02 2.1707936797704056e-03 -2.6610116432933470e-03 -1.0873381781910964e-02 -1.5461151953438543e-02 9.4649478646418282e-03 -1.1983902503780293e-02 1.8825744608506109e-03 -1.2277079584274412e-02 -5.9748495317079459e-04 -5.0227465563956620e-03 2.5058577569194553e-03 6.3621954434191904e-03 -1.1816243361266777e-02 4.1826911172311555e-02 
      </Row>
      <Row Index="120">
        -8.3798417220058360e-05 5.7276119309023488e-03 -2.7353231291962765e-04 7.8450913773446345e-04 4.0522915033131546e-03 -1.5568753669855870e-03 -1.4410137484410727e-03 -1.3475132805724349e-03 4.8341740305266057e-04 -4.5413847645355308e-04 1.2001811775080602e-03 -2.3108281356410939e-04 -1.3349399661867706e-04 -2.3472965003511442e-03 8.7223540967264895e-05 8.7473571735408040e-04 -8.0186924919952145e-06 -1.6543192872748580e-03 -6.1314569853192463e-04 5.7558995562232915e-04 -3.9487612584139589e-03 1.0704122191226850e-04 -1.3045446371607282e-04 -4.7162276965295735e-04 -1.5742400859187558e-03 1.2002835443417211e-03 -1.6622756969084107e-04 7.4646077109540715e-04 3.6844567314650925e-04 7.6699047174240420e-04 -3.3215701862657210e-04 -1.4058509358872132e-03 5.2914808958798038e-04 1.9584976037444364e-04 4.5583483730954333e-04 -5.9395047509521511e-04 1.4018821886236620e-03 3.6451497232550811e-04 -1.0744857653306027e-03 2.1131954769726402e-04 -1.3424379469711978e-03 9.2421819607611810e-04 -8.2429606365373720e-03 -1.4112087565552878e-04 -7.2571789812644200e-04 -4.6504250928794399e-06 5.6960739703841579e-03 6.9658774498989467e-04 4.8871764658964950e-04 3.5024331378030737e-05 3.6021162033193777e-04 -4.7601168297916469e-04 1.9661218738287883e-04 4.9657196138973379e-04 1.3150798761389360e-03 1.0060646703249315e-03 7.1999777673725437e-04 -4.0801815283242338e-04 7.4457192799071738e-03 1.1411802462159976e-04 -1.5101149974079929e-03 -4.8661092719487521e-03 2.1310799251726686e-04 -1.8508609736885562e-03 -1.1246809229081278e-03 -1.3524240355357597e-03 4.0922515778648444e-04 3.8405292961527990e-04 1.1489833346307182e-04 4.5597046614519188e-05 1.3419392371349561e-03 -6.0363052919204518e-05 2.4008477532418138e-04 1.2918541616577846e-03 -1.7947515972309407e-03 1.4026908992574305e-03 3.2763946520228820e-03 -9.1812823934674798e-04 -1.0527104888293295e-03 6.3754837653803072e-04 9.7538222274536762e-05 6.3448421620195547e-04 -4.1452480401796641e-03 4.8071067176028159e-04 -2.3755061924534693e-03 1.1472600815116973e-04 9.0648989579689143e-04 -1.0657039573147217e-04 4.4380600247342222e-04 -7.2547330015305944e-04 -8.5255270365840619e-05 -3.9630974988776047e-05 4.7645410056333486e-04 -2.5350919037823907e-03 6.2267662199696431e-04 3.7242140569516899e-03 8.4964772573739578e-04 -6.2552060408293478e-04 2.4674144582064080e-04 -3.1303557701715667e-03 9.7812366098288910e-04 -1.2518608342530704e-02 7.1190965948108795e-04 1.9242688257491591e-02 -1.9281648605141109e-04 1.2315711604331601e-03 -2.3673136790817377e-04 6.6120713275680016e-04 5.2726694476497998e-04 -1.4935193342689723e-05 -2.9942464458124381e-04 -1.3608967688679904e-04 -3.3899626120677769e-03 -1.1643291015865182e-03 4.0668581448182785e-04 -3.6601898719013240e-03 -3.9323557260469502e-04 1.5262914437443381e-03 7.3854383809312391e-03 4.5231692157141372e-04 8.8066470062508652e-03 3.4240340237926339e-04 -2.3994853440661053e-03 -1.0651759988014237e-03 2.3489739699308920e-04 5.6017901840998692e-04 3.3901277412429681e-04 -1.6376165368517362e-03 -2.5692801366429497e-04 -1.2700718356894736e-03 7.4485324536570027e-04 3.0357678730994105e-04 1.9373840975499149e-03 -1.1535470809552765e-05 5.2050208113436328e-04 1.2862090523760728e-04 9.4281055269343709e-05 -6.4075408891866312e-04 -5.4950804242279063e-05 -2.4603308348094101e-04 6.7540902474255617e-04 3.5619221742837833e-04 4.0945138505061744e-05 -8.1729492154957429e-05 1.0262300148343933e-04 3.3668177485542665e-05 5.5963176678488096e-05 -1.1991607085135006e-04 -5.4242112287040275e-05 1.8573025328776123e-04 -9.1418457589220026e-06 -6.1523439604675348e-05 1.2101707490312875e-03 -1.9871405710195681e-03 -2.9320650689433538e-04 5.1476954851148080e-04 -8.4837464090183577e-04 -3.5820551092620147e-04 -1.0559215834687293e-03 1.0407611825383571e-03 -6.1075816153221118e-03 -2.1654878379336422e-04 -1.6055533181094485e-05 -7.3233806589303427e-05 2.3099011687189978e-04 6.7094655975525241e-04 -1.3750365219237774e-04 -6.5608083626800609e-04 1.5818166656400112e-04 -2.0349046521252857e-04 8.8225129417395746e-04 2.3907225389484255e-04 -4.6416018753712117e-04 1.9610025290356381e-04 -1.0541047782284488e-04 -5.4308642213834835e-05 1.4176036817112759e-04 -1.1615224254833342e-03 2.7260324391846502e-04 1.6111409187876229e-03 -1.2268811891992569e-04 -1.5379729281548367e-04 -1.9432715264128958e-05 -1.0312505640418623e-03 2.2308059463755660e-04 1.3616745377809016e-04 -2.9257442163144187e-05 -4.8174513539776956e-05 2.3960808096483354e-04 -2.4141442072945010e-04 2.8853700693458328e-04 2.2295639832553091e-03 -3.4953761939610258e-06 1.6171448519266423e-05 -2.3066131673610771e-03 3.3006197541109059e-04 -1.7401403679249252e-03 -1.0361140551833187e-03 -1.8116066983761125e-03 3.4214750280028893e-04 2.5367959080960429e-04 -2.6948206810835845e-04 2.2451969339927117e-04 -2.5790925787712565e-04 6.9337365760449831e-05 8.2605682133397862e-05 -3.0021083410641369e-04 -9.0517317356085460e-04 -9.2757957423794429e-04 -6.8596205104152546e-03 -1.9296022293912559e-03 -8.9308194638591538e-04 2.8396388720394305e-04 6.7082126950739600e-03 7.6211219478990915e-04 5.0530693599224089e-02 -2.7883463068481759e-03 2.2094947356211564e-02 -4.0178971770700109e-04 1.1848283858224540e-03 4.0307375782489691e-04 8.7117813511009066e-04 -7.4528036082446734e-03 -9.9284588392002391e-05 1.2701671316153740e-04 1.0126044619417959e-03 3.1000966951570115e-03 7.6419890791993542e-04 1.3712764207479237e-03 -1.0080869469962353e-02 -1.4936479818138462e-03 4.4871584030761677e-03 1.0484425141082759e-02 6.5327705963799717e-03 -4.9136525528094319e-02 -9.9266961784677879e-04 -2.7377228698472665e-02 -8.0689619499428687e-04 -4.7620239395323553e-03 1.3115823410586314e-03 -3.7618036184716942e-03 5.6238643826626127e-03 -2.9066753613106477e-04 -1.7233545359570399e-04 -1.7402410328723125e-03 -1.8344754653299780e-03 7.7142876451892876e-03 5.5722034883560687e-02 
      </Row>
      <Row Index="121">
        -1.5485990900843254e-02 3.7154278381782785e-02 -1.9309208110433240e-02 1.9457322053459854e-03 -1.2173171754293527e-02 -2.7977960840587881e-03 -8.7216877044587852e-04 9.2142414192366198e-02 4.6849136386850022e-03 2.9651566550808889e-03 6.2656296548876328e-03 -2.8765582846999177e-04 4.4467799858878181e-03 -3.9714038487515821e-03 -9.3622188762657347e-04 6.6108744593034521e-03 1.0138043149434789e-03 2.4132132048242183e-03 5.9919791869232318e-03 -1.1535188024081187e-02 -4.1736368922852089e-02 -2.3131476149643816e-02 -2.5614744502742482e-03 -7.5560239604608101e-03 -3.1337906443120690e-03 -1.6519292009661157e-05 5.1647010438402766e-02 1.3008605491979361e-02 -2.1744855164266704e-03 -3.4951966386070682e-04 -1.0890509107045337e-03 -7.6563900909740494e-04 -1.4205192358289346e-03 -9.2042970462531660e-04 7.4292478867258628e-03 1.0294622399524707e-03 -1.7316230705498314e-04 -2.3034333519457353e-04 6.5243976569723926e-03 1.9957710057553008e-02 -1.8375787423997265e-02 -3.0497696973307703e-04 -9.4897857317422264e-03 -8.2263603530207449e-04 -1.1454546795900151e-03 -4.2678226490088345e-02 -4.6205888237526617e-03 -6.4298755858545643e-03 -9.1863828457353167e-04 3.7575239832623808e-03 -2.7846263406942412e-03 -5.8636343365127581e-04 -4.9568664875926189e-03 -3.5194097517179798e-03 1.4855153741500163e-04 -1.9542610325857883e-03 -9.2733927494121921e-04 1.6759480344327657e-03 6.4763572980437042e-02 -1.0380364004756403e-02 -4.2563023335299467e-03 -2.4709742351715419e-03 3.9517233478740012e-05 -5.0779817377683348e-04 6.6125111650887719e-02 3.4807275667632802e-02 -3.7149576241095545e-03 -7.2593284794470175e-04 6.7393864096727480e-03 6.5620601639659621e-03 5.4361143674976960e-03 -3.3041456056819365e-03 8.9443835964792204e-03 -2.3636813759120474e-04 3.0299574186936893e-03 1.3864190383220346e-03 8.9691187760940899e-04 8.4989489648927292e-04 -3.8741127085592164e-03 -3.9798952276914998e-04 3.6651888231475846e-03 -1.9862167931922919e-05 -1.6973885989219032e-03 -2.5754174165172304e-03 -2.9824125612989173e-03 -8.1960141435343317e-04 6.5364493872476165e-05 8.6032662822669572e-04 -4.6725856160771510e-04 8.9851713488694270e-04 -1.9641091373855471e-04 -6.1771352677039530e-04 -5.4748456981756790e-04 -8.6022576329144985e-04 -6.3644849137631807e-04 1.7464565528976499e-03 7.0568312139805238e-03 -1.1831214801966800e-03 3.6104345586148428e-03 -8.6084427111107406e-04 -3.3805286374679212e-04 -4.4729474248397681e-03 -1.5518028151906279e-02 1.7484504417629734e-02 2.8082236218918526e-03 8.2307359912490649e-05 2.1772808116021793e-03 1.5863404351635199e-03 -1.1926810430122237e-03 -5.7794521219928837e-04 1.1127859751054899e-03 -3.2947152599466234e-05 1.1205864389296528e-03 9.1467097856669330e-04 -1.9356765678033995e-02 4.3549772114336027e-02 1.2020763176474212e-02 -7.7456653917551488e-03 -7.9879236858358647e-03 3.8527837815340513e-03 3.4240340238086091e-04 1.2607231805322705e-01 7.0971343629214114e-03 -6.2214898120845491e-03 -6.4432016342922250e-04 1.8628522965696633e-03 2.3459225301729900e-04 2.7723167810285673e-03 -1.0736480512255064e-03 -1.9142358252652453e-03 2.5914674626075205e-03 -1.1423190629258550e-03 -1.3566559691140486e-03 6.5227455627755873e-04 -3.9994507691631358e-03 7.5089906930969185e-04 -1.0901378395608342e-03 -3.1317174660523968e-03 -8.0154797333615994e-05 5.2447851018346935e-04 -4.3710920852401934e-03 3.2566631604355081e-03 -6.2749495504624199e-04 -1.6384895385662167e-04 9.0739404161795529e-05 1.8223571179443049e-05 -8.8336460732333603e-04 -1.8064992154407720e-04 4.2899202242436619e-04 4.2500422765034002e-04 -7.6942310372109495e-04 1.6280686608779733e-04 3.5309534747363681e-03 2.6460868294596984e-02 4.4079067141968133e-03 1.7026808957118105e-03 9.0580518673383063e-03 -1.3933150322981971e-04 1.0234405302025301e-03 -5.1769968843768825e-02 -1.3809747399515383e-02 -1.4275474622850147e-03 7.8392771431629775e-04 9.9303934975056339e-04 -3.6272894881506736e-03 4.1444887989106572e-03 -3.5645705538610230e-04 -8.0523209805300009e-04 -9.1971194754753103e-04 -5.8050079516076417e-03 -3.2103821684731871e-03 3.5956847533045472e-03 -1.5230965385552513e-02 6.1462804172623675e-03 -1.7269950061353442e-03 2.5993182554047301e-03 3.2450414767869543e-04 -6.1257882911367606e-04 -3.3996109392528201e-02 -2.7624595954101987e-03 -1.0739482230157950e-03 -1.5358045443223660e-03 -8.7606406120058775e-04 -4.4642885577769569e-04 1.3415050923345905e-03 -5.5099919205411376e-04 -1.0191225806343018e-03 5.6862414928070693e-04 8.5286742194515838e-04 -3.2671282390976447e-04 -1.8944963543095945e-03 2.6805816014815582e-02 -5.6251668780041685e-03 -1.0734358130887803e-03 1.2125000353652594e-03 3.7233253340463520e-04 -6.6807929285582544e-04 4.8582736000705812e-02 1.8839634803334048e-03 -2.6150390503871736e-03 -4.7534885279234358e-04 8.9678253144059210e-04 1.2256174000325655e-03 2.1726667355320287e-03 -1.2459391536142957e-03 -9.5985409247371727e-04 4.3933477323775214e-04 -4.2032356014032432e-04 1.5647546489311087e-03 -3.0185544369687879e-02 3.4982176649246147e-02 -1.3407355704322010e-02 -2.6530752422959648e-02 -5.8156636900906854e-02 9.7708662417795855e-03 1.2021446324633096e-02 1.3412383795374033e-01 1.4758459363731685e-02 -2.1050959738548907e-02 1.2433347224370802e-02 -6.5247016244170319e-03 1.5464592398885112e-02 3.6087715554453462e-04 -6.1569640196376934e-03 3.6806229603508940e-03 7.7798212756242224e-03 2.3013893787681060e-02 1.5343372937060186e-02 5.6459587843415114e-03 -1.7683523804090795e-01 -5.3185945256192746e-02 7.1646972990247852e-03 3.2343365282936328e-03 7.1370761769324496e-03 -1.7076087331893294e-02 2.7115202852494419e-01 -2.3012831719567250e-02 1.2745180473558194e-02 -2.9685631395955404e-02 3.1602205155613253e-02 -2.6503985303893691e-03 2.2168042164162318e-02 8.7771615821987704e-03 -7.9296301891590808e-03 -3.9014667374469639e-04 1.1323779595257110e-02 -5.3340165925078054e-03 8.2296421764448575e-03 
      </Row>
      <Row Index="122">
        -1.6925245479547830e-02 -4.0656480100036418e-02 -3.0335397107539297e-03 -1.3372680080991295e-02 -1.9600615266449273e-01 1.7159113120566338e-02 4.3634878465986793e-04 -3.2380911334361606e-02 1.1967771518343673e-01 3.6307832524700268e-02 -3.7395908358389685e-03 -8.7626176992467233e-04 -3.0982085603157693e-03 5.5585878661054959e-02 -1.6843401114205458e-03 -9.0938306098076183e-04 -3.2629442623719265e-04 -2.1596263027365059e-02 7.0515250229141752e-03 -1.1866080736372409e-02 3.0058873246696427e-02 3.9629967109251929e-02 -9.4738087135034788e-03 1.1279770193274885e-01 1.9204497213892224e-02 -1.8480504197959172e-03 -8.0332452461995274e-04 9.2776149573311040e-02 3.3131419427483544e-02 3.1596218290499412e-03 1.7315493435757112e-02 -1.7814028079995887e-02 6.4515625595853443e-03 -1.1072098303228528e-02 -1.3594372988781966e-02 -4.1460565211077424e-03 -1.0312907575674712e-02 1.8469814387834793e-03 -2.7262173682370716e-02 -1.6967062271959321e-02 6.0310484309186840e-02 -5.9194693332080828e-03 3.8495433012230418e-01 -6.1409218491457196e-03 5.1904228518506734e-04 4.8562373856207985e-03 4.6317732754761920e-02 -2.9788821431750323e-02 -1.8666651860760552e-02 -2.0534779421602201e-02 4.1191571015460893e-03 1.0341964329222186e-02 -2.5257618246817382e-02 6.9760923257378149e-03 1.5974971356459200e-02 -6.3429577918042435e-03 -1.3811921203180866e-02 -5.7544301245648910e-03 -4.8575315943483785e-02 -1.6622263885868183e-04 9.4629231416626380e-03 3.1673652445847877e-01 -1.2261774606093789e-03 -1.1593101244773862e-02 -1.4659549782523484e-02 5.4988270766629821e-01 -2.7702316869322785e-02 -6.4623520005657742e-04 -3.3104826601386222e-02 5.2652953985893314e-03 -9.2538695215019617e-02 -1.8038487813016424e-02 -3.9449730148710671e-03 8.4776323540455834e-03 -1.2294178500567077e-02 5.2173337525508456e-03 4.7764596918247193e-03 6.9466734788520279e-03 1.2907376499339596e-02 -1.2253596310550924e-03 -2.0014659224527886e-03 2.0275159808045631e-03 -1.3714513105843554e-02 -3.1931712988937377e-03 1.6536547523120104e-01 -3.5682989959315847e-03 3.6303968570154665e-03 -5.7629757537624449e-03 2.8883181178999337e-03 7.8812334008382390e-03 6.7888234329994968e-04 7.9118284735189559e-03 -7.8882121538250694e-03 -6.7673584520699381e-03 -1.0703225629422886e-03 -2.1409055682878986e-02 -3.3951103354762646e-02 -5.4065230624778075e-02 3.4614638726622793e-02 1.2238660130299150e-01 -6.8865503706580788e-03 -9.9178449995285436e-03 9.6230561581179819e-03 -9.9613737641605349e-01 1.3592741410710596e-02 -1.0459195775991017e-02 4.9597102253400721e-04 -7.1186173826757130e-03 -6.1183532457529832e-02 -6.3732905657126748e-03 -3.2565372057297148e-04 -6.4032915039324845e-03 4.6580654439478286e-02 -1.6230096987109921e-02 1.0129298074532944e-02 -1.7641804327261257e-02 1.8565138810261450e-03 -5.6217693226244831e-03 1.3000304563484549e-01 6.9627931241737495e-03 -2.3994853440907696e-03 7.0971343629681050e-03 1.1270631195605709e+00 -1.7139039830736027e-03 1.1845195666169381e-02 -2.4803294279292353e-03 1.3506914770780034e-02 4.5679831425355436e-03 -2.8118906526468854e-03 -1.1572359717924030e-03 2.0447829899108102e-03 -3.6104783655781070e-02 9.6122831499569350e-03 3.9019866232161658e-03 -2.8361742308769563e-03 2.2414615027233210e-03 1.7064702110274612e-03 2.6660825697144203e-03 -1.2085497723921146e-03 3.3392894900594327e-04 4.0586244192015357e-05 -5.7576734205154337e-03 -3.8674167843134716e-03 1.6408885350199695e-04 -9.2522589111461656e-04 1.9620689646782049e-03 -1.3793723316366906e-03 -1.9764807840755234e-04 -2.2453885114851330e-03 2.4578191222636263e-03 2.0496291202722911e-03 1.4143902342303018e-03 5.2424148638764365e-02 1.9146781890289240e-02 3.3201084123235525e-02 -5.9286799048988599e-03 7.8387251469736519e-02 8.6380543980461005e-03 -9.0715814963343317e-03 7.0665687792332288e-03 4.2522174461300766e-01 -2.7646012988164121e-02 4.7730626665275543e-03 3.7743756485578914e-03 3.6598957375408719e-03 -2.6961356966241287e-02 1.9932249334982236e-03 -8.8952471700417951e-03 -2.9062006319238859e-03 -3.3820749149868101e-02 1.0352051843494987e-02 -1.4413619878275163e-03 1.0332987462951332e-02 -1.9787327462954529e-02 5.9458334273563354e-03 -8.2265842022704178e-02 -2.8937900630364444e-03 1.4191657979809591e-03 7.6872949621415998e-03 -2.9786577756352661e-01 2.7733598998350636e-03 -2.5847467458330175e-03 5.5196514097631821e-03 -3.1252145997202892e-02 -1.2429098148198980e-02 -3.3031061810029957e-04 5.8954306246867816e-03 3.2360557584373319e-03 2.1683292579134188e-02 -1.9121780920831055e-03 -4.3801616868144322e-03 -2.3427731863834338e-02 1.6085258205479291e-03 8.2195324306284833e-04 2.5448970939858082e-02 -9.3982108029358490e-04 -5.9119724542656847e-03 -7.9795822136079948e-03 2.2095328159253180e-01 -1.5927492005335907e-02 1.2733523436801904e-03 -4.1332602614234928e-03 4.5969660011064709e-03 -1.4498043281893453e-02 -2.5186771111723964e-03 4.5922541751591620e-03 -4.9899480047376809e-03 -7.7310661718309418e-03 -8.3766442190093028e-03 8.8229986206840721e-03 -5.1068794655842180e-02 9.1150513438490802e-02 -4.8967400262421003e-02 -3.0411163317466239e-01 1.4731042428219321e-03 6.1210998621539781e-02 -2.4487673307770449e-02 7.6723517674033537e-01 -4.7886148563663737e-02 1.0328102522634844e-02 4.5231200327342513e-03 3.9099445939518168e-02 1.9381592016911220e-01 -5.1518134480167781e-03 3.5533650561525021e-03 1.7939397026171769e-02 -1.3326825721376406e-01 1.6486957009672072e-02 1.2699947223910368e-01 1.0659784846975329e-01 1.1980438813097283e-01 -3.2774475224560007e-02 -4.3021675499791384e-01 -6.8922107122811466e-02 -9.6168665164764411e-02 -5.5556733052293195e-02 1.9886590958218564e+00 1.3337525570143727e-01 -8.3980493633860342e-03 -1.4540854887813404e-01 -7.5252434957026840e-02 -3.2706180946882624e-01 4.8510824959935528e-02 7.5346088458826677e-03 -4.5145603093072140e-02 2.3855170973156481e-02 5.1476137156879612e-02 -1.2581511038244944e+00 
      </Row>
      <Row Index="123">
        -2.0423734505885479e-03 -1.0801906604555121e-02 2.6552806812656440e-03 3.1959268858340120e-03 1.2834321824611909e-02 -7.3763766905569194e-03 -9.1881620294817848e-04 -1.7109180600291221e-02 -1.2349562952064561e-02 -1.8988437229670287e-02 -3.6207105882096542e-03 -6.5843217436149966e-04 -3.0785134593969902e-04 1.0530152451759135e-03 -1.1862561055276280e-03 -2.7142133843990196e-04 6.0381372063332713e-04 -3.8181230607724735e-04 -6.1667100375761381e-03 -7.0695472579798517e-04 7.7433167726771897e-03 -5.7490276252455882e-03 1.5096347335702052e-03 -3.5749183397035325e-02 -5.2459978680088988e-03 -9.5061416590841398e-04 4.2080861942322620e-04 -4.1658933877903800e-03 -1.6471261818098749e-02 -2.1039953609429309e-03 -5.4441930696016300e-04 6.4191091461403456e-05 -1.9802100206198965e-03 -1.3480739310016854e-04 -3.1255436175509355e-03 -2.1749848555779913e-03 -1.2957815879042316e-03 4.9690666161862455e-03 -8.0700628725326462e-03 -1.8984760021328040e-03 -7.0772188224251659e-03 4.6524506421721096e-04 -4.5918264375179721e-02 -2.9966194207555093e-03 1.8282789320190375e-03 5.5303302775402859e-03 7.4413995780003850e-04 3.2012286699962478e-02 4.7147413262612486e-05 -1.4461347864158196e-03 2.3702933531747905e-03 5.3910454845197443e-03 -9.1410609464998710e-04 -9.6851532731331152e-04 6.1078021498298524e-03 2.5701584551553998e-03 7.8430568566697067e-03 -6.6858474296608572e-03 -1.6798936412397960e-02 1.8589144686982674e-03 -4.0585159663285644e-04 -3.5990786176040797e-02 -3.0883604413198956e-04 1.4953459992779194e-03 -1.5569021279447121e-02 -1.6155034720613221e-02 1.6846152678811576e-02 6.5083616988081613e-04 -2.1765758115942987e-03 3.4255614230047256e-04 -1.0699711120242856e-02 -1.1299883950803558e-03 1.2642009771735990e-03 7.3695206967751593e-03 2.4652497126974836e-04 1.0176451723031745e-02 -5.9363410697855362e-04 4.1363980149694210e-04 -3.4029692599205595e-04 9.9324106753697575e-04 6.6742838087179160e-03 -1.1294822114740035e-03 1.7352606017016971e-03 2.6311401980180782e-04 -9.2929846291202184e-03 -3.0859609779958219e-03 1.4354517834292259e-04 -3.2278391200409561e-04 1.1468572886618952e-04 -9.8255801257911887e-04 -5.3141167436862482e-04 6.3797626502925045e-05 9.8167105441692402e-06 -4.7861314135097879e-04 6.2784338089351497e-04 1.0374082806423462e-03 -3.3175797351659726e-03 -1.8337727823833333e-03 1.8407550971186858e-03 -3.4955069209629840e-02 1.0757641453777267e-03 3.1289781172539155e-03 -1.8371125938578779e-03 1.7955615742242741e-02 -1.9586948123406514e-02 5.7493166144599638e-05 -2.2359807831706610e-03 -3.2308634236539666e-04 -8.6266479456024352e-04 -6.2230181573596230e-04 1.3785874765347159e-03 -1.2374263307924809e-03 -1.6926109925439509e-03 -1.3536269503552373e-03 3.4506338269434198e-04 -1.8828343554975254e-03 -4.7307315263059556e-03 2.5630717915080503e-04 -2.0669259384911744e-02 6.1426198700543855e-03 -1.0651759988042195e-03 -6.2214898120872787e-03 -1.7139039829812894e-03 4.2941192044549353e-02 5.4210677208959396e-04 -6.3478897952658144e-04 -4.8175211399977252e-03 -2.0154552171262911e-03 -2.0866597863473599e-04 -3.4684074611126686e-03 -2.3394207176023847e-03 -2.4111248191639404e-03 7.6126132919944354e-03 3.9241173779726350e-04 -4.4919443730080099e-05 -1.8863747755635936e-04 5.0251645240921163e-05 2.2842213179333319e-03 8.6264214986084313e-05 8.4337006544920668e-05 -9.0686981808593692e-04 -2.6387620689649095e-05 -7.4474920171204448e-04 1.1593624863061167e-04 -1.3550724077618939e-04 -1.5257335889725233e-05 -7.1100984190661470e-05 -4.2514258042080955e-05 1.6179641759270919e-04 2.3793608322299697e-04 3.1598461021953403e-04 -2.4665251069275716e-05 -4.8467088370165957e-04 2.5290800795823333e-03 -2.4217636965891817e-03 6.3687429995685899e-04 7.9189303246313993e-03 -4.3585034848587475e-03 9.9795882127506159e-04 1.3260151556810533e-02 -1.4993392393182130e-02 2.0793528590466959e-02 -2.2795956496048011e-04 6.9541642597430544e-04 -1.6013363000742476e-03 -2.6569167777121400e-03 5.1059887660929049e-04 1.1325834668868238e-03 -1.8538527100767578e-03 3.7174590134949996e-03 3.7811432783222696e-03 -3.6213043989266613e-04 2.2953061472725036e-03 1.2303623310868511e-03 3.8713835768684063e-04 7.5062556500912446e-03 2.9594146130217970e-04 2.0408087000361314e-04 2.9877958350561923e-03 1.0136455311257217e-02 -5.3817936698566139e-03 2.7015252284412266e-04 3.7378898167365372e-04 -6.9096093256392974e-04 6.5552700518975091e-04 -6.9776913633418178e-06 1.0378588656275584e-03 -1.3874300689634177e-04 1.0075311681017800e-03 -2.2804467790828887e-03 -2.2413514927700426e-03 -5.4070308073199611e-03 1.5027056228835048e-03 1.1672375904919581e-03 1.9638425744436788e-03 1.7868227677912441e-04 9.7013178628945905e-04 -1.0053743361640104e-02 -4.3378816182675492e-03 4.5893196272834775e-03 1.3617618051227150e-03 -4.1087045785260585e-04 9.6397420554837935e-05 -2.2036723363906608e-03 -6.1452466289643986e-04 1.3875638712372968e-03 -1.2890943680599555e-03 3.4866607976173909e-03 -3.9270150514982751e-03 8.7515122341596165e-03 -2.2059380727586361e-03 3.8349570964313177e-04 -7.0870920316537522e-04 1.4692390193231711e-02 1.1831177312437885e-02 -1.3900056302721337e-02 -1.4723032919412349e-02 4.1563030096602636e-02 1.2628492021358961e-01 -2.2119641754976315e-03 2.3743842117896000e-03 -5.0381986407306480e-03 1.0066021728061196e-02 -3.3694815158496335e-03 -4.2225362503570361e-03 3.2879103675558449e-03 1.0541201180991142e-03 -1.4867274645103391e-02 3.4504304859902420e-03 2.6750488123017047e-02 -8.5492917569244091e-03 7.1837332482755107e-03 7.1123194659849162e-02 2.8684451365933401e-02 1.5263077384569702e-02 -4.4068998130264048e-02 -5.5750370070943259e-02 -8.3915133140617063e-02 2.2085579404136739e-02 -1.2070627678573476e-02 1.2139379510954246e-04 -3.2406753579644593e-02 2.2205686502179672e-03 -7.9585705366816547e-04 -1.1647726990918744e-02 3.1910890072031212e-03 3.7517363014103015e-02 2.5358512875578089e-02 
      </Row>
      <Row Index="124">
        1.2943013820041842e-03 -4.0937384294317397e-03 1.8279510903994253e-03 -1.3650091243662679e-03 -1.3266997222880616e-02 9.6904117747679767e-03 1.3606438478267740e-03 -5.4560884808597318e-03 -2.8400241130302668e-02 -4.7890786715271546e-03 -4.7743120916820023e-02 -9.1414840198558158e-04 4.6729058508952880e-03 2.6198518502804297e-03 2.0796689450416038e-05 -4.3886960878825043e-04 7.6003592521251960e-04 -6.2394053906393420e-03 6.5487658522395097e-03 2.9359180087801494e-03 1.7099917070733869e-03 1.0677847538421992e-03 -1.7046332058610024e-03 4.7488458090871044e-03 9.4623083969287442e-03 5.1172348185132962e-04 2.7800031200598575e-03 -1.1205583730568680e-02 -2.9445651610676103e-03 -2.6553157969922699e-02 6.4343319930021403e-04 3.1756609110117034e-03 5.4040011758018465e-04 -3.7975404023904424e-04 -3.3302184471853402e-05 5.2132536967410144e-04 -6.4730696022901012e-03 4.3810109323285523e-04 6.3321909048751901e-03 -1.2377590003206373e-03 1.4670852302809678e-03 5.8799020401616164e-05 1.8149221285711239e-02 2.2701452182548772e-03 2.9475440268201050e-04 4.5463644064142640e-03 -8.7766778982720922e-04 2.0554020887782812e-03 -3.5614971967826842e-03 -1.1521514884305639e-03 -3.2167002319707233e-04 1.0844531752679833e-03 -8.0239825667049666e-04 3.0465615062167436e-04 -2.1238082263988489e-04 -2.2934636844301427e-03 -3.7189498927948511e-03 2.3183711784056926e-03 -3.2229659171600106e-03 6.2674978623336597e-04 -7.6512859880153300e-04 4.1747182920925940e-03 7.4076580844925285e-04 2.2001257684681197e-04 -7.4458846456820216e-03 1.5644771250051814e-03 1.7292706431690924e-03 -1.6360196883421566e-03 -2.1531865247337288e-03 3.0435141746977291e-03 -5.0321382923618095e-03 -5.5587737395060288e-04 6.4753553861120888e-04 1.1676494113091983e-04 -1.3388755834101897e-03 -5.1952599636107266e-03 2.1591186895107695e-03 4.1742682131544473e-04 1.5707571078627663e-04 1.5233490537167526e-04 -4.9004166476836874e-03 2.3633182189306194e-03 6.3247238325712051e-04 -3.8474034424423875e-04 1.1742546448774149e-03 -2.4204603111151191e-04 2.1884153050236946e-04 -4.7990359408936652e-04 -8.1797541578448982e-04 -5.0661443563786764e-04 -1.1360227395550192e-04 1.4249371675956104e-04 -6.7850327156917384e-06 -8.4198309378033694e-04 -1.0656801118918728e-03 -1.1529215209610255e-03 -5.0406018938579759e-04 -2.1023227927936860e-04 1.6123102895688616e-03 9.6959944026286451e-03 -2.0054002427064496e-03 8.1579251743509084e-04 7.6683837408344016e-04 1.9662518982607735e-04 -1.3352923443986945e-03 1.0499961868361235e-03 -5.3554145721222256e-04 -2.5433043105235610e-03 -2.0818533268543958e-04 -3.5931423499437867e-04 1.7384490315710144e-04 8.0144254004653123e-05 8.7330487161935231e-04 3.0109120897851924e-04 2.6376869815379275e-04 6.1644145609076467e-05 2.4000642390331235e-03 -1.0552425273391158e-03 2.9189245431596737e-03 6.3715271683814564e-03 2.3489739698583252e-04 -6.4432016343720332e-04 1.1845195666312452e-02 5.4210677207736481e-04 2.3922951406772697e-02 1.9245776338006580e-04 6.8327273978919167e-04 1.9742026045787729e-03 -1.3472047654862148e-05 -1.4457068183218458e-06 -5.7306331202893531e-04 6.8112138660553082e-04 -5.6412426422691982e-03 3.7022463762138597e-04 1.3293883716006683e-04 5.8243881307653081e-05 5.3775363731213435e-04 3.7170704458882784e-04 -1.4059292134319150e-04 -8.3136657302087201e-05 2.3661869265543460e-04 3.7228060868345602e-04 -2.3260069250510807e-04 5.9544589785679694e-04 -8.3693953597567365e-05 5.9398087838405552e-05 4.4287993649698063e-05 -1.3431600147893500e-05 1.1397520292027346e-04 -2.1406632183238264e-04 8.4280043376648301e-05 5.6656954854386702e-05 -5.5741354731024557e-03 3.4663929896944961e-04 -4.7370127044963359e-04 1.3786801710134237e-03 -1.6437877145616345e-03 3.4348696429253363e-03 -1.8274437996779885e-05 5.1307123946084613e-03 -1.3966456538154948e-03 1.6291645393319990e-03 -3.1037392234822773e-03 3.0631592585781396e-04 -1.1729415026824983e-03 -2.2452465350684026e-03 1.8958982632758729e-04 8.3804588424287070e-04 1.0509398877250539e-04 -4.8229842716211550e-04 -2.3456022046821120e-03 1.7340710281538371e-03 7.6866318627850233e-04 -1.8067606775478834e-03 -1.2287184562973820e-04 -6.5432784935083501e-04 -2.7357023876719774e-04 2.6561978123552238e-05 -1.3965178831277444e-03 7.0924057804883089e-03 7.1671109585362547e-04 9.2398720668853025e-03 5.0178099189815591e-04 3.3762310688028041e-03 -4.7148283601345427e-04 -1.9763666583994660e-04 3.1033209720339461e-04 -5.5968954123174989e-05 2.3289348116741744e-03 -6.5939070485120967e-04 1.1829647916665950e-03 1.3479840884382749e-04 -4.2450793095019244e-04 -2.9546358300211819e-04 -1.8979506862210726e-03 1.1218601797890583e-03 1.3121038289836182e-04 -4.7838142330506855e-03 1.9993323254579110e-03 1.7419091232693011e-03 3.0847305832935592e-03 -8.6883741847190152e-05 -5.7377597751733574e-04 -8.0155236499807763e-04 -2.9042616203810232e-04 5.4619048238229329e-05 -1.0873011344274890e-04 3.9933297532800257e-04 1.9877590731859412e-03 -1.2035824173640252e-03 -8.6775667666892653e-04 7.8144557885011304e-03 -6.5065439920960243e-03 -1.2995589956787372e-02 -3.5406503557898709e-03 -1.8266407724584911e-03 -4.3116832873262073e-03 1.5339008833858331e-02 9.2372157095740089e-03 -4.6514247603224569e-02 1.2257176287609043e-03 6.0415565648223486e-03 1.0527785528893534e-02 -6.0360064917752113e-04 -2.0936674081457052e-03 -6.7929823837555047e-04 1.3778519810972367e-03 4.1832370273209348e-03 -2.3264216536420947e-02 7.3793060779668435e-03 1.3260469225321769e-03 2.9789503826416477e-03 -2.0816694384450645e-02 -4.7117478351667762e-02 4.4507034799890054e-03 -1.7610984055132048e-02 9.2629091550928844e-03 -9.0641397494954853e-03 2.3852178779236954e-01 -1.0545176485931805e-02 1.5725688099675218e-02 -1.6248219020376257e-02 9.7652389311779953e-04 -1.6845524021244949e-03 8.0024328527913968e-04 1.0482458561720441e-02 -1.9235590501341188e-02 3.1167509947341205e-02 
      </Row>
      <Row Index="125">
        1.1099568135450517e-04 -1.2211036870305073e-02 -6.9918848900579755e-04 1.1472805833553611e-03 -2.9687051045232254e-03 -1.1840691195802097e-03 1.8755908670380766e-05 -1.8069199990444346e-03 -1.2398266072717497e-03 -9.3967595195746138e-04 -1.4896467933267518e-03 -3.8371257749569929e-04 7.6415043671036807e-04 2.2089755178511467e-03 -3.1039295787531167e-04 -7.7487723433703609e-04 -4.2730872166687876e-04 -9.1354901041888759e-04 -1.5781165023146665e-03 4.7430826515246563e-03 5.0297291538214592e-03 2.8855350857737161e-04 1.3140379849829135e-04 1.3407326888047189e-03 -5.7566841067508909e-04 1.0213639579381923e-04 -1.1807479977645960e-04 -3.7672458659563507e-04 4.6065268074364438e-05 -2.8883738328127836e-04 3.6268281887724685e-03 8.2568716582042930e-05 1.0038108830748077e-04 1.2101446198563813e-04 1.4394451169072453e-04 -3.9614546146310653e-04 1.3022988147973445e-03 2.2189867066808172e-03 2.5436116912026293e-03 -9.4459562186999246e-04 -3.7953768819562472e-04 2.9420882670818244e-03 4.8621561006052250e-03 -1.1753337495588045e-03 2.4186656660665773e-05 2.9159398965651478e-03 5.3169271988794536e-03 4.5343834200575056e-04 -1.4922543626197035e-03 -6.3833070928109650e-03 -3.3470945775649491e-04 2.2748168716105049e-03 -2.4612501016299526e-04 6.6907658112193031e-04 4.4434170666849404e-03 1.4242210063728359e-03 3.0576698618588194e-04 3.8831840167375675e-03 -1.0853142038725175e-02 -2.3721134781836545e-04 -1.3807293435119210e-03 2.7903589905561334e-03 -6.3879164125870899e-04 -2.5176601936308107e-04 -1.8427159276462324e-03 2.8613693688267772e-03 1.8407549919319949e-04 -1.1558313704605368e-03 -8.7949811107906235e-03 -1.0845315472228188e-03 -4.8715285145978972e-03 7.3034311058595147e-06 -1.4125187042610815e-03 3.1141190852290697e-03 7.7899960935882539e-04 -4.2484206859547888e-03 5.9665627886842931e-04 1.5152607336819252e-04 -1.0038150466054139e-03 9.8790153521203031e-04 -5.6461692102416274e-04 -3.3609628647866320e-04 -3.7370608633075864e-04 1.5971979241352630e-04 2.3812502981852279e-03 -3.1438748574699749e-04 -2.5465050486496010e-04 -1.1010959083201169e-03 -2.5419259604473341e-04 -7.1326781434773341e-04 -3.6142528097145299e-05 1.9531923466005637e-04 -5.9881860827721341e-04 8.8637826675385094e-04 -2.3046405402553545e-04 -2.9889159989977820e-03 1.3067661676690115e-04 -1.4850914581506064e-03 6.1387523614401564e-04 4.5651866009742692e-03 -1.8197357664282311e-04 -1.0622641364090690e-03 6.0258262065288407e-04 7.4608843304638239e-05 -4.5154255306753543e-04 -5.0539841895408963e-04 -2.7838189860484286e-03 -1.1389694507026201e-04 7.3276528888325306e-04 -2.4857069151463466e-04 -4.8838536454610948e-04 -1.8388212761931873e-03 -7.8978746368729312e-04 -1.9933609822151820e-04 4.3697716768287664e-03 6.4691061448391811e-03 -1.2264961117997679e-03 8.8454316035685757e-04 -1.0807202879988926e-02 -3.9415247191399187e-04 5.6017901840769210e-04 1.8628522965670495e-03 -2.4803294277912086e-03 -6.3478897953258163e-04 1.9245776338095669e-04 8.0340915006998134e-03 3.5554540005248124e-05 1.7678968990613602e-03 1.2965021790726874e-03 -1.5219723214154324e-03 2.0081726363314146e-03 1.4280721249820402e-03 1.0583191895141614e-03 -3.4210176118181309e-04 1.7895160723594962e-04 1.2012133121897275e-04 -1.1508642509077909e-04 1.5360261102045295e-04 4.8434474632942328e-05 6.4029155032678867e-05 5.0877209478863809e-04 1.4144170080193012e-04 -8.0271957975733548e-05 3.4405939053497444e-05 -9.3842509788601117e-05 9.5786981635450925e-06 -3.1428096748037886e-04 4.8011010796271542e-05 1.1840830813726009e-04 -7.3534549155027513e-05 4.1414553751687713e-05 -6.7636035175566657e-06 -4.2769696287794107e-03 3.6570495192764230e-04 -8.9122399778122008e-04 5.7944147817898988e-04 -3.1781828692440499e-03 9.5145629635887819e-06 -2.5318363814485822e-04 2.4351938558988600e-03 -9.7538364496748233e-04 4.6363130224481494e-04 2.5550718247210761e-04 5.2785376866086369e-05 -1.4111274094502743e-04 -3.2230714022229807e-03 7.9582359739880312e-05 -1.9339076286752957e-03 -2.1804236239454249e-04 9.9548415374376385e-04 -4.2101834056574661e-04 1.1618335768698307e-03 1.3778987062469453e-03 5.6093602125648068e-04 8.6555435338188554e-06 9.7153684156480423e-04 2.0368544232558837e-04 -1.4822585530140098e-04 7.9109433479815361e-05 2.7191185061475887e-04 3.9381452762365585e-05 4.8638037020006875e-04 -1.1164217735929252e-05 1.1779023133587068e-03 -1.9526157268153670e-04 -2.1949293213175704e-04 8.3605011367342275e-04 -3.1557990963951288e-04 -5.5387149750615709e-04 3.9449358013383777e-04 1.1091281483365800e-03 -6.1454983166673253e-03 -1.0677393269774875e-03 -7.8279182806279717e-05 -1.4897536731252703e-03 -5.3245008690675257e-05 -5.4871729356023992e-04 -1.4808080219820797e-03 -3.0492712299376196e-04 -3.9003697684074975e-05 -2.3076553132157315e-04 -1.0238602750319604e-03 3.5484895530247141e-05 -3.2626785122716060e-03 -5.8502042684600818e-05 2.0092977077612421e-04 -2.5231165789613044e-04 -7.6249141045163071e-04 -6.1316590412763001e-04 -1.5333644609787683e-03 8.0581865282170417e-04 -5.5457368072488796e-05 -4.5677667255779753e-04 -2.1830743368015396e-02 -1.7940738904289543e-03 3.4751730781871311e-03 4.6559996521950212e-04 3.2859126102175009e-03 -9.4065955987607025e-04 -3.7664181232623271e-03 2.2139798731422754e-02 1.0239608396047104e-03 6.6202171522101549e-04 1.6259445093058300e-03 1.2741210700556171e-03 7.5596370867819854e-03 -2.6181778215568700e-03 -5.1277379028540366e-03 -1.8912336843067121e-02 2.3842045755614528e-02 -3.1301185076532132e-03 6.6550244384341022e-03 -7.3942939745696313e-03 3.4229058954799219e-03 -6.4898448568101218e-03 -1.0357610714824340e-02 5.0814329018986255e-03 -2.2335336847263965e-03 7.4996685069232769e-03 -3.5264796328822887e-02 3.5779778076756464e-03 -2.6912635044088203e-02 8.8385590182972051e-04 1.7233931473450330e-03 -6.9977510765237561e-03 -9.4084430617172865e-03 1.0581610646368039e-03 4.2600795522422456e-02 
      </Row>
      <Row Index="126">
        -5.4015925455129198e-03 -1.0723771047417424e-03 -1.8996807161184709e-04 3.2493755605048657e-03 3.2793618940965830e-03 -1.1035779071150508e-02 -4.0314857731832236e-04 1.6691912701334161e-03 -2.9200052670872029e-03 5.6262802440862816e-03 4.9509876259739866e-03 4.8022904593783902e-04 -1.3341048721816167e-02 -4.9595264018641953e-04 2.2883574244104195e-04 1.2023198252814060e-03 -3.2031043278200162e-04 3.0496523486525755e-03 -3.4195952432493923e-04 -1.5591497657349558e-02 3.9844756138860543e-05 -1.5297727786217491e-03 8.0229456798757391e-04 -9.3485016531058146e-03 -7.9058989768612357e-03 1.6358519836576592e-04 7.6196581927441900e-04 -1.1575725554312910e-02 4.4207816167800042e-03 4.8882686778960807e-03 -2.3934128130007060e-04 -1.5276679038857150e-02 7.6108665842932041e-04 2.9937349679388242e-04 -3.4086290786528861e-03 1.0525726632552809e-03 -6.1310729911531262e-03 1.7036380652723920e-03 -1.6988829003369336e-02 -6.2993716168940894e-04 -1.3865055963011852e-03 2.2249350345726962e-03 -8.6976685798299952e-03 -2.0057864067783079e-03 3.5352687294099017e-05 1.4800301205595418e-04 2.0535742342303459e-03 -6.6212342096413634e-03 7.7787469215077204e-04 -1.3475599897908724e-04 -3.7162577355211168e-03 1.8335823291711073e-04 -1.3458274909401158e-03 -5.8610864622867399e-04 -2.1510750046225824e-03 6.0044560948160648e-04 7.5919736074481561e-04 -1.0036100345643756e-02 -4.3830890690760710e-03 -1.8004152643717949e-03 -2.7027370097648315e-03 -5.3467989333604790e-03 1.3881286397940396e-03 -9.3635223912111321e-04 3.0677077606558467e-03 -3.5127805596360112e-03 -4.5982543394561017e-03 2.0679293375714426e-03 9.9077526181881592e-04 -1.4566458897287806e-02 -4.5766006839030419e-04 -9.4848056776944412e-04 -2.2260679191779403e-03 -1.5834272882493394e-03 1.7012306686194807e-03 9.7067030945538132e-04 -2.4573189208209612e-03 4.1502268809360393e-04 3.6923760660367497e-04 1.5401881573061764e-03 9.4273829170024581e-04 -1.7406538285334300e-03 -1.6304226158132761e-03 7.0287564029070104e-04 1.7753292382884922e-03 5.8642498228912709e-04 5.0190212043650650e-04 2.9495961995303598e-04 2.1762163603997039e-03 -8.9362019034244962e-04 1.0283653829661673e-04 -1.5720349840181447e-04 1.7043059497082440e-04 -7.9659035578430112e-04 4.7674466629162547e-05 5.9303451577906591e-03 7.6626514576970742e-04 -1.1008261813400416e-03 -8.3221588472752635e-04 9.7909245257522329e-03 -1.1020731148721988e-03 -3.3198931932247686e-03 8.0135905405429378e-04 -7.1597042551984902e-03 3.8766676808905786e-03 -1.9108309463484758e-03 -7.7844446378704489e-05 7.0602071824266942e-03 1.9447266146132279e-03 -1.9060171643791191e-05 -1.0323154739606440e-03 7.7646734291959493e-05 1.3110142135152095e-03 -5.9425833966025333e-04 -1.0751581204608026e-02 2.6358228272610994e-04 -6.1749696565800358e-04 -7.3530706796217857e-04 -4.3266169455099882e-03 4.3404838277987280e-03 3.3901277413464406e-04 2.3459225302391046e-04 1.3506914770457207e-02 -4.8175211399871052e-03 6.8327273978289853e-04 3.5554540004320047e-05 5.9301385536999034e-02 9.6244573893419696e-04 3.2037304515252244e-04 -4.0624334295517733e-03 -7.8880335120347627e-05 1.3380110306774619e-03 -1.1897765986554106e-03 -2.1581462851958614e-04 -8.6430160878297785e-04 5.9214339974384442e-04 -1.7649771803141906e-04 6.1002061775589046e-04 1.1437727361845795e-04 6.6805579192426518e-05 -4.4999147551286862e-04 1.1231706772013312e-05 -5.1977642645400525e-04 5.7649711734181929e-05 -1.5563424883126368e-04 6.0293973966471265e-04 -1.6931220808914750e-05 -7.1901659616707773e-05 -2.8528294793450388e-04 3.9910012411213506e-04 2.9994906618859159e-04 3.4783232821925197e-04 1.2490454084452776e-02 9.5836239873527303e-04 1.0555270660563189e-03 1.2568742354798854e-05 4.6373279562380394e-03 -4.6107324553157775e-03 -4.2865083719978003e-04 -1.0742815829120822e-03 1.4067528597815591e-02 -2.9082726107415822e-03 -8.7158371595267377e-04 -1.9976337177669574e-05 1.2520590021203908e-02 2.4995317401931773e-03 3.9579421450873162e-04 -2.2623065086985975e-03 2.2291347965548887e-04 1.2878463027363158e-04 -3.5888094948132842e-04 4.2118593160970774e-03 -2.3663945826350591e-03 -1.4993316257718436e-03 5.0520762285984067e-03 -2.0282331157218059e-02 5.6455771862603272e-03 -7.0419714481093770e-04 1.8382608630690411e-03 -3.2986687113568794e-02 -6.2407406811163064e-03 4.8970615213885906e-03 1.7193041581454321e-03 -4.2683743985450578e-02 -7.7842060125314222e-03 8.6606644010203855e-04 1.2446160399741391e-03 1.6754185089185962e-03 -6.8640589265424948e-03 2.9668653605850262e-03 -5.0358292668355592e-03 -2.7433200271550304e-03 -5.3355389367891275e-04 4.0429795166088234e-04 2.4490286173484005e-03 -1.7968213563590557e-04 -5.7456114824121457e-04 3.0362096092597518e-04 6.5698506684094054e-03 -6.5688354552007500e-04 -5.4717043911712638e-04 -4.2626696133135080e-04 2.8582447267148448e-03 -1.1532550307388617e-03 -6.5189528759007132e-04 1.0761399299401202e-03 8.1965888412718804e-05 1.6251220168426368e-03 -6.0538051451307611e-04 4.6522735011332748e-03 -4.5210128299634344e-03 -5.5889706232838988e-04 3.3807930094001599e-03 -3.5856781914035012e-02 2.0052647554766208e-02 1.2880358413626898e-02 -3.5186420997563826e-03 -5.8804271063907614e-03 -2.0739048516681940e-02 1.9836391858832639e-02 -2.6141866702254768e-04 6.2311077382706533e-02 -1.2139776191912203e-02 -2.4619186951121584e-03 2.6413446635177376e-03 -2.1234296975235979e-03 8.8730354776957211e-03 -2.0987147623336487e-03 5.4201965670545894e-02 2.8817341297027819e-03 -1.7722225278181507e-03 1.0116348055271285e-02 2.1979162931001091e-03 4.3512064888825530e-02 -1.0909641211315711e-02 4.6797061379447169e-03 3.0705782645200040e-02 1.7787177188651377e-02 -1.3461160168953476e-04 4.9993766215198415e-03 -1.3033429001661645e-01 1.5930907041060635e-03 2.1459651191931464e-03 7.6389231169297321e-03 3.4014575326296523e-03 1.7672351136491800e-02 8.2534188779250818e-04 -4.4501850081436013e-02 
      </Row>
      <Row Index="127">
        -2.1695981414245440e-03 6.2677576146420722e-03 2.8506337289433414e-03 -4.4271198063889263e-03 2.6465877593762482e-03 3.2352725213512443e-03 -1.1125795725141045e-03 5.7160634200782157e-03 3.4615114264187688e-03 7.6818588925262827e-03 3.5021345219366003e-03 8.9636177906677792e-04 -1.2618309560181976e-03 -1.3695187137524512e-02 8.7851189715146966e-04 3.3939932103169146e-04 8.5139657430535038e-04 5.2572935513475749e-03 -8.0982418116225391e-03 -1.7778556674705112e-03 -2.8484775826489311e-03 2.6026582237572982e-03 -1.4383521524240859e-03 -5.1072251941388092e-03 2.5139128219244834e-03 5.0758864434277099e-04 -6.5999690230413716e-04 -1.9885923676103978e-03 4.7175877507567437e-03 3.5466484614247729e-03 -1.9350204300090379e-03 -9.1981540096688604e-04 9.5676226099472121e-03 2.0392367927211420e-03 -3.4270620637044669e-05 -1.3230843679619235e-04 -7.4872181668869942e-03 7.4010233662042679e-03 -3.6323742953431222e-03 5.3847261855275441e-03 5.3604680151458362e-03 -3.6048166831096073e-03 -1.0733849549772634e-02 4.2408836670343453e-04 -6.5577860337265315e-04 -5.1768912151766849e-03 -7.3646977712717165e-03 -7.7730802674605415e-03 1.2710406609294372e-03 1.4008615019408810e-03 1.6107014952902732e-04 3.3631908777244229e-03 3.3803828344986936e-03 -2.9942948419013869e-03 8.8408230360803586e-04 -1.0308768536337106e-04 1.8671310609003886e-02 -8.5149172450286192e-03 8.8033679932733762e-03 -1.8700321738513992e-03 -1.3036142483620339e-04 2.7971021648397574e-02 -2.3609207056461690e-04 4.7622212089204474e-04 5.9978404877967240e-03 5.3624804351906752e-02 8.2741477773110028e-04 -2.3295885310474565e-03 2.7747942562584178e-03 1.1929230348141917e-03 2.0494912235540133e-02 2.5712897237528676e-04 2.2216414088194192e-04 -1.1258087548961931e-04 4.0196464871661286e-05 2.4011272605649336e-04 -3.6182991388128416e-04 4.6823641632928736e-04 -1.9015549250426395e-04 -3.0247571149688342e-03 7.6876268564481098e-03 2.4891645950598715e-04 -1.5878718381774990e-03 5.8831954740345971e-04 5.5118227528287433e-03 2.2015017643654822e-03 -3.3798496749260463e-04 4.1076243632010012e-04 1.1660295243228619e-04 1.1423431996723937e-03 1.2401648403208634e-04 -1.3062610908176168e-03 -2.0398071930611758e-04 -3.1900157670411711e-03 -4.7615098466432040e-04 1.4036815450672036e-03 1.4480518212061783e-03 1.8841126113240333e-03 2.2305327012467208e-03 -2.7871989866379565e-03 -2.1534382839922747e-04 -2.9391922730614582e-03 -9.0393014353146867e-04 -2.2969213318508319e-02 1.5192158034399751e-03 4.8738969635647483e-04 1.4208265507345942e-04 4.5439429890452125e-04 -1.0652916315363555e-02 -3.2167761628291471e-04 3.6386829404832857e-03 1.3819994630506240e-03 -4.2607980277203569e-04 -8.2417356090826351e-04 1.4172412996284085e-03 1.0954899490947674e-02 -1.5155508695011977e-03 1.0230130174493737e-04 -8.1156085795308641e-04 1.1023218883510670e-03 -1.6376165368489630e-03 2.7723167810338074e-03 4.5679831423693640e-03 -2.0154552171139399e-03 1.9742026045765871e-03 1.7678968990579250e-03 9.6244573893542753e-04 5.6501742188194211e-02 2.3496018246559826e-03 -8.3571882266454123e-03 -1.5203946882768095e-03 -1.0164268837805976e-02 7.9194564099169910e-03 -2.1478339181118427e-04 -7.8235292970622178e-04 -2.6750860406662817e-04 -2.7188187630790099e-04 -2.1695630485840420e-04 -2.8638697701821342e-04 -1.5202459127522334e-04 -1.5669696042113989e-03 3.1290305846772882e-04 2.9103756158540997e-04 -1.5928933323790977e-04 -1.6619419400928741e-04 -2.0701082840013461e-04 -9.9868926951817154e-04 3.3434174880385935e-05 2.2830422094115299e-04 -1.9716503262573557e-04 -4.1854453063840742e-04 -2.3344435255585416e-04 8.6850193284319158e-03 -1.0299857639252353e-04 -2.7065104009179539e-03 -3.8725261013594675e-03 1.0585949627421157e-02 -8.3225695398106425e-05 2.4662078102582639e-04 -4.5463533016973003e-03 2.1933595753186208e-02 -2.7808953655643637e-03 -8.3775506926773709e-04 4.2502126048628666e-04 2.5959718313999470e-03 1.3316939117215638e-02 -5.3675925185292300e-04 -5.4498932675688290e-04 4.1630706123067427e-04 -7.2576764184421995e-03 4.0944593251270207e-04 -2.5618124798746644e-03 -2.7378827648196187e-03 -4.7145183985797257e-04 1.0157908472721053e-03 -3.7149073568723719e-03 -2.3606588919612877e-04 -1.7208816910570246e-04 -1.1336018810076398e-04 -1.0270873872802844e-02 2.9225803835697308e-04 -1.2453283857116731e-03 1.7387228119267184e-05 -4.7824336112062306e-03 -6.4672111564916882e-03 1.6635884825942057e-04 2.5484997971786383e-04 1.9548885259602867e-04 4.4800343367439269e-03 -1.7669270144435589e-03 -7.2744778795827414e-04 2.0101184187812267e-03 -3.9931703716300357e-03 -1.9538036749521355e-03 1.2695205173448573e-02 -6.0147737786422450e-04 -5.7075834766306933e-04 3.8327494906696090e-03 1.3617622266660745e-02 1.4899304189645382e-03 -1.4301183842412345e-03 -2.6921663880897541e-04 4.4094196843643936e-04 -2.5372570897921965e-03 1.5784923567232264e-06 -1.8782031173034531e-03 -7.0320659643432885e-04 -1.9776424152019019e-03 -1.4863740397926015e-02 -2.3579908730472048e-03 1.5443873923323673e-02 -3.6785796645334721e-03 -4.0308740603264143e-03 1.2275207968273884e-02 2.5602214723681868e-03 6.2533793533342194e-03 8.3844574534284316e-03 -7.7061893297070583e-02 -2.8580218054064244e-03 4.5665191692436128e-03 -7.2624951966573925e-04 -2.7290654687654892e-03 4.3203004649645688e-02 6.0323675869247452e-03 -1.5858646734254425e-02 -5.9282299921453252e-03 3.0920810222257646e-03 -2.0801564713080842e-02 2.9035543248798566e-02 -2.5079693290533361e-02 2.8971591729002009e-03 -2.0317655427410757e-02 -2.0504456549055479e-03 -5.9190664732988296e-03 -1.2640299595944621e-02 1.7510568150344602e-02 4.5433345962259453e-02 2.4304019834140801e-02 -2.1621217783018981e-02 1.4733480620030123e-02 -1.3256463135514847e-02 4.0387166174010704e-02 -6.4212597319715514e-03 -2.9195206399746688e-03 -7.3809343080558955e-04 4.4890487042208244e-02 6.0858154885844791e-02 -1.0291232610958002e-01 
      </Row>
      <Row Index="128">
        6.7199990008399936e-04 1.4019265020880356e-03 1.0144135720421971e-03 4.7658687275263262e-04 -1.2077006556946813e-02 -3.8357494159208666e-04 9.4448452654937419e-05 -1.5430627249689299e-04 2.1250267237187381e-03 3.7792729551414111e-04 1.0469534365580950e-03 -2.9303019069362485e-04 4.8453702144228035e-04 3.8327547901323596e-05 5.0963634057051574e-04 -9.5489551989903429e-04 -2.3857611153189657e-04 3.4442690566125790e-04 2.5857294772667423e-03 1.5805811982877484e-03 -1.2100728565637413e-03 -3.7135971278983576e-04 -3.5328499763518728e-04 -6.6964544249571711e-05 -4.0273288924094503e-04 -9.5862711996212583e-05 -1.1741363746045341e-03 -1.2514309322531683e-03 1.0627638438021432e-03 6.7351834828549909e-04 3.6269912520377201e-05 2.2666100731549214e-04 -5.3037069805172152e-04 3.3236018177011531e-03 2.4883320519897278e-04 7.7986731087102419e-04 5.4787028200447771e-04 1.3587221024477479e-03 2.1037943443468904e-03 -9.1427688413503461e-04 2.4338588258886185e-04 2.5840776365049570e-04 6.0954139107336353e-03 -2.1971728198339965e-04 -2.6519289280874103e-04 -4.3812091513395317e-04 1.8767211800704217e-03 -2.1256237553442595e-04 -2.7036746907196235e-04 -1.1972554114555792e-03 -1.2156065025113322e-03 -1.3766052759453910e-03 7.2070671856780087e-03 -1.0921556671100985e-03 -3.3140046648621746e-03 9.4044390681969833e-04 1.3034189607492967e-03 8.5200903556216512e-04 1.2690535763612491e-03 8.9732257271103906e-04 -5.5909590108786135e-04 2.9774005327615947e-03 -3.0296270137815037e-04 -2.7841394512903572e-04 1.8205923260927737e-04 4.9380102398891082e-03 3.7787967229327424e-04 -3.7850110310615886e-04 -1.3500024146941799e-03 -8.5173278463229057e-04 1.6578891364566351e-04 5.7026260738872597e-03 -1.1062159255499637e-04 -2.1620830241536430e-03 1.0862870914675293e-03 -8.3417340160745097e-04 2.3996980862994732e-04 -2.1699700907005202e-04 -2.0837798485647940e-04 2.8244541800802759e-04 -1.6014443036711525e-03 -6.1415100048955551e-05 -4.7531380170766975e-04 -5.2519569571723990e-05 2.1911462780388261e-03 -6.5255928132543217e-05 1.4709997932746584e-04 -2.3987547442710228e-04 -2.8653572570819794e-04 -3.2660787891626315e-04 4.2133821392448159e-04 5.6027042059528763e-05 4.8752242588534717e-04 4.3387797015676530e-04 5.7964985531148202e-05 5.2797405633740052e-04 2.9442361191296326e-04 -7.0091661491154854e-04 4.2848263484439406e-04 1.3057195382215878e-02 -1.4334395698565369e-04 -1.1780691718410751e-03 -7.1054203306752418e-04 6.0331854702120463e-04 4.5053393057495773e-04 -4.6142949081555309e-04 -6.1132190828209934e-04 -9.5228935685846806e-04 -6.6009020584651941e-04 -1.2249883671308528e-04 -2.3209076675869984e-04 1.7586285309442564e-03 7.7281037452857837e-04 2.8634776742650896e-03 2.0714666349921388e-03 9.6775153087445658e-04 -1.8902387947983181e-03 1.4487681653754634e-04 -2.7179687062888159e-03 -2.7845296494100676e-04 -2.5692801366502269e-04 -1.0736480512262814e-03 -2.8118906526253366e-03 -2.0866597863555749e-04 -1.3472047656458745e-05 1.2965021790721613e-03 3.2037304515276113e-04 2.3496018246582481e-03 7.4892207365357790e-03 -1.3653843382693126e-04 -4.1902353010935551e-03 -2.2198583502330241e-05 -3.6644522506947006e-03 -4.3263913825548672e-04 7.4331268832667597e-05 3.1473771781277696e-05 -2.1822590725846743e-05 4.9708845017729141e-04 6.4369719544414808e-05 -1.2224852144269532e-04 -2.6349548187508138e-06 -4.8667477589765888e-04 -6.6386077143320036e-05 -3.7391430057468649e-05 -2.3850816563253765e-05 -1.2497053240629683e-04 4.3329534854159434e-05 -1.8969086379972386e-05 8.1641730077459845e-05 -9.5155044501650255e-05 5.4542552665936724e-05 7.9090813684797062e-05 -1.3892310316104221e-04 -3.8185037904434364e-04 -5.2919980595641093e-04 4.5246247176160541e-05 -2.2450893763375818e-03 -3.0298101676619219e-06 -1.6818010660610744e-04 -6.6418630807546768e-05 4.7273423425551694e-04 -2.0060719403855779e-04 2.3013585159621677e-04 -8.8783989637917533e-05 1.2354107710034392e-04 -1.9121253077912384e-04 6.9266838967093356e-04 2.8245575571602343e-04 7.2211944803530310e-05 -4.6535049154294893e-05 -1.6645356264892966e-03 3.7710080336701701e-04 -4.9462546441787249e-04 8.7477451811882045e-05 -9.5597494736517270e-05 -3.7581438170336285e-04 8.2903222352259925e-05 1.1130157875123559e-04 -1.8555591238393621e-04 8.7677613084514300e-04 1.1001944493248760e-04 -1.1531722988788063e-04 -1.7824995962314755e-04 1.1086324711096240e-03 7.2239134170216831e-05 -5.4553316951572043e-04 1.0925838107546382e-04 1.1000532691862757e-04 3.5965837599693585e-04 4.5325549266254841e-04 1.3394157816509489e-03 4.0171717868728806e-04 -3.3388809745232904e-04 2.1328038768662688e-04 9.8582517534511935e-04 -9.7369515253004063e-05 -1.4935825345441901e-04 -9.3345629694675445e-04 2.4200396308308226e-03 -3.4167802936240741e-04 -1.1677246725784899e-04 -4.0429128867310862e-04 -3.9940207791420101e-04 4.5642130083344630e-05 6.7971109814557191e-04 -3.9101032600451495e-04 6.9209764187629563e-04 1.0802442045096750e-03 2.8486586710057401e-03 1.2468711032177044e-04 2.4274925550211773e-03 -8.3517129729618333e-04 -2.3414046671291211e-05 -5.4607237282158303e-03 -7.0333402537959134e-05 3.7182072762073832e-03 -1.6417219540032510e-03 3.9632721911611515e-03 -2.8633406488887689e-03 1.8962100722249629e-03 4.2388160845786846e-03 8.9013527403513390e-04 4.6451155290161078e-03 1.3397223125071897e-02 -1.6507812298165205e-03 -9.1489184506781500e-03 1.3784991536995150e-03 -7.5953952647454933e-04 -2.7199917170074540e-03 -2.7507103740366185e-03 -6.8732489145014244e-04 1.6916863111232743e-03 -1.8719921557858950e-02 1.7667213760071249e-03 -5.1334033265457886e-03 -6.1876611543979464e-04 1.4209108174437872e-03 2.9225674538333260e-03 -3.0804714751067903e-03 7.6745750171578093e-05 2.6815449875421983e-03 2.2271776933633445e-03 -7.6796659697892997e-03 -9.0652080914360006e-04 6.0303177401871810e-03 -1.9417641305390955e-04 -1.5648576579934924e-02 2.0232317073880450e-02 
      </Row>
      <Row Index="129">
        5.6940898818374662e-04 -7.5631533095377734e-03 -2.2823989420944768e-04 -1.9048722078996595e-03 -1.1954914409949557e-03 4.7886302725224511e-04 -1.1666293297492997e-04 -1.9531764629346915e-03 3.3827510190345272e-03 -3.4799919453445292e-03 -1.6974331012178934e-03 3.3211677075841535e-04 -3.8519973630292302e-03 3.0364252612543104e-03 -3.0601105155643807e-04 -2.6746465368224559e-02 -1.9428018368571874e-03 -1.4191176703432645e-03 4.5086813035209380e-03 4.4255193943005450e-02 2.0715195461337571e-03 5.3879058543555014e-03 1.0526818097641999e-05 1.4952858072735942e-03 9.9475540380801475e-04 7.6745819541723832e-04 1.5955766828255197e-03 -4.6241593226818700e-03 -3.0408478270840186e-03 1.9176108373986436e-03 1.9495085134130508e-03 -2.2409954346637607e-03 -6.3019001240072064e-03 -7.5657110600074393e-04 3.6443248542064322e-02 -1.6071969459102720e-04 1.6572438673387035e-03 -6.1038088832449239e-03 1.5188691080152236e-02 9.1243496619242137e-04 8.2865596362833305e-03 -2.7802516851796466e-04 1.0136319030062291e-02 8.5316680705993519e-05 -1.3531621878670741e-04 4.7952010355372665e-03 2.1613789074075268e-02 -1.5782210748139236e-03 -1.7894138301230433e-03 2.9185716890120506e-04 -5.1961638478306565e-03 4.6536846424634903e-03 -2.1105682085509336e-03 -1.4331313930565699e-02 -4.7241968850056937e-03 1.5189145657839047e-03 -1.2195419277999942e-03 2.0984124436434048e-02 -1.0540895657554563e-02 -5.3442858291935513e-04 3.4311246530199652e-03 -1.4682978673510073e-03 -6.8675878618890129e-05 5.8142397288152292e-04 -1.3451517810172398e-03 -1.2270096839671008e-02 -2.1958014313133850e-03 1.4018916166749079e-03 -1.6670860942502707e-03 -2.7602748059138427e-03 3.2847432753858943e-03 -4.1645165225046021e-04 2.5585239417274697e-02 -4.5505184925881334e-03 -4.9327936635880955e-03 -5.3796786658130286e-03 6.1901634290282836e-03 -2.1939096851429640e-04 7.4987797169551174e-04 -8.8126503828194966e-04 -4.7641855944489733e-03 1.3315703690295732e-04 5.5232942687527022e-04 2.7517307208302366e-04 -1.5505129147603824e-03 -6.4680436389258356e-04 1.9352938386080556e-04 -1.4688829468739728e-04 1.1559999638958724e-04 2.3146734763231092e-05 2.7700560256678670e-04 3.6712922374746298e-03 3.3781608306068800e-04 3.7549526497176779e-03 -7.7540985188640638e-04 -6.3743694664120110e-03 -2.0418840467934449e-03 -2.8823928697210757e-04 -5.9034529027314486e-04 6.3954807823941862e-03 1.7900370486688758e-04 1.3726342377162139e-03 -1.2103155989640207e-03 1.9751276878832713e-03 -2.2206094155725192e-04 1.5444813721796644e-04 -4.7786486923625127e-04 7.8300399358890386e-04 1.9542886010448582e-03 -2.2918160837544395e-04 -7.6954919096296880e-03 2.0855332732802809e-03 5.5796746824590335e-04 8.7985545665713455e-04 1.1407998777582220e-02 -5.1122713379478241e-03 -9.9176430999152465e-04 -3.6855295602985587e-03 -5.7632507848324813e-03 1.4346873346464742e-04 -1.2700718356934530e-03 -1.9142358252723715e-03 -1.1572359715102676e-03 -3.4684074611393955e-03 -1.4457068160424191e-06 -1.5219723214161644e-03 -4.0624334295575708e-03 -8.3571882266387613e-03 -1.3653843382374891e-04 6.0751422547814571e-02 -6.9798827187997326e-04 1.2670508814197890e-02 -4.7805877733695153e-03 2.3946515529686240e-04 -2.2963734991268193e-04 1.0894271585135660e-04 5.5895837869635360e-05 1.0791437179767940e-03 -2.2278679078967714e-04 8.6947072900805760e-05 1.5685902283036365e-04 -7.3581591191072956e-04 1.1373161830650745e-04 -7.2824830648661134e-05 4.6058850725528060e-05 -1.9691353196491022e-04 2.7717027228112877e-04 2.9776593599148928e-05 7.2543943393382716e-04 -4.2145508764824087e-04 2.0136044346538159e-05 -4.0255680511162622e-04 -1.1313090878253293e-02 3.0190043886893557e-04 3.0632670503114262e-03 -1.5665211588938000e-03 4.0940513025040891e-03 2.0098352502111188e-04 -8.0947021142650452e-05 5.3831906338663860e-04 -2.4752712166344153e-02 3.6743994828341668e-03 1.3807667650332243e-03 -1.5899935263731821e-03 4.2080242141172416e-03 -1.3173379169628499e-03 -2.7706776064908472e-05 2.6867510837823731e-02 8.3125633027211440e-04 -7.9931807176664826e-03 -6.4684306188153209e-03 6.3754084152762291e-03 2.2241396864191992e-03 -5.1798667284708166e-04 4.8137295608421948e-04 1.4501366988279793e-04 -9.4763565628669215e-06 3.0428048548908349e-04 1.5342579992348448e-03 -5.6340710386710291e-03 1.4541665568938780e-03 6.1169857119734413e-04 4.5345388974498552e-04 -1.9646402496302107e-03 -1.0154864354354259e-04 -4.2629202169623993e-05 -1.6694894216510159e-03 -1.2258469675919636e-03 -2.0033534821498719e-03 -5.7897525252981197e-04 4.5564004530160296e-03 -5.1144742444431263e-03 -1.8287762418841438e-03 7.0003499922751582e-04 3.5991182635410394e-04 -3.9503434067907181e-04 4.8064172853577616e-04 -3.5961683743579499e-03 6.3431826312370151e-03 7.6466530883589608e-04 -7.6137776642436292e-04 -3.6806296900281858e-04 4.9872632993052247e-04 1.0591297235783251e-03 -6.3135400038837584e-05 -4.4762269673051967e-03 1.7138606238743200e-03 1.9127121187616225e-05 6.5140401909479324e-03 -5.5994568796464521e-02 -6.9243194032194560e-03 7.0275773930307539e-04 6.0589786192326257e-04 -1.8269056048203499e-02 -1.6693321924154578e-03 -6.2159774975454182e-03 -5.2956210224900293e-03 8.0283114294520910e-02 -1.0399900964963418e-02 -8.3764291560724027e-03 2.0301943437391681e-03 -2.1494116844399769e-02 8.2558877853130038e-03 -7.9822881533309336e-04 2.2025174378586115e-02 -4.2532593793491924e-03 2.3574391078442621e-02 2.7546473917129673e-02 -1.1209560821656073e-01 1.8868347309337286e-02 1.6428162516133701e-02 -8.5114479763683248e-03 -1.3885426631164075e-02 -1.0916730048290105e-03 6.4117712647404901e-03 -1.8081558585576696e-02 -1.2178416767232227e-02 -1.1631555175109887e-02 4.4467482997055767e-03 -9.7120049911556296e-03 -8.2043021419000578e-03 2.7834721043199437e-03 3.5901848240135308e-03 -7.4921241636630082e-02 1.0101966848346943e-02 -5.3797288254685036e-02 -3.3192049783628531e-02 1.5088988370737016e-01 
      </Row>
      <Row Index="130">
        -9.1950656856789248e-04 6.9763975618479523e-04 -3.1970538016966310e-04 6.6372605684642851e-04 2.9026707336990611e-03 -1.4735492532446954e-04 -5.2858319703590669e-05 2.2450335025903483e-03 -7.7476163804618588e-04 -2.0091760878526320e-03 -1.0821864094883204e-03 -4.2497539432047164e-04 -1.5407521299810444e-05 6.0825303241404173e-04 -4.2386177333258784e-04 -1.3885152278498951e-03 -1.7686745837370370e-03 -1.6284597918019821e-03 6.6306273403091555e-04 -4.5117807637512757e-03 -2.3394761805121955e-04 -6.8058142005137517e-04 -4.4992878938891431e-04 3.0801908189315372e-03 1.5564232111853638e-04 -4.6542659961564838e-05 1.5046949670234405e-03 -1.9715653219218466e-03 -1.3994269418957416e-03 -6.3574339939459143e-04 2.0958093194143115e-03 -4.3189848040322762e-05 -2.5440901860353769e-04 -3.0449413995418135e-03 -7.7806316362478284e-04 8.7935583031540938e-05 1.7446401139971333e-03 -1.4662085589609991e-03 1.6618753844973222e-03 -1.2821761310324586e-03 -2.9371673540926069e-04 1.5880232065853227e-03 -4.0461879095934003e-03 -2.4425579850637612e-04 -4.2363946595928501e-04 -1.1458679267338668e-03 -6.5605325456852270e-04 -2.4533918131628921e-03 -1.3707051039566105e-04 -2.1237880876324774e-03 -1.4949484193245103e-03 -2.1994140870759162e-04 -6.0929345176669956e-03 -1.9538399866009422e-04 1.5820671614756504e-02 3.6689043084309810e-03 3.4874769616557782e-03 2.1309181429901569e-03 6.9104372923868497e-04 -1.5980162634326948e-03 -9.7454353377039900e-04 -3.5748141729131820e-03 -2.5774166422937866e-04 -2.1918889142148040e-04 -3.8767291855326680e-05 -9.4841385632980640e-03 -2.0574210119757678e-03 1.9709851450640768e-04 -3.4735350458669234e-03 -8.6704104680838424e-04 -2.6065297469448408e-04 -4.7018069645173646e-03 -1.9850999160383395e-03 1.0412467591025012e-02 3.1279992575736085e-04 5.3466709546982384e-04 -4.2579844332663389e-04 -7.3024787560856640e-04 -4.3490886778924966e-04 1.9476266739797533e-04 2.3586613611638720e-04 5.7145014118841929e-05 2.0564981825510855e-04 -3.3262328555064280e-04 -1.2711288242161986e-03 1.8398096381258902e-04 -7.3490070659129646e-05 -2.2642312275811521e-04 1.4998227024469663e-04 -3.0299820651521689e-06 -2.6408530753004543e-04 2.7183089842154227e-04 -2.2691893973054854e-03 8.7482744026520201e-04 -8.6945100054160716e-04 -2.6253330937874141e-03 7.3868923134052470e-04 3.4168740171154903e-04 -1.1295173960190145e-04 -4.6837674834692561e-05 -3.0896475551825224e-05 1.3433330907994197e-04 9.6680743477665400e-04 2.5983424143630682e-03 1.1533515322704633e-03 -2.5497925580558327e-04 -2.1245070677221027e-04 9.7967722251937031e-04 2.6985779452897165e-03 -8.3380689278698592e-04 -5.2537768562334135e-04 -7.8916113475432804e-03 -1.5357946022374340e-03 -3.3113612643528587e-03 -8.1675406910865569e-04 -9.9328778685610570e-04 -1.4923507106439134e-03 1.1115130009391821e-03 -2.8045653175887636e-03 -3.7996505900722365e-04 7.4485324536475148e-04 2.5914674626068184e-03 2.0447829899649071e-03 -2.3394207176016413e-03 -5.7306331202679412e-04 2.0081726363320655e-03 -7.8880335120510908e-05 -1.5203946882760781e-03 -4.1902353010936826e-03 -6.9798827187926571e-04 1.8284222494735138e-02 4.1367998504966592e-03 2.9475397069002839e-03 -2.1478212572300758e-05 4.9963647598208873e-05 -2.1614449429318639e-04 -4.4710479555647360e-05 -1.0645690616237881e-03 3.3012961232770133e-05 1.0603890494828610e-04 5.8496194857663461e-04 1.5713648038184255e-03 2.0322759230735561e-04 -2.4279993706232004e-05 2.9792479057387985e-05 2.2333209633284965e-05 -2.7991934238673463e-04 3.7156449142999344e-05 -3.0442914412077195e-04 6.2606804465291030e-06 -7.4685152931385092e-05 6.4586786111497154e-05 4.2764828231335985e-05 1.6264303309127968e-03 5.7730428078976541e-04 -9.1617639354483896e-04 3.5845335169411296e-04 7.3485945847733393e-04 1.3697718380200179e-04 -1.5027542043208812e-03 -9.0234611857310416e-03 -4.1182987866524652e-05 1.1209326867037971e-04 4.5256415740883328e-04 -6.3703317911846177e-05 -9.8238942576565403e-04 -5.4964847242843775e-04 -1.0777376550631026e-03 3.8965334964957124e-04 -5.9912246659627757e-04 -1.0962292038079887e-03 3.0178683481271035e-04 3.3800928757982650e-04 4.3364068872234901e-04 2.8864407893814531e-04 6.1358469527153514e-04 4.4372606448198071e-05 -2.3174175694833966e-04 -1.2271781760278544e-04 2.9729764598541465e-03 -1.4310000914362049e-04 4.3589162023941006e-04 -9.4087195325092549e-05 1.2958724161522307e-04 8.8277742672407834e-05 4.6554337737515772e-05 -9.6500267426934128e-04 -1.3087958535630741e-03 -8.1107527178166203e-04 3.7996395548064825e-04 -1.0577522833474379e-03 1.2359361369243668e-04 -8.2645755766198111e-04 -1.0965104335864432e-04 -4.1586816503014854e-03 -2.7464993703141174e-04 -9.5346583172952479e-05 1.4889564032869169e-03 -3.9521872021973086e-03 -3.5713832405838940e-04 -2.8644707611778276e-04 -1.4003187980253984e-04 2.4292138591824712e-04 -1.2294302609717670e-04 -1.2745415525201365e-03 7.3289793083659025e-04 -3.9426683775783782e-03 -2.6473011169368473e-03 2.4261907099850820e-04 2.7602777589494352e-03 -4.9105391226200992e-03 -5.0424927552777925e-03 4.2139437542816410e-03 -1.1870768131330629e-02 -3.2168529106680992e-03 4.3730142432236649e-05 2.4248078275227966e-03 3.0210741252088863e-02 -9.5516408418184259e-03 -3.6005526139424888e-03 6.4523284233325602e-03 -2.4409019322711753e-03 -7.2815166543262512e-03 -7.7812369722288586e-03 1.8707865671491047e-03 3.3545723718889781e-02 1.7349862051584770e-03 1.1125276683706255e-02 8.6897577308751583e-03 -2.6049283140238636e-03 -4.6888961160829450e-04 3.2857498809868444e-03 6.4656014083397557e-03 -2.1837838779593831e-03 -9.6132117628235439e-04 7.5445764620191841e-03 -9.3151641745932209e-03 6.5046190272768922e-05 3.3452722088432411e-03 -8.5652978756301651e-03 -2.8536759838490252e-04 -5.9762016784913790e-03 1.0636740149175788e-02 6.2049576841318003e-03 -1.9007733034764170e-02 -2.0519539583223976e-02 -5.4275797249498572e-03 1.3820185407152031e-02 
      </Row>
      <Row Index="131">
        -1.2553471282805879e-03 -2.5127143317897768e-02 -8.0302749464493031e-03 -7.7272079705034327e-03 1.4399908336930242e-02 -3.6484383441505648e-03 -3.5179142511736119e-05 -1.5080554151854834e-02 7.9217721177531845e-03 8.4151666564317336e-03 6.2380597728722521e-03 -1.5186224735824630e-04 -8.8804328553746632e-04 6.2130626198231833e-03 -4.2673096594157364e-04 2.1642415996409314e-03 -4.2490392807922818e-04 -4.8849482118860678e-02 -1.2507364534177815e-02 -1.4407415328812945e-02 1.5956650507513888e-02 2.5384507464203447e-02 8.3309647583252600e-03 -9.4438033294482956e-03 4.5346830920351333e-04 -3.9315862646189636e-04 -4.4217160649786050e-04 -1.6994636532771685e-02 5.1847747776123804e-03 9.5276390758183456e-03 4.5932140061101349e-04 -1.5448913984460787e-02 -6.8748393476776373e-03 -1.1905291669558967e-03 -9.3983919268379700e-03 1.7031552990572931e-04 6.7022353562879708e-02 -1.6511331014932955e-04 -1.1547290125631372e-02 -1.9116147245391291e-03 5.4253207140674553e-02 2.5640146676252640e-03 1.5143610415609042e-02 3.0060516595212423e-04 -8.1094946734033488e-05 -3.5220697943109834e-03 1.5447473887387687e-02 -6.8388675279814140e-04 -3.8933565460431106e-04 4.4746638645824571e-03 -6.3234077816991165e-04 3.4775112095900788e-03 -5.0225184741173870e-03 1.5719743308669799e-02 4.0136452883615253e-03 1.0100136521283556e-03 1.3413431262564914e-02 1.2326587718482426e-03 -2.6002444600479863e-02 -1.7388251967563360e-02 -6.1633054142120327e-03 8.3252839921389155e-03 -1.3750494808732758e-03 -1.5174515799850283e-03 -1.1064376790926936e-02 -3.1029038884943464e-02 -2.3255614038354836e-03 4.6307854051176253e-04 4.8759751314960600e-03 -4.3585655104065044e-03 3.4351577699004831e-03 -3.2110278608252357e-03 -7.7116482737779810e-03 3.9848513948968576e-03 -2.2767786527555216e-02 1.9388017233974812e-02 -5.5545594209470521e-03 -1.9365729051707891e-03 -1.9079592116860548e-03 4.1059796985511293e-03 -6.2859950542255225e-03 -1.2106034119167917e-03 1.3678756512120274e-03 -2.2561067848606287e-03 -5.8985228688607089e-03 6.0240024904211625e-04 -3.9609909029550492e-04 2.8856344025949784e-03 -4.2370531722196987e-03 -3.2081644832359910e-03 1.3977623372674530e-05 4.2498391314047257e-03 1.4565111731846734e-04 2.4685173748363539e-02 2.1974388664677477e-04 3.7143237842708465e-03 -2.6659498922315290e-03 4.8505748492778788e-03 -3.1265878986390556e-03 -6.7025366692151436e-03 1.1140406464780275e-03 2.9350184646286508e-03 1.3027562149301097e-03 1.2136819742569718e-02 2.6447881055476547e-03 7.5482305362148524e-05 1.9924947265142442e-03 5.1355250330098598e-03 4.2111841913844402e-03 -5.6196771030045183e-04 -5.7881316505862005e-03 -3.2468773507011903e-03 -4.5406158625499351e-04 -3.3540118734203955e-03 -1.2021654950133104e-02 -2.8652829688087409e-03 -1.7821951612491164e-02 1.3123840854476885e-02 -1.9170862539107394e-02 1.0002231638613481e-03 3.0357678732737334e-04 -1.1423190629193756e-03 -3.6104783656154625e-02 -2.4111248191472151e-03 6.8112138660778585e-04 1.4280721249874345e-03 1.3380110306694939e-03 -1.0164268837827589e-02 -2.2198583500228082e-05 1.2670508814225812e-02 4.1367998504995016e-03 1.4642760054922274e-01 1.4378091175983340e-02 5.2667082747487911e-04 2.6130880168032485e-04 2.2719416011094610e-04 1.5077606790224137e-04 2.8295087377751900e-04 -4.1825142174976626e-05 3.8442811103832261e-04 -4.0895527501046201e-05 3.6176550171346933e-04 -4.5106722974240076e-04 -1.7676836746372725e-04 2.6770565499205606e-04 4.4795627970674166e-04 -6.1852854084584608e-05 3.6820065637461428e-04 4.3110764882077181e-04 -7.3140098794970517e-05 3.9892456680454876e-05 -4.7036589365362185e-04 1.9854264767214240e-02 4.4677972207300652e-03 1.9126217802316652e-02 -1.4051960615789245e-03 9.1404196169727406e-03 -7.0452331804207627e-04 -1.8469767463278426e-04 3.9089373452335348e-03 -1.5468060797983844e-02 -2.7484975394012762e-03 -2.4786859909461403e-05 -4.2823346801325541e-04 3.7093868791182147e-03 -6.5225021714285132e-03 -2.7397258855417467e-04 -1.3147891586435015e-02 -1.6029305263349221e-03 -8.2776362039002627e-04 7.7313137228834788e-03 9.4075662565362012e-04 3.9427893072212462e-03 -5.6190660047784613e-03 -1.6306691043297024e-04 -1.4059390667626077e-03 3.9081367074854378e-04 2.3684136054786219e-04 1.7073373793542526e-03 5.0086344848170004e-03 2.7067277310501014e-04 -2.0049136334777925e-03 -9.7697122013753936e-04 -1.3727693108886375e-02 1.2533922440467696e-03 4.8608032280976834e-05 -4.6230751046546920e-03 -1.1781565662798707e-03 -1.1828554012748670e-02 -2.9501345485945280e-03 -4.6429851811665077e-03 -1.1123607952422490e-02 -7.6949919348646926e-03 8.8450838282290055e-04 -1.1022227703388652e-02 -1.6557929064532607e-03 1.4085730891270738e-04 -3.8262533532991225e-03 -2.8160897425889733e-03 -4.2316019161701230e-03 -1.6572478346024932e-03 1.1663537768852061e-03 2.7751048963384844e-03 -1.5513919244092896e-03 -4.4413323956850819e-04 6.8015303288391053e-03 2.5535117043785016e-04 -1.2288950409914108e-02 -3.3919259312789572e-03 -1.3832216900707097e-02 -1.3220021799062212e-02 -1.8159674861790449e-02 1.3652813692597604e-02 -9.2479615883265098e-03 -2.9068757683072700e-03 -1.0059977727143033e-02 -1.1801677212020190e-02 2.2425611888594821e-02 -1.1725459090055863e-02 1.0136471142185610e-02 -4.0873272034688546e-03 1.1419394377853555e-03 1.0833012764604409e-02 -1.2566247051347579e-03 3.9873267570685753e-02 1.6023042332727534e-02 1.7115314821159855e-01 -3.6604030182083780e-03 7.7941658415041665e-02 3.4208343384726600e-02 9.7573779744537154e-02 -1.6175018866122874e-03 1.0875212126822801e-02 1.2612086238966518e-02 1.3466284100131173e-02 -1.9078759458172886e-02 -4.4201445695833320e-02 2.1184494201900390e-02 -4.8690537925183054e-02 3.1343996605883398e-02 -5.0838596131271133e-02 -1.7031295048590307e-02 8.6661360038030114e-03 3.7178537664950329e-02 -9.7250381882287556e-03 -3.5651652137895151e-01 5.7953307487695241e-02 9.5824722877717056e-03 
      </Row>
      <Row Index="132">
        1.0665764790162603e-03 2.2041083351465041e-04 1.1388849959231839e-03 -5.0686363304767914e-03 5.6874886047446810e-02 6.1373813750425776e-03 -5.0249791531958854e-04 -7.4110490897916215e-04 -6.4949752946753259e-03 1.6456109636908575e-02 -5.2084934510274218e-03 8.6409334383532525e-04 1.5069289269829132e-03 -4.8968178568891321e-03 7.4603787797328930e-04 4.9050191753097216e-03 7.6226299352198847e-03 -5.4610343209007539e-03 -6.1700694239727537e-02 -4.8680005530612747e-03 1.4952951139646786e-03 -3.3118380306806916e-04 -3.9321369515892199e-03 -2.6524554698017067e-02 4.2156947960217545e-03 1.0179466186343803e-03 -5.1665461372190358e-03 1.5186583439674328e-02 2.0511908664657297e-02 -8.0647938515958778e-03 8.8310910106309537e-04 8.4321070147875209e-04 1.2480856670610996e-02 8.8320243636246659e-04 -2.0657824842968964e-03 -6.4709207352078319e-03 1.4247385472120344e-02 3.6497152821037770e-02 -2.8294359467384012e-03 5.5078947319620042e-04 9.9319721335890954e-03 -7.7776359824229813e-03 -1.0132508915114735e-01 4.1238960255632340e-04 1.7857251462412571e-03 -7.1875685842418269e-03 8.8388508736414462e-04 -7.4219722137282562e-03 -4.2804017386612048e-03 -1.6635305891413710e-03 4.8382009548639249e-04 1.7696621444510008e-02 5.1541089580350863e-03 4.6412824445161843e-03 2.7842773185561942e-02 -1.9452049586107870e-03 8.3135086936313385e-02 7.7426867584613479e-03 -2.1174211953909495e-03 -5.4513879551983391e-03 9.3879110749667261e-04 -2.2358095599540141e-02 -7.8076743443569740e-04 2.5681713666546591e-03 -8.0533635609669751e-04 1.3402498857708611e-02 2.0622742205019251e-03 -2.3965120673786339e-03 -5.8961244201902185e-04 -1.2599296483120914e-03 -2.3256351302000197e-02 1.9482016910392641e-03 -3.3591054843732371e-03 1.7903442916109166e-02 -7.3458871200814124e-03 9.5100469900252435e-02 1.3494130549321914e-03 1.1147683800761810e-03 2.0428815496511682e-03 -1.7481720952289004e-03 2.6029042029089518e-02 1.3089982004688850e-03 2.1841084568263499e-03 1.2006900963117406e-03 -9.9801328347253193e-03 5.7599506245701315e-03 -1.2802349808107294e-03 5.6532797845625093e-04 -1.8823998530481233e-03 -9.9949239773864523e-04 -8.1273882369774231e-04 -2.0198609036542192e-03 -1.1098280148211168e-03 2.0716330702283681e-03 4.4175573370818302e-03 -2.0251115624667637e-03 1.2725228731556848e-04 1.8013251495876334e-03 5.0241328841962862e-03 -1.3633737683267805e-01 -7.1631544853796580e-05 3.0636811549986337e-03 -2.6502273376939472e-03 -6.6554484052441243e-03 2.0025846159922589e-03 2.3942033715279444e-03 -2.2695123775529243e-04 -1.2000264886744792e-03 -6.8879794569724762e-04 1.8222316613839620e-03 2.8689471264455590e-03 -9.3204409043806807e-03 2.4924404225029027e-03 -2.8363258704594808e-02 -9.1127144975117896e-04 -1.5591573034676176e-04 -6.6426237521440834e-03 -3.9722282065347263e-03 6.7637080902577168e-02 -2.6469892596339140e-03 1.9373840975672619e-03 -1.3566559691006522e-03 9.6122831496990857e-03 7.6126132920213340e-03 -5.6412426422403654e-03 1.0583191895226825e-03 -1.1897765986678332e-03 7.9194564098913622e-03 -3.6644522506952704e-03 -4.7805877733264612e-03 2.9475397068985916e-03 1.4378091175985900e-02 1.2910406605431252e-01 1.7635945368378366e-03 9.1401764889416359e-04 3.7103226355205793e-04 3.3748936924541219e-04 3.0208140121559552e-04 -8.1409209254322074e-05 2.1205468383682854e-04 2.1922696876727248e-04 -1.3131799539158038e-03 -9.5800696332597754e-04 2.0593423669851781e-04 5.1886975304405960e-05 5.9640372279371194e-04 -8.4327635977604577e-04 1.6465338730489967e-04 -2.0233258145686931e-04 7.1794881473239227e-04 2.1893689265781521e-04 -1.9697453206527827e-03 9.7488114821470302e-03 -1.0338275443416514e-03 1.9930785025554726e-03 -2.2819220652632653e-03 2.9683961672348238e-02 1.2912310830057515e-03 1.5926292931532880e-03 -1.4659640439975558e-04 -1.1861168500561193e-04 -6.4433919182259498e-03 -2.7552797690798452e-03 5.7511606658983876e-04 -2.1788982284509542e-03 -9.0378064216835637e-03 -1.7430537338386479e-03 -8.3413721028806447e-03 -4.9144210919360018e-03 -1.3049234969169010e-03 4.2696593093915755e-02 -1.3628647733277544e-03 5.7159964099465395e-04 1.9999643756182239e-03 4.4936664523118975e-04 -2.9375675560630102e-03 2.1825651993206963e-04 3.5839984462260333e-04 1.8592063340319154e-03 -6.0926133501993385e-03 -1.1698172340737258e-03 2.7747987972560114e-03 -1.2622366428345633e-04 -1.0452654447150600e-03 -1.6516420620904517e-03 2.9566006316867526e-04 2.5989105153834124e-04 1.8004463955664592e-03 -3.9987243442076914e-03 -1.9813834111428591e-02 -3.2959943698962491e-04 -3.8832096671720922e-03 2.4993861586248686e-03 4.9146309091389583e-03 -4.6745317117391376e-02 4.6494564080585177e-04 -4.7023941063690958e-04 1.6470804122978491e-03 1.8516596885257747e-03 -1.7108629403714014e-02 5.0061198919682543e-03 8.7350033388003769e-05 -1.2643397845876563e-03 -2.3735647350048898e-02 2.9712956886116739e-03 2.7125725642700533e-03 -1.8903470187013871e-03 4.0546805953551072e-04 -5.6852027984680767e-02 -1.3053703671296660e-02 5.1743769627500200e-04 1.1839439429270637e-03 -1.8470991879260537e-03 6.3720423927929398e-02 -8.0976975928164392e-03 -1.6068281985502607e-02 9.3186932960321565e-03 -3.2704263415771921e-02 -3.9667550270881535e-02 -5.7222536724456747e-03 4.1871704624182760e-03 1.5459985705018968e-03 -2.9388511637748575e-02 3.9968802814254779e-03 7.7306425576769838e-03 4.6249383256085290e-02 1.5411519495190044e-03 -1.4088902629902623e-02 3.2249238212034924e-02 -4.1920246603065620e-03 2.0420974979181716e-02 -1.2063200384077009e-02 2.0264839708272492e-01 -2.1520770595243328e-02 9.5804767733857991e-03 8.7024038322583985e-03 -1.4912211126665742e-02 6.2809704118207493e-02 3.3613582568306419e-02 4.0484396148188747e-03 -5.8952030762553275e-04 -1.1430040299855397e-01 -6.8533989131850980e-03 8.0010956847839116e-03 -4.9955899506953540e-02 -6.5276306223721520e-02 4.3732382790715379e-01 -2.7511596272049016e-01 
      </Row>
      <Row Index="133">
        -2.5872577023509074e-03 8.1471105047689965e-04 1.7907369136828648e-03 5.4184303017957582e-04 1.6029273989187857e-03 -6.8322796922832066e-04 8.8120251839229804e-04 3.8147540985106858e-03 -3.4920291839414799e-03 -1.5439738267457575e-04 -9.2270459203496814e-04 -6.7371377075023864e-04 4.5643779565393989e-04 1.6191760111277341e-05 -2.4470857065498675e-04 -1.0394628122713384e-03 -4.8552499376325244e-04 -6.9825238261378257e-04 -1.5718928703954047e-03 -2.8380370961130397e-03 -8.4353919380464847e-04 -2.8650226924603547e-03 -1.2961163771318691e-04 -4.3239605857595953e-03 -7.7026708627533913e-04 4.8899938412601864e-05 1.4695562786193944e-03 -9.9872253939031763e-04 2.4068911870977561e-04 -8.9100840865562105e-04 -1.0932172750841504e-03 1.1334735799363201e-04 -5.3591900560939190e-04 -2.8099972341254025e-04 2.4168971362771574e-03 -7.3989286151285825e-04 6.4731005581057741e-04 1.8435142277892225e-04 -1.6800638070953427e-04 4.8799402872536091e-04 -5.6611640837020138e-03 -1.2933703901315714e-03 -1.7963799993667012e-03 -1.0678852882341390e-04 -3.4992727072731197e-05 -2.9185959456001368e-03 -1.2394108561438796e-03 2.5317397281054456e-04 -4.4649760741253663e-04 1.9607483738687728e-03 -1.5838505727370708e-04 1.7325402358183773e-03 -7.1694486591951812e-04 -2.5423676057564079e-03 -8.8683380281240343e-04 6.5280966847551080e-04 8.8409613628854383e-04 2.8623726841473796e-03 -3.5683828002923401e-04 1.0350359131418739e-03 -9.0285724109132569e-04 1.9259538206334783e-03 -3.9013432274270701e-04 3.5345694205547035e-04 2.4057103406708857e-03 1.3131692375993216e-03 -1.2837226724648904e-03 -4.4378059567270730e-04 2.2932344774677137e-03 -1.2234131263413805e-03 -1.7453926540670810e-03 -8.0913792677311108e-04 3.1430215490875699e-03 -2.6926558763716536e-05 1.1277673878451126e-03 9.9283972058249789e-04 1.6553181899323019e-03 -1.9160533689620736e-03 -1.6801971750557395e-03 3.8615145117492841e-04 1.0927869304176246e-03 3.3078015332406089e-04 6.8119861221374871e-04 -1.3326580986600528e-03 1.6486228575645877e-03 8.3241194934973589e-04 1.3115074788718200e-04 6.6871126864186288e-05 1.3926548715241689e-04 -5.4068429448887062e-04 4.0473184907479807e-05 1.8664961670521001e-04 -2.0130106701104090e-04 4.0739103532769975e-04 5.9745427268199491e-05 3.1339695462840201e-03 -3.4043801311808165e-03 -5.7336541588539095e-04 3.9773037789086205e-05 -5.9483551948134351e-04 4.3337104058013072e-04 1.5251703488396889e-03 -1.8117751093256465e-03 6.5602123996527303e-04 2.4440682809670055e-04 -2.6217140622633600e-04 -2.4245769186879334e-05 6.7898579872793428e-04 -9.6749924139178105e-04 1.6332942876122805e-05 -6.2828808234882466e-05 4.2333552600997380e-06 1.1986635258446122e-03 -1.6347896134264177e-04 5.3864054347310111e-04 -6.1591099737396543e-04 -9.8369990500653433e-04 -9.4001402404078822e-04 2.0647707610305997e-03 6.8669188584890564e-04 -1.1535470809326221e-05 6.5227455627811797e-04 3.9019866232108368e-03 3.9241173779780159e-04 3.7022463762169015e-04 -3.4210176118176398e-04 -2.1581462851905927e-04 -2.1478339181165351e-04 -4.3263913825541478e-04 2.3946515529879066e-04 -2.1478212572672775e-05 5.2667082747412256e-04 1.7635945368353022e-03 6.9124171939264761e-02 -6.8790832189395152e-03 -1.3393159600301959e-02 7.1208021266682877e-03 -1.0956968179540321e-02 -3.5415339124972782e-03 3.1947531828265419e-04 -2.5934013570103907e-02 1.9366883885971995e-02 3.7073345308347612e-03 -2.0815437933242153e-03 -2.6390268536983733e-03 8.8290969180231313e-03 5.0921847585539467e-03 1.9275932761523074e-03 -1.8758297005346793e-02 6.1387080851042016e-04 6.8327141804905584e-03 -3.8327167575328632e-03 2.6482910163442199e-03 6.6531534980557891e-04 -1.5776813100443227e-03 1.5095205885766772e-04 -1.6663430893397811e-03 -6.9140445251991765e-04 -3.5969464985997419e-04 -2.6430265636924579e-03 -4.6634320217498273e-04 1.0264076305467854e-03 -1.8192747544938594e-06 1.3521378759665655e-05 1.1488003702254287e-04 -1.4648948675713641e-03 -7.0558104213064879e-05 2.3969380809728048e-03 6.1879818192705116e-04 4.0262555490844850e-04 7.4693642657716294e-04 1.7291178581682869e-03 -1.2840155472051851e-03 2.5613116125388150e-04 4.4725610242140734e-04 7.9520606103970727e-04 1.8833025174584748e-04 3.2458591791366051e-04 -1.6778135977068391e-03 2.7087342382439393e-03 -2.7681518035891370e-04 -1.9718646070592048e-05 -3.4961018495131835e-04 -8.9505346965125326e-04 -1.1794098931767914e-03 -1.9220736784981442e-04 6.8360803120572078e-04 -2.5716265417672040e-04 -3.0467099329395950e-04 -4.2373269067453494e-04 -8.4767586469479059e-04 -5.8603773009367776e-04 4.6168546066652525e-04 -1.0705350053441659e-04 -3.3672399879210917e-04 4.8591924368275509e-04 2.4337527248243440e-04 9.4083329176129727e-04 1.1550952597687352e-03 1.3235686020915220e-04 4.3528459987613257e-04 4.1657789684851972e-05 2.8564120515021013e-04 -1.1663487489063122e-03 -3.1719066689159042e-04 -5.8050411418776495e-04 6.5962089632652578e-04 -1.4720900735458578e-04 -7.6889595630770698e-04 -1.0798019538944468e-02 5.3984068424033586e-03 -7.1869563697373406e-05 -3.9846317661174392e-03 8.9194025078250527e-03 2.7739828767068633e-03 -3.6505676731430278e-03 3.2495191751448303e-03 6.6373021291240442e-03 -2.3006518123116146e-03 5.0119389964598752e-04 -3.2840975194025645e-03 -1.4675899401860263e-03 5.4076447687280739e-03 -2.2242093291752574e-03 -2.7622020673003442e-03 -7.1487884836277018e-04 -2.7954204896495629e-03 -1.1702231921077565e-03 2.7206232195972810e-03 -5.2672291559905573e-03 -7.9520676864336913e-03 1.4471092507308426e-03 2.0588900670389493e-03 2.7533070253178355e-03 2.7645826488579260e-03 9.6211832122484690e-03 3.2661967337478419e-03 -3.2443338498374394e-03 6.0309547798043962e-03 1.0286450566488288e-02 -2.8049525552920705e-03 -8.7120167125493454e-03 1.2714926833244722e-03 -7.0482289165642639e-03 5.1641840205488509e-04 -1.0928266179592379e-03 6.4122870387373996e-03 -8.6501784485921197e-03 
      </Row>
      <Row Index="134">
        -9.5548162256949823e-04 3.1026738680334093e-03 -1.2524091110077754e-03 -1.6451355485145563e-03 -2.6993279854896938e-03 8.5966619479365932e-04 -7.5142909840920664e-04 -6.0930664353673475e-04 -8.4021502390056128e-04 -2.2224935645761277e-05 -1.4038887656126252e-03 3.0025678649767151e-04 6.3710485087476061e-04 4.6009908944893719e-04 1.5455292811446600e-04 -1.5156909776557898e-03 -6.7495562782072155e-05 3.0459042215135769e-04 -2.7558135888264019e-04 -9.6353347453963841e-04 -6.2550162035247513e-03 2.6841515952273666e-03 9.0213565084882740e-04 2.6263621599967972e-03 3.3194078405577318e-04 -9.7685319981441514e-05 -3.7776112516581697e-03 6.4980504983007392e-04 3.9296840870577370e-04 -9.9663388313199312e-04 1.1451820823526505e-04 5.6462658353898963e-04 -1.0006786524528063e-03 2.3864503755423967e-04 1.7539004270147596e-03 -2.2155736925330376e-05 3.7903756048040908e-04 9.7263541361919999e-04 -3.0470127805315569e-03 1.0391076917324604e-03 2.8284084561025422e-03 4.1363414551822547e-05 -1.0762171586311785e-03 5.1480366109477992e-04 5.1981053075035241e-05 2.5897349903352069e-03 2.4453828945144394e-03 1.0403481525608094e-03 -7.7429656226985465e-05 8.1050204081520826e-05 8.5747002343478009e-04 -6.3975227729467458e-04 1.3690657549975194e-03 -1.4714526725264083e-03 1.3181458924155162e-03 3.0014047022123539e-04 3.1020558271990795e-04 -2.0087158571693298e-03 5.3549253722560541e-03 1.9203661900079163e-03 -1.5670376735301989e-04 1.1908457785942219e-04 -3.6203313352923400e-04 -2.9005819370073876e-04 1.2460046308425607e-03 4.1875653102632707e-03 4.4389515546596012e-04 -6.9354403109689799e-04 -1.0012736961833783e-03 -2.5459460785351527e-04 5.0376589824688168e-03 1.6757333876990382e-03 -8.8890522164158589e-04 1.1936663531164804e-03 -6.7343877274380660e-04 -4.8519179878414760e-04 -1.0848272254815605e-03 1.0583792565246582e-03 1.9345372283737340e-04 -8.1138711777259897e-04 7.8186575706413477e-04 8.5424715351623286e-04 -3.1467193742405286e-04 1.9637081049823195e-03 1.4620722247126600e-03 2.1222897180958253e-04 2.4612866593557066e-04 -2.1389978596790104e-05 -8.9490254660108768e-06 5.6279592675057889e-04 -8.0554209843303800e-05 6.6121103503428372e-04 9.0351414419565955e-05 -1.0252469869952499e-04 -9.7944227866377008e-05 -2.1547134117873568e-03 3.9344500312697029e-03 4.1922251922261761e-05 -3.8201099508085334e-04 -1.4116775941820474e-04 4.9111263275387071e-04 -1.9320063299189836e-03 2.4143465968447970e-03 1.7778415565322739e-03 -1.2493416548858935e-04 5.1561112504554273e-04 1.5745627453419425e-04 3.3625282682979115e-04 6.4473520714822046e-04 4.9551525395814886e-04 1.0399531565704954e-03 1.2622937906283912e-04 -4.9821372539157879e-04 -2.5101354208792383e-04 -1.2815318347339517e-03 -5.0110643923490430e-03 1.5981636734679052e-03 3.4773441769242892e-04 7.8575050061461941e-04 -3.8745419511094451e-05 5.2050208113421171e-04 -3.9994507691638566e-03 -2.8361742308751804e-03 -4.4919443730589932e-05 1.3293883716084922e-04 1.7895160723593103e-04 -8.6430160878454019e-04 -7.8235292970646290e-04 7.4331268832699066e-05 -2.2963734991404867e-04 4.9963647598533429e-05 2.6130880167977771e-04 9.1401764889314390e-04 -6.8790832189397303e-03 8.3082987026374247e-02 -8.7117358698638615e-03 -3.3999239623045416e-04 -3.1581996704983344e-03 -3.2638631478405138e-04 -2.2867477851739263e-03 4.3720083880916978e-02 -2.7255387778127353e-02 4.3945653255561545e-04 -2.2619944404941843e-03 8.6978448125292554e-03 1.0260356625924796e-03 8.2633726313455121e-03 1.7916606065646922e-03 -2.1230560050796842e-04 -1.0828605308651291e-04 1.4341983680386304e-03 -3.2093109591745097e-03 -2.0384465660752563e-04 2.6350724252442118e-03 1.1353898405448912e-03 -9.8257228558131481e-04 -3.1185972612029055e-03 -6.3216647260303703e-05 -5.6996584619893229e-04 3.0787821742702614e-03 1.0197400000479485e-03 2.5799377907211485e-04 -5.2073643924504956e-04 5.6460500946364312e-04 -5.2964332709863875e-04 2.8753783222269088e-03 2.4614591870653763e-04 7.7360696771280706e-05 2.2413666102272798e-04 8.9811780246417403e-04 3.3056231212370542e-04 -1.2906803362479763e-03 -1.9902991142337675e-03 -3.6176322914174136e-04 5.4501788500182699e-04 3.6236751977885917e-03 -7.9489698270107960e-04 -3.2191891638639648e-04 -2.2982248584699355e-03 -3.1851244970152043e-03 -8.3500191912438656e-04 1.0620127869802552e-04 8.7067446212459477e-05 1.4785021404195640e-03 -1.9146268629579083e-04 -1.0824003393749795e-04 1.0239761069014384e-03 5.8168714398312428e-05 -4.6370778492632765e-04 -2.8211747894020013e-04 -1.3978423590609232e-03 2.2502068199197738e-03 -5.4183106498412095e-04 -1.1068383611758160e-03 6.9711148240504792e-04 3.0083529517476712e-04 -5.0550810419237066e-04 -9.3038957037677901e-04 1.3861981196083032e-03 7.4707374652616728e-04 -2.4185209363084516e-04 -2.1543996907136750e-04 -4.6825039854393133e-04 5.0693035456843370e-04 4.5417652989498123e-04 3.6103137732201190e-04 -5.8776546098674299e-04 -1.0620860834328976e-04 -4.4861581067922414e-04 5.3806922027393855e-03 -1.5266586562936285e-02 -1.1859504264836501e-04 -5.7095969992088211e-04 9.0669628225889260e-04 -2.3893273477859568e-04 5.5294434548875705e-03 -1.4479048818461827e-02 -2.2636850521884212e-03 1.8141813219906136e-03 -3.3359117100199729e-03 -1.0314872506377096e-03 -1.4804741371235981e-03 -5.2161500446579728e-03 1.1272232496914465e-03 -2.2110714302228159e-03 -1.4552379653501959e-03 -1.3980222856075227e-03 -1.8708197912909003e-03 -4.4555566746911747e-03 -8.8760611399292186e-04 3.1783317558080936e-03 -2.8064496171924871e-03 -2.8130506089067168e-03 -2.7183949738633804e-03 -8.1635344682954858e-03 -6.5039949990642124e-03 -1.8046719091837017e-03 1.9903388801763918e-03 6.2535376641750171e-03 -5.5026789479858213e-03 5.2239930188680353e-03 1.1935803779242513e-02 -2.3925374349102694e-03 -1.5341712844668554e-03 -5.6023325017921907e-04 -9.6868944189417491e-04 7.6837294840883413e-04 9.0140310676482972e-03 
      </Row>
      <Row Index="135">
        -6.3544046184113936e-04 1.4864426588704167e-03 -1.4130662722798759e-03 4.3293500747756963e-04 -1.8962314046145354e-04 1.0816850226422507e-04 -6.9238184620772883e-05 -2.0838204672723034e-03 -1.2726176820949541e-03 3.2714478428153546e-04 6.5771836490950589e-04 1.9968160776187639e-04 -2.1405416763073263e-04 7.0880643951872307e-05 -2.2535148751428403e-04 6.1586941625962292e-05 3.8038560079906714e-04 -8.3314999535171537e-04 4.6101262220686281e-04 4.8178248635483774e-04 8.3123598612675495e-04 1.4037476178534189e-03 -3.3278275953902374e-04 1.8663535221746120e-03 -2.9342774923345053e-04 -1.0313507776383153e-04 1.7188000555650811e-03 -1.6581076137217321e-03 1.1412065527477216e-04 4.2285156366466347e-04 4.3150822807852107e-04 3.2187309839617378e-05 7.4377948755106394e-04 -8.9231729632786535e-05 -1.0062929817329057e-03 1.8073304634631010e-04 5.7940569049485884e-04 3.7868612123255962e-04 1.2105279535874682e-04 -3.4606997623456981e-04 1.7404394730144955e-03 8.8776789667967780e-05 7.8489945655026896e-03 -4.4920301121825334e-05 1.8218600320502954e-04 3.7389017693826433e-03 -7.6727482124721528e-04 -1.4810433832928463e-03 1.0085552627746904e-05 -1.2821262472579777e-03 1.9132019013974990e-04 -2.5885995874304173e-04 -8.5522509513708054e-04 2.4837604417523892e-03 5.1522511071564608e-04 1.4462629800616322e-04 6.3438162350830732e-04 -1.2782492185846837e-03 2.0840663780985359e-03 -7.3354498562282515e-04 -3.8841225700476153e-04 2.6071076212236281e-03 -1.1009438438947883e-04 -1.3206776516340446e-04 -1.0554701543941322e-03 6.9586542911270061e-04 -1.0772257651996651e-04 4.6455793527305192e-04 -7.9164855925071089e-04 3.6147042542083400e-04 -1.5202091169529085e-03 -6.4454287175084307e-06 -1.5805182952741232e-03 -3.3953652857146214e-04 -6.8299102700668994e-04 9.0540179426402230e-04 -1.0471912979244363e-03 1.8330433450290890e-04 1.0816744363648558e-03 3.8225768986061383e-04 4.0751934120060343e-04 -1.3487459116935048e-04 -2.3375809135246762e-04 7.4565535076400596e-04 -9.2364790443098463e-04 -1.7399712323784653e-04 1.2580314226237876e-04 -1.1186903979615000e-04 -2.3765380380034160e-04 2.5162720966780182e-04 -1.7629808866116960e-04 2.3632908127015865e-04 1.3240496420925706e-04 3.0323014023142254e-04 3.1875539445984092e-04 1.8291050152865465e-04 4.3042043094907063e-04 1.9259152348573332e-04 -5.0071956258789657e-05 7.9455414193154057e-04 -3.5483105132707584e-04 -1.5714238281816202e-04 1.6894524538568290e-04 -8.5773039292291742e-04 -6.1617128695549148e-06 1.0284112269768371e-05 -1.1530360670572925e-04 2.1988123417531185e-04 -7.4442845856224828e-05 6.7635093537109995e-06 -6.9304238807057204e-05 -2.0677272358035951e-04 -2.3962865310072376e-04 1.5421733112311493e-04 -6.6094432317587691e-04 4.6168233593645166e-04 5.2693612910515580e-04 6.1344950707965004e-05 -1.1445282960474703e-03 -2.3969081396658533e-04 1.2862090523748350e-04 7.5089906930967960e-04 2.2414615027386399e-03 -1.8863747755762432e-04 5.8243881307354424e-05 1.2012133121868529e-04 5.9214339974445948e-04 -2.6750860406564317e-04 3.1473771781337123e-05 1.0894271585106148e-04 -2.1614449429328177e-04 2.2719416011070834e-04 3.7103226355102679e-04 -1.3393159600301725e-02 -8.7117358698635683e-03 4.5502588520430036e-02 -1.3245602702116383e-02 -2.0653159346775279e-02 6.6955810551640876e-04 -8.8502939793349970e-04 1.5849672562252323e-02 -2.1340239156758388e-02 -6.2334086055615533e-03 1.5552173675344894e-03 -2.3493868109757507e-03 -4.9410330820211018e-04 -3.6904372774864943e-03 -2.4978227507713073e-03 5.6392435410981094e-03 7.9732601277053344e-04 1.0108917304226091e-02 3.8428875636050169e-03 1.9891030597802114e-04 -7.3243204500282057e-04 7.6122406208230600e-04 8.7118013179316627e-04 3.2607908735818843e-03 3.5262018022651123e-05 9.4738392056282553e-05 8.8202525552312288e-04 1.0802341436074593e-03 -9.4959740053789728e-04 2.1276279284365490e-04 -8.7233088690505335e-05 -7.2990115774174960e-05 -4.2023222799693268e-04 1.3734114314649476e-04 -8.3714710148029021e-04 -2.2149055326828107e-04 5.5381326453947307e-05 -2.2241082238221816e-04 -6.0517205595226123e-05 -1.9497500164567232e-04 -2.7981762366209931e-04 -1.9629118584557094e-04 -2.6111397081435609e-03 3.1998050860432281e-04 1.2903831669045396e-04 2.3041267153472381e-04 1.5542610290295309e-03 4.0393625740527974e-04 8.8778604884460306e-06 3.1746635354818007e-04 -4.6236527846122127e-04 3.3421671163400268e-04 2.1038221883609706e-04 2.0976410864873528e-04 6.9293277468581981e-05 -4.4597087751187042e-04 1.5277640764017539e-05 -2.0718152890361868e-04 8.3763099858061882e-04 -2.1610600032046596e-04 5.5071583178514729e-04 7.7539346676596494e-04 -2.4027556675923316e-04 4.6402493659664064e-05 -7.2941410562463995e-04 -3.6698277841766026e-05 -7.6079611768131153e-04 7.4742908194241041e-05 4.9104107701992665e-05 -4.1801072606892397e-04 -1.2751351168054808e-04 -1.5012812320992937e-04 1.6744275049663501e-04 1.5946019480860419e-05 -2.5749163962642834e-05 2.5845784068957397e-04 -1.9150271508137206e-03 5.3893203032525771e-04 -2.0718487189794830e-03 -2.1871182697775181e-04 -7.9172158516625200e-03 3.1888577402015394e-04 9.3445416300449915e-04 2.4977025115580989e-03 -3.0471024082797094e-03 -1.9322124558073560e-03 1.3612987688093618e-03 1.8950430363239678e-03 -3.9451698405625491e-04 -8.9938703016593125e-04 -6.4737956494992182e-04 -9.8752794621425862e-05 1.1329740469212567e-03 -8.3059769001055149e-04 2.6132717865722912e-03 -1.7154336464263388e-03 2.8637117086126509e-03 1.9011561578272838e-03 1.8550757071902650e-03 -3.4616868411982034e-03 8.6570432463008813e-04 -4.1828247546830586e-04 -6.7643557055694246e-03 3.7192885548166087e-03 1.9484670759916652e-03 -1.7042407463975250e-03 -3.3237290851650990e-03 -1.4629432937276043e-03 -4.4654541326445175e-03 6.7434478001716599e-04 2.4920030136974915e-03 -1.4452302536487266e-04 -8.6276042834553760e-04 5.3433407672124158e-04 3.0720726528353278e-03 
      </Row>
      <Row Index="136">
        3.2978043347486457e-05 -1.1404975628513097e-03 3.7526056240517764e-04 1.5876255932426123e-04 -5.4695362782590344e-04 -5.8323137703595587e-04 2.5286886028559694e-04 -1.1745149348641737e-03 -9.2376602049223672e-04 -1.3009988580197715e-04 -6.5848357708022959e-04 -3.0383351436113335e-05 3.5954085517572292e-04 3.9024350710711929e-04 -8.4608433311530768e-05 1.2035982245478961e-04 -1.1344685300294233e-04 -2.6325322369605709e-04 -4.7283932552228222e-04 1.8439014562095929e-04 4.9881312117782501e-04 -4.3728800941833512e-05 -4.4040643213160997e-04 -1.1503287143099679e-03 1.8143504040869524e-04 1.1930633301855976e-04 -9.1771467037179326e-04 1.1340580466315149e-03 6.3558703934689549e-04 -2.5593945452961095e-04 -9.5798508475394839e-05 5.4018229676507394e-04 1.1029154568223095e-04 -3.5914624028779820e-04 3.8329454065003446e-04 -2.3017983274217224e-04 -3.1662988557657531e-04 8.7864457708869935e-05 -1.4828440370994117e-04 2.6190137412020892e-04 -6.5756832047628860e-05 2.5806001055972329e-04 -1.8034530114005992e-03 -1.0852902016801527e-04 6.7805050865460056e-06 -4.2454273868215622e-04 1.2031361366416846e-04 9.5290053129632509e-04 -2.3811719604327746e-04 3.5511728359961976e-04 -3.0800390777372712e-04 9.2894181258011124e-04 -2.0560658783796808e-04 -5.4362157843748844e-04 1.8583461145135760e-04 -7.2725568738876006e-04 4.8775908958932938e-04 6.3195021001714868e-04 -1.8054592965220612e-03 2.1376776199693442e-04 -4.8538122709180457e-04 -1.9916071908628419e-03 -6.5335587604370676e-05 1.7303204535779743e-04 -1.2307571842231357e-03 -1.0518321297038613e-06 3.9529107007963554e-04 -8.5228606635445563e-05 -1.5240737035070878e-04 1.8553153404877098e-04 -1.0241754094335465e-03 -3.4486963091431497e-04 2.8919358259988336e-04 4.9159997110338565e-04 -2.4004063796956461e-04 2.8258793111075962e-04 6.9618990178173766e-04 -5.8375522145820164e-04 8.0859234806039378e-05 8.5717623936168810e-05 -3.7760804103597581e-04 -8.4064720160940119e-05 1.4425967017946286e-04 -3.8212773659760182e-04 3.0594955280719045e-04 -1.5612091937709099e-05 -6.8129182750079119e-05 -9.3962941566922038e-05 6.8029200929847436e-05 -8.3714390963881636e-05 1.0046523723346312e-05 -1.6118159902958227e-04 -2.1251841773896210e-04 -7.1088081311366895e-05 -2.2446848253494057e-04 -2.2455606639950904e-04 -6.9839955841981185e-04 -3.2930087582138832e-04 2.6021378705701052e-04 -5.9977754213388825e-04 1.4595565720450145e-04 2.0658196877762635e-04 3.3567370871997104e-04 -1.7254024059504686e-03 9.1291190050583632e-05 -2.0081137718961067e-04 -1.1525632150654653e-06 -3.7227297896906189e-04 1.0921534794716356e-04 -7.9155700806261625e-05 -9.0735618757951659e-05 -1.0855156076625605e-04 8.5891292700519416e-05 6.3884964500300048e-05 2.8664406167772962e-04 -5.3856374109415863e-04 2.0061577799154262e-04 -1.9623917501099193e-04 1.4054096772309667e-03 2.9337239659017826e-04 9.4281055269111161e-05 -1.0901378395608552e-03 1.7064702110313901e-03 5.0251645240528072e-05 5.3775363731197584e-04 -1.1508642509099702e-04 -1.7649771803047656e-04 -2.7188187630785361e-04 -2.1822590725859513e-05 5.5895837869728709e-05 -4.4710479555901239e-05 1.5077606790275076e-04 3.3748936924486755e-04 7.1208021266681376e-03 -3.3999239623068033e-04 -1.3245602702116478e-02 1.8818295839986680e-02 2.0222768767335919e-02 -3.3945137619061996e-03 1.6927821195430702e-03 -3.7868920216277183e-03 3.2689987077607861e-03 1.3220077190106293e-03 1.4553696397909266e-04 1.9570263470947364e-03 2.0835452532750277e-03 4.8637233870817446e-03 1.0644850284972417e-03 -6.4034910472151770e-03 8.0511698772599760e-04 -3.4582439269741495e-03 1.2854876852725494e-04 -2.8521848742401538e-04 2.4672435429465007e-04 2.2072154832791942e-04 1.0766901249297970e-04 -9.3194206702650203e-04 -1.0363556849786598e-04 -1.2392880894179268e-05 4.4156211683872679e-04 -3.0683858542836099e-05 3.4455164515117382e-04 -3.3665813843435633e-05 -6.6689536354172852e-05 -1.6302061003378157e-04 -6.3212866342303767e-04 3.3980395040554193e-05 4.1752002295643309e-04 -4.1578733188945945e-05 -1.9406505708547355e-05 1.6162633421088442e-04 -1.3071465387464419e-04 6.6421964762929965e-04 -2.3805159522794980e-04 2.0544780165798358e-04 3.0203274097582804e-04 -6.6076101719392873e-05 -3.5528517684637294e-05 8.8370245238035029e-04 4.5286751685323645e-05 1.2198739597527530e-05 4.4821016236214802e-06 -1.1350907461443911e-05 3.6328947679790453e-04 -1.7975602511142516e-04 -9.0490125102110646e-05 3.7765784651972237e-05 6.6886751221254442e-05 2.7591902786338403e-05 2.9203885733238683e-04 1.8860492286850578e-04 -1.1079061457359058e-03 4.0756474470691242e-04 -8.1044269890246360e-05 -1.1748062276122019e-03 7.9908462078227794e-05 -2.9985346339302478e-05 -7.2867390194910524e-04 5.1101398325927852e-04 6.0798546643019299e-06 8.0689272303895252e-05 -9.1284643766565028e-05 6.9512160770022439e-05 -6.3170656124871037e-04 -1.6617076252193694e-05 1.1900572470160804e-04 -1.2248000166770133e-04 -5.6460532250549161e-05 -9.8821279988293612e-05 3.4485092146095036e-04 -2.3539320142551123e-04 2.3780041923170707e-03 -7.2932256736461462e-04 8.9491048805168138e-04 -5.5455487439849758e-04 -3.2900245019225799e-04 -2.4614616579475695e-03 5.2656318277087971e-03 -1.5493477806600639e-04 -1.9206906125386440e-04 -8.7593330383201658e-05 8.7904882572487520e-04 8.2075281997153447e-04 -1.9946602929539234e-04 -7.7713413976084403e-05 1.6470171672418804e-04 -1.5705115158739944e-04 -7.9258622166770401e-04 -1.1208778451738022e-03 3.5969388302446725e-04 7.2821918948498944e-04 1.3054860907731640e-03 7.2926224679705030e-05 1.2598462426909685e-03 1.2738810582552510e-03 -8.8285539371918799e-04 4.5363833525308653e-03 -1.2149437903644293e-03 2.4070156174671696e-03 -9.8860861164081198e-04 1.9706045135514032e-03 -3.9931722160354332e-03 8.7875762606587913e-04 -9.8404271621119871e-04 -1.1127263350749622e-03 -7.5922483193292204e-05 1.7022834900150890e-03 -5.1506078088672611e-03 
      </Row>
      <Row Index="137">
        2.7350925444590479e-03 -1.8078238347399855e-03 -3.8357918743506317e-03 -1.9028262443956979e-03 -1.4378875374171079e-02 -2.0958527948822560e-03 -6.4209143342269792e-04 -3.6236023611291857e-03 1.0058704497425668e-02 -3.4690294209222656e-04 -2.2608072966310206e-03 -1.0918031648755075e-04 2.7770945774399387e-04 3.4766641570835397e-05 5.7403296963871517e-04 -1.3328945388526789e-03 -5.5901162399484916e-04 3.2882348279895945e-05 -6.2458963830520540e-05 -1.3284708704595742e-03 1.3554323631539723e-03 5.4461403453335694e-03 -2.1940122313076132e-03 -5.5759522945857398e-03 5.7793301750694998e-04 1.9006986194323078e-04 -3.9870452888571238e-03 1.5938217969227869e-03 1.6941176489539203e-03 -1.1220501648079428e-03 1.0536430891070619e-04 -1.5734233483940697e-03 -5.4126572758882077e-04 2.9027339931527417e-04 -1.9896181298398458e-03 -1.4603141561592907e-04 -1.6251004081692579e-03 -7.2661670456887484e-04 -1.8671024424680438e-03 -6.0039732445360539e-04 1.1638097973612399e-02 -6.3819236869169793e-05 -1.4247740709303222e-02 3.1945757556803983e-05 1.1029436259420849e-03 -2.0885798609835832e-03 3.2253973338919606e-03 2.0171785055185520e-03 -1.7234301839134242e-03 -8.3380529794199049e-05 -7.1461161266001688e-04 2.1484722442080204e-03 1.3425246409451558e-03 3.1398690926123110e-03 -1.2377178340340494e-03 3.6059724480179390e-04 4.0167492323289408e-04 -5.7968109506964516e-04 -3.7245245485167900e-03 -1.8362777276872827e-03 -3.2133497560932200e-04 -1.3542337641753419e-02 -5.5845461809219191e-04 6.6110513036418683e-04 -2.0050587917726237e-03 -4.0108923655111234e-03 1.2754815980025869e-03 -6.7307703811702972e-04 -6.4015651504913725e-04 -7.6458991166291485e-04 1.9637307511281435e-03 1.7336243234599841e-03 2.2069371605655599e-03 -1.4487197262959750e-03 1.4384744568643366e-03 -1.8348035462678672e-03 1.5730762835258899e-03 1.5211210896144967e-03 1.1024041469719359e-03 4.8957617643962444e-04 2.4501204752287141e-03 -9.2382548711487879e-04 8.0339543847681892e-04 2.0862246487417246e-04 -8.3168422174666190e-04 6.9564919363288014e-04 -7.2785717285987414e-04 -1.3247853700957060e-04 2.5063274740756269e-06 -1.5156580525322906e-03 2.0057995993110573e-04 -1.6588346013498897e-03 2.6674518369459652e-04 -8.1427566615565293e-04 -6.0968542918546668e-04 9.8790332458430913e-04 -2.5813253457187962e-03 7.1712875615042269e-04 -1.8152952826647499e-03 6.3705611284109662e-03 1.6131980088732456e-03 2.5308258500657695e-03 -1.8805916071052142e-03 -1.1853290439874833e-02 2.8685158655373209e-05 3.9252170182441190e-04 -1.0557947176743855e-03 -1.7465928262660618e-03 1.4860618310053235e-03 -2.8681787485332366e-04 9.8567484806644408e-04 7.5852455089331014e-04 5.5920772791537374e-04 -7.6444899807309556e-05 -1.6215762620984371e-03 9.6296974925029998e-04 1.0554457513081081e-03 2.4385904615549007e-03 -3.3759965270052173e-04 -3.7443138034292506e-04 -6.4075408891844520e-04 -3.1317174660518807e-03 2.6660825696843207e-03 2.2842213179329936e-03 3.7170704458537476e-04 1.5360261101891762e-04 6.1002061776206900e-04 -2.1695630485756272e-04 4.9708845017692408e-04 1.0791437179742611e-03 -1.0645690616243567e-03 2.8295087378683425e-04 3.0208140122124985e-04 -1.0956968179542113e-02 -3.1581996704979371e-03 -2.0653159346774825e-02 2.0222768767335333e-02 2.9999427519039606e-01 7.3069428160957468e-04 7.1087270079821657e-03 -9.7054698324143002e-03 -7.8222532202575523e-02 -2.9225748816752332e-02 6.7942094697742176e-03 -9.8424383138353277e-03 -1.9703848104376974e-03 -4.4378796104467145e-03 1.6931834632969525e-03 4.9450555818556395e-03 -4.8966408710935643e-03 1.0874542127755332e-02 -1.9745342256298860e-02 -2.5205951606993961e-04 -2.6710116420428018e-03 3.2911237130385552e-03 -1.6678159676993809e-03 3.5303470233392815e-03 -5.6103596465817581e-04 7.1450267788232503e-04 4.8935588334799492e-04 2.9631900537979445e-03 2.0687356515842335e-03 -1.1288519714882949e-03 1.4876930886997537e-04 5.5985678908314785e-04 -2.3068655969701903e-03 -2.2076471269219652e-04 -1.5415663084869108e-03 5.4483105207438979e-04 -1.0568875865466312e-03 -1.3299019096407682e-03 2.2600972128508645e-04 2.2617691664944270e-03 -2.9568566373817939e-03 -3.3950081677266986e-05 -1.7495949219614438e-03 1.9270968932462306e-03 3.1478613000663486e-04 2.4560606332844417e-03 1.8982750093827563e-03 1.3704270170133573e-03 1.1672376812707505e-03 4.5816620249427946e-04 -1.8722686932033977e-03 5.5056465618084569e-04 -3.2713992634676920e-04 -3.0773004500452006e-04 7.8335067460845345e-04 -2.8275083180075600e-04 8.1871657769915472e-04 1.0155343388812410e-04 -4.2069688616542091e-04 -1.8998551329275123e-04 -7.5890307144240864e-04 -1.1785462222697050e-03 1.0527089249866143e-04 4.1701486211840661e-04 -9.4176062345645078e-04 -9.6627308084258016e-04 1.0860415740602777e-03 -7.5238655810423802e-05 -3.9180738774255002e-04 1.4272599798222248e-04 -6.0418732654845533e-04 1.8164301548291085e-04 1.5454340450034275e-03 7.1445105948652081e-04 2.0553473448824946e-04 4.3685243121044956e-04 4.2303449602500787e-03 1.3020553961327744e-02 -1.9258785006950573e-03 6.8670685374068252e-03 -3.8373904291167493e-02 -5.4407934856209568e-03 -1.1357767280392589e-02 3.9197119138188411e-03 3.3426037947605153e-02 3.0295234930842042e-03 -1.8623847102973924e-03 2.3204296879963601e-03 3.9233023222763948e-03 -2.8379336348010797e-03 3.0376305889896959e-03 1.8491757185039575e-03 -2.4771345770609001e-03 2.5381537873166351e-03 3.8796913080397935e-03 7.2710919203864653e-03 4.6440235886172458e-03 1.9071211863127463e-02 -3.9512932328270682e-03 2.3427070736868525e-03 2.1649779502692567e-03 9.2821772190531115e-03 -5.4946721725245840e-03 2.0625696957782422e-02 -2.9053484934698452e-03 1.0319629050528457e-02 -2.5653849881418552e-03 -5.6471786761931432e-03 -1.7412810319393859e-03 -2.3414708417709303e-03 4.1607289619796008e-03 3.2095057531007377e-03 2.4810232701689451e-04 -4.1609228549388654e-03 -3.2515230924370739e-02 
      </Row>
      <Row Index="138">
        1.0029952492858195e-04 3.7384780282258626e-05 7.2750530610459115e-05 -7.6096061034611878e-05 -4.3685799860907273e-04 -6.9767847107411458e-04 -1.4548503411431716e-04 2.0458349881755968e-04 1.8642863074294176e-03 -2.7424621519807829e-04 3.5898863238517805e-05 -1.6341706846160947e-05 -4.9809356003469946e-05 1.1621364546778368e-04 4.0296941324065674e-05 -1.0056076990123172e-04 2.1046254248023068e-05 3.7529561144219320e-05 4.0524479389890666e-04 -2.2460529793551448e-04 -2.3407800988970925e-05 -7.7852175502004378e-04 4.3387215405008472e-04 1.1516433355712730e-04 -8.0029400846683661e-04 1.6427082102854135e-05 -3.3100439526340987e-05 1.7710817216711177e-04 -7.8320626170857825e-04 -7.0739693832277874e-05 1.1746342105537801e-04 -3.0022106074214670e-04 -9.7209354803769546e-05 2.0941906056313130e-04 -2.3149514227413862e-04 9.5109401812652528e-05 1.9530794832157321e-04 -1.5068864201881957e-05 -3.7394486546758277e-04 -1.6427525213806582e-04 -7.8798271074625309e-04 1.0125916116305970e-04 -2.9368315516682328e-04 -2.7162470253713940e-04 -1.6487865719346396e-04 8.0548687552230245e-04 5.8269800152227144e-04 4.5385363347865120e-04 3.8570122335268575e-05 -2.9479738225643946e-04 3.3195804983065288e-04 -3.4657934534029246e-04 2.1153011201794063e-04 -4.0331768078370983e-05 -3.0667750537477501e-04 1.3397480528241459e-04 -2.0024650190438552e-04 -2.6929462228705153e-04 1.3267420454457846e-04 -3.5113162146428040e-05 3.9137464171120620e-04 3.3546560046607244e-04 1.2209649003957351e-04 -9.6527716843850669e-05 5.1794863050075302e-04 2.0513953307396120e-03 3.0411517698572879e-04 1.1315576549978008e-04 -2.4161575294169026e-04 -1.3464681212275141e-04 -5.0030964641617970e-04 1.8186956631629364e-04 -2.3324196637455538e-04 -1.9831228649363304e-04 -1.2471590206773958e-04 1.8967342883711817e-05 2.5841196739554394e-04 5.6218031215586432e-04 -2.5120175951816575e-04 2.6227999933195630e-05 -3.9888028005758899e-04 7.6992720133970397e-05 -1.2783181400830606e-04 3.4814555482091947e-04 4.3564754189611907e-04 -1.1469211944232366e-04 1.0193300167475269e-04 3.1611537719735024e-05 -2.7915773496460912e-05 4.3992591716488492e-04 4.5688170597567811e-05 -1.0422605728515970e-04 -2.3826062813057827e-05 1.7717732424853702e-04 3.8266759962212967e-05 3.4959190038265971e-04 4.5941826500491304e-04 -7.6610452020308675e-05 1.4905837449562774e-07 -1.2326840137251351e-03 -6.3812965126430385e-05 -4.3064779865715049e-04 -2.8124636969663721e-04 2.0602636721819834e-03 -4.4355327464903123e-04 5.2083595629209945e-05 -1.0632681418389828e-04 3.5595688720694175e-04 8.1461834404976115e-05 -6.7073561744887382e-05 -8.1352202262826743e-05 1.4570380911514691e-04 -1.0147306486434809e-04 -3.4415429532192826e-04 -2.4543477058487900e-05 -4.3734833312456716e-05 -1.6305199928233179e-04 2.4060895272887996e-04 2.8192215260030016e-05 -1.0891160385243754e-04 -5.4950804242301994e-05 -8.0154797333788653e-05 -1.2085497723888141e-03 8.6264214986370841e-05 -1.4059292134260484e-04 4.8434474633231512e-05 1.1437727361759525e-04 -2.8638697701848263e-04 6.4369719544463312e-05 -2.2278679078913122e-04 3.3012961232913160e-05 -4.1825142176568099e-05 -8.1409209255611814e-05 -3.5415339124973263e-03 -3.2638631478400541e-04 6.6955810551656803e-04 -3.3945137619061914e-03 7.3069428160908723e-04 8.2781891893344787e-03 3.0653623336481591e-04 3.7674940593508876e-03 7.8779367605112914e-03 3.4254226311110298e-03 2.8329443513455373e-03 -1.1838651567641595e-03 3.9755878058935325e-03 2.2612899913503123e-03 -3.5223280321823000e-04 8.4298215434617228e-04 -4.7476691589787051e-04 1.4571788857502916e-03 3.2696188954887506e-04 2.8752909137351977e-04 -7.3729400460655059e-04 -3.8495865247262315e-04 1.1016843179661193e-04 -4.6923780699512454e-05 -1.8214197551038301e-04 3.2403417384984676e-05 4.5612959162713118e-04 -2.3616805966962962e-04 4.4985880967271280e-04 4.9980797006586921e-05 -6.6688003907324323e-06 -1.0174420600830993e-05 2.3541454250472412e-05 -4.6122460504574811e-05 -1.6677875986417792e-04 -6.4155337004040950e-05 1.0988737873139287e-04 2.9865443853308910e-05 6.3859523180009176e-05 -5.6603392969307499e-04 3.8307711907201863e-04 -6.5973986992890507e-05 1.1075808707673833e-03 2.1753753046429670e-05 8.5433099887835193e-06 -4.6898275089556594e-04 -2.0797844848485098e-04 -5.8969243765435585e-04 1.0104513268312595e-04 -9.8408645696815376e-05 -3.7690171794212802e-04 -9.7318082446269422e-05 -7.1182361878458200e-05 4.3343616859840145e-04 1.3868855779139617e-04 9.3150026906443478e-05 4.0989144990542098e-05 2.0377842987380143e-04 3.4626518666616701e-04 -1.1240938410775927e-04 8.0119238948865424e-05 1.7511707743215495e-04 1.6692099523697655e-04 3.7892116814618697e-06 -3.6571278389583520e-05 6.6405922961742690e-06 2.0414878804299116e-04 1.3998348758445945e-04 -6.5712681575293597e-05 2.7522230228523042e-04 2.4203941845984966e-04 2.4052342644458697e-05 -1.5459489007175689e-04 9.7729383803683644e-05 1.1100416474330360e-04 1.0750749182564958e-04 3.0839153173220350e-04 1.2824076255863641e-05 -8.5057665984548741e-04 3.6574215506436885e-04 1.8215236144526685e-03 9.7862438443266624e-04 7.6402973626744876e-04 8.4027735903397275e-04 -2.5133489782443917e-04 1.6844014657970091e-03 3.0542866992957064e-04 3.1836633970078009e-04 2.9443780782517837e-04 -1.6389865474632454e-05 4.1502353860310676e-04 -2.6793854993917461e-04 1.8818773709995812e-04 4.8960956633638556e-04 1.3333428926259072e-03 1.3688929878692357e-03 1.2687163163253266e-03 -1.2501082770710876e-03 1.4088608777128569e-04 1.1765291521319953e-03 1.9335707539191291e-03 -2.9150584610288122e-03 -1.5783345592825836e-03 -4.0992191951669376e-03 -1.9141383880350584e-03 2.8972337580876896e-04 -6.8490033361107193e-04 -1.6492778815072958e-03 -2.4538630000668768e-04 -3.2334935866522709e-04 3.9814914450735697e-05 4.8651716766936332e-04 -5.2756681812415494e-05 -4.9468969496854298e-04 6.4488715449684568e-03 
      </Row>
      <Row Index="139">
        3.3940189155299817e-04 -4.4331937340489139e-04 1.0751367077292597e-04 1.9577453558892511e-04 -3.8048902488991079e-04 -3.2987779756776109e-04 -4.1151254945312596e-05 -3.2498403714565499e-04 -1.6263247427484966e-04 -2.0939727037707159e-04 1.0925443769818784e-04 -3.4125338154963804e-05 8.9029103359847635e-05 1.3531895820891810e-04 2.7823869309097642e-05 -2.6339554923107689e-05 -4.3199640202148121e-05 -2.3535177805558563e-04 -3.9496216509282175e-06 1.7544417251840264e-05 -2.1267572960910258e-04 -3.7140992581913279e-04 8.7547921567114823e-05 -9.7592726231160790e-04 -1.2903748905256432e-04 3.0395191096329105e-05 3.3821363894536317e-05 -9.0770897783648205e-05 -6.8842779786123555e-04 1.3865948213577462e-04 -3.6739799201497558e-05 -2.5748838856697487e-04 -1.2044238565555291e-04 -4.0746883290083361e-06 -1.9582198916027679e-04 9.5217446654452011e-05 1.1849020397823899e-04 2.6080281728484665e-05 -1.7965142708807223e-04 5.2493652302799954e-04 1.2260875339416624e-04 2.2671265002771179e-04 -6.1168961926432244e-04 -1.3166296023270439e-04 1.1306655725963274e-04 1.5084920829707641e-04 -6.5941000332047847e-04 -1.6858621731398894e-04 -4.9009208897722069e-05 1.7618395619400061e-04 -3.7253844062393182e-04 2.4946019772237749e-04 7.1633927025391113e-05 -3.7100086367055848e-06 -1.5245094379755589e-04 -2.1863478236950847e-04 -7.8396395026793936e-05 1.6233804537325869e-04 -1.6954377833375376e-04 9.7000922370062137e-05 -1.8414020993991718e-05 -3.1040721885069143e-04 1.0460454253856128e-04 3.2091163394582997e-04 -3.3999270202937637e-04 -7.3910797923279828e-04 -4.0573915379843450e-05 5.1499483113706147e-05 1.8306254870201829e-04 -3.0221549690016575e-05 -2.4362547745142922e-04 7.7910132573241059e-05 1.6808779045444401e-04 7.1841108015495750e-05 -9.7261868603962373e-05 -6.7484613844513881e-05 5.6697109831561898e-05 3.5097294044079703e-04 -2.1701800699923737e-04 5.7863668875033118e-05 -4.4384050412455724e-04 -8.3401991166256773e-05 5.0563280798771493e-04 1.4249947828758741e-04 2.6930614924644894e-04 2.9512970525068932e-05 -5.4302252677288377e-05 7.4804017282899000e-05 8.1809426172450725e-05 -1.6923504369890561e-04 -4.7685453809916513e-05 -2.5094562038051002e-04 1.8161439133882547e-04 2.2068019263518819e-05 2.8315743495255165e-05 1.7534620981867269e-04 -4.4972339462715991e-04 -2.0033187263821678e-04 -5.3459472818999073e-05 -1.4707526571162439e-03 -6.0361846613554314e-05 1.1763499285331119e-03 -1.2856965104481683e-04 -8.7104449191566409e-04 -1.2410358767044570e-04 -1.1483224446523494e-04 -1.0190963790761667e-04 8.7491194454775747e-05 1.5291052865265293e-05 9.1982598899032473e-06 -1.0842048015485882e-04 2.2154547556701792e-04 -5.5372466846016094e-05 -2.0739865687891804e-04 -2.4074639960527152e-04 2.9163420234387932e-04 7.2974243478669473e-05 1.8240083881473890e-04 3.6135717711019636e-05 -1.1123895657808014e-04 -2.4603308348074792e-04 5.2447851018372674e-04 3.3392894900030959e-04 8.4337006544709574e-05 -8.3136657302584349e-05 6.4029155032609478e-05 6.6805579193136860e-05 -1.5202459127533800e-04 -1.2224852144273731e-04 8.6947072901227135e-05 1.0603890494818139e-04 3.8442811103969488e-04 2.1205468383837984e-04 3.1947531828262741e-04 -2.2867477851738339e-03 -8.8502939793348582e-04 1.6927821195430257e-03 7.1087270079820339e-03 3.0653623336484204e-04 5.4396079780809001e-03 1.0283114706894150e-03 7.9892221646059945e-03 -2.1360047883689183e-03 5.3235981196103318e-04 8.1933199571502646e-04 8.5649918209117042e-04 -1.2987532079696536e-03 1.3090837468857195e-04 -1.5662430537440836e-03 4.1239854790046308e-04 -6.2268577071063549e-04 -1.3631635482876897e-04 -3.5681208506558107e-04 -4.6847302813342754e-05 3.7131156806944444e-05 1.4950705611676182e-05 8.3917040547212265e-04 7.2543746589743126e-05 1.6909066419170562e-04 -1.3323800456299184e-04 3.7362978409404094e-04 2.1320344726752477e-04 9.7014194540048922e-05 -9.3185547580736447e-05 5.9801011584284481e-05 -3.5199538786097112e-04 -1.9566772761344425e-05 5.5904428555982949e-05 8.1215814199796072e-05 -3.7464057778848342e-05 -8.4086827826819929e-06 3.1351187564180628e-04 -1.6414042753187634e-04 6.5068284865729686e-05 -1.0436819499836308e-04 -1.4281933133083967e-04 7.7593655313571786e-05 -5.2148786164146060e-05 -4.2595103692862762e-05 -2.6694265080315013e-04 -9.4881385946632998e-05 1.4312244785464496e-05 -1.3009583429745078e-06 -3.3840777164783459e-04 6.2116732702079483e-05 -1.0264683472895415e-05 -9.2846244008785994e-05 2.0607926697278543e-05 7.3708093764968168e-05 2.4049356910590871e-05 -1.3116334363543446e-04 -2.7525634677733697e-04 2.4706945689921891e-04 -1.2617806832786334e-04 2.4847088122936822e-04 1.1193872408063856e-04 2.5037726978204835e-04 -1.3259083898958844e-04 -1.9892496828121119e-04 8.6847569098616096e-05 5.9100891440488748e-05 -4.9768344302830944e-05 1.2566768731143388e-04 -2.0731131059172254e-04 1.0951392468135212e-04 2.1494510838473475e-04 4.4983116087016952e-05 -7.7204705117966688e-05 -9.1406996234846989e-05 -1.3860293271094259e-04 6.9134740521891087e-04 1.3891961521564473e-03 -2.2395742792901600e-05 1.2294797937198688e-03 1.2391960629851380e-05 -3.9679378829092903e-03 9.4191330528855025e-04 -1.2810797445117620e-03 4.5309534492785899e-04 3.1608555379716743e-04 7.6431287766186816e-05 1.5609155636375804e-04 4.4692572827186163e-04 1.8523363946033319e-04 8.4484630924010727e-04 -3.0524077677604911e-04 4.1804015917030330e-04 5.7092973857275880e-04 1.5788835986632480e-04 -2.1440811947142984e-04 -7.1801181169770293e-05 4.7425061876817424e-04 1.8872105727686197e-03 6.1152897455425508e-04 5.9727855636055108e-03 9.8238601949627181e-04 1.1456843002966624e-03 -1.3010422360867251e-03 -5.8017912620989020e-04 -1.9527627864460024e-04 -1.3750655038668300e-03 -1.8911331092316581e-03 -2.5980209577266086e-04 3.6179160117999942e-04 5.6741205884223577e-04 -1.1570648277610235e-03 4.6382187908417254e-04 -5.9965883005345545e-03 
      </Row>
      <Row Index="140">
        -6.9118182631162104e-04 5.0152770536894126e-03 -1.8510639709752533e-03 -1.6447387385287676e-03 -4.3194311730595548e-03 6.0343737618534336e-04 -3.5933224868410192e-04 -3.9462581479981218e-03 -1.8786977097360923e-03 1.0864791039029756e-03 -9.4280245368329023e-04 4.1948536101378987e-04 1.8228713588592542e-03 1.0684992335188836e-03 -4.6377166920243259e-04 -2.3963684870504272e-03 6.1070448924849664e-04 -6.8486227117710470e-05 1.3130394744381951e-03 3.2520231811532328e-04 -2.3536799452569188e-03 2.7489244688892363e-03 5.6456456153447347e-04 5.2118688172189606e-03 -7.9677202975250976e-05 8.3050309432145149e-05 -5.5456140182634298e-03 -1.7988090298470677e-03 7.0253854888036472e-04 -8.4352267690498105e-04 4.6920116945846704e-04 1.8149836819143057e-03 -3.6298798645911388e-04 -6.3051658685682943e-04 1.1357004604189772e-03 -2.3838583127277937e-04 3.3579210116322158e-04 6.7717214143785641e-04 -1.8102260106675179e-03 -1.1761245439738388e-03 3.9305606968350892e-03 1.9381045221871646e-04 8.0858829481047362e-03 4.4641830712243563e-05 2.5205554188733464e-04 1.0302816653988545e-02 2.4911019500114505e-03 -3.1237844867159671e-04 -1.4792012647001605e-04 -6.0616516778864635e-04 1.0659376433765546e-03 -1.5330999925589270e-03 -9.2459296332256594e-04 -2.1437104128130833e-04 1.8565454405653214e-03 -9.7235048047259625e-05 2.2196695294196631e-04 -5.8001564655857374e-04 6.1777158290078687e-03 1.8818900717960368e-03 2.1017949358654803e-03 5.1210142703559331e-03 -1.8932829286412781e-04 -5.2739147375557155e-04 -2.9514015796598680e-04 8.3425852278641369e-03 7.3211544126023861e-04 -5.0328952011301047e-04 -1.4076765330801545e-03 -1.2666920942266263e-04 5.6333455185225128e-03 2.2189050842522789e-04 -3.2513272031006214e-03 1.0611755331264893e-03 -8.4723748323116193e-04 -2.7433549570094092e-04 -1.1511802757769724e-03 1.8977828567121862e-03 7.1749985498438616e-04 -6.7539592323896821e-04 -2.4639127833652732e-04 3.5007012799817349e-04 -5.5883918725171434e-04 1.0405441334274054e-03 -1.8601002947643344e-03 -3.9362355063401328e-04 2.1116833359017899e-04 1.3611767911920558e-04 1.2515975094488691e-04 1.4603196880149895e-03 -3.6099376650668537e-04 -4.0280180820860198e-05 1.2912785261923166e-04 3.2451960057881856e-04 1.9240458768653504e-04 -1.7446545844462032e-03 3.2848462226508831e-03 6.9315676803472989e-04 5.8270686193349908e-04 1.8100571415696071e-03 -2.6794041523134295e-04 -1.8034409505338857e-03 2.6019310666579422e-03 3.0968296224843719e-03 -1.4567068556601420e-04 3.2817831324755641e-04 3.4293528816258114e-04 2.5260858092128371e-04 1.0350568278178060e-03 -5.5153837979849633e-05 -3.4855080138964344e-04 -3.1416964967112375e-04 -1.0051463249512371e-03 -2.9350823285530236e-04 -1.8304803765697422e-04 -3.2295864377498147e-03 1.7053320333933284e-03 6.0018759359666842e-04 -1.6208744003949060e-03 -2.9943712698987733e-04 6.7540902474217475e-04 -4.3710920852411128e-03 4.0586244205286642e-05 -9.0686981808737631e-04 2.3661869265573243e-04 5.0877209478849780e-04 -4.4999147551419752e-04 -1.5669696042111591e-03 -2.6349548186892853e-06 1.5685902282895278e-04 5.8496194857704303e-04 -4.0895527502153714e-05 2.1922696876535840e-04 -2.5934013570103925e-02 4.3720083880917256e-02 1.5849672562252108e-02 -3.7868920216275349e-03 -9.7054698324151294e-03 3.7674940593507796e-03 1.0283114706893491e-03 7.9650469263629009e-02 7.5228062880808629e-03 2.1599025751801015e-03 2.2483238659529855e-03 4.0314538259739593e-03 3.6499403614073125e-04 2.2900652027198513e-04 -1.3240973093329540e-03 9.6436283633142563e-04 1.2003684023418136e-03 -2.5414638412910582e-04 -1.7213083958012200e-04 -1.5299318451557206e-03 -1.0793729184632951e-03 1.2926734465983352e-04 -9.5966254859250943e-04 1.0502991182345664e-03 -1.7803252318764463e-04 -2.6365990869390253e-04 5.8588645077038053e-03 4.5308986811593520e-04 -1.1865441106983469e-04 -3.8759791707566866e-04 -1.0499977156519440e-04 -4.8460663195079882e-04 2.8734388954982813e-03 2.6828802738280050e-04 2.3041095465663262e-04 -5.3946702217673274e-04 7.4258209959694602e-04 -2.7755554021816162e-04 -8.4296745815576682e-04 -3.2265109023399095e-03 -2.7345805068692414e-04 5.0386665076179824e-04 2.0903321695145785e-03 -2.4713449715482749e-04 -1.4892077073493278e-04 -3.2269446419819527e-03 -1.8752427430649907e-03 -3.6058850329453713e-04 2.1401442907007166e-04 -1.0025644887286592e-04 1.1757836622584056e-03 -2.1283081869728521e-04 9.2571034326596299e-05 1.1197579672510977e-03 -9.2797703381620078e-05 -7.4890937274536666e-04 2.0131864495575701e-04 -6.2229247544565158e-04 1.9443811069957764e-03 -2.0196604549821764e-04 -4.9505001354069810e-04 7.0035138982566113e-06 -2.6158795248264422e-04 -5.3362701957577075e-04 -2.7993499038966602e-03 9.6420601274703303e-04 1.4580749410223674e-04 -4.2945850869531495e-04 -2.0223650061633824e-04 -7.4299566934618306e-04 1.0277577801210329e-03 -3.8978612285235254e-05 -9.6310649607836874e-05 -7.1284806813206572e-04 -3.2726449672586553e-04 6.6277451656022838e-04 3.3693785577590240e-03 -9.3483708074107198e-03 7.9142380579088896e-04 1.4487749973415686e-03 -1.7715043695267840e-02 1.7124364712471044e-04 6.2955238083297060e-03 -1.9030977613043233e-03 -6.0559744438342354e-04 -3.1509063096183689e-04 -2.8409270602942354e-03 9.8572137996799647e-04 -8.0830830168448185e-04 -6.8468540153316382e-03 -4.8112199785925946e-04 -3.1223174472435125e-03 2.7669818517526076e-03 -2.1854554115017097e-03 3.6868218481614524e-03 -7.2382232035323145e-03 9.7940202517055458e-03 3.6935715023788621e-03 -5.9254083173557372e-03 -9.1732877033462498e-03 -5.9220374305220692e-04 -5.9470813252004611e-03 -1.7933258064135350e-02 -2.4378730985313828e-03 3.7115128284381268e-03 5.9757459959372322e-03 -7.8788800672061308e-03 4.7968400083009720e-03 1.3828692593323075e-02 1.5951914175885147e-03 9.0792125654290921e-04 -2.5402110502149551e-03 -1.4750056558133023e-03 -2.5260608346342897e-03 1.3330761185105370e-02 
      </Row>
      <Row Index="141">
        1.9867869673658844e-06 -2.1874476278626320e-03 2.2439064000553260e-03 1.9013233485961250e-03 5.4320409464669109e-03 5.4850290188714068e-04 5.7606636212224373e-04 3.6398009101916984e-03 -1.2074133645395183e-02 -2.0231015379144545e-03 9.0537695391186383e-04 -4.2900617559798277e-04 3.4436002936188699e-04 3.6478376893027517e-04 -7.0150600075054564e-04 -5.9180685953166834e-04 2.7419004338643041e-06 3.1952593694594897e-04 8.6682404597422473e-04 1.9480533286687883e-03 -2.4614094909424095e-03 -5.9835640335848816e-03 2.3130403694601150e-03 -4.5930031398049298e-03 -8.3756514194925462e-04 5.1150702092797649e-04 8.4275915417498723e-04 -8.1848915885296900e-03 -3.8589123412736959e-03 3.4936719376342518e-06 8.2828898355410963e-05 3.3575698259568016e-04 -2.0081795081976998e-04 -1.6859575457617640e-04 3.7210570940447996e-03 -9.4269093722684294e-04 4.1306914100082068e-04 1.8507994478308282e-04 9.1502100342132596e-04 1.6233703410831191e-03 -7.8868696560858986e-03 4.6892644301206599e-04 1.3014754392377814e-03 -7.7550608944042254e-04 -8.6637879367058163e-04 -3.7767408457878432e-03 -1.3285291934393539e-02 1.0008392976677896e-03 6.3024577348727573e-04 3.4001107300757338e-04 1.0754708519853384e-03 1.9350963238379953e-04 -2.2956078834199881e-03 -4.4484990232904406e-03 7.3979021057346550e-04 -8.5913760535540279e-04 8.6091906706379021e-04 2.5670359262526254e-03 -1.9899857862648801e-04 1.0181323320184524e-03 8.4820568866951496e-04 6.9700417040903222e-03 1.3929686440955283e-03 -4.3614225978122478e-04 3.0225839120155418e-03 -6.8211796822910398e-04 -1.3101429196811509e-05 1.1663619368403946e-03 1.0214769400331801e-03 4.2494832276193661e-04 -1.7058759862497285e-03 -2.0750834290252651e-03 2.1381304245480237e-03 6.5202959735358515e-04 -6.6831422969544814e-04 -1.0285199148175328e-03 6.9271498234217688e-04 1.4612113292546830e-04 -2.2907704876981017e-03 -1.4768804166601915e-04 -4.3412083990984410e-03 6.0093822433624280e-04 -4.4837227803635679e-04 -1.6005940063434088e-03 1.1298469972126357e-04 -7.1060596066262194e-04 3.3223789459398828e-04 1.1785448310286384e-04 2.2009402216242521e-04 3.2216139651393937e-04 -1.0967085143186259e-04 4.6073601551893315e-04 1.9283489668694628e-05 3.0351855014322873e-04 6.2482407793244907e-04 4.0272354775134633e-03 -5.8984728161841013e-04 6.3548378504630189e-04 2.4316328181062004e-03 -4.5384644157349524e-03 -2.0253522778519283e-03 -1.7660164006215585e-03 -8.8149953499424075e-04 1.8239165008560210e-02 -2.4346203716903575e-03 -1.4622525032819231e-03 2.9099862200520276e-05 7.3905230173431291e-04 -1.1886435041572364e-03 -6.5734678342556710e-04 -8.6098366018542722e-04 -4.8770430413224569e-04 -1.9893315242326334e-04 -8.9248585136435677e-04 1.5913635364792292e-03 -1.0256435380026196e-03 -1.6469627815055912e-03 -1.6930577863595616e-03 -2.1217315731093360e-03 9.3409673687584044e-04 3.5619221742748874e-04 3.2566631604336767e-03 -5.7576734204528440e-03 -2.6387620690359031e-05 3.7228060868889845e-04 1.4144170080447778e-04 1.1231706764452953e-05 3.1290305846580664e-04 -4.8667477589674950e-04 -7.3581591190416407e-04 1.5713648038187698e-03 3.6176550169999752e-04 -1.3131799539303941e-03 1.9366883885972613e-02 -2.7255387778126833e-02 -2.1340239156758253e-02 3.2689987077610320e-03 -7.8222532202574566e-02 7.8779367605113296e-03 7.9892221646059303e-03 7.5228062880813634e-03 2.2619696491585159e-01 2.1492751027127339e-02 -5.4501425873322920e-06 8.8613376883065820e-04 5.5424567985719179e-04 -1.8610276537775219e-02 -1.7299539715591738e-03 -8.4666518957339891e-03 5.2785283238910730e-03 -9.4455603199493469e-03 3.8490885586034192e-03 -1.6984195742786273e-03 1.2919933087589598e-03 -3.3666556806796616e-03 -2.5084861059964151e-04 -3.8258757730578481e-03 6.2083865453805534e-04 -3.1251669749631937e-04 -1.3218815454418675e-03 -3.6559125769329973e-03 3.0107876007973117e-03 6.0616875346717822e-04 -9.6696250893115755e-05 -6.0666083771729589e-05 -1.4113688085693938e-03 -3.8568453356348638e-04 3.7965105640958533e-03 2.3415404209728481e-04 8.0092864089906322e-05 -4.0621046741220183e-04 2.5711144052322082e-03 -3.0033998010867667e-03 3.3251964973260717e-03 6.8647732621893946e-04 8.2901162017162931e-03 -9.4067740238054859e-04 -1.8054361513096528e-04 -2.8364686821396728e-03 4.7413142844932032e-04 -2.2363131886395382e-03 -1.5960635419842172e-04 -9.9524288415209564e-04 8.6106233111375111e-05 -5.2228575211805701e-04 -1.4018230713907479e-05 2.8834276573583284e-04 -6.7071067826791463e-04 1.4607905485166204e-03 -6.5628562853418254e-05 1.2608498972894455e-03 -2.8622583426714775e-04 3.6933963165491516e-04 2.0361584237018983e-05 -1.5977374615771841e-03 1.5271769070041225e-04 -3.8362770095653890e-04 1.3632251808857595e-03 -3.7207663461129433e-04 6.9312592755093965e-04 2.8032753850986829e-04 9.2517680993821713e-05 8.0549575718321666e-04 -5.1678086302407332e-04 -8.4615750738312970e-04 -1.5560224233537208e-03 1.3090762498634090e-04 -3.1575694482735594e-04 5.1843253149707214e-04 -7.2802468830647287e-03 -5.2436054899224751e-03 -4.8443142681504122e-04 -6.5581484309023153e-03 2.4780321330077328e-02 7.0832209340338436e-03 5.2983839343459949e-03 2.1461674212156280e-03 -2.5350697642744557e-02 5.7324392193188181e-03 4.8943303844197015e-03 -1.4424433346787724e-03 1.7126980550472692e-03 6.3959518876659004e-03 -3.0639433968704406e-03 -7.2231093060456403e-03 3.5191241498839848e-03 2.7907621601155246e-04 1.9476442509786642e-03 -5.5960953392657879e-03 -6.2663165460730315e-03 -1.3953653581969514e-02 2.2032322892231795e-03 6.4210329992758280e-03 6.7708939352569778e-04 -1.2519209091842249e-02 1.6020285447377970e-02 -2.8832550612082310e-02 -1.1271152933972224e-02 -3.0769673376667421e-03 2.2042748012764662e-03 -8.9138991974763973e-04 -6.3880187551813138e-03 4.4001373496850207e-03 -1.2583092266141368e-02 -2.3309220170672235e-03 -1.6558549710324177e-03 -1.9026702446666701e-03 5.1927439791660521e-02 
      </Row>
      <Row Index="142">
        -4.1399269166742886e-04 -1.9768059502062174e-04 -6.6794188032562665e-04 -5.5157782139871265e-04 3.0658914497531577e-03 7.6426335667285428e-04 2.9034867846341929e-05 4.9328428458548200e-04 1.0296491521289679e-03 -5.3338666669756614e-04 1.6884067594855805e-04 -1.8515491477070692e-04 1.2064155718534873e-04 -4.7158729805694147e-04 -1.8799607814728710e-04 -2.2840836774053359e-04 -1.3727003110258133e-04 6.2558363870874722e-04 5.9007061339444705e-04 4.8009888202960472e-04 2.6041180145824211e-04 1.7844167911888753e-04 8.3017727068349198e-04 1.3586311785027845e-03 1.4937492602972629e-04 -6.1757167337006324e-05 -6.0408848990678096e-04 3.6332848214031335e-04 -8.8482499250892377e-04 -9.3300559358348422e-05 -7.3212783778612775e-05 7.2480428726447849e-04 -2.2611285250666833e-04 -1.5091360233054603e-05 5.1239477110778461e-04 -5.2724778476075790e-05 -3.5432062107898597e-04 -3.5457024889031484e-04 2.6197528556274078e-04 -6.3853227411919677e-04 -3.7107678996677051e-04 -6.5048815412275737e-05 1.2862753036159275e-03 1.0919514324509057e-04 -2.6391899608027049e-04 5.4813988014425045e-04 -1.6574688594041057e-03 -8.9873621525251267e-04 2.2482535859231090e-04 1.6906420650799909e-04 5.1373657447495447e-04 -1.0517023285700521e-03 -6.3704653616849377e-05 -1.1432629990525244e-03 5.7094050984891898e-04 8.8167189087327445e-05 -5.9681291342807141e-04 -6.1864818912807373e-05 -5.2129760287684642e-04 -8.3968918576306228e-04 1.5285215955940920e-03 6.2504804558227191e-04 9.7641161043746788e-05 -2.1140576083056653e-04 1.0031183328621587e-03 1.5464860211524718e-03 -4.1567913472104374e-04 -1.7281553367337436e-04 1.9767364542598728e-04 -2.0740904758441338e-04 1.2474288178304697e-03 -2.7526517304444012e-04 -1.3412521157816354e-04 -3.0709083057150642e-05 5.5597983026194867e-04 -9.4254549779556121e-04 7.3781478826412394e-04 -3.1089862431217356e-04 -2.7085652084262932e-04 -2.3801924296827106e-04 1.3905419560835482e-04 8.9237464909296783e-05 -4.1404392639211277e-05 -8.0478189305650816e-04 -9.3111615201870584e-04 -2.1761326342865234e-04 3.6713531921193465e-05 3.6122753655201591e-05 1.6521260617364652e-04 6.8763891565475793e-04 2.5772109608542264e-05 -2.0282657858514824e-04 -1.8116792909520949e-04 2.1003001336839270e-04 6.5076511617784662e-05 9.4661836543608047e-05 2.6564950852711426e-04 -7.9684180154973572e-05 5.0326913424477435e-04 -2.0338726147951670e-03 -2.4649022750948026e-04 -2.4994765197609587e-04 -6.8679135109018293e-04 4.0318524513123233e-03 -2.9693027843567853e-04 1.8974456890995156e-04 2.3665294992407539e-04 5.6250988756315523e-04 -2.1219689575569791e-04 6.0207538073138727e-05 9.0893328020679072e-07 -2.6395478937038313e-04 -4.2128506234259970e-04 3.1152178803984349e-04 5.3037304074480477e-04 -3.8733155047099483e-04 1.9073086759978201e-05 -7.0811147365555004e-05 -6.7778902813945847e-04 -1.4047385894254744e-04 4.0945138504924376e-05 -6.2749495504665432e-04 -3.8674167843135415e-03 -7.4474920171134929e-04 -2.3260069250424052e-04 -8.0271957975187977e-05 -5.1977642645584384e-04 2.9103756158483035e-04 -6.6386077143267886e-05 1.1373161830658708e-04 2.0322759230763840e-04 -4.5106722974415923e-04 -9.5800696332598296e-04 3.7073345308348913e-03 4.3945653255554758e-04 -6.2334086055616592e-03 1.3220077190108171e-03 -2.9225748816751770e-02 3.4254226311110302e-03 -2.1360047883688857e-03 2.1599025751799818e-03 2.1492751027127343e-02 2.4901738209528346e-02 -2.1056637889299542e-03 -1.3772163444768762e-03 -6.4921724412625031e-03 -6.5171666153419384e-04 -1.8834981777362907e-04 -7.4018168114773784e-04 -2.3194977850021590e-03 -1.9380149793898436e-03 -2.8252009612053865e-03 -5.4878400679130241e-05 -5.7540158767275921e-04 -2.1078538642729469e-04 -3.7494383508416141e-04 -1.8508621508408801e-04 2.4099553085241241e-04 -2.5694871727060127e-05 7.3467174441718794e-04 -9.6001595919404932e-04 3.2866590631812321e-04 -1.7039283339607348e-05 -7.0096697182987246e-05 -2.7267180115423555e-04 1.4521397152557607e-03 6.3088548516457125e-05 6.1668105183970310e-04 -1.4245714826201410e-04 1.7342476861355885e-04 -2.4798620480453944e-04 -7.8141647202449940e-05 -7.3697168679504781e-04 5.4190396683200318e-04 6.2154103926396326e-05 1.7559412841355040e-03 -6.0825508428496175e-04 -6.2491110599293201e-05 -5.4416474151569583e-04 -3.4075088558384661e-04 -4.2707629380518762e-04 -1.9393774935536209e-04 -2.7039457915129872e-04 5.1463856507000770e-04 -4.0923327826042865e-04 -7.2015264936117906e-06 2.8032806135519506e-04 -5.2859256093981284e-05 -1.9736019455712515e-04 1.7191175809663176e-04 1.8109689914320298e-04 1.0813025137352763e-04 -7.5663551862696892e-04 -1.7598529943025094e-04 1.1641214039263851e-03 5.1991397372645135e-06 -5.3821535272619941e-05 -7.9814854088798700e-06 -5.8286387077563094e-04 1.0117617168583822e-04 -9.5568734196130559e-05 8.1311921947512916e-05 1.6846721602258128e-04 6.9174430720801759e-04 -9.4528097437297814e-05 -7.5691846361068313e-04 -8.8999801523775241e-05 -1.4562013003161734e-04 2.9726627311877653e-04 -1.0516245428410080e-03 4.7606480954888496e-05 -1.4983196996225319e-03 -8.8027243534742356e-05 9.0919437974497207e-03 3.3687549473276381e-04 7.4263487958838470e-04 1.1020245046783686e-05 -8.7695565727683340e-03 -1.3048101494604893e-03 -7.1090849503181969e-04 -7.4713830520393119e-04 -1.4459624668439976e-03 -1.7065458057195330e-03 -8.7550311383289908e-04 -2.0720616211558195e-03 6.4450278336561156e-04 6.6456219275121093e-05 5.9552140287934892e-04 -7.2540189117397888e-04 9.5344716305485397e-04 -1.8828537567913716e-04 -3.0956119654902687e-03 1.4743946555504377e-03 -2.2200981457781172e-03 -1.8165098683451510e-03 -1.8167113786480196e-03 -9.5055927906833176e-03 -5.7359089692607748e-04 -6.5086820494888152e-04 1.8072265375488517e-03 2.8399851224595891e-03 7.5782614344239926e-03 4.9666155877270478e-04 -2.2579633333209463e-03 -1.0994655931504281e-03 2.0580189258574653e-03 -3.5719140362276448e-03 8.3624617633644479e-03 
      </Row>
      <Row Index="143">
        -4.9288667219130283e-04 1.6668188814788262e-04 3.1724635982340044e-05 -1.4746851137493761e-06 -1.5499496239575806e-03 4.4804094851735084e-04 3.2215841184318967e-05 -1.0716303141924694e-04 7.0225820013262671e-04 -4.4652436419864879e-06 -2.2325554918869294e-03 5.3555637914908171e-05 5.4568699662027272e-05 1.3904999154611692e-04 9.1186732585489332e-05 1.1333356952868264e-04 -1.8579328404794698e-05 1.0513127843501295e-04 1.4517184613166236e-05 -2.7229102218120070e-04 -3.2286568968943434e-05 -3.9429420798301092e-04 1.0550946260891878e-04 -3.4483832317035688e-04 2.4845040420745938e-04 6.3311143396980262e-05 1.9557456840523066e-04 3.6358574915495209e-04 -1.0080099669458609e-04 -1.6084645477165713e-03 1.1312314262431050e-04 -2.7294208529040053e-04 -8.3418069575767206e-05 2.7500380373129279e-05 -1.0580524338976455e-04 -2.2017625331138151e-06 7.2701818488492579e-05 2.4481186680047054e-04 -3.3458159626626263e-04 2.1527402643213220e-04 -1.8873462529932911e-04 -6.5166467214525063e-05 4.8459704572037087e-04 -4.6953674426226857e-05 -2.5493219816805947e-06 6.4317767255854313e-04 1.0205994818387387e-03 1.3817610582142177e-04 -3.3622892846112357e-04 -1.0797468582654187e-04 6.8764483760077157e-05 2.3380793237231254e-04 1.1842777816262304e-04 2.2457009407076580e-04 -2.0227943376025306e-04 2.1564793231335474e-05 1.8998247343488830e-04 -1.7652810605192984e-04 2.5309379110255919e-04 3.8047682976286522e-04 1.6234077947443310e-04 2.7698225693594414e-04 3.6346660067077853e-05 4.2554434777072186e-05 -1.7976056801854816e-04 1.4038885876778593e-03 4.0960394951089886e-05 -9.8985523775106188e-05 -2.4129865512874244e-04 -7.1109721667242430e-05 -6.0884039512823734e-04 1.2623796538026484e-04 -3.9709549132954138e-05 -4.3722348815599939e-06 -1.9862861907584767e-04 2.9416786695275103e-04 2.7029142859051830e-04 2.5536150882195219e-04 -4.3504572698642289e-05 1.8813029016661725e-05 -6.2741082139564715e-04 1.7066458035929708e-04 1.5077061840352207e-05 2.3293488830263866e-04 3.8996293611930511e-04 5.6346127116966779e-05 -2.4777158711054224e-05 -9.8932022108283446e-06 -1.2320717987144189e-06 -1.8977314121596510e-05 -1.4482883034676699e-05 -1.2597614164307317e-04 2.1423647890028155e-05 -8.5551795272093304e-06 -8.5182770163212066e-05 9.1273397287632268e-05 1.6847210352484529e-04 1.3361647192213107e-04 -1.5106625209009646e-04 1.2276072548014988e-04 -7.5089130214376471e-05 3.3792271317604544e-06 -1.7512262799672558e-05 4.7293691600540453e-04 1.7243932145367957e-05 1.5011765608957152e-04 -9.9084464726350544e-05 -4.3129878635828414e-06 3.1543921956088926e-05 -6.5654806090468875e-05 -1.5137084284880549e-04 1.4040019955082069e-04 -1.0479623605732429e-04 -2.2595736609087169e-04 1.5933016589538270e-04 1.8130598309736489e-06 9.7596968462102971e-05 2.4944471317607227e-04 1.8125662272681041e-04 -7.6487446691590673e-05 -8.1729492155159606e-05 -1.6384895385688385e-04 1.6408885350557107e-04 1.1593624863049103e-04 5.9544589785690319e-04 3.4405939053599535e-05 5.7649711734182065e-05 -1.5928933323788944e-04 -3.7391430057402763e-05 -7.2824830648519131e-05 -2.4279993706226126e-05 -1.7676836746375604e-04 2.0593423669745191e-04 -2.0815437933242556e-03 -2.2619944404942299e-03 1.5552173675345876e-03 1.4553696397908279e-04 6.7942094697740580e-03 2.8329443513455208e-03 5.3235981196103784e-04 2.2483238659529968e-03 -5.4501425875002959e-06 -2.1056637889300157e-03 3.9557734333792735e-03 -6.9284913861161453e-04 3.4129327796819072e-03 3.5366395922159836e-03 4.1195850589398992e-05 -3.9100460812332700e-04 -6.4020451123617537e-04 1.7643550090714138e-03 1.1734465984146823e-03 2.5378367215185435e-04 -3.4161762702367897e-04 -1.6758846876654255e-04 5.0002738693760566e-06 1.7998647053581477e-05 1.4451466208232738e-04 4.6098240040070731e-05 1.2786630435556842e-04 -3.4558674251766210e-04 4.3363265037717547e-05 -1.7913335256601576e-04 -1.6136848267685257e-05 -3.9676833140286393e-05 -3.6691361129964509e-04 2.5268495169012831e-05 -1.6407522160452433e-04 -4.9135854299340995e-05 -1.1217398764561930e-05 2.1619316039650361e-04 9.6329750935235034e-05 -2.1472723674212336e-04 1.0905215581215669e-04 1.0344324924350631e-05 1.7090139743297661e-04 1.4686202292341289e-04 5.4508035248319658e-05 -5.1723860068778396e-05 2.3231889808907275e-04 -1.3933013442574778e-04 6.7025507840138296e-04 5.2847905342963755e-06 -3.0167513007568829e-04 -6.5671958626163031e-05 -7.3951124667365648e-05 1.1774555231402941e-04 1.4534399614982895e-04 8.8521169900541730e-05 -3.8697082705243125e-05 6.6404153902163959e-05 1.9876989077224921e-04 1.7335650206208402e-04 -5.9204485364856133e-06 -3.3355411805964681e-04 1.5594698903553567e-04 2.1475480925375289e-05 -3.0849483479674972e-04 1.8265231625543379e-04 3.5044930620806116e-05 2.5708021768739158e-04 -2.2189439220811506e-05 1.8961505137021344e-04 -1.7567221109870466e-04 4.5879115812936748e-05 1.0738548775355261e-04 7.4192434244454343e-05 1.2606524785085396e-04 -1.9267602949431443e-04 -2.3959886654133304e-04 1.2702819373159436e-04 6.4203617283417830e-05 6.8003930365322150e-04 -1.9206869278113401e-03 -4.0975039893487999e-04 -2.8750471656572874e-04 -2.0328220516339576e-05 1.3604654504676293e-03 2.7661152633234588e-04 -2.7364160773292959e-03 4.3357145761792294e-04 6.1824285835268273e-04 4.6789958386566217e-04 2.7035454596014297e-04 4.8712016376236853e-04 2.8663377020820535e-05 3.0726895692281787e-04 4.9161236888430840e-05 1.1831173938739485e-03 2.5790787879658925e-04 -4.3334350453097699e-04 -2.7054792271066785e-04 -1.2723040833046897e-03 -2.5485015925323477e-03 -8.8574956238844735e-05 -1.5821389612872318e-03 -7.1466977747324878e-04 -2.4987253285290226e-04 1.1657295406856654e-02 -9.5171804345051993e-04 -1.0632418709393295e-03 -2.2526785932810451e-03 -2.8247753457627707e-04 4.9434544459538632e-04 2.9997133911669637e-04 1.0848172240660104e-04 1.3130447955321382e-03 2.1216428922961905e-03 
      </Row>
      <Row Index="144">
        -2.0828151651535416e-04 1.1806263370955261e-03 4.0276975980431981e-04 1.4442644481607060e-04 1.5155000081232153e-03 7.4360207726231493e-05 -4.5683583688951748e-05 3.0553012630166057e-04 -7.6898878469384068e-04 -4.4580503940802957e-05 1.2808358460784475e-04 5.4718571309230569e-05 -3.6606299912210113e-05 2.3829690952122316e-04 3.2643449447721125e-05 -4.5068504424922574e-04 -2.3528436722009876e-05 -1.0501567815908848e-04 -9.0240413784962027e-05 1.6736593286601723e-04 -8.9326645547041039e-04 -4.7919893087444232e-04 1.5614032531633619e-04 -8.4130236241817266e-04 1.1061007888155729e-04 -2.5631347378163943e-06 -1.2380036277818290e-04 5.3089767457077804e-04 5.2642662025712179e-05 1.0920148483896776e-04 -2.1546651645573851e-04 -3.1736872601796331e-05 -1.6141010436355186e-04 -3.9294911838699429e-05 4.7330590320896317e-04 -1.4043615095645076e-04 2.6075728919531008e-04 -5.0992483457523502e-05 -1.7027747602947008e-04 1.7450881859405916e-04 -9.9215909371151972e-04 3.2640766448505825e-04 -1.6262488254855305e-03 5.6554383392746588e-05 -6.5391859215430397e-05 9.1212456828613803e-06 -1.9321216579192783e-04 -2.4721913398756921e-05 1.6480443130647920e-04 7.5584127643624796e-04 -2.6154792652296989e-04 -3.9953717861112258e-05 1.5935435171548595e-04 -6.7420652271505635e-04 -1.3474087438142398e-04 -2.1208637409017794e-04 -4.1849002007462066e-05 -8.0595728305868017e-05 1.2191737444433013e-03 4.8677239654053045e-04 -2.0467649656056176e-04 4.2514854997796852e-05 9.3011879516223463e-05 4.0215805568317910e-05 7.2439151420109621e-05 -1.1233610559300111e-03 -4.5803167488390854e-06 9.7800664420465036e-06 7.8272053610260804e-04 7.0443824646397287e-05 7.8670550130874447e-04 8.1297203333292618e-05 3.1535644310212111e-04 1.4364738406036966e-04 9.4411131023135187e-06 1.8244955775181251e-04 -1.8833466476393906e-04 1.9003272847090884e-04 -1.2749242701755011e-05 -1.8160459798278929e-04 -2.6935152593727900e-04 8.3230115879363086e-05 -5.7466681481031987e-06 5.1587643715063228e-04 -2.0072151184327702e-04 -3.8607152230468863e-05 3.6992292545581998e-05 1.3122435505523498e-04 1.9515064095513262e-05 1.2660074448043405e-04 -1.0129661155120233e-07 2.6000141242433589e-04 6.7073366429667357e-05 2.5641895272963993e-05 -5.8188147762273533e-06 -3.9272036104306854e-04 4.1400512979694837e-04 -1.6617300573893272e-04 3.3169894686799331e-05 -1.3572840387242550e-03 -8.0151946143322691e-07 -2.4860378161184135e-04 6.5184467492202447e-04 1.0601008308224096e-03 5.6535295052551700e-05 2.8474300822577794e-05 2.5764944073479614e-04 1.2772936495576148e-05 9.2729697613767100e-05 1.7653430505616069e-05 7.6598508791373766e-05 1.3421279354644821e-04 -5.7666089660722179e-05 -4.4514399700134862e-05 -9.1959858837497476e-05 -2.9515046818564378e-04 -3.6527168073805969e-05 -9.7221651840707587e-05 -3.4310766971910374e-04 6.6413818232816167e-06 1.0262300148354141e-04 9.0739404161837908e-05 -9.2522589111907242e-04 -1.3550724077594014e-04 -8.3693953597211462e-05 -9.3842509788456580e-05 -1.5563424883190973e-04 -1.6619419400973117e-04 -2.3850816563230637e-05 4.6058850725725622e-05 2.9792479057451754e-05 2.6770565499133978e-04 5.1886975304136170e-05 -2.6390268536983469e-03 8.6978448125291999e-03 -2.3493868109758522e-03 1.9570263470947914e-03 -9.8424383138353069e-03 -1.1838651567641632e-03 8.1933199571499425e-04 4.0314538259738223e-03 8.8613376883072922e-04 -1.3772163444768380e-03 -6.9284913861160054e-04 4.7034774479625899e-03 1.2299831675861043e-03 2.6011822875128968e-03 8.2068292361081011e-04 -2.6069328745157772e-03 4.4380587960371758e-04 -2.5078646357388993e-03 -1.0117366728663601e-04 -1.9397092671383806e-04 7.5129417126088666e-04 -1.6098848756666059e-04 -5.2942296697901703e-05 -8.1255807197953302e-04 3.1712760612441544e-05 -9.3382752982613281e-05 2.1818527604670890e-05 -7.5808857203497199e-04 -3.6545820564700074e-05 -6.0177872976991005e-06 8.7759522509967989e-05 -4.1526113820070511e-05 4.2703870249389403e-04 3.3241030414843342e-05 5.3349898845071058e-04 4.2595409604450111e-05 1.3311804957383768e-04 8.8700322302447251e-05 -2.0943329351058300e-04 -4.1039918891008515e-05 2.5219720840300450e-04 -6.4783498452006890e-05 3.6369103413567830e-04 -2.1664525339712391e-04 -3.9566747989137094e-05 -1.1683304686660673e-04 -5.1742018395180213e-04 -1.7949878791072261e-04 -8.3584933594219393e-05 -1.6344393515226594e-05 3.9026358653358685e-04 -8.4418008533459343e-05 -1.5028708710052042e-05 -6.9624020240903473e-06 -4.5831203009404896e-05 7.6580979539603877e-05 9.2821228163783749e-06 -2.5235728003516577e-04 5.2416769668379439e-04 1.6439954147006927e-04 -1.1077435905472910e-04 9.2099520744824920e-05 -3.4898331177533344e-05 -8.0821201937792081e-05 6.8302003389140433e-05 -3.4279936142939268e-04 6.8920899105041623e-05 -5.1580154431412270e-05 5.4873755106985648e-05 -5.5748650264155085e-05 8.6090559389935317e-05 6.2259442905576853e-05 4.3419527625699098e-05 -7.1503997568433223e-05 -1.1798588566956899e-04 4.8280247981428949e-05 2.6855392088658307e-04 -2.0464567773149245e-03 6.5856206073255030e-04 -1.7229230536486468e-04 5.8064530534618457e-03 -9.9952737171052195e-05 7.6159092070947094e-04 -2.1652271200422010e-03 -1.3110960093424683e-03 -3.9095372765664521e-04 3.5521055368656031e-05 -1.5390175816692555e-03 -2.6392889225181038e-04 -2.9098424419875236e-04 1.6566618163226039e-04 -8.0375371083757884e-04 -3.7358639338575970e-04 -1.4008417671170097e-04 -1.3198541748604545e-05 -9.7552009678487928e-04 -2.0000148132843032e-03 -1.0255743912329055e-03 2.7810572876676900e-04 1.7975988364757512e-03 -2.1558937919133905e-04 -6.8530123586680539e-04 4.8894915738625097e-04 -2.5295731722812173e-03 9.2096770426084481e-05 -7.1409588563772688e-04 2.2231677168372483e-03 7.9520329458002267e-04 2.4901168120061131e-03 3.9338886310414907e-05 -1.3152903238696394e-03 7.6531936830451447e-05 -9.4686592601415790e-04 6.3974272127227715e-05 9.2275206883767091e-04 
      </Row>
      <Row Index="145">
        -5.8840587750212127e-04 -2.5266828032867884e-05 1.0171264459223370e-03 2.6286096280702504e-04 -2.0294498461129544e-03 -5.2603556198910207e-04 1.7871805349950882e-04 -4.6760891575334750e-04 6.9583765834556419e-04 6.6137530458808182e-04 1.7712337268529929e-04 1.2778598341521802e-05 -5.3669570456312248e-04 3.0454661340473992e-04 -2.1732338468732784e-04 -3.9799457785002362e-04 1.0506507795285534e-04 -7.1088141129912476e-04 2.3363750272103147e-04 -8.0099834976870914e-04 2.9188084335828664e-05 -1.0534362797083943e-03 4.0354667791796923e-04 -2.3427162188214053e-03 -3.4971318969002186e-04 2.1046213381543908e-05 6.6204321860738281e-04 3.3386557918424573e-04 3.7311933713053875e-04 2.2773553844538237e-04 2.4394950602369672e-05 -8.2089796652328600e-04 -2.9211370463255693e-04 -8.8162183623470271e-05 3.0817635989805652e-04 -6.1183873059858702e-05 8.6519894491104738e-04 6.6981526242997557e-05 -1.7924544711679072e-03 4.4791520497592524e-04 -2.3728292132394750e-03 1.6573137999861625e-05 -2.9328200833913863e-03 -1.9853836977250401e-04 -1.8919082856919535e-04 7.6307369239142031e-04 2.8615666988971787e-03 3.1208686206673326e-04 -3.5997627504418830e-05 -3.2990556157490606e-05 -4.4346693736237077e-04 3.5448629623577798e-04 -8.5452636149159142e-06 -6.6534722038443460e-04 -1.1877587767689744e-03 2.2238420003839262e-04 -2.8086374875937548e-04 -3.8503198490525033e-04 -4.4116502794150218e-04 1.0043944919116490e-03 8.3055989890947054e-05 1.7590795513151652e-03 2.7562737899498293e-04 1.5055049597918931e-04 -6.4882986138052861e-04 1.5307423561957707e-03 -3.1984285514468930e-05 4.0067649748299836e-05 -2.0241917227466246e-05 -3.2057923481495701e-04 -6.1584744044294903e-04 2.5787503416104494e-04 8.5259774659152761e-04 -6.3106811000104715e-04 -3.9823395447280082e-04 -1.7916708068588510e-04 1.4084842913194813e-04 -3.6683720787142739e-04 -4.2955229986383237e-04 9.0732756060635185e-05 -8.2641518860032421e-04 -1.0922942351129238e-04 3.3210736404271426e-05 7.8470444807071139e-05 7.5809500903895478e-04 3.1532978982583715e-05 8.8090745023587113e-05 3.8506239029741286e-05 -3.5105051707456591e-05 2.0360559912868602e-04 -2.2699572145908851e-05 -1.3076505468284844e-05 1.0848389089015390e-06 2.8495815084224075e-04 -4.3340680486639695e-06 5.3070794780151441e-04 -1.1386163930201658e-04 -2.3997469081351783e-04 -1.2162866572414737e-04 -1.8503121303922979e-03 1.2183524445254955e-04 -1.5941581204877129e-04 5.3681062802007668e-04 -2.5165398740295292e-04 4.6159841836371121e-04 -2.3050113651986134e-04 -3.5578368271720618e-05 5.6003534232267928e-04 1.3868461582794227e-05 -1.5329522989883338e-04 -5.2218466459541492e-04 4.1313359672471173e-04 1.7584479090556118e-04 -5.5944605313473024e-04 -9.7913731174021452e-04 -7.4467158795544120e-04 -4.2294235918240522e-05 3.0850006985044641e-04 1.5640357120635089e-03 1.3393266174168030e-04 3.3668177485886289e-05 1.8223571179860982e-05 1.9620689646722275e-03 -1.5257335889399595e-05 5.9398087838347838e-05 9.5786981634080222e-06 6.0293973966476350e-04 -2.0701082840007422e-04 -1.2497053240628496e-04 -1.9691353196474109e-04 2.2333209633285470e-05 4.4795627970629470e-04 5.9640372279290215e-04 8.8290969180231816e-03 1.0260356625925130e-03 -4.9410330820220786e-04 2.0835452532750025e-03 -1.9703848104374484e-03 3.9755878058935221e-03 8.5649918209114461e-04 3.6499403614063670e-04 5.5424567985709822e-04 -6.4921724412625352e-03 3.4129327796818755e-03 1.2299831675861399e-03 2.6828743459150251e-02 -1.3789125908839207e-03 1.0566030509055785e-03 -4.3153801838055929e-03 9.1852590179375133e-04 5.6379279789935044e-03 1.4677551259643606e-04 1.1590868576584993e-03 -3.1188425232540407e-04 -7.0240436428220553e-04 3.9835735929083028e-05 -1.0833732922418992e-04 -2.4534456583861743e-04 -1.2344430600491344e-04 3.1523112200566172e-04 -7.0360774191292690e-04 6.1250797611034347e-05 7.6458758095172960e-05 -1.7412280960634087e-06 3.7138819164724728e-04 -2.9297121103133276e-04 9.6304415061701878e-05 5.1614203863439086e-04 -2.0278636004435562e-04 4.5057973965449542e-04 1.0007803070902991e-04 3.7953778196548682e-04 5.3480518936580186e-04 8.6337763790408223e-05 -1.9306789194390188e-04 -1.3081890437725634e-03 2.8360617199371522e-04 3.9818057149068630e-05 3.2590204455194404e-04 3.2510475336901398e-04 -5.4424242901572194e-04 1.3574762082820105e-04 2.2422786787431903e-04 -1.4092547128254874e-03 -2.6142208318894519e-04 -1.6422073249406852e-04 1.9038294300640236e-04 3.1219141140169685e-04 3.1734492512797911e-06 1.2736561996781927e-04 -2.3001082839885158e-04 -3.9558154413397756e-04 9.1872967304557041e-05 7.3904350512712485e-05 -7.2504786479227700e-04 3.5414221107918798e-04 7.9356175555347688e-05 -6.4572035279111242e-04 1.2725247300277851e-03 3.0905766834514231e-04 2.7179508812358544e-04 -3.1288138937025793e-05 3.8159322835640600e-04 3.8779997188082157e-04 1.5394902747529852e-05 -1.1350994486554728e-04 1.2148509417626334e-05 -3.2184189814076067e-05 -2.6624552053521375e-04 -1.3064679046381423e-03 -1.2471048509063748e-03 -2.3253443937187174e-04 1.3429666470811336e-03 -1.7518748148047068e-03 1.5637885725258058e-03 4.2433294094414240e-04 -8.7111142114098530e-04 8.9104974807789963e-03 -5.4476225562908221e-04 1.6824931773819127e-03 -7.3289188770985642e-05 2.4051773624757667e-04 1.7794824198702759e-03 -4.0970433608125733e-04 -2.5461156210170727e-04 -4.1605514298390952e-04 -1.2296821016085141e-03 1.0839074770710359e-03 2.9571618065853990e-03 2.0443253310845899e-03 -3.5050334914420826e-03 9.2786788845360254e-04 4.2394921002482665e-04 2.2652705418529937e-03 -2.4954102931097647e-03 -1.7749129109763066e-03 2.9332819863933887e-03 -2.6133747249723486e-04 -5.5611108012500231e-04 -6.2090810984382586e-04 -5.5989394651770547e-03 -2.4758254757609906e-03 5.7119081281761493e-05 -1.5877779462590757e-03 9.9184459634956866e-04 -1.4784937795912548e-03 1.3845037006900321e-03 7.3758596273617997e-04 
      </Row>
      <Row Index="146">
        -3.9663683600302951e-04 1.9978200917065711e-03 -1.9521867215333303e-04 -7.5119958036583853e-04 8.9285381127447152e-04 4.3657216571278928e-04 5.6981192806415258e-05 1.5895659725974507e-03 1.0386667656891546e-04 5.9952516507036672e-04 -6.7619924200991964e-04 2.9861763087409016e-04 -3.6096979670483529e-04 1.4758865441942163e-04 2.9530986235167412e-04 -9.5479698516622979e-04 -2.9817224015958404e-04 -1.8825452545786613e-04 1.6799466765762946e-04 -1.3758485331519135e-04 -9.9065653204979585e-04 -1.0953410627630722e-03 2.7415863192530694e-04 -2.5789172675974512e-03 1.6736171697828868e-04 -6.1194415941992041e-05 -5.9117146975338889e-04 2.9236728958147462e-03 3.5670831593384654e-04 -6.1657748024786523e-04 -2.8404854181755725e-04 -6.3901075868303694e-04 -1.0058201560467724e-03 5.9927758536181658e-05 1.1080690454059773e-03 -4.6255945246738545e-05 3.3988443635690952e-04 -3.9457609325810805e-04 -3.5271535610876658e-04 -3.5815097404413160e-04 -2.0050184947769702e-03 -2.8279334978472672e-04 -1.1455298166911194e-03 -3.4422677116649741e-05 1.5734808151027756e-05 -1.6068713350239931e-04 2.9873221963836781e-03 -8.9841175413310926e-04 1.8687584933471755e-05 9.2101529931085026e-04 -6.1479127175830201e-04 -6.5938428835736690e-04 4.5484300046840604e-04 -1.8921801954485526e-03 -1.0124367007110710e-03 -2.1477398022061610e-04 -1.4620836480375814e-03 1.2991640350122277e-05 2.3114058759184392e-03 1.0314002292727846e-03 1.2006110078387085e-03 -8.2143956776500762e-04 -2.3751229443565256e-04 3.9882059428188524e-04 1.2766069863132390e-03 -3.9638586376014497e-04 -3.9074779054188162e-04 -4.4560480579299553e-04 4.4209107195664993e-04 -7.3867720740376482e-05 4.1889447262793856e-03 5.1492153605045554e-05 -2.2730997562131396e-04 -1.1086824438324321e-04 6.5014963354587466e-06 1.6792210324714438e-04 1.6366362184426064e-04 2.0438361699970592e-04 -4.5971052995287314e-05 -4.3039926196888873e-04 -8.0846898771149843e-04 5.0261252084209129e-04 2.7736862879847022e-04 1.0491282812715424e-03 -1.5538956339225009e-04 5.3715392385645169e-04 2.9996291034862675e-05 1.6112410199304943e-04 2.1242592559381906e-04 4.4367666467341358e-04 4.7475799560931273e-05 -2.7173509287388214e-05 7.6731369277125067e-05 -5.2438813354764970e-05 4.2769352115796925e-05 -6.2395475450014067e-04 7.2081946911430224e-04 -5.1736462174988419e-04 -5.1480633041540145e-04 -1.9689979883895023e-04 1.2556695720724009e-04 6.4455298050967926e-04 3.0813987097068991e-04 3.4541576641145674e-03 2.9874346364661358e-04 1.8442770479320186e-04 2.0766182281836779e-04 2.9350197243967869e-04 5.6319877405974382e-04 -2.9410674993176781e-05 1.8117302402731922e-04 3.8142136107950674e-04 -1.9328609573496404e-04 -1.1909021527806228e-05 -3.1095969467819667e-04 -8.8526139546155731e-04 9.8072916075886852e-05 4.9175781302993071e-04 -9.8258540874092458e-04 -1.2177870123952845e-04 5.5963176679067568e-05 -8.8336460732322121e-04 -1.3793723316693329e-03 -7.1100984189272743e-05 4.4287993649483865e-05 -3.1428096748002384e-04 -1.6931220810144642e-05 -9.9868926951935202e-04 4.3329534854089381e-05 2.7717027228090722e-04 -2.7991934238633695e-04 -6.1852854083867557e-05 -8.4327635977309500e-04 5.0921847585536006e-03 8.2633726313454062e-03 -3.6904372774865788e-03 4.8637233870818522e-03 -4.4378796104463918e-03 2.2612899913504077e-03 -1.2987532079697436e-03 2.2900652027167483e-04 -1.8610276537775802e-02 -6.5171666153414495e-04 3.5366395922160833e-03 2.6011822875128435e-03 -1.3789125908840092e-03 2.9691295381193267e-02 2.2996907858544922e-03 -3.9377168659083502e-03 1.1474196627965889e-03 2.6715157090513551e-03 -4.5304942459715369e-03 6.2125104002664928e-04 4.8034658229743335e-04 -2.4791992288337192e-04 -6.2601459839687354e-04 -1.8207682351878004e-03 -3.7186713888899200e-04 -8.7353532861011014e-06 -1.2221450615822026e-04 -1.8397880355856418e-03 -1.3787767670301760e-04 -3.6770745259073469e-04 -1.2514454513203532e-05 5.5562671270980744e-05 2.0912063953950309e-03 -9.4623748342799870e-05 7.6319826861830705e-04 3.0745529542028680e-04 1.0167125690483362e-04 1.5257188445231445e-04 -7.7444717951411814e-04 -4.5723262441096663e-04 2.1225328649461181e-04 -2.2195213108038979e-04 1.4864311484222132e-03 -8.9867933846418039e-05 -4.7648509539236286e-06 -4.6157991837688598e-04 -5.4517068929776230e-04 -4.5507523471865173e-04 2.1729344490469487e-04 -2.0270770136893287e-04 -4.4730294608556753e-04 -8.4976615266703338e-04 -1.8609752896403008e-04 6.1872041607573085e-04 7.7416067908999894e-06 2.3489140748665085e-04 4.9788152147386109e-04 -2.2431925478072143e-04 7.1984831943599007e-04 3.0466599466028065e-04 -5.2543884994743668e-04 8.3915081438968903e-05 1.2427303077351066e-04 6.6994272516677860e-05 1.2629255887449471e-04 -5.9017301363896001e-04 3.1753205878433925e-04 -1.2276562860284913e-04 -8.4037851554714379e-05 4.8176673107165868e-04 1.3894518922911733e-03 1.5509601228366732e-04 -2.8818874224815052e-05 1.1082700589810874e-04 -6.1221774588393456e-05 7.1163191002352811e-04 2.5656510945685704e-05 -2.6989108562846674e-03 -4.1629406091092300e-04 2.0564052861803584e-03 4.4724594889942286e-03 2.7101086861908792e-04 -1.8794107823918835e-03 -4.0125851187880158e-03 4.2004888258271407e-03 -1.1158577877472872e-03 -1.5884361912581273e-03 -1.2774496212188775e-03 -4.9237518336203473e-04 -1.8960398315729266e-03 1.1551249100167510e-03 -1.1011974426519372e-03 -2.0521071738739782e-03 9.1991376738953111e-05 -1.1827539725192335e-04 1.3327595431148745e-03 -2.6894526803360307e-03 -1.7124682896897312e-03 -3.9887457901758372e-03 8.6312156010604955e-04 -2.1412020339161043e-03 3.2400541094672495e-03 -4.7302624790541070e-04 -8.2426787095673491e-03 1.2856685936959947e-03 2.6112118224342886e-03 3.1796396039261419e-03 -1.6584883045885797e-03 1.4717201123369430e-02 -5.9734189182650103e-05 -2.0645295163886730e-03 1.0279246766227990e-03 -7.8149144403959984e-04 -3.1709494000659319e-03 -2.7477489263984215e-03 
      </Row>
      <Row Index="147">
        -2.5374625453615030e-04 -1.0109946931710079e-03 1.9214183004456677e-04 3.6247495803252587e-04 3.2184308934158148e-04 -5.8720064754685399e-05 7.7838325287260340e-05 -7.8295049646810418e-04 -8.6057794713690315e-05 -1.7774423431738849e-04 1.2913218692409034e-04 6.1209417374278899e-06 2.5895801145082442e-05 2.1273509486135778e-04 -6.8802529747399128e-05 -3.0467354749497740e-05 -7.5507901864381820e-05 -1.5373298383533044e-04 -4.2829093248480619e-05 4.5842052285695670e-06 7.0394407573707803e-04 -3.0664206670489788e-04 1.4885143442996398e-04 -1.6099911256290712e-04 -5.6013514173349995e-05 -9.8307833792401177e-07 -3.0924444845351192e-05 4.2589044527121395e-04 -4.3366817203513712e-05 4.6865067185131474e-05 1.4629737553732008e-05 -2.2886541121997075e-05 -5.6392641981634192e-06 -2.7357458902632002e-04 6.5654062073081977e-05 -1.4563351662687037e-05 -1.3609596548468323e-05 -1.5139248555254845e-04 -5.7807117812957304e-06 -1.2232079682173921e-04 -5.2334877448908385e-04 2.8821192517551478e-04 4.0821698161089617e-06 -5.9649244711469998e-05 6.6633958336481756e-05 -2.3327160059712711e-04 -2.7216993840323278e-04 8.0416302183727948e-05 -5.7558691708337831e-05 1.1751705486988655e-04 -1.6540494962633359e-04 3.5486092276598453e-04 -5.6245687369189641e-04 -2.3852195348130842e-04 3.9931350722163111e-06 -7.7807316589430584e-05 9.1323204804005277e-05 2.7483622806429887e-04 -1.2064770627191897e-03 3.6363995257214445e-04 -4.2654078748357942e-04 1.4313047232909705e-03 -1.4613570455408297e-05 6.0181313391156205e-05 -6.4264906475723638e-04 3.8511592585837359e-04 -3.0123410875547495e-04 -7.9538447189133254e-05 -1.8161436916287890e-05 8.2819880457520078e-05 -1.6615066291444003e-05 -4.7706555616650916e-04 2.7795653332621847e-04 7.9588133013225228e-05 2.2408299937846411e-04 -1.0861165542309665e-04 1.7181360628371403e-04 -1.4346049751006568e-04 -1.3036329726948657e-04 6.2461806001675189e-05 -1.4376643109885034e-04 -3.9418192079172359e-06 2.2067911231815539e-05 -2.9980559332669181e-04 8.6561607144473342e-05 1.0394106123069909e-05 -5.0314331801174352e-05 1.8992672589541472e-05 -5.0056549859623338e-05 3.7178606352658854e-05 1.9247357906725267e-05 -3.1644361409840583e-05 -6.8003522329125664e-05 7.1546791767561260e-05 6.9707675684449162e-06 2.6729625230855012e-05 -1.1889682127955473e-04 -3.5134593478152682e-05 2.1021794592297977e-04 -4.5352932886233042e-04 -1.1037635645514798e-04 1.6669310982571646e-04 -2.4556530521748724e-05 -8.2718707913558790e-04 6.1094266247989078e-05 -6.2992952973700531e-05 -1.6159871231410575e-06 -2.1301350438052513e-04 4.6755474285169510e-06 -5.9114631953389280e-05 -1.0660154103032200e-04 1.8691666397470559e-05 1.7190578082357634e-05 -5.5881124615457306e-05 -1.4094300010707579e-04 5.5971240460429600e-05 -6.1253659623264692e-06 -2.0685980086915075e-04 8.2832802095527661e-04 5.4243067956934936e-05 -1.1991607085133299e-04 -1.8064992154396761e-04 -1.9764807841004444e-04 -4.2514258041974364e-05 -1.3431600148021205e-05 4.8011010796210509e-05 -7.1901659616424769e-05 3.3434174880281092e-05 -1.8969086379989412e-05 2.9776593599300377e-05 3.7156449142920834e-05 3.6820065637480320e-04 1.6465338730511556e-04 1.9275932761522903e-03 1.7916606065646126e-03 -2.4978227507713615e-03 1.0644850284972512e-03 1.6931834632972309e-03 -3.5223280321822149e-04 1.3090837468857653e-04 -1.3240973093330299e-03 -1.7299539715592315e-03 -1.8834981777363948e-04 4.1195850589397705e-05 8.2068292361078799e-04 1.0566030509056004e-03 2.2996907858544311e-03 5.3284759986359492e-03 -5.9992698253902527e-04 -3.6432190028251946e-03 1.0820543760363123e-04 4.7978097368443865e-04 1.4101553523593763e-04 3.3994480091270525e-04 -2.3822895798729100e-04 2.8762958878875979e-05 -3.7760869489611719e-04 -6.9806055615055152e-05 1.3208875387349576e-06 3.3889142680520090e-04 7.5657757036079356e-05 1.6607120741109454e-04 3.5328604985752790e-05 1.2709761390493557e-05 -2.0171210669031401e-05 -3.0802170612627010e-04 2.7940570732698224e-06 -1.9102923824566186e-04 2.4890893776097722e-05 8.8282988495532220e-05 1.4758542637062104e-04 -7.8052062840248092e-05 1.5147205701510741e-04 1.9292037646809028e-04 -1.1920572850109758e-04 -5.3239765889702266e-04 -1.0318254910243187e-04 2.9494690669460127e-05 2.7073521800786027e-04 -2.2764452802553122e-04 -4.3400247029947629e-05 -1.3958535094001014e-04 8.7227885101645673e-06 -2.1911537340904650e-04 -1.8732484921960073e-04 -8.1795038702343222e-05 1.6651032538330182e-04 7.1553153867434687e-05 -9.4255935080950914e-05 1.2685089967420153e-04 -1.3767597054944146e-04 -3.9887908302025255e-04 7.7436435073895241e-05 1.0801801295787258e-04 -5.0456776227309538e-04 -8.2629627579665493e-05 3.5528840628412104e-05 -2.9690199374804725e-04 1.6188149956563168e-04 3.0375302651861966e-05 -6.6790051666296312e-05 6.5224396991835711e-05 -1.0114480650135153e-04 3.4690145983350803e-05 -2.8006188816629435e-05 1.4879961234820968e-04 -5.7401809022296436e-05 -9.7841386148333267e-05 -9.4036790753607429e-05 -1.3092532995297402e-03 -3.0193054778520864e-04 3.5905123360345027e-04 -6.7947115671892068e-04 2.1564149097944929e-03 1.1653253981329419e-04 -4.8237397411406423e-04 -9.8392538669875664e-04 -1.2308133402086380e-03 -6.5929545145135206e-04 -5.6880850963867823e-05 1.6355169579844000e-04 -2.3566974385004922e-04 1.5978331604380761e-03 -1.6617700648868924e-04 1.0018458914296839e-03 -2.4778279300953233e-04 3.0634922877390464e-04 -3.2804903380880571e-04 2.5087668074044104e-04 1.1017605519678378e-03 -2.6502159139921660e-04 6.7354310147784411e-04 4.4814496231525589e-04 2.8154489735534124e-04 9.6040657184153985e-04 -1.3873728883012819e-03 1.4522397405034265e-03 -2.4876197597783762e-04 -4.8057071613045679e-04 -1.1685800743165497e-04 -5.3106733854631498e-05 -1.2385342434784214e-03 6.6126156075733814e-04 -7.3456112671371971e-05 -2.2289429784637437e-04 -7.9899084593994588e-04 7.1919899435333599e-04 -2.4594701302856851e-03 
      </Row>
      <Row Index="148">
        -8.1621852895454887e-05 -1.3616541657935589e-03 -3.1446985069567618e-04 -5.6503764296391909e-04 -1.4619406777172522e-03 4.2938173705394452e-04 -2.6651586837558763e-04 -2.3979517165985485e-03 3.7285133286319803e-03 3.4466443116921769e-04 -1.3109728783348448e-03 2.6280038512649937e-05 -5.1545081673027302e-04 -4.2925494834040421e-04 -2.3221046470545809e-05 -9.0316726146060823e-05 1.2744897765791147e-04 1.4250984988036105e-04 3.8692442574536905e-04 1.8483576588081065e-04 8.8492476012039831e-04 1.8030354293847107e-03 -4.2860689938768878e-04 2.1096293552577573e-03 3.8998758243334245e-04 2.2621359908639040e-05 1.5625704552240782e-05 -2.0982511718451195e-04 -1.6769895460197264e-04 -4.3300522575302855e-04 2.9483238361305330e-04 1.7623304923735473e-04 3.9725061661483637e-04 -1.5973343669691182e-04 1.7076693419304425e-04 3.8825520232003790e-04 2.7438826632058232e-05 6.9328455614716929e-04 1.1118700119201541e-03 -8.0686628214246200e-04 3.1010987406292802e-03 -6.1514993543199028e-05 2.6322120335449508e-03 1.0735150031706089e-04 -3.1529458704956156e-05 -2.9353430924609534e-04 -5.5088220477899187e-04 -1.2317520003345341e-03 -2.0704578495264682e-04 -8.2451908581201582e-04 2.7158293946437872e-04 1.5673205485279952e-04 -1.2852138959565866e-03 8.6424852559565811e-04 4.4585182476975654e-04 -3.0646919082056125e-04 1.3058078897945609e-03 1.2118504312313289e-04 -1.0480929126976820e-03 -2.6847298017326315e-04 1.5804087678003152e-04 1.0736081630359010e-03 -8.5626458977602991e-05 -1.8533082389188618e-04 -1.2195992349963401e-03 3.5406317967254068e-05 -1.6806258837766914e-04 8.5890065447558647e-05 -5.9033957686221549e-04 7.8677780143784003e-04 -8.7996861523475882e-04 -5.3348076790776799e-04 -3.8193023830652463e-05 -2.8242608717911740e-04 -4.8985110379128104e-04 6.3283516464926991e-04 -3.3097464905975987e-04 7.3511527814136210e-04 3.9416967550106197e-04 -1.6191325419019636e-04 -2.4884334046157869e-04 9.5922152054011100e-05 -2.1951633144943241e-04 -6.7046834913081672e-05 -2.0736412429892513e-04 -3.2435362370932842e-04 -2.2230999852761521e-05 1.3230397574563832e-04 -3.1336447575926014e-05 1.6815063540908081e-04 -3.5734847465960601e-05 -8.5354205316410191e-04 1.2526756987746491e-04 7.6390020375853747e-05 8.9691170746748289e-05 -3.3255696424581462e-04 4.1435890755883308e-04 4.0243642948680522e-04 1.9732371370799191e-05 2.1938091301580429e-03 -1.3487407054204269e-05 -3.6828586984197583e-04 -6.5263654995613180e-04 -1.5512622110425648e-03 1.5937490971548642e-04 4.6262440433664600e-04 -1.7679112944882892e-04 -4.9902575998948047e-04 7.7849741622706763e-04 -1.8696969967256887e-04 6.2569566901913036e-04 -2.2085711451036243e-05 -3.7301919849321876e-04 1.1987345087177481e-05 1.4013185390227651e-04 6.4381377326049928e-04 6.2497947685835023e-04 -8.9364379970348649e-05 -9.9385624383670581e-04 -1.8374056683854924e-04 -5.4242112287234727e-05 4.2899202242408169e-04 -2.2453885114823917e-03 1.6179641759253585e-04 1.1397520292022025e-04 1.1840830813713779e-04 -2.8528294793431929e-04 2.2830422094144664e-04 8.1641730077495515e-05 7.2543943393293736e-04 -3.0442914412069877e-04 4.3110764882119395e-04 -2.0233258145749728e-04 -1.8758297005346775e-02 -2.1230560050817062e-04 5.6392435410983419e-03 -6.4034910472153617e-03 4.9450555818550289e-03 8.4298215434619862e-04 -1.5662430537440905e-03 9.6436283633146986e-04 -8.4666518957337081e-03 -7.4018168114767312e-04 -3.9100460812333340e-04 -2.6069328745158302e-03 -4.3153801838055408e-03 -3.9377168659085922e-03 -5.9992698253906473e-04 3.2613127210552068e-02 -2.3650563951164850e-03 -4.1274874534212268e-03 8.0237118478024597e-04 -6.6140076613940271e-04 -1.0874465532504931e-03 7.7452228851860477e-04 -1.4522236114209613e-04 1.1417802789213372e-03 4.2831663000541815e-04 9.1079784752747024e-05 1.4152600980775849e-03 6.7817130560521213e-04 -9.0663037497587258e-04 1.0560289275454241e-04 6.4529592110379870e-05 7.6595680845926452e-05 -3.5015422302464648e-04 -1.4176795333401809e-04 -8.8510170836732466e-04 3.8408256909187380e-05 -4.9598022372880884e-04 1.1990614562651147e-04 4.7886215809079830e-04 9.5547700449607836e-04 -1.5834773738669823e-04 -3.9943743133089645e-05 -1.8335786013329476e-05 2.2545022268960382e-04 -6.7280000822214983e-05 9.0759699370303575e-04 -1.2317445256194684e-03 3.5031492974361956e-04 4.3256123239602276e-04 1.0306311606093541e-04 5.2877569670403842e-04 8.2834465288949134e-04 2.6699140571810652e-04 -2.6704657955128452e-04 -5.8069478134431735e-05 4.5890635782238579e-04 -9.5942433238304292e-05 -1.2599302753193205e-04 3.7546807581936994e-04 5.5690263017788163e-06 3.5701396942030124e-04 9.3502889207255587e-04 -1.7457156862688139e-04 -6.4607718355170345e-06 6.7690592501256849e-05 -5.2650790635039605e-04 -7.6068193673543144e-04 3.5438883721274756e-05 1.2984704926761626e-04 -1.5510039463311238e-04 3.7228843344233446e-04 -9.4013071375819164e-05 -2.9327154387053217e-04 -2.8031371536816608e-05 4.3625056434870834e-04 -2.9949378896370748e-04 -1.2051825540805863e-03 1.7181876894075035e-03 4.8768285241457558e-04 1.3336885515299970e-03 -5.4521425172920322e-03 -2.1336738504234682e-03 3.1030560302640385e-04 2.4837763892730340e-03 1.8533067142896773e-04 -8.1070806745345086e-04 -3.6269218419093031e-03 1.3958229650771127e-03 -6.1524515904578733e-04 -2.1758601626315714e-03 3.7184077856307134e-04 1.8508088788015175e-03 -3.1190583173808478e-04 3.4542642659557456e-03 -1.2140053878282328e-03 -1.4562722749308341e-04 2.6749814535992327e-03 4.1297593327422350e-03 -7.4007414301681222e-04 -1.9458557346643019e-03 -2.7187498796072849e-03 -2.9403214668129586e-03 -4.0327780975014070e-03 1.4879906578548459e-03 2.9196602560614534e-03 5.4730182387648756e-03 -2.6755015853158351e-03 8.9805259881102701e-04 -1.2642798236432700e-03 6.2656319989159482e-04 1.9681379295283770e-03 1.7693685790573011e-04 -7.7280628033438961e-04 1.0615425062312953e-03 2.2472972140701072e-03 
      </Row>
      <Row Index="149">
        7.4603173065468278e-05 1.1009939349139386e-03 5.4858459352140169e-05 -3.0741167005464122e-04 3.9614378365044169e-04 1.3025395446522158e-05 -6.9419374078835867e-05 1.8087262276568206e-03 -5.4022620622873720e-04 2.2722485990693458e-04 4.9969399761205107e-04 7.4898547997639129e-05 1.0936262196117096e-04 8.8773782579506025e-05 -6.9085101645049996e-05 1.3713872566956456e-04 1.2532279432121173e-04 -1.0030999634410686e-04 -4.9344637551822744e-04 -4.6516769081345185e-04 -1.2816410453110470e-03 -6.4346828769558037e-04 -8.2622164792152495e-05 -1.2461185919313295e-03 8.8273679031684545e-05 1.2167336912772489e-04 1.3540775615442416e-04 6.7283112555546407e-04 4.3907500818876556e-04 2.3159607609733301e-04 -1.2603223516863531e-04 -1.4750596751515535e-04 -1.4243364552992332e-04 -3.7684554177420883e-04 -1.0741885083050649e-04 -7.2780986728918865e-04 2.0450225666682979e-04 3.5764790633278226e-04 -6.8932760617758729e-04 3.9766730165033404e-04 -4.2798880883796950e-04 -2.9279607536831023e-04 -1.4876296525819996e-05 2.7775626995294508e-05 -7.2980815552872030e-05 -5.7602842860851990e-04 -1.7982618141868922e-04 -2.3983671229541471e-04 1.4723852902264866e-04 2.8676475582929207e-04 -1.7176428494525796e-04 7.5875049136562862e-05 -6.3420410385577096e-04 -7.4682752305371062e-05 5.2013654850376415e-04 8.2092652802730518e-05 -3.3443198048627512e-04 -2.4413597151982935e-04 1.4860992644251745e-03 -1.8873785996111492e-05 6.7842090036750137e-04 -1.1204478634555650e-03 1.5839361451649167e-04 3.0248653441922180e-05 9.3996140883717896e-04 -7.3695770310705424e-04 -1.0949163177665635e-04 1.3874195938632858e-04 4.0563652828319515e-04 4.2875517686080146e-05 3.9295354039136585e-04 -6.1507306435123685e-04 -1.0331422343868787e-05 6.5080729529489486e-04 6.1907261818496396e-05 5.4945639778824704e-04 -3.6712417518996749e-04 6.6138537212104970e-05 5.7625027915954004e-05 -2.6319878429403366e-04 3.1747280967075239e-04 9.1863657719911898e-06 5.3812143115051594e-05 3.8719990081687201e-04 2.7255204177647867e-04 1.7551073025968283e-05 2.2538721494955313e-05 3.3520185119503376e-05 -6.8712090472324282e-06 -2.1160674258211974e-05 -1.9760384376292181e-04 1.0757376220803618e-04 -1.6290730885787678e-04 1.2781873653922222e-05 -4.4428861936348469e-05 1.6234091005743346e-04 3.5161174180737892e-05 -2.7661447280777048e-04 -1.2541433364261865e-04 -8.7395705616276961e-04 1.5639298440055477e-04 -7.2154649996985307e-06 1.5081584803807867e-04 6.4998567683912170e-05 1.1411662799223172e-04 2.1785562431276203e-05 1.4348791543380925e-04 3.3117780501818389e-04 -2.1917210221536888e-05 -1.5147589241889479e-04 -1.6536776502756471e-04 -5.4208299893503576e-04 6.6357167743529965e-05 6.2925228531793124e-05 -3.1190181628321708e-04 -2.7712687149904485e-04 -5.4753243748466990e-04 1.7521058975099137e-04 -1.0536650690586890e-03 7.0915823453255922e-05 1.8573025328797276e-04 4.2500422765052656e-04 2.4578191222567203e-03 2.3793608322362537e-04 -2.1406632183198593e-04 -7.3534549154971569e-05 3.9910012411198371e-04 -1.9716503262616253e-04 -9.5155044501672630e-05 -4.2145508764779207e-04 6.2606804464829702e-06 -7.3140098794793467e-05 7.1794881473239021e-04 6.1387080851045615e-04 -1.0828605308638332e-04 7.9732601277070203e-04 8.0511698772590522e-04 -4.8966408710941194e-03 -4.7476691589786699e-04 4.1239854790044270e-04 1.2003684023419137e-03 5.2785283238912829e-03 -2.3194977850021841e-03 -6.4020451123615878e-04 4.4380587960375948e-04 9.1852590179377356e-04 1.1474196627966938e-03 -3.6432190028251703e-03 -2.3650563951165119e-03 1.1699504079557426e-02 -1.2551822122466570e-03 3.1648718874685801e-03 4.4368664849601079e-04 5.6766598346522014e-04 4.3654913093748383e-05 -9.4838138561652226e-05 8.1217660642720398e-04 -1.5587319804196908e-04 4.2545223216632447e-05 -8.8855284632975381e-04 2.6472264242312289e-06 -1.6321988105436283e-04 -8.7434892061117944e-05 3.9814005927041188e-05 -6.9650914335459734e-05 1.5787527932199414e-04 -9.9929377324489712e-05 2.7625904583336895e-04 -1.4352677997383340e-04 -8.0988414258575568e-05 5.7188228230721359e-05 -2.9157855097811363e-04 -5.8928573749078388e-05 3.1490319342818152e-05 1.3683270193469438e-04 1.0471364737981584e-03 1.0487647675827571e-04 1.5909334180981213e-06 -2.9348821737324327e-04 -9.8698229870462176e-04 -1.4859161915778342e-04 1.1751203503088692e-05 -6.2478232575917869e-05 -2.1938600484492027e-04 3.7408163031780301e-05 7.3272994469959722e-05 -1.2535380473493313e-04 -5.5670086437697671e-05 1.4062855184663697e-04 -6.6008001429283770e-05 2.0088196707613182e-04 2.2351823048655369e-05 -5.8946646841414979e-05 -4.2345445224086299e-05 1.6189540538695220e-04 1.2695162314042772e-04 -4.7433051811100608e-05 4.0735452627059087e-04 6.8364043643847293e-04 -8.2307528073767057e-05 4.8404794266465308e-05 -6.7180025373338200e-05 1.2673238461902901e-04 5.7486385158949776e-05 -2.7086280884771875e-04 6.2070989023812426e-06 -2.2582494706595762e-04 -1.1240281607504500e-04 -1.4759359942872601e-04 1.4778748034334976e-03 -1.4630594374019060e-03 -2.9407856368642309e-04 7.0195846342818898e-04 -3.0965569334400764e-03 7.3232326037844016e-04 -1.8934864881483930e-04 2.9056401475083195e-04 3.5185117885899709e-03 -1.6812084330791930e-04 1.1034507959583224e-03 -9.5371317493558839e-04 7.8560469123502904e-04 3.2099639639163830e-04 -5.8680883551378313e-04 -3.1235079923066638e-04 1.1159216518245622e-03 -9.3646005626387948e-04 -9.5424582287880456e-05 1.9348878213161370e-03 -2.6340760835347672e-03 -1.0778510035104006e-03 -1.1413596158258009e-03 1.4356251869196872e-03 2.3818588952061415e-04 -5.4985038092498324e-04 4.9496210525062159e-03 9.3057457210166767e-04 3.5568533129373768e-04 -2.6497954127754019e-03 1.3866678346102328e-03 -1.3560260261487088e-03 9.4931813778773065e-04 2.0570767171194685e-03 1.6395195953039296e-04 -2.7074214381750919e-03 -3.2283866098003052e-04 1.8068928122184848e-03 -3.1769282142987102e-03 
      </Row>
      <Row Index="150">
        -5.1760825250490687e-04 -3.9035519276643367e-05 -8.2422813282648189e-04 3.0058278220929460e-04 -2.1826265394050033e-03 -6.0793691620460080e-05 1.5515165294325471e-05 -7.9367124763150051e-04 1.4956981988787163e-04 2.1483685351366904e-04 9.6284418914571301e-05 -2.7637687917779747e-05 -2.4755975713907117e-04 1.5001641018075020e-04 -1.2568510077636669e-04 -6.2729154169474579e-04 -1.2551596343433265e-04 -7.6121215054366200e-04 8.0763102755128217e-05 -3.8467257453092269e-04 8.7838882667340878e-04 9.6231721373963588e-04 1.2891577157871404e-04 -7.4665543554034981e-04 -2.1162330002667075e-04 -5.2593801148653998e-05 4.9981895403640106e-04 -2.9026057425751261e-04 2.7233991925938099e-04 3.4818282243705368e-05 1.6272221291822127e-04 -1.5524076198648859e-04 -1.7728083520121104e-04 -7.9866237452593393e-05 3.9608077170366542e-04 9.6027182020002946e-05 1.6331283992503158e-04 1.3539794506442314e-04 -5.7993616975014089e-04 9.5745268254040020e-05 5.5529107630415252e-04 -4.6396962758245871e-04 2.8634577123327846e-03 -2.2344956627200614e-04 2.5278708633547130e-05 1.4590522216671889e-03 6.0542858906115107e-04 4.4357533691320489e-05 -2.6654652064021328e-04 -2.9230728794333113e-04 2.6341360522809165e-04 -7.2561162883773918e-05 1.3656485884704550e-04 -4.0321483659552966e-04 -1.0708015650483195e-04 2.1988940066561521e-04 -1.6030416520125974e-04 -4.1348721121560721e-04 -7.7598678983463974e-04 -9.5939028963183757e-05 -3.3571164622228622e-04 1.7619181617175763e-03 -1.2328157554870010e-05 8.9106325972663830e-05 -4.2669411332893611e-04 1.3089533320002119e-03 1.2082147584627418e-06 -8.0812487223562261e-05 -2.9855866232675798e-04 -5.1118092258674839e-04 -1.2536770232189642e-04 3.3461594552373864e-04 2.8736097326363306e-04 -3.0898500470908854e-04 -5.6017285707335600e-05 -2.3735076120129302e-04 1.3947395517059516e-04 -2.6285312800109319e-04 3.0734395487990807e-04 2.0764720967962559e-04 -4.9797133413313028e-04 6.0542534351884915e-06 9.6781350685427129e-05 3.5724172831075362e-04 4.4041773540295513e-04 3.3253511111855177e-04 -1.5526212056112443e-07 -7.0131463026205780e-05 7.7913122968220456e-05 -2.6888217411812727e-04 -6.7996511917147077e-06 1.1643339028482531e-04 7.7615987353060241e-05 7.5606572083309579e-05 2.2297750469532548e-04 6.2112270665436024e-04 -1.5774377110708672e-04 1.7146333007826204e-05 -3.0647686167472845e-04 1.2734363272023327e-03 9.2796741028550327e-05 2.6933402142807918e-04 -1.0633293993713583e-04 -1.4207178602029498e-03 -4.4318682951315243e-05 -1.2132205987936983e-04 -1.2462039175078484e-04 2.9952778423120315e-04 -1.4514330464652001e-04 3.1159740079450479e-05 1.0097834442219540e-04 4.2671529930776166e-06 1.1340196813784602e-04 -9.0339541877713019e-05 -5.7403630946345659e-04 -3.9025185917370797e-04 2.2678416297912694e-04 1.6079145876488353e-04 6.3361804505922736e-04 -7.5287127959196949e-05 -9.1418457588680805e-06 -7.6942310372100388e-04 2.0496291202761968e-03 3.1598461021898049e-04 8.4280043376253313e-05 4.1414553751496541e-05 2.9994906618900728e-04 -4.1854453063791438e-04 5.4542552665960292e-05 2.0136044346471291e-05 -7.4685152931445171e-05 3.9892456680818795e-05 2.1893689265754619e-04 6.8327141804905289e-03 1.4341983680388097e-03 1.0108917304225976e-02 -3.4582439269740298e-03 1.0874542127755753e-02 1.4571788857502650e-03 -6.2268577071062899e-04 -2.5414638412902727e-04 -9.4455603199497303e-03 -1.9380149793898384e-03 1.7643550090713890e-03 -2.5078646357388642e-03 5.6379279789935581e-03 2.6715157090513686e-03 1.0820543760365844e-04 -4.1274874534213022e-03 -1.2551822122467671e-03 1.6031226218739925e-02 7.4762514330507291e-04 5.8147184054668506e-04 -4.1859016473390776e-04 3.9070106490019603e-04 -8.0974698293397946e-05 3.7144968509966866e-04 -1.9460910914301770e-04 -2.5006953318765658e-05 9.8570664806163955e-04 9.3997848095621556e-04 4.2850235282787150e-04 -3.6213274170382402e-05 9.7288894547037567e-05 -2.4868223468616001e-05 -3.2731464883696884e-04 8.1169766849317521e-05 4.8135418050062787e-04 -2.7104645159165088e-05 3.1694529696673452e-04 -6.1912743844514182e-05 4.8585054218188936e-05 2.2260484498103536e-05 -4.3217250078502302e-04 1.0995383569227171e-04 -9.4494863297602569e-04 2.1021014385439875e-04 9.1321370343275796e-05 1.2780650607226705e-04 1.1162552115725171e-03 -2.4045109128497560e-04 1.0333351073005536e-04 1.8041709111222309e-04 -7.4437589234508392e-04 -2.9193187956384286e-05 -8.3670041105076012e-05 6.1897410490297715e-04 1.9328806385280931e-04 -3.4919594336332041e-04 1.6259001979506180e-04 -2.4830385778885022e-04 -6.6748031289963613e-05 -7.6308756666476846e-05 -2.6780944156346926e-04 -7.1997548133123992e-04 2.0637579952548842e-04 4.9670716477223569e-05 -7.3218476723344061e-04 7.3382783395513644e-04 1.3088446246041372e-04 1.3752072954811444e-04 -4.8474708968291244e-05 4.6781338782004537e-05 9.5266691886388194e-05 -2.8584487140953914e-05 5.0539637590782768e-05 1.5792855469849460e-05 -1.5374489552223242e-05 1.0668353486327073e-04 -1.9486895779505789e-03 3.7445046714059923e-04 -2.0353382288930666e-03 3.7748621053072134e-05 -5.2639755573700899e-03 7.3301952700805439e-04 -9.6191497023856963e-04 -1.4868786228131562e-03 2.3618075616555802e-03 -3.5482009557575721e-04 1.1213723994854302e-03 2.0877407120704775e-04 -3.9423089424364590e-04 4.6740949889721500e-04 -1.6564154378005195e-04 -1.1449653141439803e-03 -4.6317215201365294e-04 -1.5932095584899064e-03 7.0594437868794950e-04 6.5693446279820825e-04 3.3835165132727382e-03 1.0243372617699735e-03 -3.4089600278124944e-04 -2.7240408636691393e-03 1.1632394437787014e-03 3.1630175721385862e-04 -5.5349998247368514e-03 3.5604794791406994e-03 -5.9104240832827837e-04 6.2659761034504426e-04 -8.6149947657667846e-04 -2.0962225411563238e-03 -1.5726059848868946e-03 -2.1432812427994263e-04 -1.8557186513472796e-03 3.8768024564937872e-04 -2.7412923228505200e-04 -8.1153262570885648e-06 5.4336307080641482e-04 
      </Row>
      <Row Index="151">
        -5.5469916695901662e-05 -1.2125347297642815e-03 3.9196833133497283e-04 3.5475214527042395e-04 -3.2715152442042497e-04 4.4375966915214272e-05 3.2835235135212672e-05 -1.4303840257303135e-03 -8.6554454918884045e-04 -5.5493124576030874e-04 8.6722340446194297e-04 1.4435494880181329e-05 -9.7059236046265400e-05 2.9419134466059392e-05 -9.7611263586854543e-05 1.0680061102844108e-03 -1.5037440340397238e-04 -9.9571837454796603e-05 1.3309204660146557e-03 2.8825772455423658e-04 1.1193768968794319e-03 1.5970877232831214e-04 2.9338736004558903e-04 -7.8551332700806109e-04 5.0217195236829928e-05 8.1032422393819241e-05 7.2750278070853091e-04 5.7787434517146252e-04 -7.3062308727791484e-04 7.0965614005636312e-04 8.6931939583301948e-05 -2.4793398278050491e-04 -3.2034296256149805e-04 -2.1345958501469971e-04 -4.3572538312205283e-04 2.5987287707358034e-04 -5.1731932438613603e-04 -5.3038679808089899e-04 2.1426609608690477e-04 4.0815522499798584e-04 -1.4636761602140891e-05 3.3271297415702478e-04 6.5234502353314280e-04 -8.6855066271920509e-05 -8.8618244626615349e-05 1.1645257864547455e-03 -1.1713310331438499e-03 7.5758860849716499e-04 2.0673189833566447e-04 -3.7030512988633392e-04 5.0432121798726914e-05 -9.1451876165542581e-04 -1.2935006335806996e-04 1.3021995009178779e-03 -4.2295978870658668e-04 7.1028492654688635e-07 -1.7605295829692734e-03 -4.4143797839696353e-04 -1.5771456958771069e-03 3.3201897649960503e-04 8.5838717237770451e-05 -4.9540411311543733e-04 1.2808168924136531e-04 -1.6564764992694353e-04 -1.4199230520599085e-03 -5.4901157737093781e-05 -1.0836243793498502e-04 7.5395143659040195e-05 -4.9789054544386137e-04 -2.8624404002412958e-04 -1.9541584539386906e-04 -3.1068717807294574e-04 -5.7006694550227471e-04 -9.2435567856936148e-05 -1.2259998149364388e-04 -1.6243637822884382e-03 -9.9518199472948404e-05 -2.4725334485252697e-04 3.7422558910550044e-04 -1.0843553769451921e-04 -4.8154750628522330e-04 1.2273926403034860e-05 -1.2392864252006508e-04 -5.2746279117773381e-05 1.0184972520684288e-03 -1.8317250158578734e-04 2.6841766113370113e-05 -1.2587121357359897e-04 -1.0776766495771011e-04 1.0476132214556964e-04 -3.1350794968840027e-05 1.1248747093801155e-04 -1.9222317877182801e-04 4.1945908663980694e-05 -1.3420201466299102e-04 2.7308620423689180e-05 -2.2997922692568305e-04 6.1458112662286096e-06 2.8291767953319007e-04 -7.6980719450844316e-05 -2.2729272853062269e-04 -3.7403588915354375e-04 -1.0994486733220503e-04 -1.0739493586960913e-03 -2.3999083697392510e-04 -2.6372772712271930e-04 -9.2484893888345929e-05 -1.3682548413329436e-04 -3.8522251045132867e-04 8.0646340493031312e-05 -2.4813987351551196e-04 1.7579975868897398e-05 4.3925749071583296e-05 5.0589908271410572e-04 1.1791615096747683e-04 3.3388479209067994e-04 2.4802837332114523e-04 -1.8291124116495913e-04 -1.1162984428974712e-04 1.2945351188662084e-04 -6.1523439605029666e-05 1.6280686608760272e-04 1.4143902342383385e-03 -2.4665251070234327e-05 5.6656954854132944e-05 -6.7636035177904468e-06 3.4783232821954091e-04 -2.3344435255541951e-04 7.9090813684838153e-05 -4.0255680511221831e-04 6.4586786111410960e-05 -4.7036589365412643e-04 -1.9697453206533573e-03 -3.8327167575326576e-03 -3.2093109591747101e-03 3.8428875636052242e-03 1.2854876852710101e-04 -1.9745342256300195e-02 3.2696188954872365e-04 -1.3631635482874309e-04 -1.7213083958014921e-04 3.8490885586041248e-03 -2.8252009612053024e-03 1.1734465984145784e-03 -1.0117366728660152e-04 1.4677551259660961e-04 -4.5304942459718283e-03 4.7978097368444700e-04 8.0237118478014569e-04 3.1648718874685271e-03 7.4762514330510880e-04 1.6267760646556162e-02 -6.4131323163814521e-04 2.0074413121174334e-04 2.1644753656936688e-08 6.8504763534948260e-05 -1.4577968887491614e-04 -7.0903078220709432e-05 3.7473297391129225e-05 8.5606189651616998e-04 4.1666473370055812e-04 3.0502627056236040e-04 6.7217241010112289e-05 -3.2391631221187091e-05 -3.3524919665721723e-05 2.6866899553590034e-05 1.3794924599668548e-04 -6.6646413663961116e-04 -1.8276888346627289e-04 -1.5961132087860698e-04 -7.5817760660706695e-04 1.8695869169774691e-04 -7.1194923284503874e-05 2.3129546819138785e-05 4.1223850173390040e-04 3.7503425666939136e-04 -4.6066392704910680e-05 5.4649240547240477e-05 5.1627513875361804e-04 -2.3027201347180538e-04 -3.1661276726833391e-05 -1.2875400966439574e-04 7.2737904350276324e-05 -4.0194242745187898e-05 4.4141318035955085e-04 1.1397124693920960e-04 -2.0608378409585695e-04 1.7393697608203884e-05 3.4708349068001201e-04 3.4799951185712275e-04 7.9335030636718679e-05 -8.1441262381898457e-04 4.4056510770577558e-04 -2.5301279776891196e-05 -8.8276830095275835e-05 -3.6877287138580754e-07 -4.7321731857002575e-05 -8.7898938433038213e-04 4.2139579724523237e-04 1.9069539300270390e-04 -4.9214463148387982e-05 1.1589292231878562e-05 -5.7579616440360060e-05 7.4936248925583338e-04 -1.1631614046769679e-04 9.1610665942149392e-05 -9.5730943827664576e-05 1.4136473294891968e-04 1.2189911710864640e-03 1.3031602161292142e-03 -4.2666493736801539e-04 1.8562643871037608e-03 -6.4956210979687777e-04 -1.7990359333164478e-04 1.0066828554615207e-03 1.1369361802079881e-03 2.1918882104414385e-04 -2.9081150681590506e-03 1.6468440679096811e-03 1.8027594417567054e-03 7.5616959305953692e-04 9.3503450975637270e-04 2.1775678190327622e-03 -6.7304728578382279e-04 1.6847121049760844e-03 -2.2285844562097072e-04 2.1493183612902910e-05 1.1299330467770116e-03 -2.1307071183325286e-03 2.3676713391192865e-03 1.1753175431568891e-04 3.2261190603845346e-04 -8.4747374019328130e-04 7.7311183519802808e-04 -8.0899951580277909e-04 -3.4923979331551004e-03 2.3920892371034510e-03 -2.7141629462623142e-03 -3.9727894292311090e-03 -2.0413130890606121e-03 -8.0189734939087299e-04 1.4199611374116601e-03 2.9423085523068730e-04 2.4535103943881605e-03 4.0372313917295391e-04 1.9650046027864403e-03 -7.3941719089106270e-03 5.6647717389432745e-03 
      </Row>
      <Row Index="152">
        -4.5395240786522087e-02 1.6755072940284998e-02 -7.6941921811652936e-03 -8.3619613954505588e-03 2.8007273683477996e-04 1.4317975510218212e-02 2.0324427196379002e-04 5.9172567107418361e-03 9.5415474668499867e-03 1.1068136671259655e-02 -1.0004425757441295e-02 -1.7401050676406956e-03 -7.1315800352580679e-04 -2.4856197960901414e-03 9.1285636715482399e-05 5.7108855429154337e-03 -2.4353731603895552e-03 4.5196329565623250e-03 -1.0485799946532611e-02 -1.3339525692609538e-01 -4.7418191135710219e-03 -4.3069435950362500e-03 -3.4902962516292907e-03 -1.0814873065339237e-02 8.6324696129478629e-03 3.4714325762663038e-04 -4.4668860794317700e-03 6.5290110716827554e-02 1.0317636080318715e-02 -1.2261485587718696e-02 -8.6094593962970922e-03 4.1197876368997185e-04 8.0750449355932452e-03 6.6043225288323071e-04 -1.6545576551062702e-02 -2.8828920343271537e-03 1.8655360389133735e-02 4.6350324883248639e-04 -1.6399500286079827e-01 1.1419171651007254e-02 9.0624791799607252e-03 -7.7292471653859218e-03 -7.6402293594082238e-03 5.1627100867979170e-05 2.5211674009439911e-04 -1.5422931844744414e-02 1.2089846156478790e-01 -1.4089454840838289e-02 -5.7027309061694620e-03 1.0641915392214374e-02 1.2717794176923980e-02 1.5172873990915214e-02 -2.1185994365797711e-03 -3.8851996361441155e-03 4.6492244728690846e-03 1.6032973601119386e-02 6.7735526758537223e-03 -9.9053770263584084e-02 1.8611945359902626e-02 -9.9291603126230310e-03 1.0507034554447181e-02 1.2556227083697205e-02 -7.6720971351090794e-04 -6.8077648502273824e-04 5.5395403347362482e-03 5.4336947531865243e-02 -9.7473897381024632e-03 -2.5999027056605728e-05 1.7601067884282777e-02 3.8488441867934320e-03 -6.4039113223936239e-04 -2.8399223984370003e-03 6.2615598948900786e-04 2.3435079778058032e-03 1.1179526239506063e-02 1.2118366169940276e-02 -6.3776953597044495e-03 1.3866014150619721e-03 1.6063029299937803e-03 -2.9403777090808401e-03 5.6340237090619916e-03 2.6805029828088148e-03 -3.7589482279664146e-04 -9.7457377081933139e-04 -1.0091077962570694e-04 2.7401779592196585e-03 -9.1488352471679607e-04 2.9838426283212427e-03 -1.4817604921974637e-03 1.3015606381907574e-03 5.5954020455880812e-04 9.7988784031026455e-04 -4.9682532838865590e-04 1.7064482502858469e-03 -5.7624367396910681e-05 2.3963959737184071e-02 3.2868800744537130e-03 -7.8745418260724176e-04 -1.4730265792092523e-03 2.6444816817161598e-04 -5.3730026460030444e-05 -1.7897053928784931e-03 -3.2747412169635282e-03 8.9367731016531948e-04 7.8313877544221450e-03 3.0797769456452758e-03 5.0993450855058818e-03 3.7542204926610113e-03 -1.0695869521786597e-03 -1.5839119609456810e-03 -1.4044565739234210e-03 -1.7438399999064047e-03 1.1004274751424264e-04 -3.0102891541077328e-03 -7.4859022868986574e-02 1.3067818327921921e-02 -8.8476808576652965e-03 7.2538211439541469e-03 -5.3075074285226726e-03 -7.8095351158128275e-03 1.2101707490482592e-03 3.5309534747591381e-03 5.2424148637595369e-02 -4.8467088359102888e-04 -5.5741354731239151e-03 -4.2769696287765363e-03 1.2490454084468548e-02 8.6850193284162963e-03 -1.3892310317091018e-04 -1.1313090878263488e-02 4.2764828235095781e-05 1.9854264767312606e-02 9.7488114823187470e-03 2.6482910163526021e-03 -2.0384465661389684e-04 1.9891030597652890e-04 -2.8521848742362257e-04 -2.5205951608130162e-04 2.8752909137604770e-04 -3.5681208506408986e-04 -1.5299318451621729e-03 -1.6984195742509711e-03 -5.4878400678040617e-05 2.5378367215193832e-04 -1.9397092671313471e-04 1.1590868576589787e-03 6.2125104002561451e-04 1.4101553523664882e-04 -6.6140076614389608e-04 4.4368664849766355e-04 5.8147184054655777e-04 -6.4131323164076659e-04 1.8635521025990937e-01 -6.1693596038918073e-03 1.0906989173814576e-02 -3.7965276101023116e-03 6.9773852695645712e-03 6.6199922006189892e-03 1.3771193318190544e-05 -2.3777478820399017e-02 -2.4585479774894725e-02 -8.7923181115669158e-03 -4.5896014127372320e-04 2.4331900603226661e-03 -5.0116241644845259e-03 -4.6265602381559585e-04 3.6370465401835183e-03 -1.4393015239775341e-02 3.5665762090444798e-03 -7.2604651089171095e-03 9.5571245362316305e-03 -1.1403161941895057e-02 -1.1221442825107945e-03 -6.6061274303825801e-03 6.6159874449595751e-04 -6.3815215264635509e-03 -1.2951807509564697e-03 3.2788942432138146e-05 -1.7931956435481844e-03 -6.3353452873594618e-03 -1.5904396496291872e-03 3.5590709017173927e-03 -9.5526127267792083e-04 -1.1674582869863869e-02 -6.9780980821778499e-04 4.0927925439015241e-04 -3.5975141023847357e-04 1.6787151312513118e-03 -4.9909427921072842e-03 -1.4353725044839449e-03 -2.6222297228275626e-02 8.6978870505096811e-03 -7.9114217379977762e-04 1.6274469021836779e-03 -5.5154898489385941e-03 -4.7317088025986383e-04 -2.4406255179149040e-04 4.9181964857739624e-03 8.2274722814703483e-03 -2.9764864758743607e-03 7.2836246613517113e-04 1.1905477413505687e-03 2.7197612677152083e-03 5.8723142251079839e-06 -6.4415557507284111e-05 1.7604049427807770e-03 -7.8289164248364145e-04 7.7754233995053993e-04 -1.0930360133086381e-02 -2.7349366744758002e-02 4.0019015374603124e-02 -3.0979048634552322e-02 3.0711349066323161e-02 -6.1847683251752335e-02 -2.8875223516386099e-02 4.9334149397850307e-03 1.4853289380302835e-02 1.8963480493320684e-01 -2.8613656882670556e-02 -3.1773289983290355e-02 -3.1442381517886073e-02 3.2451418487763173e-02 1.2847957434231509e-02 -5.3098654782804591e-03 6.3248009968869257e-03 -7.8402428051334433e-03 6.6603864696658299e-02 -2.7758228386333066e-02 5.1744956289364319e-01 -6.6173844264029169e-02 4.2152524779101766e-02 -3.7650903153540569e-02 -4.8839095625549181e-03 -5.8131711756029325e-02 -9.4486054954573753e-03 4.1837038824962064e-02 -1.4195707140152558e-02 4.9475978189986863e-02 4.0628567400767965e-02 8.7903233073876902e-02 -3.7130767284160024e-02 -7.2646560770189767e-03 2.6260683011114123e-03 2.1582646277701165e-02 -7.3976612111178452e-03 -4.0418062438339050e-02 6.4727990279717068e-02 -4.6023853154648703e-01 
      </Row>
      <Row Index="153">
        7.0416458878092749e-03 -1.3843110556883226e-02 -4.1771571670578267e-03 2.8552961210752143e-03 -3.8031031741808108e-03 -4.9409749881512005e-04 -1.4766950086961238e-03 4.5980539998009579e-02 -3.2488203852736715e-02 -5.6099890401542455e-03 -2.0294114380715877e-04 1.7107376404709694e-03 8.4715620237479092e-04 2.2634468965060252e-02 9.6436543843957806e-05 -7.3472767301643871e-03 -3.7929295309977015e-04 4.9919221818848780e-03 -1.9046589784025786e-03 -3.8877608000441669e-03 -2.5171230329079551e-02 -9.7256249222617830e-03 8.1094285441554378e-04 -1.1822070228701381e-02 6.3607928325837282e-04 -5.7729171178969095e-04 5.7349510566931217e-02 2.3979035910535046e-03 -4.1903703101860389e-03 -1.5509962479795456e-03 -2.3221145692878253e-04 1.5174537468451129e-03 -3.7369944988691001e-03 -1.3965894519721578e-03 2.0885721681898062e-03 -3.0440133589664138e-05 1.3153489321531889e-03 -8.5096844295323715e-04 4.6508062630450098e-05 3.1415984724656565e-02 -2.5811520905112961e-03 -2.1155188062878250e-04 -4.7092043298805064e-03 -1.6853652303165378e-03 1.6333037015749952e-03 -7.2948479006774397e-02 -3.8241871293514418e-02 4.9937219014319773e-03 -1.9579711865254229e-03 -9.4613160458906220e-04 -1.4576282939053747e-03 -9.5677706078922675e-04 -1.6616235544277616e-03 6.9900504093950329e-03 1.7138592194017033e-03 2.6338451450127164e-03 -2.9829084326626482e-03 1.0908181678595530e-02 4.9551082970427776e-02 2.4046112148571400e-03 -2.3238208124751886e-04 -1.3371317180237777e-03 -5.2956424914463868e-04 6.9093491205013402e-04 -1.4181581233422280e-03 -3.1375607651202592e-02 -4.5578889792937255e-03 4.0602928065429367e-04 -9.7235245618613932e-04 -4.0161889212062679e-04 9.4797014614877093e-03 -1.3076946456818117e-03 -1.0155403075912700e-02 3.0026516035086773e-03 5.9061061771586397e-03 -2.4101872343858730e-03 -2.7158302259894795e-03 8.7345224171395328e-03 3.0696116676447172e-04 -4.5649363802601536e-04 8.3582537965071549e-04 -4.3242745825047228e-04 1.7592455587464180e-03 -8.7110612763687256e-03 -1.3532756491412556e-03 -1.7025632865250995e-03 -6.9063784795996702e-05 -6.2698152085526385e-04 -5.2513446385562754e-05 -4.4750739493890773e-04 -4.4914501547742638e-04 1.1679610821921371e-03 -6.2026961405644947e-04 1.3813570545175777e-03 3.6696978308025686e-04 7.0831605620316901e-03 -3.2910636234610713e-05 6.7202249265138105e-04 2.9099383826105690e-03 -3.8087554446403493e-03 -7.8929994390831461e-04 5.1499757255817754e-03 -1.3422093414960187e-02 -5.6120203820269166e-02 -4.2650527323838186e-03 -9.9302498659830643e-04 1.1953959210290602e-03 -5.3227394163974512e-04 -3.5007438557248596e-04 5.6529063963061017e-04 -3.6934310170547852e-03 -6.7434626316840648e-04 3.1625044652493850e-03 -5.7199700592130975e-04 -1.9582796366729108e-03 -9.1323862906453335e-04 -5.5336210679413286e-03 -8.8380723073128360e-04 6.7403627526853634e-03 2.5026870485301451e-03 -1.9871405710216289e-03 2.6460868294598948e-02 1.9146781890182013e-02 2.5290800795805847e-03 3.4663929896587000e-04 3.6570495192165837e-04 9.5836239875119822e-04 -1.0299857639088812e-04 -3.8185037904539662e-04 3.0190043886141327e-04 1.6264303309098975e-03 4.4677972207517284e-03 -1.0338275443343421e-03 6.6531534980549889e-04 2.6350724252440574e-03 -7.3243204500355328e-04 2.4672435429432915e-04 -2.6710116420414795e-03 -7.3729400460661977e-04 -4.6847302812820697e-05 -1.0793729184638756e-03 1.2919933087567482e-03 -5.7540158767253489e-04 -3.4161762702371778e-04 7.5129417126111912e-04 -3.1188425232547292e-04 4.8034658229929882e-04 3.3994480091276938e-04 -1.0874465532506475e-03 5.6766598346522676e-04 -4.1859016473413382e-04 2.0074413121135871e-04 -6.1693596038486856e-03 1.4014701325393347e-01 -2.6114808691982197e-03 2.6418713720238593e-03 -2.4829353196213887e-03 -3.5506957219083924e-03 -1.2238041300903679e-03 -3.6269003789700188e-02 -9.3661165900443127e-03 2.4770843723166489e-03 -3.3722989026007616e-03 8.5439308506531537e-03 6.1824128792238413e-04 1.0855561500443915e-03 1.7144338972466516e-03 -6.5558557772341791e-03 -1.2426109860422612e-03 3.0549380827122052e-03 -2.4293311520218620e-03 -2.1010553186019965e-03 -4.9419854907617536e-03 3.2875359811241345e-03 1.0489859868851644e-03 5.9532898203687977e-03 1.0864003715270977e-03 4.6809230178457284e-04 -8.3163482501365238e-03 -5.4284147000182026e-03 5.1602596361570961e-04 9.7239348623739258e-04 -5.3752968003793408e-04 2.8953063862795260e-03 -8.3275471062886912e-04 -2.1064193713169420e-04 -1.0691174286870109e-03 -2.9874376326286748e-04 -1.2423209770409229e-03 3.7664037583230378e-04 1.2389568908204029e-03 1.2265639597391865e-02 -2.5343314138850659e-03 6.9017167773322290e-04 -1.0137908929943504e-03 -1.2919286314413811e-03 2.8013462850035118e-04 1.8721123976216524e-02 -6.7236904316264889e-03 -1.0421583102252219e-03 -9.2769278501654909e-04 1.8001862073765648e-03 -2.9583415231198532e-04 3.4738737606696346e-03 3.9426490226043256e-04 -6.1315704497522973e-04 -1.0363528737142086e-04 4.7434455908380532e-04 8.7947128002061666e-04 1.6490486301635743e-02 -2.3800074980801805e-01 -1.8180014012895450e-02 -5.6005607290165087e-03 6.4984258884180661e-03 7.7432130504082389e-03 -1.9985331181271014e-02 -7.0820455354209028e-02 -1.5840912976921778e-02 7.1993251926192273e-03 7.5092910970305290e-03 -9.8615533809095351e-03 9.9883752221942637e-04 5.9725087761001369e-02 -3.9394698117372661e-03 4.4714472606458000e-03 6.3734239548530261e-03 6.7796225309566544e-03 1.2114803296756176e-03 2.9347479829165760e-03 -1.9566162084023342e-01 -1.5090604803966970e-02 5.7965939216697501e-03 8.0306452311980081e-03 -4.9263888412519460e-04 1.8857697831193843e-02 3.0744721525600782e-01 8.6263704365246663e-02 -1.9636562359427838e-02 8.1409873089682491e-03 -9.9646630614326284e-03 6.6019192622174374e-03 -1.8879422318121827e-02 3.6001430204287491e-03 2.1107961366200030e-02 -5.2132683866787030e-03 -1.1311748092349090e-02 -4.9015371197743511e-03 -8.1145447643906576e-02 
      </Row>
      <Row Index="154">
        2.3807034307706887e-03 2.4006935111424321e-02 -5.3612771803262127e-02 -2.2926011234792325e-03 1.6297444433565372e-02 3.5347784512620856e-03 4.0355042943115982e-04 -7.1962783181948042e-03 5.6014138252074436e-03 -1.3997069333872272e-03 1.4365134504617724e-04 -1.3811488454993665e-03 -8.6691938324612967e-04 -6.2511666307209441e-03 -5.3646531057826782e-04 -3.1733532388666941e-05 -1.5431716605266267e-04 -2.5617240571071537e-03 2.6249994209281004e-04 -1.0958014089717180e-02 -4.5691678683008885e-03 1.1424097436779829e-01 6.6479609443825770e-03 7.1194771221392839e-03 3.8420564443116326e-03 -1.1975790317461611e-04 1.5386061499512577e-03 8.2511924502193162e-02 -1.9210540146229887e-04 -8.2240309332785866e-04 -6.3785171734959123e-04 -1.1459637049763068e-03 1.8276037661992539e-03 3.2179687771891757e-04 1.2774187914580404e-03 -1.5813928102941226e-04 -1.3992111507691030e-03 2.1276427362005024e-03 -8.2976759425743840e-03 1.2595217419125282e-02 1.6330285734993655e-01 7.0088775243146717e-03 -1.9551559445828981e-03 1.2876887241885238e-03 6.8261328121588249e-04 -7.4651087641299518e-03 1.2084665526082786e-01 -2.5534865421764363e-03 -3.2022846970569674e-03 4.8126861894107476e-03 2.6544071655035251e-04 1.1543507711158640e-03 -2.0983717642350797e-03 1.3252728020739929e-02 1.5823075226011341e-03 -1.9748621515348869e-02 3.3656467960984371e-03 -1.0541115090397568e-02 3.0097044316928549e-02 -5.7649864574443904e-02 6.2937310672181446e-05 -4.7925359644318447e-02 5.7808060074046597e-04 2.0308477564667804e-04 3.5433064884493604e-04 -2.5504680434196514e-02 -2.8701237482710723e-03 2.6188011630907948e-03 5.9263712905652556e-03 -1.1808025172995312e-03 4.2193729119741341e-03 -3.0881818749401990e-03 -9.4654008058742134e-03 -7.6863409853912545e-04 2.9563179917232590e-03 -1.4688377523999485e-03 1.7028520512959444e-03 3.4764313576595429e-03 2.6385995772884738e-02 1.0517985737611060e-03 4.3018868459424771e-03 5.2605791876014513e-04 6.7427226403381745e-04 -2.0037413495747058e-03 2.5225018492538220e-02 2.0663448141672869e-03 -9.6004306079167101e-04 1.0262644825425465e-03 -2.8924956839773003e-04 1.4397468976584810e-03 5.2815770481445118e-04 1.6161624170569558e-03 -1.7573548883775131e-04 9.5047651270342703e-04 3.0511641950612539e-04 -5.2318643183199287e-03 5.6417175416836468e-03 -6.3746481908341160e-03 -2.9103631935912047e-03 -2.9032459987457210e-02 -8.9298060768091755e-04 1.7223162244184287e-03 1.2235802943926649e-03 -4.0772462021996358e-02 3.7475276447110351e-05 9.7226806949955594e-04 1.7683302387120187e-03 1.4401088698880104e-03 4.6973501613564971e-03 -1.0700374392398990e-03 -3.6682222453478450e-03 -2.4375051323638486e-04 3.7022444267528418e-03 -1.6541546196357747e-03 -1.6065692550452204e-02 -5.5132930036858041e-04 2.9926430512743740e-02 3.0936482640181824e-03 -2.6461935075873721e-03 -1.0510726435937513e-03 -2.9320650688985286e-04 4.4079067142025474e-03 3.3201084122952473e-02 -2.4217636965823638e-03 -4.7370127046044049e-04 -8.9122399778707867e-04 1.0555270660788354e-03 -2.7065104009187102e-03 -5.2919980595866282e-04 3.0632670502969694e-03 5.7730428078666372e-04 1.9126217802360273e-02 1.9930785026100080e-03 -1.5776813100426869e-03 1.1353898405431729e-03 7.6122406208154608e-04 2.2072154832763861e-04 3.2911237130360729e-03 -3.8495865247224574e-04 3.7131156807172316e-05 1.2926734465753924e-04 -3.3666556806766111e-03 -2.1078538642683563e-04 -1.6758846876652493e-04 -1.6098848756618636e-04 -7.0240436428179549e-04 -2.4791992288221779e-04 -2.3822895798704044e-04 7.7452228851837557e-04 4.3654913094212829e-05 3.9070106489964059e-04 2.1644752476457363e-08 1.0906989173876683e-02 -2.6114808692089680e-03 1.2281598985882469e-01 -7.1033803902365387e-03 -3.8697421748742711e-03 2.6872034287039742e-03 -2.7255156336952600e-04 7.6205089775288164e-03 2.6546096488845303e-02 -5.7833346454524703e-03 -1.7425512249613423e-04 -1.0940395102523410e-03 1.0735785781467305e-03 2.0162061337362074e-03 -9.9754827993524275e-04 3.1553364461061953e-03 -5.3029260861620423e-04 2.3668633280632054e-03 3.7744819618831067e-03 -3.4483523275014027e-03 -5.5504670951857342e-03 -2.7629751008839687e-02 -1.2462153322665035e-03 1.5985330557603088e-03 -1.5706280813186798e-04 -7.5726133130032958e-05 8.9180321100124083e-04 -2.9848706860308771e-02 1.7539262905730876e-03 4.7809113752843573e-04 -1.0182587015547945e-03 -1.3116850251571541e-03 6.4759931598609407e-04 -4.8919910377477214e-04 -4.1872958811373096e-03 -8.4067624768748407e-04 1.7881337350749542e-03 -1.6673433328873097e-03 -8.6830944742516403e-04 1.0578303866369829e-02 -2.4436279671176061e-02 9.2944454369417191e-04 -4.8770908786256303e-03 -9.1575552616776667e-04 6.8454541397568224e-04 -2.9320637212882170e-03 4.8449019036903764e-03 -4.1190269310188536e-04 -6.9349137856729163e-04 -3.3767811593809983e-04 5.5957930965723458e-04 -8.9241113055870650e-04 -6.6717101934543567e-04 2.9572018518561607e-03 -4.2917624947462620e-04 -1.5115187774115768e-03 3.5502862181189133e-04 2.3282802452858534e-02 -7.3171302999032947e-03 -6.8152961000317841e-02 3.1026489853778889e-02 5.1613782956295387e-02 -7.3602300392134039e-03 -5.3430813885216449e-03 -3.9031989046676090e-02 5.0996340432739588e-02 4.1224068687110548e-04 -3.2238030249437115e-03 -1.0971081595412574e-02 -3.5890730973769211e-03 -2.1415863767956039e-02 -1.4766285568466029e-03 4.7445711670157653e-03 2.7203169133251678e-05 1.1381281352915978e-02 -2.9953207322374652e-03 5.6860543148934364e-02 -5.0394077626641109e-02 2.7995842942025673e-01 -2.9278263466025294e-03 4.2097418960651840e-02 -1.9961167142331204e-02 6.8360742293810811e-03 -9.6701742162420140e-04 7.6701975629385744e-02 8.8481746396559917e-03 -1.0295856174629824e-02 2.6092328751318988e-02 -5.5520080061994678e-03 2.2107785420199911e-02 5.1465476508415660e-03 1.7194940124641456e-02 -4.8356996108425004e-04 -6.5244002258986217e-02 9.7794839570854164e-04 -1.8224114370486508e-01 
      </Row>
      <Row Index="155">
        5.4505073503107017e-03 1.8024437507811464e-03 -4.9460514985329336e-03 3.2862801018179483e-02 1.0055100035507050e-02 -9.9870504121177678e-03 -6.4307154073098066e-04 7.6263047806890416e-05 -2.8623478665575361e-03 6.5083905267021959e-04 1.9804575104135592e-03 -1.2306266951149581e-03 1.7746065948070968e-04 1.3767784135542676e-03 -2.1691623968021930e-04 5.7505095879591649e-03 2.6599668953631992e-04 1.0185757188371832e-03 2.5897656957219310e-03 5.7799263815420197e-03 1.4483877863460792e-03 7.5531962973067399e-03 9.0418336005970226e-03 -2.3384682992595197e-03 -6.9942863967424121e-03 3.0030528879831377e-04 1.0481918583343268e-03 -1.0833096783589798e-02 3.8517736818515788e-03 1.9393010294753068e-03 3.0575934944645534e-04 6.4641072449342731e-04 3.9508672360550594e-03 7.8672734208042831e-04 8.7486177500378324e-03 1.3007905474770904e-03 -1.9553512331599212e-04 1.6671144148379712e-03 1.1867236262167909e-02 -1.4749982789694291e-03 5.5603758058818467e-03 3.0887216463959935e-02 -4.4891492839221697e-02 -3.8224821132663844e-04 -6.4256893478826203e-04 2.4628547847074245e-03 -1.5945859690518396e-03 -4.9117470060642404e-03 6.1295038056859499e-04 -2.0800742934910504e-03 -5.6014641646591392e-04 -4.4302227776551687e-03 -5.6368154046300065e-04 -1.2517220661601648e-03 -1.5774286548319444e-05 5.1810431094429800e-06 -7.2876009258940316e-03 1.0303831628112863e-02 -3.3068729487451894e-03 -6.6740097694066858e-03 -5.9238356511517980e-02 -1.6715504240585592e-02 2.4935482530274548e-03 8.5852555264932101e-04 1.1341441165074045e-03 2.7034016170712702e-03 6.7875048386051460e-03 6.5708855356045332e-03 -6.7490186206682222e-04 2.0823145428133646e-03 -3.1468426870139642e-02 -3.6480548777506963e-04 -1.8977436184522994e-02 1.8234980811761190e-03 1.4033470281223041e-03 -3.6547789877606840e-03 2.9194564932555015e-03 1.3157064654321883e-03 2.4822149128715947e-03 1.4462780627325070e-02 -4.1473118281346597e-04 -1.0266024656913537e-03 -1.0479170439734449e-03 1.1660072831633332e-03 5.3899447170921259e-03 -3.1401575864420852e-03 7.9862788123845048e-04 -8.7647163528620882e-04 -9.6944384207084400e-04 -3.3122363698665940e-03 -4.8809246734355988e-04 4.4916589447626751e-03 1.8082468235771645e-04 -1.5295891131228293e-05 -1.3442882765584625e-03 4.8551141724620557e-04 2.4295878551424711e-04 6.9178463219096687e-04 -4.8383340725094101e-04 -2.1457652830073459e-02 -7.0170302775247276e-04 -2.9053153466737790e-03 4.6570172746540628e-04 1.8468224441638079e-03 -1.9354552190333876e-03 -6.4085590787283102e-04 -4.6585915546948825e-04 1.2209687716586569e-04 2.6718077481344463e-03 4.2531407358598305e-04 2.7725920649405082e-03 3.7511648253590229e-04 -5.3221934474350155e-04 -8.3053947107467562e-04 4.8185268047490027e-03 6.2776331249302206e-04 3.6499503025420525e-03 -1.6414141853032777e-02 3.0547786549597346e-03 2.8829802249083518e-03 5.1476954850583048e-04 1.7026808957084636e-03 -5.9286799045964352e-03 6.3687429994597046e-04 1.3786801710140317e-03 5.7944147817870105e-04 1.2568742364446031e-05 -3.8725261013522801e-03 4.5246247177678641e-05 -1.5665211588879405e-03 -9.1617639355014006e-04 -1.4051960616157516e-03 -2.2819220652923601e-03 1.5095205885789554e-04 -9.8257228558188857e-04 8.7118013179405748e-04 1.0766901249349275e-04 -1.6678159676956734e-03 1.1016843179591666e-04 1.4950705611911424e-05 -9.5966254859236903e-04 -2.5084861060441839e-04 -3.7494383508575747e-04 5.0002738690993140e-06 -5.2942296698395320e-05 3.9835735929498941e-05 -6.2601459839800437e-04 2.8762958878892080e-05 -1.4522236114200961e-04 -9.4838138561931733e-05 -8.0974698292677195e-05 6.8504763535681614e-05 -3.7965276101386532e-03 2.6418713720343240e-03 -7.1033803902397106e-03 6.4047372057859084e-02 3.3629870825148504e-03 -5.3158263557263755e-03 1.0457605358407491e-03 1.4893650667830586e-03 1.9138570715800787e-02 -1.0844045879660756e-02 3.2463731918748653e-03 -7.3053870935140127e-04 -9.4199082093910226e-05 -1.3868402269908455e-02 -1.0125746271180392e-03 8.7714305875609497e-03 1.4360900091844441e-03 -1.1334881002710278e-04 -3.7144877988817405e-03 1.9289827412319552e-03 2.8868038820761225e-04 -5.9222370064532931e-04 -5.9049097162728551e-04 1.4261546609613358e-03 4.4560959077857409e-04 2.3946052483727904e-04 -1.1285901635003492e-03 6.6766883311463899e-03 -1.6571803757077373e-03 -8.3932309524475252e-04 1.2708103003578920e-06 -9.7283320580134666e-04 3.0638179324161772e-03 1.5332327614995105e-04 3.3748841955106544e-03 1.0102364888610140e-03 -1.5658058020811993e-04 9.0473770838745944e-04 3.3888309293920189e-03 5.9650710036177664e-04 -1.1136516900995879e-03 3.7440857688535376e-03 -2.0774870657315706e-03 5.0996403364510765e-04 -2.9320846982741427e-05 4.2651183897950552e-04 6.6431271968409355e-03 -2.9468511461067312e-03 1.5142373936246061e-03 -1.1271626822663933e-03 -1.7178560804939486e-03 -1.3787076312643184e-02 -6.2185884342436321e-04 4.8915543749136065e-04 -4.4473988827927721e-04 -2.3034889302689658e-04 4.2980861045478845e-04 -8.2990308009029626e-03 -1.1481174301707542e-03 2.1007940535086075e-02 -1.6950439744859744e-01 1.1140651096693446e-02 1.6722449282979189e-02 8.3462605593597194e-03 6.7784122452033135e-04 -3.5338217397060404e-02 1.5033942829708151e-02 7.1390884136126641e-03 -7.6054457552120203e-05 -3.3896855586122709e-03 2.6765137836662622e-02 -1.4571500279084342e-03 -7.6059557248687182e-03 -6.1456322493284345e-03 -3.1333042850490225e-05 8.1554652039549490e-03 -4.3712007940633194e-02 2.0479862425057949e-03 1.3942555134714494e-02 1.7736497387893480e-01 4.2176691522987739e-02 3.3429010540765469e-02 -1.1117808175581910e-02 -5.8999876827660527e-03 -1.0427832855155144e-02 1.2037520039921423e-02 -3.8921381150936914e-03 -7.0307940384684454e-03 -2.6925042679430029e-03 -1.1153493300879710e-01 -9.2207908779473342e-04 -1.0336690443855311e-02 -1.8487946912709020e-03 6.7205188175985192e-03 -1.3842598375325810e-02 7.4950340997020116e-03 
      </Row>
      <Row Index="156">
        -2.3914748996268772e-02 -1.3677096874900596e-03 -4.4713273877340642e-03 -1.7064680512125254e-02 -4.2138705822925948e-02 2.9893599748694460e-03 -2.3941563954603742e-03 -8.2607769654555185e-03 7.4494631433272618e-02 -8.2007221932548762e-03 4.3366333876269925e-04 -1.4367886067877993e-04 -3.6054518192685150e-05 4.2924829578864197e-04 1.3319963141712708e-03 1.1509433100838629e-03 1.2570197213091668e-03 -5.3521179287778636e-03 -7.2172784409302673e-04 -1.1411018357894348e-02 1.1953238087196477e-02 1.5994860073345774e-02 -8.8698187361175504e-03 5.8423331481750052e-03 -4.0261381241770700e-03 1.5504567033248829e-03 4.6300124547833665e-03 3.3270725683698266e-02 -2.1713436026667927e-02 -2.2330904549383718e-03 -1.8861081508557143e-03 -7.0992080947602345e-03 -2.0837111572708719e-03 2.2268981745421357e-04 -6.0913120078655014e-03 -2.6109727335942492e-03 -1.1962711674495391e-03 -3.9715206138663389e-03 4.6097619204411855e-03 -8.4854783827053026e-03 3.6780221086430753e-02 -3.4713990002416734e-02 1.0646720695901152e-01 -3.4526216257946829e-03 1.7134721689270049e-03 5.4095172797983121e-03 5.2623012129007746e-02 -1.4785135519321424e-02 -2.1751797894610236e-03 4.1586902889072519e-03 -1.3481028236531911e-03 1.3711814340926470e-02 3.0943771025950112e-03 1.7502211400167084e-02 -1.3936830871391637e-03 -3.6380002699906945e-03 -1.2433118205534693e-03 -4.8408223592978361e-03 -1.3060184088534368e-02 -1.5312304362112575e-02 3.2633705373564359e-02 8.7065028878098707e-02 -2.8732600699394734e-03 -3.7002951643042570e-03 -1.9982195076346576e-02 1.2581124535138039e-01 -6.9676439539597262e-03 -5.3699215329569908e-03 2.3464267777238632e-03 -1.0641148523342636e-03 1.8814275950902855e-02 2.3305067988393935e-03 1.5926172995745114e-02 -3.8543245759350211e-03 -3.7289783542111161e-03 1.2157908639792492e-02 -4.1701677389341940e-03 -2.2354345703916312e-03 6.1798256195485721e-03 -4.0839310746248053e-03 1.8679290019982461e-02 1.7614049122405915e-03 -3.2535446182527074e-03 3.3900392431258641e-03 1.4183515237585986e-02 2.9402145572536287e-03 5.5374812225343281e-04 1.3260279909224973e-03 1.4261313663644724e-03 1.8309526821614006e-03 6.4499240626523895e-04 -4.6029220819907221e-03 -1.1013517984818921e-05 4.4173873672353342e-04 2.9143124921324100e-03 1.7499737355199801e-02 -1.0260800504321321e-02 -1.0205206570291940e-02 -9.5450982958428937e-04 -6.2966300067629905e-02 -3.8898486127573011e-03 -5.6533585742163210e-03 -3.0106944804917449e-02 -1.0820556270539289e-01 -1.7991512535269535e-02 2.7736134813260739e-03 2.5085028727354049e-03 -3.3650056925628095e-03 -1.0263196348416756e-02 -1.4001713681351877e-03 -7.0742257565991895e-03 3.1942950763833716e-03 6.3640913091021073e-04 -2.5873986762821131e-02 -2.6025525319801641e-02 1.0443941006757895e-02 1.0507683980803956e-03 1.0613970297198698e-02 1.0902669208270659e-01 1.9677792877616455e-03 -8.4837464090271875e-04 9.0580518673396733e-03 7.8387251469561436e-02 7.9189303246298554e-03 -1.6437877145630206e-03 -3.1781828692573812e-03 4.6373279562526917e-03 1.0585949627421654e-02 -2.2450893763403968e-03 4.0940513024950720e-03 3.5845335169058367e-04 9.1404196170061965e-03 2.9683961672361030e-02 -1.6663430893404446e-03 -3.1185972612010780e-03 3.2607908735798824e-03 -9.3194206702684431e-04 3.5303470233411273e-03 -4.6923780699696009e-05 8.3917040547276970e-04 1.0502991182354485e-03 -3.8258757730613149e-03 -1.8508621508283706e-04 1.7998647053320185e-05 -8.1255807197844838e-04 -1.0833732922448146e-04 -1.8207682351834525e-03 -3.7760869489606255e-04 1.1417802789210367e-03 8.1217660642737182e-04 3.7144968509879913e-04 -1.4577968887531829e-04 6.9773852695969099e-03 -2.4829353196167553e-03 -3.8697421748428162e-03 3.3629870824783484e-03 4.3719733986782267e-01 2.8619794612820839e-03 8.1757043171342449e-03 1.6081445221724798e-02 -4.5058677004090886e-03 -1.5572814834656801e-02 4.8532976757726561e-03 -7.6699886816916849e-03 -9.1998800925808394e-04 5.4743613865441670e-03 3.2020761528089095e-03 1.1741449011866880e-03 -4.4673943940242954e-03 4.7677785154175882e-03 -1.6769858594499823e-02 -1.2515617607211649e-03 7.3925974608253509e-04 -4.9078451426116665e-03 -1.4255499441610045e-03 -4.2784632240401708e-02 -4.7476566483184435e-06 6.0555205173007387e-05 -4.1566185720598448e-06 -6.2757558958861648e-02 1.1698762339581569e-03 1.0673833172630751e-03 5.2619749898907830e-04 -8.7991160355663060e-03 -5.1793369602287035e-03 1.1886978874647088e-04 2.7735133898282305e-03 -1.1980837688125657e-04 -1.7810643936413291e-03 -4.2879080018541904e-03 1.7739061999504924e-03 -6.7576964228293103e-03 1.6670924091966857e-03 -2.3542347725148821e-03 -2.8899582957285744e-02 -3.3430022792865657e-04 -2.9245791831312017e-03 -8.1582958568386741e-03 6.8211283560345781e-02 4.2394630690911180e-03 -4.9366812712757610e-04 -8.5979778571702381e-04 3.2788738791737220e-03 6.8072643421856552e-03 2.6967195229620823e-03 5.5103849350044013e-03 3.4766055161188276e-04 1.1707671792462642e-03 -1.3581805363499139e-02 -5.1611992991813224e-02 2.9777744648690346e-02 8.5622113888978960e-02 4.9499788359815486e-03 -6.6967527094490131e-01 9.1872698799590133e-03 -4.7989760113782386e-03 4.8833859868353591e-02 2.7041428899998689e-02 8.8546338680058734e-02 -2.0384442003579722e-02 1.7947580460819790e-03 2.7786715366227972e-02 6.0899447735410048e-02 3.8570528250038314e-03 2.2850555426314340e-02 6.6725673121572583e-03 3.3841480935538539e-03 8.3119358411268884e-02 5.4377767539893547e-02 1.7518228662455781e-02 4.7732324978749477e-02 -1.0423424799679160e-01 1.3754918551891489e-02 -7.7969358497662032e-03 -3.3311514540783016e-02 -8.4661333094098901e-02 1.8579641758076332e-01 -4.5369949399119452e-02 5.6126317950500101e-03 2.9476502201168264e-02 -2.1310949315764501e-02 3.4352816195498154e-02 -3.4964285996509845e-03 9.5893684393737397e-03 7.3274326349679758e-03 -2.7249643489531142e-02 1.1663408498950999e-01 -1.5998608197532757e-01 
      </Row>
      <Row Index="157">
        -4.8682021520718780e-03 6.6103796297197759e-03 -1.0323811055002394e-03 -1.6646008286517579e-03 -5.7552197305642955e-03 2.4345677045641584e-02 2.3569241012485510e-04 1.5369026804492592e-03 -1.8306572865304196e-02 -1.4113887496384888e-03 -1.5271135183503898e-02 -4.0147749411084330e-05 -2.9645611307391431e-03 -1.9930052881929352e-03 9.7037324335373133e-05 2.2446631070795198e-03 -1.0174538310766690e-03 2.4743619974175214e-03 -4.3716545429473371e-04 -5.9709339159227000e-03 -5.7829070072598875e-03 1.6499454713433670e-03 -1.5804569545486008e-03 -2.0522943714827713e-03 1.7857224444548084e-02 -2.1720694277724013e-04 -7.9624486156703936e-03 -8.9490893282054909e-03 -1.0044199756470661e-03 -1.1540153269648981e-02 -3.2974067512830940e-04 -4.0917168531247913e-04 -7.5294930047893963e-04 -1.1690444159015261e-04 2.7431421895290908e-04 -5.9319894297272992e-04 6.3196543690056256e-05 1.2302489251933488e-03 -7.9195734997404010e-03 -1.7866885060308091e-04 5.3650847306900007e-03 7.0163234951679809e-04 1.3221157171855707e-02 6.2350837136693482e-03 -2.3412361167454016e-04 -4.1983931024076396e-03 4.1451729253901004e-04 -1.7140378960269431e-02 -3.3648442170919543e-03 1.2319567531407505e-03 -1.2983057768865269e-03 6.4440344731932220e-04 -4.7340345344927537e-04 8.5517878501754213e-04 -3.1417151140453181e-04 3.6678632435983892e-04 1.6268415784436788e-03 -3.3187041036855103e-03 6.9233715543119204e-03 8.2047650895460122e-04 -3.2480978420278486e-04 6.2488470686313429e-03 9.0432582382547755e-04 -1.4304429263145568e-04 4.2468121234555678e-03 1.0056873234936592e-02 -7.7961619718333805e-03 -7.3991335190085744e-04 2.1883548045768548e-03 3.8790999614079225e-03 -4.7739853009372210e-03 -4.6227583566452179e-04 2.9749891197422551e-04 -3.7852011183672415e-04 1.3284719595144465e-03 1.2870919807727449e-03 7.5366224005196658e-05 -1.7133178284439721e-04 2.3401165319812678e-04 -4.3096657143966433e-04 -1.0632740924875327e-03 3.0268809878602602e-03 4.7045711877341176e-04 -2.3069170845345377e-03 -2.3086216570653018e-04 2.7116698093138103e-04 -3.0039511746709092e-04 3.8312765551008418e-04 -1.2537126188729387e-03 -5.8037798995752565e-04 3.0886845168012766e-05 -3.8037834059610927e-04 -8.6775941141989735e-05 -1.9172894185492256e-04 -3.0123258048899738e-04 3.6740659193856412e-03 1.3089929046235134e-03 1.7976561653372915e-04 -3.6301825291691452e-04 4.0054177966210303e-03 -2.5056280326649742e-03 1.4678319013488820e-03 9.6758772371496882e-04 -1.1312220758733768e-02 5.3660316174253082e-03 4.4082086001823347e-04 4.1152421306190029e-04 -3.5603414439604481e-03 -6.8492910643259963e-04 -2.9965761088587449e-04 1.0598727852463696e-03 -3.7322264996710909e-04 -3.7865594777665348e-04 -9.4986347376339528e-04 -3.8807649700682558e-03 2.6398803656173444e-03 4.6887226314697508e-04 6.4069926358118444e-04 1.5109401487042227e-03 -3.6009775329621223e-03 -3.5820551092748077e-04 -1.3933150322895452e-04 8.6380543980068281e-03 -4.3585034848528346e-03 3.4348696429217975e-03 9.5145629617418570e-06 -4.6107324553076433e-03 -8.3225695393641247e-05 -3.0298101684801421e-06 2.0098352500552696e-04 7.3485945847702287e-04 -7.0452331802058109e-04 1.2912310830293038e-03 -6.9140445251822088e-04 -6.3216647261984732e-05 3.5262018022234193e-05 -1.0363556849759970e-04 -5.6103596465689981e-04 -1.8214197551033498e-04 7.2543746590095708e-05 -1.7803252318963447e-04 6.2083865453772325e-04 2.4099553085185849e-04 1.4451466208247288e-04 3.1712760612304447e-05 -2.4534456583830849e-04 -3.7186713888916385e-04 -6.9806055614777597e-05 4.2831663000505245e-04 -1.5587319804171541e-04 -1.9460910914299704e-04 -7.0903078221455987e-05 6.6199922006849130e-03 -3.5506957219066850e-03 2.6872034287070933e-03 -5.3158263557245592e-03 2.8619794612811753e-03 1.9565408446398876e-02 -2.5622349451498948e-04 -1.6739827945212726e-03 1.1587155898025458e-02 -7.7662444166369578e-03 2.7149451826678724e-03 -6.8630559489711129e-04 -8.7778375168102128e-04 -1.0205736854415159e-03 -5.4336776716821242e-04 -1.2903271135102784e-03 7.9110469970019508e-04 -1.6494780331747648e-04 8.0881275010589635e-04 -1.5006177216116828e-03 1.9848588638282649e-04 -1.5758961592130249e-03 -5.0147514122817621e-04 -1.1235836779947481e-04 -4.0393710364289258e-03 5.0584052888216768e-04 3.2402300954577357e-04 2.8393821859657026e-03 4.5431656761932629e-03 3.2237741911825797e-03 -4.2427968510980532e-04 1.0287103526629343e-02 1.3699136359412428e-03 -1.1687666875518488e-04 -3.9716891883806449e-04 -1.6997585287783807e-04 -1.8567993070232763e-04 -9.1621777167599089e-04 -4.9239421138257133e-04 2.8201742924459103e-03 5.1449221373232813e-04 3.8358015088592605e-04 -1.7061536394363500e-03 1.4130063258218587e-04 1.1186609733718412e-04 2.0703952535374814e-03 2.3578388784952090e-03 -2.6557902549238597e-03 1.0785675834915859e-03 3.7226383289290683e-04 -8.7021361711025189e-04 -2.5720832069255272e-03 -1.2246525639087992e-04 1.5547641132597744e-04 2.0535043590609706e-04 -9.3015497906836153e-05 -1.7322374882910061e-03 -7.2582004863510751e-03 1.2173073448839987e-02 -1.9515922078247941e-04 1.3843298601520294e-02 -1.3463909237322644e-02 -4.0498688858210563e-02 -5.8405236446215604e-03 1.4470023278292171e-03 -9.7445693568183264e-03 -3.0057764730231369e-02 -3.5032468459318122e-02 -2.3390113423771633e-04 -4.4889608437022740e-03 -8.7253152444954612e-03 1.4629231734657126e-03 2.0426598660412791e-03 -1.4863706375148858e-03 1.2595355178812487e-03 -1.9406404760589986e-03 3.6011175652114466e-02 -1.1432111943080987e-02 8.5551347106995017e-03 -2.3743547574266496e-03 -1.0440208170608964e-02 -9.1480069450103951e-02 1.5184144480900920e-03 8.7032151590771267e-03 2.5447087526080582e-02 4.0064818090659593e-02 5.9864381672792989e-02 9.0674891041983667e-03 3.1270180069490387e-02 -1.4239430025802420e-02 9.2965741130963345e-04 4.5908157216857856e-03 9.9157537020258101e-04 2.3719220615577540e-04 8.3228095541923175e-03 -4.8586437019479012e-02 
      </Row>
      <Row Index="158">
        -8.4410170759657431e-04 3.4933038353327089e-03 -2.4204067209795260e-04 -7.1267401384863269e-04 4.6200163716625872e-03 -6.5198472131876642e-04 1.3574732713112457e-04 3.7812050209471010e-03 -6.1631008156127938e-03 -1.5315143896888583e-03 3.3607427624062630e-07 1.9324568755866016e-04 1.4125540081521849e-04 -8.3258022223114242e-04 -2.1838618142482492e-04 -1.7251084261416666e-04 4.3859642198455990e-04 -3.2132431798422706e-04 -6.2900144804085194e-04 -1.4070855005778767e-03 -1.9775599550508269e-03 -2.7109995658639030e-04 1.8725891822547400e-04 -5.0419118501173754e-03 -8.0015929539122878e-04 -8.6888995703246626e-04 1.5636375737170805e-03 2.1464402134324656e-03 -2.8166274546446990e-03 -3.6597205983601028e-05 -5.1226417337087160e-04 1.0279667666511424e-05 6.9376377578860091e-04 -2.1422494804065884e-05 5.2631141999451292e-04 5.0155211856877605e-05 -2.9541879328227189e-04 9.7799079005492229e-05 4.5446736739646748e-04 6.7482062953244659e-04 4.1445862836375635e-04 -1.3670863897029678e-03 -1.0171631071314483e-02 -3.4059815033722629e-04 1.0281684118568432e-03 -2.0218866743978055e-03 5.2312421044118651e-03 2.3922836338041362e-03 4.4205775733670294e-05 7.9326643761201687e-04 -6.8289062198495509e-06 -6.5605405213137874e-04 2.6240956880931726e-04 -1.7331427420201866e-04 -4.2912299759770289e-04 -2.0631976029486564e-04 7.2473277179432860e-04 -9.9842803600158625e-04 4.4946063434449599e-03 -5.3207322859227454e-04 2.1647221657099466e-03 -7.5312575550405452e-03 -2.6468870187213583e-04 2.2613001118350073e-03 1.9568593375557941e-03 -9.4906135379880380e-03 1.4889653092422031e-03 -2.3571326864853248e-04 1.0740709331374144e-03 -2.4407312817831261e-04 2.4052020982715961e-03 1.2251630874204888e-04 -4.7758589051113964e-04 -8.4902814384300689e-04 -1.9625713857034793e-04 1.6185134504839646e-03 -4.0216692771967016e-03 -2.1111690751787759e-04 5.6563530309745348e-04 6.2738639820653563e-04 2.4162977025392190e-03 1.3188624932987457e-04 4.3816320186855799e-03 -1.7580083934159441e-03 -1.1115369085950760e-02 2.0507895462263809e-03 -2.6824097518179327e-04 9.5818234243266395e-05 -3.0514332886836084e-04 -5.6847300249924376e-05 -3.4036232178373408e-04 -1.9970118759415692e-03 1.3362165729990418e-04 -1.9926805087313627e-04 4.3505368145583742e-04 -5.5384827719269641e-03 -6.6714542677173694e-04 1.0155264057658715e-03 6.2652210011753494e-04 -5.8056533709008804e-03 -1.3853254986418134e-04 1.1307149031528648e-02 -2.7246335580176015e-03 4.8058163794600789e-03 2.1381561916813951e-04 -6.1384118857633278e-04 -1.7449223934027681e-05 3.2257934572340425e-04 3.1259995708307273e-04 -2.2811335239263575e-04 -2.0017392613292115e-03 -3.2045867291254082e-05 -3.8828390018502343e-04 -6.3669956177219572e-05 -1.1662625741896623e-04 -8.4501809386188648e-04 -7.6112283988107043e-05 3.3100338209291207e-04 -1.6012055113664926e-03 1.7447263822089622e-04 -1.0559215834671056e-03 1.0234405302035239e-03 -9.0715814964002217e-03 9.9795882127701229e-04 -1.8274437998195203e-05 -2.5318363814283797e-04 -4.2865083719985760e-04 2.4662078102098608e-04 -1.6818010660634721e-04 -8.0947021134952779e-05 1.3697718380238947e-04 -1.8469767462502571e-04 1.5926292931634570e-03 -3.5969464985994800e-04 -5.6996584619881455e-04 9.4738392056570612e-05 -1.2392880894323589e-05 7.1450267788113631e-04 3.2403417385129247e-05 1.6909066419170345e-04 -2.6365990869368894e-04 -3.1251669749435317e-04 -2.5694871727040096e-05 4.6098240040036084e-05 -9.3382752982558475e-05 -1.2344430600480386e-04 -8.7353532863663650e-06 1.3208875386414519e-06 9.1079784752640027e-05 4.2545223216612627e-05 -2.5006953318636215e-05 3.7473297391040503e-05 1.3771193287151137e-05 -1.2238041300973194e-03 -2.7255156337573083e-04 1.0457605358438499e-03 8.1757043171240724e-03 -2.5622349451863858e-04 8.1018368896793418e-03 -2.7048825951295507e-03 -2.0701127314578550e-03 1.3077584355332920e-03 4.3383182413286311e-04 5.0895005593525478e-04 -5.6526482800776240e-05 5.0480651772958946e-04 9.7953099281201738e-05 -5.1249501779180597e-04 1.7581079044798879e-04 -4.4142924437224848e-04 3.6744291037813274e-04 -5.5364743683346263e-04 -9.0160892122324778e-04 -2.1483724408272176e-05 -8.3074565664468646e-05 1.9931634862208501e-03 1.9311065261358364e-04 5.1193803460284487e-04 -6.9124826557211139e-04 3.9463178183597597e-03 -1.0400999984191885e-04 -2.8110969259604462e-05 -2.2727426816044824e-04 3.9936608344691774e-04 2.6462690339380335e-04 1.2341212531585168e-04 -1.4940705577640156e-04 -2.4843451343150821e-04 7.9635967893540915e-05 -4.0268482675334845e-04 -9.7982008214798910e-04 1.6611553755508652e-03 3.9391119213518747e-04 9.5987114147101128e-05 -9.0379793965593360e-04 1.2716976605842872e-04 1.7767210331324234e-03 1.3437943134678252e-03 -5.3398283860293400e-03 1.0216563606008830e-03 2.2781188336944548e-05 1.3905770876748442e-04 -1.0894705717904238e-04 9.4242026158452316e-04 -6.9545947556152885e-05 -1.3199237147789363e-04 -9.3644834882252457e-07 -7.2249356653436363e-05 -4.4474190157772607e-04 8.8757613736963597e-03 5.1747577455731573e-03 1.1645331061530076e-04 -2.7749728484055061e-03 -1.1566232903759247e-02 8.0450212172895560e-04 -5.0912712182412001e-02 7.6604669694200524e-03 2.3422286422364932e-04 4.4356503542538860e-03 1.5174859604815847e-04 -1.6531542874071992e-03 -1.2430450082405219e-03 1.5269609013818996e-03 -3.9037657751308467e-04 3.9687019865804994e-03 -5.6239407526673026e-05 4.4674102289477306e-04 7.1364893167487863e-04 9.9011878023653587e-04 -9.1381924221272098e-03 1.0308927270079203e-03 -4.3952222799779686e-03 1.4929833626174959e-02 3.4263619445101994e-03 5.4389207192240538e-02 9.9192202464797249e-03 -3.1116197222901348e-02 -9.6472860296914747e-03 3.7409120903942640e-04 5.9588880300209751e-03 1.2890755192757684e-03 1.0440031796767876e-02 -9.9589368064596784e-05 -1.3759948756228955e-04 6.5789021383017010e-05 9.9030195031671320e-05 5.3122747586864232e-03 -4.2769975122784867e-02 
      </Row>
      <Row Index="159">
        -1.1097917809104088e-02 -1.5390755897885849e-01 1.1083701634742787e-02 5.7814898964946935e-03 2.3360673262287523e-02 1.9327743021989585e-03 1.5036074980501052e-03 -3.8104146600063832e-01 6.1811891741019059e-02 2.4825291628172499e-04 -1.5897013497448674e-03 1.9460164610016876e-03 6.9293437122132547e-04 -4.0853791012743137e-03 3.3651395753768812e-04 8.3909082271282354e-03 5.7034987254752072e-04 -4.8140560359943990e-03 2.2109441983322545e-03 2.1403845903738714e-02 1.6571203350937069e-01 4.9175962021049791e-02 3.7035570127818794e-03 6.7128488179449830e-03 -3.1981536102290431e-03 1.5592982067978217e-03 -3.8811700560584125e-02 3.5952287103411168e-02 -1.2494099195755275e-02 9.8789663602028011e-04 4.1936680129872062e-03 -4.4187000923826903e-04 -8.8397384494894246e-03 1.1216104892823736e-03 6.5358120527925223e-04 1.3526244453627313e-03 -4.5530527944050020e-03 1.9182130089338834e-03 2.4863496141537322e-02 -7.9534987212641628e-02 4.2493968581706842e-02 9.6233478027157315e-03 -2.0418066937152202e-02 -3.5446914609493507e-03 -1.1661581107754171e-03 2.0833812804031324e-01 -5.0048599062370414e-02 1.3689368820327841e-02 3.6194175324297251e-04 -1.2706347133092127e-02 -2.5473809563492100e-04 4.1823333121221440e-05 5.2985783018481836e-03 5.5569523709955160e-03 -9.8817217090652054e-04 -5.6635627064550130e-04 -3.0809970467198244e-03 -1.5086973479403687e-02 -2.7945601875111659e-01 -3.3953136888926760e-03 -7.1683690175002868e-03 -3.6937506366440234e-02 2.2669617476818449e-03 1.4252684385154257e-03 -2.7966344575172108e-01 2.4308335815463933e-02 1.7432337668275316e-02 2.1779428922490546e-03 -2.3366088357857129e-02 -4.1807982720283576e-04 4.0702163692822868e-03 3.4964225747651234e-03 -3.4343242641035054e-03 -2.5571787966678569e-03 -3.0858917563392069e-03 1.1332138191369467e-04 7.8993572228009956e-03 -1.5706415624385905e-02 6.2804282334961922e-03 3.2947077988432598e-03 2.5995604813563930e-03 -2.3006974690161618e-03 -8.3474998774490244e-06 1.4781296440954161e-02 -8.9656064607366304e-03 -3.6622502063337059e-03 -1.1638684105863759e-03 -2.9923177590563260e-03 -1.5721033773451361e-04 -5.5068062398726941e-04 6.8614965873902735e-04 -2.0284161632936129e-03 5.6448970127662840e-05 5.6519916617312621e-04 -1.1301775398176311e-03 -1.8319119851335941e-02 -2.5989310831144835e-02 6.7865128403065316e-03 3.7690064801080350e-03 -3.1150268744760207e-02 2.7555079659902677e-03 1.0937901503040054e-03 1.1924021876113064e-02 5.1805942535770533e-02 -3.5492838071386756e-04 3.1066052399840887e-03 -4.6217988519955460e-03 1.8149384639163570e-03 9.1478446995466034e-04 4.2843739332591030e-04 -3.7155376331389871e-03 6.6949718358248062e-04 3.5843544512744532e-03 2.0302480240911337e-03 7.6999056798089972e-03 2.5426355669381222e-02 1.3128289914433933e-02 7.6859306639479735e-04 -8.3051725115586058e-03 2.2095142922526935e-03 1.0407611825298171e-03 -5.1769968843775979e-02 7.0665687795975485e-03 1.3260151556789725e-02 5.1307123946035919e-03 2.4351938559033868e-03 -1.0742815829298973e-03 -4.5463533016982700e-03 -6.6418630805481146e-05 5.3831906340007230e-04 -1.5027542043199596e-03 3.9089373451858377e-03 -1.4659640442621011e-04 -2.6430265636932376e-03 3.0787821742692730e-03 8.8202525552477564e-04 4.4156211683898396e-04 4.8935588334873045e-04 4.5612959162621703e-04 -1.3323800456280504e-04 5.8588645077037411e-03 -1.3218815454464012e-03 7.3467174441602633e-04 1.2786630435503979e-04 2.1818527604196403e-05 3.1523112200576272e-04 -1.2221450616027845e-04 3.3889142680513531e-04 1.4152600980776261e-03 -8.8855284633022912e-04 9.8570664806211291e-04 8.5606189651711746e-04 -2.3777478820469329e-02 -3.6269003789693735e-02 7.6205089775284729e-03 1.4893650667933238e-03 1.6081445221722817e-02 -1.6739827945094661e-03 -2.7048825951360208e-03 3.4224014931047575e-01 -8.9083854754105157e-02 -7.7908673336330738e-04 -3.2150695901788638e-03 -2.0182114195350207e-03 -9.6239796008862474e-05 7.9046172010754489e-03 -1.6407909367797762e-04 -3.3901188825322861e-03 -9.2779610950393575e-05 5.0831683632775919e-03 -4.7311794485046686e-03 8.4877825105682536e-03 2.6637931793641090e-02 -1.0464282801339930e-02 -5.4982074315771626e-04 -6.1876254967357753e-03 -8.7520278737427022e-04 -4.7292085975625398e-04 5.0631244882367421e-02 2.1708927887851281e-03 -2.7821422277668137e-03 -1.4520435840100626e-04 2.1001096133683311e-03 -8.4110810023999678e-04 -1.0074064241479294e-03 1.1335528377936362e-03 -3.4414680644179185e-03 6.2408852854242973e-05 9.0607085045972752e-04 2.0505250295593802e-04 -1.2766208332910145e-02 -8.6052882461065600e-02 3.9958892686824642e-03 2.6296387499749377e-03 -7.0967055814662727e-03 3.5585721272873745e-03 8.5170397346730512e-04 -1.5888304728600838e-01 2.3636094093486798e-02 1.4369667419019117e-02 2.8554579981775849e-03 -1.7211479827964852e-03 -3.0459558471811806e-05 3.0685605390639789e-04 -4.7734968922826313e-04 3.3819773297578859e-03 -5.7051215293577745e-04 4.2137025657463286e-04 2.2050789381170928e-03 -1.8853571132738618e-02 4.4148490740333751e-02 5.5874937443480661e-02 -6.1319390204404717e-03 1.3638547539220426e-02 1.4313400873749332e-02 9.2774269506901014e-03 -1.9756347636895966e-01 2.0775679269379932e-01 9.7714527877734034e-02 4.6959078909313921e-03 3.3064636311546242e-02 -5.5361523670183384e-03 1.0079677437427395e-03 2.1502633746460632e-03 2.1315588359698011e-02 -3.4735134642220463e-03 -1.6454041693353749e-02 1.0715299799575898e-02 -1.2580377350431365e-01 6.1456908127455012e-01 8.5704945761200274e-02 3.3903579309329031e-02 4.7983859576304508e-02 2.2402261819042341e-02 1.1179839592612512e-02 -1.0383625568874495e+00 -1.1738162117896611e-01 -4.8076697012894229e-02 2.9754629166940490e-02 -7.7762016212025456e-02 -2.4329208548525723e-03 7.3959147768610511e-03 -1.0810678889787220e-02 2.1067215048462887e-02 1.2870214421464299e-03 -1.5042627863485314e-02 -7.9820869530934715e-03 1.9218431336557087e-01 
      </Row>
      <Row Index="160">
        1.9367657338685944e-03 -2.1484665257247793e-02 -1.5724381721293978e-02 -1.6947539925843573e-02 -1.0044440843188351e-01 6.4559440727933737e-03 -2.9969850164551504e-03 9.1519394039745183e-02 7.1191963586531237e-02 3.9594644597142056e-02 1.2673431414326058e-03 2.2394807716739082e-04 3.1748237063789833e-03 3.0030630662955877e-02 -2.6830926616738804e-04 -1.4412158805518827e-02 -3.8312417989523166e-03 -6.5018377073017830e-03 6.3472486051916214e-03 4.2850734509338961e-02 -8.7076353011964480e-03 6.3071243046524339e-02 -1.1776064314380552e-02 1.1168289590156411e-01 1.1172596243195387e-02 2.4928592406691721e-03 -1.7358059109280788e-02 3.3385279886567920e-02 4.1290825198030234e-02 7.9124463169152892e-03 5.8395522537035838e-03 -1.2346170836174401e-02 5.0556980271579122e-03 -7.7158456215311311e-03 6.5648635961976787e-03 -5.2868171154651783e-03 -1.7763201172711074e-02 3.9177100572129753e-03 6.4377645608777845e-02 1.0150241577608021e-02 9.6584521402376389e-02 -1.6261796585560484e-02 3.2173262681909698e-01 -1.6907273443762527e-03 -1.2587430214380246e-03 -3.9863240421986190e-02 -3.8457338216829395e-02 -4.5624033544023002e-02 -6.4884483591056696e-03 -4.8994406698225079e-03 -5.6334804320512522e-03 -1.5194820353539140e-02 -1.9971947186240069e-02 3.3303184693855015e-03 1.5188919095791675e-02 -2.1809655240724250e-02 -1.8124006877571652e-02 2.3918095982052634e-02 1.9295350489450566e-02 -2.8586085874329203e-03 4.2043590904652595e-02 2.7035917604693999e-01 3.5424922888327437e-05 -1.0064526489125036e-02 9.2262983517532149e-02 2.3155216450629013e-01 -2.1349027087087524e-02 -6.5472286565167459e-03 -1.2712508267138975e-02 5.7129402695943465e-04 -1.8854107550820787e-02 -1.9396714255947689e-02 8.2621067313737306e-04 8.5472010981376134e-03 -1.6811244526696023e-04 -1.1014677277342400e-02 -5.1138704327222673e-03 2.6196864705710921e-03 1.6829981763745283e-02 -3.0221387801837585e-04 2.6409227698348803e-03 1.0710015150591813e-03 -1.6351764651166223e-02 -9.3503998718560410e-03 1.5391043776222668e-01 2.3747215580487424e-03 1.9465121690783460e-03 -1.4150140971398717e-03 1.0417325820325542e-03 4.7831097277317436e-03 -5.0764503206262440e-04 -5.4393926343458687e-03 -4.4940249509222568e-03 -3.7716537288655094e-03 2.5263945506876773e-03 5.1880332206184598e-02 -4.5897514238236181e-03 -4.8130795253771133e-02 -1.7857213234068192e-02 9.7249171253922739e-02 -2.1470465755868140e-03 -2.5220826288968760e-02 5.1625125134567185e-02 -7.1322243651332107e-01 1.5283052112013418e-03 2.5598736422306045e-03 1.9258693095145982e-04 -9.5952219478336633e-03 -3.3518331094194095e-02 -2.8033050298979650e-03 4.6389032137484021e-02 8.9209973677628618e-04 9.0432392345592416e-03 -1.4713932496222673e-02 2.1387120729892684e-03 -6.4333124395302144e-04 4.4854005193830260e-02 1.3557199888317788e-02 1.2220599949607619e-01 -4.8334789487162813e-03 -6.1075816153387842e-03 -1.3809747399485872e-02 4.2522174461289231e-01 -1.4993392393280850e-02 -1.3966456539022329e-03 -9.7538364507789715e-04 1.4067528598049869e-02 2.1933595753297203e-02 4.7273423423995278e-04 -2.4752712166583812e-02 -9.0234611857687060e-03 -1.5468060797726724e-02 -1.1861168486363566e-04 -4.6634320217445180e-04 1.0197400000485357e-03 1.0802341435939902e-03 -3.0683858546387728e-05 2.9631900538193007e-03 -2.3616805967205997e-04 3.7362978409690491e-04 4.5308986810741955e-04 -3.6559125769848530e-03 -9.6001595919163046e-04 -3.4558674251913835e-04 -7.5808857203113684e-04 -7.0360774190921654e-04 -1.8397880355579509e-03 7.5657757037813321e-05 6.7817130560578198e-04 2.6472264290748615e-06 9.3997848095137351e-04 4.1666473369435936e-04 -2.4585479773882035e-02 -9.3661165899651122e-03 2.6546096489062199e-02 1.9138570715569667e-02 -4.5058677003344469e-03 1.1587155898094822e-02 -2.0701127314130124e-03 -8.9083854754378133e-02 8.3775657240348200e-01 -1.9756975215239194e-02 4.3886278366029189e-03 4.4706257467658304e-04 7.3390053419599664e-03 -2.4240516798399791e-02 -6.0157958212140924e-03 -3.1131839346650349e-02 4.5259033709721978e-03 -1.2644772318768522e-02 9.5154846140606316e-03 1.4091563991520450e-02 3.7160378608653739e-03 -2.8099937692870114e-02 -8.6276216400128763e-03 -8.8065847923529103e-02 9.8080414734562794e-04 1.2423542204270666e-03 1.3293986571918381e-03 -2.1701724708788017e-01 3.6903303199841368e-03 -5.3918624118459713e-04 2.7432424208210238e-03 -1.9179205710842893e-02 -7.7315831042544751e-03 -1.1332830299497741e-05 2.0535083295325496e-02 2.7507528632862259e-03 3.5741579129732731e-03 1.6323437930685913e-03 5.3415337490025916e-03 -3.0267018698668935e-03 -3.4851026730248463e-03 6.6836047517549076e-03 2.9207841078085779e-02 -3.8216514451327259e-03 -7.0065721341610000e-03 4.3383821062898106e-02 1.3156550005757897e-01 -1.4886006809947599e-02 -4.3333413810918891e-03 -2.8903563457800315e-03 2.3129101621107316e-03 3.3109487831770373e-03 -2.2409097886647096e-03 -2.7981571129672665e-03 -7.1154869122960207e-03 3.8598598718981962e-04 -3.4422604651599266e-03 -1.7301102080427191e-01 4.0233225182072403e-03 1.6910586604947353e-01 5.0969606622127857e-02 1.3711624999946888e-02 -3.4761733097806446e-02 7.7228590633303479e-02 -4.7630001744052047e-02 -1.1555849770324313e+00 -8.2525248838834817e-02 -2.7921657490610846e-02 -3.6790847488781253e-03 4.2643808952382845e-02 2.3536365888192637e-01 8.6857269784606193e-03 -8.9077996067256637e-02 -3.8837938263336050e-02 -2.2259625176502356e-02 -4.5464399244640914e-03 -1.1453023580714661e-01 -1.8562793198848238e-02 1.6134077492883281e-01 -7.3998414909404508e-02 -3.3526839245501117e-01 -3.9927584562505058e-02 -1.4772040433469158e-01 2.6497223446188178e-01 1.5304307717737138e+00 1.7629703175730060e-01 -3.8465847529742331e-02 -5.4899943095425084e-02 -3.9422908126590918e-02 -7.5360770654228748e-02 3.6744016643415534e-02 -8.0375668512326637e-03 -3.5603888661311922e-02 4.1799051717225755e-02 2.1777603048483973e-03 -8.8049787673785018e-01 
      </Row>
      <Row Index="161">
        2.4011760231798778e-03 -1.3672813292884001e-02 2.1854250429806377e-03 1.3214065410103127e-03 1.8072374813976944e-02 -2.0147893719362264e-02 -2.6403161839359118e-04 -8.4936234909027686e-04 -1.9073625157443611e-02 -4.8090228079668423e-02 1.0223106725873732e-03 -9.8457943015897720e-05 3.1823828432730340e-03 9.1407312461879104e-04 -1.0098573808856592e-03 -7.4966495964892133e-03 2.2602493469477541e-03 1.3809959346225836e-03 2.7587026108339121e-03 3.9929673251168363e-03 6.8073720991076725e-03 -6.9922416550977085e-03 5.1828958553794095e-03 -4.8757587256700263e-02 -1.4590206970496129e-02 -2.0888722682042161e-03 1.0445202599105363e-02 -6.0276652531839059e-03 -5.1059254116876292e-02 9.3038916492539647e-04 -5.3332308567621833e-04 1.5371448417602351e-03 -6.9312416000257030e-03 -1.0359677830622978e-03 -4.9181334297475621e-03 -6.9547933075662666e-04 -2.1095681093309254e-03 -6.9073592836083053e-03 7.2596431279853060e-03 2.5638733492108212e-03 -7.7378527283403775e-03 -1.1410387764131447e-02 -5.6146229175151940e-02 -1.0096275965012447e-02 4.0028130309152921e-03 -1.2817867212393530e-03 -1.5720251665987950e-02 7.6083810114866174e-02 4.6399619387678670e-03 -6.8575419431141094e-04 5.3688553868988798e-03 8.7518613874077444e-03 -1.5898808062497494e-03 1.3453888796694860e-03 6.5209956893796939e-03 -4.1641503911956680e-04 -3.7416588547017904e-03 2.4576917006354781e-03 -1.7391847457074467e-02 -1.6809198728111041e-03 9.4980146408155802e-03 -6.1582764489567079e-02 -2.1434977283126544e-03 1.4231096627401740e-03 -5.9927811733206937e-03 -4.1472495862505399e-02 3.0950297058894113e-02 3.0206405884683485e-03 -1.1675740466878144e-03 7.5083078099764944e-04 -8.2523343828335566e-03 -1.6740237685042292e-03 1.0759716940299702e-02 6.6873526958351436e-03 1.4049142752721733e-03 -9.0828602355734894e-03 -1.5243398909269845e-03 -7.2229210222772566e-04 3.9905649048427305e-04 -8.5666238861767385e-04 3.1339880043078812e-03 -3.0802766616288002e-03 3.1267414642858708e-03 -6.5432075996696426e-04 -1.0267032599823978e-02 -6.2471423333309017e-03 -6.8848086751803483e-05 -2.0831988044658911e-05 2.2145756697345646e-04 -1.5258069319279075e-03 -6.5069045104538571e-04 5.4809232075291731e-04 6.0578501034214138e-04 -7.2780176908610744e-04 -1.9689183316376827e-04 -1.5266813627235476e-03 -3.6436372950520365e-03 -3.7588680611365180e-03 7.2008497695844401e-03 -4.4492502330882533e-02 4.7513262188400469e-03 5.1987581466082398e-03 -2.2757604761829697e-03 3.3020202380809272e-02 -3.7476470442040541e-02 -2.1744009957642258e-03 -1.8914118218929161e-03 -4.4224830662727361e-03 -1.3541988656677953e-03 -1.1292672939179679e-03 -2.5709414213461942e-03 -1.1209869287439958e-03 2.9255040868684731e-04 -1.4411137050215888e-03 4.8608540894275812e-03 -1.1936346387266122e-03 -3.0098268500591135e-03 8.8475469066952458e-04 -6.2665432301818357e-03 2.1122996799123337e-03 -2.1654878380236546e-04 -1.4275474622961956e-03 -2.7646012987941337e-02 2.0793528590451603e-02 1.6291645393563666e-03 4.6363130225502390e-04 -2.9082726107636679e-03 -2.7808953655855638e-03 -2.0060719403441028e-04 3.6743994828852267e-03 -4.1182987868226308e-05 -2.7484975394347685e-03 -6.4433919183038979e-03 1.0264076305439365e-03 2.5799377907407411e-04 -9.4959740053579371e-04 3.4455164515151209e-04 2.0687356515851915e-03 4.4985880967184295e-04 2.1320344726793246e-04 -1.1865441106606069e-04 3.0107876007954442e-03 3.2866590631747735e-04 4.3363265037879703e-05 -3.6545820565103357e-05 6.1250797609823347e-05 -1.3787767670419204e-04 1.6607120741074120e-04 -9.0663037497522650e-04 -1.6321988105594590e-04 4.2850235282869235e-04 3.0502627056442667e-04 -8.7923181117636681e-03 2.4770843723174243e-03 -5.7833346454545381e-03 -1.0844045879651581e-02 -1.5572814834662878e-02 -7.7662444166391002e-03 1.3077584355294580e-03 -7.7908673331769304e-04 -1.9756975214998002e-02 8.1228533736512204e-02 1.4375708226361601e-03 -1.9784993647498637e-04 -4.1336246030211389e-03 -2.3588930664401844e-03 1.8954346619646102e-04 1.0399837963224247e-02 -3.7269766202331859e-03 -1.4824501521643119e-03 -3.7788337552140741e-03 1.9962506877524433e-04 1.2689135980569165e-03 2.1788808454531461e-03 5.3595194642418707e-04 6.0023100913273262e-03 2.1910515771551408e-03 1.5658727339520895e-04 -5.4102930032101648e-04 1.9474119674139534e-02 -7.7299508960531407e-03 -2.0000517454167588e-03 -4.1580182404639399e-05 3.4908935946246708e-03 1.2687708389117706e-03 -3.3249574501315016e-05 9.0313987693979580e-04 -9.2401519055250003e-04 -2.7142939510531479e-04 9.4484119839127051e-04 1.2104471724635468e-03 -5.3246485653934139e-03 4.3838695262402310e-04 -2.8940197625310698e-03 8.9220997234939741e-03 -7.6950445529959627e-04 1.6156709842523862e-03 -3.9608864371238322e-03 -1.5494461094132455e-02 1.7877839542777121e-02 9.2730699221611583e-04 2.8820820323530822e-04 4.0942684781576470e-04 2.0956916449247328e-03 -4.0354514363903019e-04 2.4133162800901537e-03 -2.8961075248402544e-05 5.0451581081496322e-04 6.4471023222515342e-03 8.0352246917439127e-03 3.1577595546457959e-03 1.0043091148261685e-02 -1.9082159755754793e-03 1.2767118643720829e-01 -1.8467929161147300e-03 -1.8790743662482571e-02 -4.0659465057704992e-03 -1.9125214954682935e-02 1.2011568614493720e-01 1.2482051569809102e-02 5.5385597681457052e-03 1.5582650288805958e-02 1.9021080154711593e-02 -1.3779115039582281e-03 -3.2874043135209590e-03 1.4139030490404051e-02 -1.6119718797129919e-04 2.0603240099056362e-02 -3.2499732587327995e-02 2.2059171595601182e-02 -1.1392921266306064e-02 -2.8341526915361341e-02 9.1410792078622516e-02 8.9353300887957440e-02 2.6043197494318437e-02 -9.3506807834815367e-03 -8.5474760091649657e-02 -2.4065203286516121e-01 -3.7113293234152019e-03 -1.0325074385047919e-02 1.5492624617727602e-02 -2.5713785333256876e-02 2.7393220297314107e-03 -1.2062920687860334e-02 -8.2572200444350329e-03 8.4834982679683896e-03 -3.2994034756672404e-02 1.5712193481079414e-01 
      </Row>
      <Row Index="162">
        -5.7383534475643466e-03 2.8285087617255407e-03 9.0492920102756280e-03 7.9444202326018291e-03 -3.2704623275013785e-04 -7.3053290159928166e-03 -3.7769714139197080e-04 7.7920896536404043e-03 -2.5923832486869865e-02 -1.2965101133950794e-03 1.4602243661043636e-02 -5.1216446357375735e-04 1.3674470339510125e-03 -2.1970980374166511e-03 -4.4738829803665173e-04 -6.4905087709572658e-03 -4.5964509221737150e-04 -2.1322899527890628e-03 2.9841051228046891e-03 -6.8048778655945491e-03 -2.4083919208014084e-03 -5.6934166113659715e-03 -2.9929438841989832e-04 -2.9871833842389298e-03 -6.2979704987336160e-03 -4.4629950291673212e-04 -4.0766127864459841e-03 -1.4035392302493477e-02 -4.2416939624660413e-03 1.0602147168367543e-02 3.4038682550026345e-04 1.9432652433255013e-03 6.5252406975555596e-04 -8.1886440962653743e-05 -2.7580895614867373e-03 5.9050141494998985e-04 -1.0933859397924597e-03 -2.1343187188010981e-04 -5.9085575046348478e-03 1.0480207190872864e-03 -9.3703295853797136e-03 2.2030131654976678e-03 5.6114292161508830e-03 -2.7238987081728543e-03 2.3452803965130775e-05 -2.2308554618741313e-03 -2.6691592285701914e-03 6.3432901239977562e-03 1.0081207210741044e-03 -5.9256255393490102e-04 1.8385602059794431e-03 2.1738042014341416e-03 -7.3878566490608207e-04 -2.8629579253139103e-03 -1.1315873259016701e-03 7.2185930118674898e-04 -1.7580872095167418e-03 6.3430943438876064e-04 1.0231724906973095e-03 3.8922816010915368e-03 -3.6118167083879476e-03 -2.3029068273001468e-03 2.4013508150785151e-04 3.8998405634954603e-06 8.9704088234551921e-03 4.5467657951311566e-03 4.2677568552709436e-03 1.5600664348507471e-03 2.7532052554395808e-04 7.8489525711052804e-04 -1.8154461932325509e-02 -2.5521425257916952e-04 -3.8478686879322467e-03 1.1508533590106436e-04 1.5586947325194620e-04 -3.2522429992280439e-03 -1.6915483752209526e-03 4.9721005781916405e-04 -1.3773122515806165e-03 1.7502493160721888e-03 -2.8283192927249217e-04 -1.5882327167732588e-03 -9.1569480114211683e-05 -1.5524843977998692e-04 -4.7781251337267183e-05 -1.9854356642606610e-03 9.8215893168557863e-04 -1.4593836515442403e-04 -6.0178523567575937e-05 -9.2069020916504297e-04 -2.2853746695749449e-04 1.0208198401537197e-03 3.3110244897197787e-04 -3.5609373041200999e-04 -3.0617402734857174e-04 2.2437842486058585e-03 1.1930938824789459e-03 -1.3685856207344563e-03 -3.0492180048283029e-04 5.1067280005793123e-03 -7.7934111162374369e-04 -4.2169411914007657e-04 1.3713379107206458e-03 2.2229601861672790e-03 -5.6210330023846698e-03 -3.1920437309171487e-03 -3.8097733355661685e-04 -1.2651750178786086e-03 6.1255112598986917e-04 -3.1912021589138723e-05 2.9977969037815878e-03 7.0195303532033428e-04 2.2921487838658172e-04 -7.1137044426781027e-05 -2.5438596992832419e-03 2.7187490209024546e-05 -3.4932675268852485e-03 -2.6898113876686106e-03 -1.0402840553907825e-03 -3.2173351990899551e-04 -1.6055533181465350e-05 7.8392771431777942e-04 4.7730626665978930e-03 -2.2795956496044796e-04 -3.1037392234818527e-03 2.5550718247250193e-04 -8.7158371595208559e-04 -8.3775506926557193e-04 2.3013585159593794e-04 1.3807667650380176e-03 1.1209326867026704e-04 -2.4786859914404822e-05 -2.7552797690826455e-03 -1.8192747543004919e-06 -5.2073643924472354e-04 2.1276279284384263e-04 -3.3665813843287084e-05 -1.1288519714883522e-03 4.9980797006465422e-05 9.7014194540079754e-05 -3.8759791707509511e-04 6.0616875346734388e-04 -1.7039283339804036e-05 -1.7913335256617379e-04 -6.0177872977055753e-06 7.6458758095250616e-05 -3.6770745259092545e-04 3.5328604985754755e-05 1.0560289275433752e-04 -8.7434892061021599e-05 -3.6213274170196800e-05 6.7217241010359514e-05 -4.5896014130024018e-04 -3.3722989025963481e-03 -1.7425512249736848e-04 3.2463731918719865e-03 4.8532976757850975e-03 2.7149451826639511e-03 4.3383182413189096e-04 -3.2150695901831585e-03 4.3886278366704404e-03 1.4375708226434687e-03 1.0945499957734060e-02 -9.0945015205828167e-04 2.3850938567829584e-03 -2.5219044547311270e-03 -2.1775821081324552e-04 3.6107999444371514e-04 -9.5215694304225497e-04 1.4298468223027661e-03 -1.2087219953927880e-03 2.7480815512419612e-04 2.9493403350039360e-05 7.7854770096284776e-04 -5.8322604108629328e-04 1.3776210445126807e-03 -7.5574926248437452e-04 1.2824092809166944e-04 -7.6040912118500656e-04 7.4500477336726621e-03 -1.8702674320136489e-03 -5.2686814530698749e-03 -2.5555482037617396e-04 1.5692847472921490e-04 2.1073826838738929e-03 -5.0802010117280216e-05 3.0694848885672518e-03 5.9798465775757291e-05 1.6125734498132459e-04 5.3704659257656530e-04 1.1709433222360996e-03 7.2091971264844155e-04 1.4487195885462322e-03 1.6172033254116811e-03 1.5529026864786017e-03 -3.0101155113647165e-04 2.0163417284024707e-04 4.3308923617386549e-03 1.6566402453804929e-03 6.6640873825392767e-04 -5.0179835358795397e-04 -1.9899189274231370e-04 -4.6172366770201600e-04 -4.9416876833180187e-03 -1.6449396364968691e-04 -2.5257225194159688e-04 -3.3619934818016661e-05 -1.4852610936071878e-04 7.2439389363490256e-04 1.8402275405914217e-03 4.0963369612660727e-03 -7.3498709485254627e-04 -4.6583359300221361e-03 -1.9785521088133778e-02 -2.2283543774753722e-03 7.7593868072215605e-04 1.3131725741832357e-04 -9.8704581966209994e-03 2.1687921745554124e-02 7.2491575061069125e-03 1.1660374006050569e-03 -5.0410591192660038e-03 -6.8324107422793115e-03 -2.2290317424166286e-04 -7.3453088972212609e-03 -2.8496708092624586e-04 -4.1393417183060392e-03 2.0510711439307148e-03 1.7142431040909976e-02 -4.2480881637514192e-03 -2.0086374596440953e-02 2.0001581887078668e-02 -5.9946028218581223e-03 3.3789687819174213e-02 -1.6948003114729063e-03 1.4825209499951142e-02 2.1481874654494049e-03 -2.1392552097190855e-02 -7.7380384685071080e-02 -4.1659707525241538e-03 4.6571018575726382e-03 -4.9844833039305481e-02 7.4040080652936283e-04 -9.2656071731088419e-04 1.6413742145616559e-03 2.7969914750403937e-03 -9.7567211995181237e-03 1.4458081373650546e-02 
      </Row>
      <Row Index="163">
        -1.0710139997289949e-05 6.2212383236284327e-03 -8.6798509461119208e-04 -2.1461394377160358e-03 -1.9557340568469583e-03 4.3766682945519688e-04 5.0459247078894548e-05 3.2384624932902681e-03 1.0181484724646167e-03 -8.6782369339203237e-04 -5.0042407582304160e-04 -8.4909445858132710e-04 7.1902312030393159e-05 1.9335479984916371e-03 -8.2204009818673165e-05 -3.2659746608225963e-03 -2.1829911244695659e-04 2.7255596853650323e-04 -3.3293156654498396e-04 -3.6681221338644783e-03 -5.2365269003926520e-03 1.9552958590908845e-05 -1.0226214140104637e-03 -1.6718164477972208e-03 7.4655026967458237e-04 -1.2064848206473973e-04 2.5725822855680001e-03 -1.2409199800341481e-03 -9.8869565989471672e-05 -1.8440156087282133e-04 5.1698828088417434e-04 5.0083347394194581e-04 1.9184605163077625e-03 -3.6332172601371291e-04 2.1222294448280665e-03 1.1693895081175748e-06 1.2649384789827078e-04 6.8621551137509722e-04 -3.1196526603506905e-03 2.6222866205875862e-03 -1.0588985011045268e-03 -4.2386094330576080e-03 2.6556416518105693e-03 -4.1658605677368280e-04 2.3196516530245336e-04 -3.8086440844609425e-03 4.2533410309473756e-03 2.4357982161444559e-04 -8.7802978152356744e-04 -4.5320221034208597e-04 5.7492147811923902e-04 9.7177905068127372e-04 -1.0504212981743387e-03 -1.6508689422006142e-03 2.5356706812533127e-03 -4.0098950186751476e-04 4.6161542023735562e-04 -1.1793525770330757e-03 6.8286531226079443e-03 -1.3810878072144108e-03 -9.4709753138131139e-04 1.3239290508265708e-03 1.0806092825272175e-04 -1.0169215647666541e-04 4.3813177250721751e-04 2.3833081103681398e-03 -9.6142018324286028e-04 6.6604002873849033e-04 7.6207101787626288e-04 -1.8656572039893872e-04 -6.1095909285190202e-03 -1.0306585449864347e-03 4.2235893165271611e-03 7.2127081750877702e-04 7.5706444800722507e-04 -1.0105782462582903e-03 3.1202930151776704e-04 3.5875754656178576e-05 1.2023973163461591e-04 -9.0387361931352291e-04 1.7007439475269639e-04 1.3452187651115510e-04 -1.6771027468818182e-04 -4.9844353595992607e-04 2.5022159333130869e-03 9.6694047446444810e-05 -1.4387053011677374e-04 2.7822187636383983e-04 1.5619208376538383e-04 -2.1103094571783376e-04 -1.0342354518904644e-04 1.2586619059812196e-03 -2.1981647951555510e-04 -4.5473287073265255e-05 -7.7245353739113613e-05 1.8026507662463327e-03 8.8090131642662743e-04 -4.0072860189718242e-04 1.2355494311127539e-05 2.7594999370134741e-03 -1.8270343399059383e-04 -4.4223202748565110e-04 -1.5396962181692380e-04 -5.8080526123677721e-03 -8.8951765814599608e-04 -1.4257892370621723e-04 5.8166086153731473e-05 -4.1615899346924483e-04 -7.4873614921574941e-04 -2.3471175579648504e-04 2.5688430323196477e-03 -1.1290707726557510e-03 -1.4910819341686993e-04 -3.3898081742839332e-04 -3.4786973562821815e-03 -1.1756036995679850e-03 1.0172664878981409e-04 3.5674365132429958e-04 -6.7812934850503557e-04 2.3824060256112309e-04 -7.3233806589006220e-05 9.9303934975084290e-04 3.7743756485512986e-03 6.9541642597482640e-04 3.0631592585837948e-04 5.2785376866096154e-05 -1.9976337177275033e-05 4.2502126048613920e-04 -8.8783989637673317e-05 -1.5899935263717206e-03 4.5256415740864073e-04 -4.2823346800982076e-04 5.7511606658573072e-04 1.3521378759667884e-05 5.6460500946373007e-04 -8.7233088690494859e-05 -6.6689536354188288e-05 1.4876930886989655e-04 -6.6688003907042651e-06 -9.3185547580760936e-05 -1.0499977156502318e-04 -9.6696250892815784e-05 -7.0096697182947456e-05 -1.6136848267677643e-05 8.7759522509975484e-05 -1.7412280960791499e-06 -1.2514454513154424e-05 1.2709761390499155e-05 6.4529592110358172e-05 3.9814005927007469e-05 9.7288894547081965e-05 -3.2391631221117471e-05 2.4331900603202488e-03 8.5439308506532335e-03 -1.0940395102529146e-03 -7.3053870935293390e-04 -7.6699886816891322e-03 -6.8630559489849528e-04 5.0895005593513303e-04 -2.0182114195333935e-03 4.4706257467323632e-04 -1.9784993647085436e-04 -9.0945015205846111e-04 6.6978406070202024e-03 9.3136723212510462e-04 6.5995782223010266e-04 1.1710962552243112e-03 1.4532031867044140e-03 9.0962620790618898e-04 -1.8074015412649347e-03 3.5005217323572113e-04 -8.7481087345394172e-04 -8.4655024860301117e-04 -3.0265895261059536e-05 1.0839165328693648e-03 3.7169322447903625e-04 -6.2681860647355011e-05 -1.0755288389198859e-04 -6.0802295974931534e-04 -1.3063990110660385e-03 5.9397679778943615e-04 2.9095196793758351e-05 -1.1021632011104271e-04 9.3143959118090550e-04 1.1434764176605295e-05 -1.2398649402050197e-04 5.1960495632412396e-04 1.1529321461251801e-05 -1.3317976507804289e-04 6.3261579991447667e-06 -1.3765632921787299e-03 3.1810586721167326e-03 -5.0046976499494751e-04 -5.0280864185781341e-04 -1.0107858896523795e-03 1.6972583663439915e-04 -1.5679924102492566e-04 1.3713554600693896e-03 -6.6052245509078621e-04 6.3947851227477974e-04 2.4234414875808823e-05 3.0855194978033479e-04 -8.5918854992349773e-05 -1.1678505424544889e-03 -1.6098205058932700e-04 -2.4275381153211471e-03 -7.0949761255110762e-04 -2.7076605710497719e-05 -2.6151445860247285e-04 2.2662087876812380e-03 -1.4893150862385733e-02 -1.0473737065359538e-03 -8.9507024146941497e-04 7.0476643577764495e-03 1.6596334258280514e-03 1.2338118206865214e-04 -3.6050299064172920e-03 7.7680194079653457e-03 4.1353821356309162e-03 1.5322554004864007e-03 -1.4243935852139639e-02 -1.0773139673235768e-03 -1.3036325166912313e-02 -2.9217121530363279e-03 -1.4262769402619030e-02 -9.3116402010927921e-04 2.6838755471979220e-03 -2.1476413293082916e-03 1.0886373588567737e-02 -1.8378896999495770e-02 1.2302305713943265e-03 -9.0080259125087728e-03 -3.8845839718754435e-03 -2.2945004346315305e-03 -3.0842485686146930e-03 2.0090224677252064e-02 1.4990210221828356e-02 -2.6312797726505445e-03 1.4629535746061844e-03 2.8673706888260667e-03 3.1478357848429570e-03 -1.2446564885930409e-02 2.0196861318558012e-03 -1.4074948335819244e-02 -4.0315738813406794e-03 1.7088154666411014e-03 2.8268735700132594e-03 -2.1684999437089291e-03 
      </Row>
      <Row Index="164">
        9.7914411146574273e-03 -5.3808485556422203e-03 -1.2834394844376956e-03 -2.3810903980975278e-03 3.1075795599741149e-03 -1.3557585050015218e-02 -4.4479009094073457e-04 -2.1956652380953345e-03 9.7219828679946663e-05 -1.2424502402213562e-03 3.7185431886134343e-03 2.9574656901396740e-04 -6.9206563358167154e-03 -3.8169522884439963e-05 -2.1257993691233684e-06 -4.3465899175250747e-03 9.6236375388440026e-04 -2.0612524370165267e-03 1.9039781833016163e-03 1.0960105777526720e-02 1.6756363942029805e-03 7.2307295861599452e-03 2.8809149219332164e-03 -1.1426390031163691e-03 -8.4603584669027416e-03 6.0635254404326671e-05 -1.0192386061737245e-03 -1.2738694044716267e-02 4.3579710717023094e-04 4.7301436725398251e-03 8.6648619923840320e-04 -1.5423324491336423e-02 -3.8258686158905240e-03 -2.5758651473999430e-04 1.3585748230271477e-03 9.6580109909560983e-04 4.8380763701643820e-03 2.6005463062257761e-04 9.5872844939048577e-03 -4.9126610992844544e-04 3.9285667772875621e-03 2.6746418831181951e-04 -5.5645366126900325e-03 -1.0112769041396713e-03 3.3740117694629201e-05 2.9323830805254303e-04 -5.8384981021528254e-03 2.8672118804647234e-03 2.3870722814760340e-03 3.9291465794004388e-05 -2.0417055917522214e-03 -1.3796461710136737e-03 -2.0743784695540918e-03 -5.4056251660274434e-03 -9.6169057391562451e-04 -1.0782806453431873e-03 -6.0075945062261493e-04 8.3264947645286247e-03 -4.8863782618222386e-03 -2.0807759568776847e-03 2.9772437370347155e-03 -2.4687820213852973e-03 1.9249408221510174e-03 -9.4501345757136423e-04 4.5911446873470041e-04 -1.0329326918692816e-02 3.7388449428018208e-03 1.1558346324212661e-03 -2.1622907541012787e-04 -1.2216715986169836e-02 8.0280203386510762e-03 -1.1539494967437447e-03 7.3944831955570500e-04 -1.2629114848338547e-03 -7.4869405822063084e-04 -1.1881164625800952e-03 7.4731347442111296e-04 8.5792333225188228e-04 2.2625043811720993e-04 -1.3078127934982101e-04 4.9946179425532783e-04 -1.7612171501200022e-03 -7.5849385129425281e-04 6.4006845797018319e-04 1.2224102074724769e-03 -9.9881767383841469e-04 6.1051498405827881e-04 1.3949811637661499e-04 1.9712611585819559e-03 3.7360467985926224e-05 -2.5263493390366952e-05 1.2930757117064866e-03 7.5128645679822803e-05 1.3689149522263730e-03 -7.1413121393511768e-05 5.8567133382081416e-04 -9.8474233375896864e-04 -8.5961005882335484e-04 -1.8962885298863235e-03 4.1260941671075538e-03 -1.4083277985412132e-03 -1.0511297757070093e-03 -5.7907476256522164e-04 -7.6718082675763521e-03 -2.8183908707859594e-03 -1.4630377724424656e-03 -5.6456140865086563e-04 6.5248789781380996e-03 1.7408004846506545e-03 5.3834988778831815e-05 2.1436122252014534e-03 3.9334659751164708e-04 -3.5356766463211318e-04 -7.8303840833790234e-04 2.3368455822707634e-03 -7.8827190904283591e-04 4.9784349997693614e-04 -1.1435948852855701e-03 3.5975824271019799e-03 -7.1351561231213032e-04 2.3099011687807941e-04 -3.6272894881480755e-03 3.6598957374872204e-03 -1.6013363000813704e-03 -1.1729415026818675e-03 -1.4111274094663531e-04 1.2520590021196770e-02 2.5959718313991759e-03 1.2354107710150879e-04 4.2080242141248059e-03 -6.3703317912536814e-05 3.7093868791011810e-03 -2.1788982284715909e-03 1.1488003702086157e-04 -5.2964332709629406e-04 -7.2990115774691474e-05 -1.6302061003436395e-04 5.5985678907988700e-04 -1.0174420600531184e-05 5.9801011583459851e-05 -4.8460663194909337e-04 -6.0666083769552403e-05 -2.7267180115277210e-04 -3.9676833140350103e-05 -4.1526113819509707e-05 3.7138819164700139e-04 5.5562671272083920e-05 -2.0171210669313734e-05 7.6595680846363711e-05 -6.9650914335585637e-05 -2.4868223469074130e-05 -3.3524919665174147e-05 -5.0116241645104271e-03 6.1824128791905866e-04 1.0735785781397899e-03 -9.4199082103015898e-05 -9.1998800926807248e-04 -8.7778375167664371e-04 -5.6526482806563711e-05 -9.6239796004986451e-05 7.3390053419535306e-03 -4.1336246030250550e-03 2.3850938567775487e-03 9.3136723212475670e-04 5.0398173235560978e-02 2.8207345666782678e-03 4.8851726173785226e-04 4.8658871625094254e-03 4.2024089921845762e-04 5.2581718709420570e-03 -2.4959372802453431e-03 2.5745446116034049e-03 9.5818941323616569e-04 1.5585673271855394e-03 8.0254235032989826e-03 -9.1117551544678058e-03 8.2724189352890581e-03 -8.5995640494328923e-04 4.4798074043303771e-03 -2.2580682704928794e-02 4.2345003818733962e-03 2.1527230270214472e-03 1.5705179227390210e-03 -3.4035264506516838e-02 -6.9313930522053556e-03 4.9240744669771727e-04 -9.8349300265277440e-03 -5.0950446243021828e-04 4.2029202960597997e-03 1.2017712648277126e-03 2.1561791016730669e-03 -3.1533868516559769e-03 -1.9700748702310691e-03 -9.6850473317143678e-04 2.7039699512627297e-03 -4.6981966821078798e-04 -4.0590000569856581e-04 -1.3419595706944090e-03 1.6201025921053383e-03 2.9541156965621736e-04 -6.7187573770588005e-04 -3.1443437974167955e-04 3.9740841983639695e-03 3.4189825417115520e-03 -5.3723898879015749e-04 1.1428601678309185e-04 -3.6236110696270292e-04 -1.0852435007277545e-03 1.2295186206992788e-03 -6.4012788095524796e-03 -4.9173018270279294e-03 -1.3781883473882243e-03 -7.8138114608812884e-04 2.9556335881029006e-03 3.7982767746305014e-03 3.6686460308290401e-03 -7.0689552025353982e-03 -5.7700068976233249e-03 1.6328591960330832e-02 5.3467221182814557e-03 -1.0899735446104966e-03 -7.5030330822241031e-02 1.5417673405172840e-03 -2.8459941590908812e-03 -8.8904930815861538e-03 -1.6886526260066446e-03 -7.3867553860231744e-03 6.4758673499482281e-03 -3.2359157991183954e-02 1.0011440368508401e-02 6.2173927558094718e-03 -6.3082507869845292e-03 5.1297883576536928e-03 4.9455534244042629e-02 -4.0109398495205006e-03 -1.1862239717957967e-03 2.1977347628833840e-02 -6.8492302203416455e-03 -4.4295289881307936e-03 -2.1765595052136719e-03 -1.0779491201890712e-01 2.8160674318635431e-02 3.1648806979134993e-03 -1.5862837276642221e-02 1.6209790099541987e-03 -1.4821958134404151e-02 -9.5677241301639245e-03 4.3207195509280365e-02 
      </Row>
      <Row Index="165">
        3.1523871460328108e-03 2.0199183130420961e-02 -7.1080284104845237e-03 -3.0594548404718196e-02 1.6759191011022707e-02 6.9027152479405607e-03 1.1857105800781517e-04 -1.4883887531290853e-02 8.0374481122930976e-04 1.4425232738464643e-02 6.8494207203031879e-04 2.1130909522357470e-03 -6.1567812233965407e-04 -1.6609205484402943e-02 1.1311779746106206e-03 -5.0761356947751149e-03 1.2375998832626252e-03 2.3318646942285708e-03 5.7660828503639915e-03 8.4917747716685456e-03 -4.3557292509536893e-03 1.3178758293822625e-02 4.3372251080561171e-03 -9.8100067017883319e-03 7.3280499865050561e-03 1.9007134749085717e-03 -5.8412350588742364e-03 1.9976512916637774e-02 7.7061552235717229e-03 3.5730858028862420e-03 -4.7702895198263491e-03 -3.0620043786871824e-03 -1.6575638283170405e-03 2.2665198020295168e-03 2.0081012203767588e-02 9.9626396299215374e-04 -4.8026936995586673e-03 -4.2077745061959715e-03 -9.7057250120902508e-05 -3.8940466847060262e-03 1.2289375000126182e-02 -1.5530526348448103e-02 -3.0970586014821146e-02 2.9465877399618406e-03 -1.8940377431378858e-03 3.0482703486741734e-03 3.3137207719625694e-03 -1.1613109829135155e-02 4.5765044467896976e-03 6.0537366941115344e-03 -4.2482148455813742e-03 -2.9054802566298964e-02 8.1109745785127533e-03 -2.3551443546839679e-03 5.2603057762213579e-03 6.0579046349422047e-04 -1.1452472187824718e-02 -8.8755971751882795e-03 2.3775504208224718e-02 1.7719724764419156e-03 5.4011123494178095e-02 1.3351834825977155e-02 -3.3952710764647009e-03 1.0708844717468718e-03 1.7880230093191146e-03 1.1186317314864868e-02 4.9068346711476692e-03 -1.0002808515064160e-02 6.8148116567670570e-03 2.0016172498697245e-03 8.9575936131724973e-02 3.7453303610647248e-03 -2.1465192173386771e-02 -1.7131654424210889e-03 -3.4865074694910053e-03 -7.5654447052206329e-03 2.3125209574962821e-03 -3.2650173796317135e-03 1.2429044510714601e-03 -1.0957005028370072e-02 7.8264341558627777e-03 6.7245123092414473e-04 -1.8322341463824449e-03 -1.1676264439234169e-03 -6.5025293580499161e-03 4.9044992650377588e-03 -1.3950368102619778e-03 1.4102168835230648e-03 9.9913697348824148e-04 1.0377347713646092e-02 4.8770240281205055e-04 -3.2458137570293591e-03 -1.3183953377824105e-03 -1.3739519643160190e-03 5.6635926485889805e-04 -1.5085824052043541e-04 2.2856939627547467e-03 3.4522143502514011e-03 1.2798427596770732e-03 -7.2925610186741346e-03 -1.8345656597391793e-04 -6.2319256588291103e-03 -6.0686222144125711e-03 5.5037802488158705e-02 3.9042269596735080e-03 1.7105800846697497e-03 1.5177760219240110e-03 1.6183900738114074e-03 -2.9970329700726031e-03 3.7855681360828475e-04 2.7503738925308968e-03 -8.1966999805282645e-04 -7.5474106332195506e-04 3.2106564695441337e-03 -4.0538510963420392e-04 4.0602450700518711e-03 3.1249808804326568e-03 1.5673921240714966e-02 -9.6709990700154409e-03 -1.0003461803510963e-03 6.7094655976807885e-04 4.1444887989124553e-03 -2.6961356966844874e-02 -2.6569167776914070e-03 -2.2452465350651192e-03 -3.2230714022204402e-03 2.4995317401680234e-03 1.3316939117193850e-02 -1.9121253078050186e-04 -1.3173379169788037e-03 -9.8238942575634095e-04 -6.5225021714059393e-03 -9.0378064216458283e-03 -1.4648948675734111e-03 2.8753783222277337e-03 -4.2023222799852629e-04 -6.3212866342422607e-04 -2.3068655969766981e-03 2.3541454252122839e-05 -3.5199538786195622e-04 2.8734388954973758e-03 -1.4113688085594020e-03 1.4521397152591048e-03 -3.6691361129856539e-04 4.2703870249459101e-04 -2.9297121103216071e-04 2.0912063953963844e-03 -3.0802170612669543e-04 -3.5015422302394494e-04 1.5787527932211012e-04 -3.2731464883860799e-04 2.6866899552461610e-05 -4.6265602373030644e-04 1.0855561500170167e-03 2.0162061337285521e-03 -1.3868402269900637e-02 5.4743613864645969e-03 -1.0205736854219203e-03 5.0480651773205547e-04 7.9046172011035531e-03 -2.4240516798902819e-02 -2.3588930664286594e-03 -2.5219044547342808e-03 6.5995782222929970e-04 2.8207345666458458e-03 9.6535811305285768e-02 2.2224232150721852e-03 -6.5112663021533457e-03 -9.0321219355791169e-04 4.0701867636977723e-04 -7.7570972813286298e-03 3.3616610140051774e-03 -4.5243439342628894e-03 -3.6784076764444229e-03 -4.6781243443962811e-03 -2.0420151446682334e-03 1.0616685307711813e-03 -1.6576956006705956e-03 5.1977291402924286e-05 -1.5982702371306959e-03 2.9859533195586950e-04 7.2494999541175293e-04 -1.8980029986644716e-04 -4.1105417150888498e-03 -5.0370403467755532e-03 5.1216802077790361e-04 1.1178326152260568e-03 -1.9124407789149639e-04 3.3482479270629832e-03 1.9999476218215380e-03 -3.8682917325608412e-03 6.5875763712389167e-03 -2.6163181109829532e-03 -6.2203440868262155e-03 1.0260617980029939e-02 -2.2341969559069620e-03 -3.6300410229309554e-04 -3.7116070425519537e-03 -4.3790095955238816e-03 6.8658577241296750e-03 -5.4646875797524103e-03 6.1996403251695601e-04 3.2732969489878438e-03 3.2284818076178438e-02 2.2853810645055025e-04 -1.2459968965276959e-02 -4.5535188990880786e-03 -1.1068384828281101e-03 5.6015469262076061e-03 -6.6661532063961876e-03 -4.7358625404892211e-04 -1.4132211856226831e-02 6.4877442956265893e-02 4.0543696466328855e-02 -4.0578954391701973e-03 1.8781819921009218e-02 -2.6771937996773604e-03 -5.9581914647569012e-03 6.2646932401886797e-03 -1.2992913386312694e-02 -1.0026089130068284e-02 4.1112183999400011e-03 -1.3663739979781936e-01 -1.9282195056282000e-03 -3.4371290851049910e-02 -6.6533439138793905e-03 -1.0476870318827781e-02 1.3395537224149087e-02 -2.5807090900628174e-02 -3.2532634829002066e-02 3.0850069087663676e-02 -1.2422369943378488e-01 2.9917948983598397e-02 -2.2435403833120732e-02 -2.4338041599530590e-02 -3.7968871734136822e-02 -1.0630658835797842e-01 3.7418147030663367e-02 -8.6341062474646294e-03 4.4048968559126357e-02 -1.5470171340725442e-02 3.5715236506064552e-01 -1.0942222260180663e-02 -2.1473761069673546e-02 -7.9891640755800700e-03 2.0772526847802605e-02 -3.6555619367845488e-02 -1.4376392649553895e-02 
      </Row>
      <Row Index="166">
        -6.4927556806454239e-06 -1.1685318861271096e-03 -4.1067287837860504e-04 -9.8454251939854125e-04 -3.9601368506894646e-03 -1.1490525726928357e-04 -2.0818696905463467e-04 -7.8064242286028304e-04 2.4727132076946003e-03 8.8296547232987816e-05 -2.2668836868283476e-04 -7.3844873528151336e-05 3.1051005638733876e-04 9.4316867394267671e-04 -3.7784717824400631e-05 -1.2448014897964025e-03 2.9065529147303095e-04 2.8993042720835060e-04 1.1151087537087543e-03 -2.8282097990816879e-03 -3.4428311983652430e-05 1.5884395255060611e-03 -8.3451305769008605e-04 1.4000611214067538e-03 -1.8481323767834037e-05 -5.0845378487590306e-04 1.5305183987267819e-03 4.4225037797342133e-03 -7.4219252389769305e-04 2.8790840869493306e-04 4.0757171591977292e-04 3.9263923196163753e-04 1.3384016376640673e-03 2.1254306900001640e-03 8.5349688869657166e-04 2.3360501028826834e-03 -1.6631094185552264e-04 3.1310240599247271e-04 -6.5293341344326563e-03 5.5144371020751648e-04 -3.5761435180707221e-04 -1.4877792153944530e-03 2.5719148594425152e-03 -7.0356035002426889e-05 -2.6450562846615320e-04 4.5814464674751292e-05 8.4971217592162591e-03 4.1991590727291726e-04 9.2023735794827081e-05 -4.3015641259500342e-04 -8.4459026644936831e-04 2.5073620806875573e-03 4.6704371464901927e-03 5.2918150330797525e-04 -1.0201338062458230e-03 -3.6937212097915646e-04 8.2014175101933475e-04 -3.8858667034654300e-03 3.6876370215641323e-05 -1.2959262438262749e-03 1.5875736971561810e-03 -3.2878292710293005e-03 -7.9777510424064186e-05 -2.0455420526088730e-04 -1.3941178864175854e-03 1.2803033311669446e-03 -1.9050621734816031e-05 6.5810947589668104e-05 -7.4698452944517749e-04 -3.8016734035753626e-04 1.8976656654903677e-03 4.5079914593813206e-03 1.8311249637073951e-03 -1.0163163060403929e-03 -1.2912957531703345e-04 -5.4140109593553247e-04 -9.1595326600744931e-04 3.6561539951151557e-06 2.3291546716563147e-04 -5.3494815296993765e-04 -4.4252508248296060e-04 3.1363277172609372e-05 3.7681410893918845e-05 -2.2606939733108705e-05 -1.2571786719013829e-04 -8.5549901195946729e-05 1.4637862138038363e-04 -1.8428030388872689e-04 -1.1743448029292095e-04 4.6150666781958195e-04 5.4230290137707393e-04 3.4130853946894176e-04 5.6027990582691197e-04 -5.6473860296370844e-05 1.5737095492369881e-04 -2.3742023706355671e-03 1.0893971961985387e-03 -9.2675817643228737e-04 -4.7232856457409965e-04 4.5733367560991493e-03 -6.8988719422125575e-05 1.0177391710132373e-04 -5.9823845309411004e-04 1.1591980468515992e-03 -1.0658431025973591e-03 3.5098240839871167e-04 -1.5510910244792493e-04 -3.8196182185765777e-04 1.2265856083912307e-03 1.0745046052788765e-03 9.5633090597587009e-04 1.9061139006685856e-03 1.4166398740776947e-04 8.7181242661998404e-04 -6.5155830403137061e-04 -7.4044850728056857e-04 4.9593090254456589e-04 5.8178962402123658e-04 -2.3960505747247065e-03 9.5472637188071332e-05 -1.3750365219227724e-04 -3.5645705538619728e-04 1.9932249334893692e-03 5.1059887660944922e-04 1.8958982632575120e-04 7.9582359740052930e-05 3.9579421450936577e-04 -5.3675925185153186e-04 6.9266838967092098e-04 -2.7706776065537092e-05 -5.4964847242796547e-04 -2.7397258855163081e-04 -1.7430537338361937e-03 -7.0558104213096456e-05 2.4614591870650358e-04 1.3734114314651252e-04 3.3980395040488680e-05 -2.2076471269233275e-04 -4.6122460504560256e-05 -1.9566772761334698e-05 2.6828802738279155e-04 -3.8568453356335297e-04 6.3088548516510116e-05 2.5268495168955524e-05 3.3241030414834302e-05 9.6304415061736315e-05 -9.4623748342789949e-05 2.7940570732652701e-06 -1.4176795333407721e-04 -9.9929377324456251e-05 8.1169766849349342e-05 1.3794924599662534e-04 3.6370465401865506e-03 1.7144338972451371e-03 -9.9754827993429451e-04 -1.0125746271196488e-03 3.2020761528085535e-03 -5.4336776716869218e-04 9.7953099281449668e-05 -1.6407909367714647e-04 -6.0157958212220964e-03 1.8954346619586845e-04 -2.1775821081293384e-04 1.1710962552242195e-03 4.8851726173885601e-04 2.2224232150728669e-03 6.6950151221806271e-03 4.2697382596865088e-04 -3.7367761345556238e-03 -3.8871357601286870e-04 -5.9270457324465217e-05 -5.8350878575707914e-04 6.6119082540647177e-04 -5.5423295208248055e-04 1.2012202212313694e-04 -5.4636878796096577e-04 6.6545042187644593e-05 1.3203672354112055e-04 4.8957404897508050e-04 4.8772733824306753e-04 -5.7107748344224080e-05 1.0312207445260628e-04 2.5971796392934305e-05 5.6886020458493376e-04 -7.5889017818028104e-05 -4.6799556482367635e-04 -1.7099716300189235e-04 3.3481433047497964e-04 -2.2385788523192118e-05 1.5286291337936317e-04 -1.7365243545699720e-03 3.1696023331422810e-04 -3.5050102048886573e-04 -4.3319415487511802e-04 2.6824804243334472e-04 1.0726804005054227e-04 -1.0942104676557678e-04 -5.4003750610886699e-04 -7.4286792028245053e-04 -3.1861053985748525e-04 9.6184368058603993e-05 -5.2573266411494522e-05 -4.9732374764325583e-04 1.1931373537596756e-03 1.1009102971823307e-03 4.3383034478695101e-04 1.1877637507643358e-03 3.4568949858148116e-04 1.2369278659833715e-03 8.5093581834436369e-03 -6.1147139902256609e-03 2.0321139846169829e-03 4.7387045674359080e-03 -1.9104215562706910e-02 1.5297697074334270e-03 -7.4026875173999499e-04 9.4630100881803829e-04 1.9457531093607511e-02 3.3053407837009001e-03 -2.6755690372505720e-04 -1.4324979082366643e-03 -7.6980200927659261e-04 -6.1544461517199327e-03 -1.0222478883735262e-02 -2.8458069890167290e-03 5.3154686474211378e-03 1.0477103787344300e-03 -7.0960303775033286e-04 6.6060848961146485e-03 8.8260604844003776e-04 2.4847566851154573e-03 -6.9973980742716957e-03 -7.9469498668730751e-03 1.6314228939385879e-03 2.1416347895493078e-03 -4.0611363289010452e-04 -5.3798867076328199e-03 -1.4222164165396437e-03 2.2684636595161067e-03 -3.9023629170722761e-03 1.6917781952628832e-03 2.0747105975261666e-03 -7.4010254290372540e-03 -2.3881295093974016e-03 7.9798654837759126e-03 2.0174732347492171e-03 -6.2690716002156179e-03 4.7517506458175495e-03 
      </Row>
      <Row Index="167">
        4.7811770788833375e-03 3.3402795696901855e-04 -3.4269721076025383e-03 -4.6439829466679572e-03 3.8180186076158251e-03 -2.7717343405927047e-03 2.2089991161725053e-05 5.9275724694804466e-03 1.2682176560962252e-02 -1.1208127616285007e-02 1.0090873239352073e-03 -1.6013230414293502e-03 -4.7501355371391482e-03 6.6189896393908515e-03 -3.9436141272735856e-04 -8.9755136119919365e-02 -2.4927913756387261e-03 -2.6824500902578458e-03 6.7402112010552266e-03 4.4534584781496155e-02 -6.5151220069490784e-03 5.2120682356972536e-03 1.0873604159107670e-02 -4.0161192764940346e-03 1.4068799547302946e-03 1.1354575467982316e-03 -5.1406801517403095e-03 -3.5413551588935888e-03 -2.8851720396791125e-03 5.8754563958860057e-03 3.7457391734662671e-03 -1.8652437774109318e-03 -7.4075452406708641e-03 -3.0740551349925371e-05 1.1461516201841965e-01 1.1748354010314346e-03 4.3649472382845944e-03 -5.1097280020659108e-03 -5.3519770075372425e-03 8.5417249964849784e-03 -6.8377803710727436e-03 -1.5459176641717476e-02 -2.2460945581513236e-02 2.4838922281716913e-04 -5.4257953933978254e-04 5.7982208434315952e-03 4.4504999803213208e-04 -1.1462092601693952e-04 -3.4805231464199449e-04 -2.0753435113116947e-03 -5.3656127069222626e-03 1.2777712885364861e-02 6.9354026110171607e-04 -1.4671744466766254e-01 -2.5922320156922529e-03 -1.5361133425384754e-02 -4.6414259412410480e-03 1.2998239851649385e-02 -1.0759038511616532e-02 -2.6610756869706875e-03 1.4186997240327598e-03 -7.1698452295490371e-03 2.0160138657312615e-03 1.4132847295356132e-04 2.3136539545882684e-03 -2.1935274176158426e-02 3.5183176425047924e-03 2.6926926483509805e-03 3.9063914782232895e-04 -4.0401030216853928e-03 -3.2525017597284170e-03 2.8279996011104647e-04 7.4955577668346707e-02 -2.2137950606430229e-04 5.8552313756269729e-03 -5.9929496218905365e-03 5.6549842131258243e-03 -1.1531674681387050e-03 6.9930202775224382e-04 1.4030866524766070e-03 1.5196984431607614e-03 -5.0159499680205340e-04 8.5221306879243192e-04 -9.7557356317135024e-04 -3.9969086963827505e-03 -1.3398884110615850e-04 8.3602825850445650e-05 1.4936764979651268e-04 2.8584052400062575e-04 -2.3206456979867063e-04 3.3146669099056933e-05 1.7324420009220874e-02 -6.4342122506371585e-05 -1.6009608228064812e-03 -6.7960831140141328e-04 -5.0979556255894565e-03 -5.4276073113718667e-03 -1.8750220867494206e-03 4.6230607466847679e-03 -9.4066581913307690e-03 -2.3789389634723893e-04 1.9906776749011477e-03 -3.7050471107638316e-03 -2.0713904454656151e-03 -1.6087034070054532e-03 -5.1001022935158740e-04 8.0801614594728458e-04 1.6058121532157308e-03 -3.9848932840648946e-03 2.8493226136676320e-06 1.6853679416826792e-02 -1.1162463028546940e-03 5.9717382637584221e-04 1.3979305645407079e-03 1.1934361497867769e-02 -7.0327570551254048e-04 5.9781083430100329e-03 -4.8625844198914060e-03 8.0785342973550035e-03 1.6515037748187451e-03 -6.5608083627397527e-04 -8.0523209806233897e-04 -8.8952471696890911e-03 1.1325834668584397e-03 8.3804588425201833e-04 -1.9339076286736569e-03 -2.2623065087182741e-03 -5.4498932675018513e-04 2.8245575572030494e-04 2.6867510837834563e-02 -1.0777376550658415e-03 -1.3147891586481773e-02 -8.3413721029360066e-03 2.3969380809697512e-03 7.7360696773858505e-05 -8.3714710147974637e-04 4.1752002295647537e-04 -1.5415663084839461e-03 -1.6677875986510478e-04 5.5904428555462885e-05 2.3041095465949676e-04 3.7965105640881004e-03 6.1668105183959425e-04 -1.6407522160467609e-04 5.3349898845043682e-04 5.1614203863336846e-04 7.6319826861828352e-04 -1.9102923824598013e-04 -8.8510170836611588e-04 2.7625904583253292e-04 4.8135418050070881e-04 -6.6646413663867289e-04 -1.4393015239828173e-02 -6.5558557772274970e-03 3.1553364461141403e-03 8.7714305875510948e-03 1.1741449012000124e-03 -1.2903271134935158e-03 -5.1249501780100543e-04 -3.3901188825388902e-03 -3.1131839346325796e-02 1.0399837963175023e-02 3.6107999443552480e-04 1.4532031867024245e-03 4.8658871625001281e-03 -6.5112663021301784e-03 4.2697382596843577e-04 1.7175324308108891e-01 5.1529870221125760e-03 4.9597234533400826e-03 -5.3041900487952849e-03 8.7201032647270527e-03 8.0740460312889173e-04 -8.6576448750719237e-04 5.4842896027449831e-03 3.6491530889427738e-03 6.1293493143892760e-04 4.5178245756058444e-04 -1.3462578188633834e-03 -8.8005476878072475e-04 1.5340068616085775e-03 1.7803686513210085e-04 1.3157340141781229e-03 -2.3167671538455743e-03 -1.9909697622866574e-03 -4.5059754188211476e-04 2.0000258925986392e-02 2.1821941823620345e-04 5.4178357055263068e-03 5.4890583280330779e-04 -6.5041202437315926e-04 1.8853955440927134e-03 -1.9037596988930364e-03 -4.2565878347356782e-03 5.2603221212028563e-03 -3.3786030004009687e-04 -4.9864256736409471e-05 1.1686932526307949e-03 -1.3876825400627353e-04 7.5167986662981825e-04 -1.0062705023032423e-03 -1.5935293930266156e-03 -3.6110358614316416e-05 6.5196357125539717e-03 -2.4910352570550390e-04 -3.8214729058019925e-02 -2.3074221468956128e-03 -1.4648915634435022e-03 4.7122526236835017e-03 -8.9128056918470755e-03 3.8828059108311962e-02 -1.4121208628534693e-02 -6.5151428080714474e-02 5.6583979598855715e-02 4.1592376254723472e-03 -7.0878245164869881e-03 3.0018789619200022e-02 5.2083962198856942e-02 -1.5183563054794097e-02 9.0643250235283856e-04 -1.5214589388552871e-02 -2.4488329844476790e-02 5.5126063020057250e-02 -1.6248852005643227e-03 -2.8004294859748163e-01 -1.7301594524059660e-02 -4.7705100287156590e-02 1.1188151370248395e-02 -1.2166034749260915e-01 2.0409713841379212e-02 1.3895814930173916e-04 3.0145865690136405e-03 1.9023946976248984e-02 7.8187624253197308e-03 1.0983094312443729e-02 -4.9440540626388696e-04 -2.0839023704436948e-02 -2.7874294990637916e-02 -1.1126465900810683e-02 3.0558375955098398e-03 -1.6030615625125061e-02 1.2070521140303943e-02 3.6192163159751243e-04 -3.4721838811367078e-01 -8.1442894762178905e-04 3.8590815636716506e-02 -3.7189456101978546e-02 1.7111976398834913e-01 
      </Row>
      <Row Index="168">
        -1.2441406584304305e-03 7.6680071622705140e-04 -2.7610627912428957e-04 -8.5728319831036588e-04 -1.2446047417732382e-03 1.3583555134744213e-03 1.3363260326115876e-04 -1.0120377442998027e-03 -8.0508668525985753e-04 -6.7117505296270614e-04 4.2506394566227683e-04 -1.1718379286684979e-04 -7.4126529666493509e-04 9.5072192988950163e-04 3.4941964358992540e-04 -2.0982963291996202e-03 -3.1066942974576376e-03 7.6750521671952593e-04 3.1540500095598441e-03 4.3057180525851212e-03 -1.5002556062342571e-03 -3.0016795871212407e-04 1.9119361979977800e-04 -1.5473097578575339e-03 1.2062984611490505e-03 1.7586517756864415e-04 -1.8317322545498022e-03 -2.3451370128981502e-03 4.7060683300509431e-04 2.9741855535272109e-04 -2.8664903556140445e-04 -3.1773651518510822e-04 -1.5365127511312751e-03 2.2101750945772831e-03 5.7162926874574811e-03 2.0453688462408921e-03 4.0216404939583637e-04 -2.0290504196166488e-03 -3.4980293178170693e-03 1.2347308870757495e-03 -1.4212381010161382e-03 -2.6141511625164225e-03 4.9581302804521665e-04 1.3814174611178516e-03 7.9394179554743288e-04 2.4494846217303166e-03 3.0974021997203470e-03 -6.2067745124896601e-03 2.0995714993596662e-05 -4.6038525927536746e-04 -9.8768222929885956e-04 2.5149631318898465e-03 3.5529609646775106e-03 -7.6868727642234094e-03 -9.4899262959277156e-03 -4.4276634761821897e-04 4.7126172942852599e-04 -4.9083837604217626e-03 1.2148813572883982e-03 1.0910084826766635e-03 -7.4672333471618307e-04 1.6463552528030879e-03 3.5972668681210403e-04 4.6895206292946190e-05 6.4541772214228577e-04 -2.1246121664421046e-03 -6.1756126897088738e-03 3.5647940670832830e-04 -9.5277378625387827e-04 -5.8172425694674127e-04 -5.9208763454001541e-04 2.7896930547587698e-03 8.0378708085348735e-04 -5.0975123019364387e-03 3.5206949840513400e-04 -1.8222229257672867e-03 9.9050790607757913e-04 -2.2590146382594871e-04 2.7918103083261108e-04 -3.0092426583343756e-04 2.9012773113577047e-04 1.2760840398438238e-04 -4.1765119346728224e-05 -2.3814040036571060e-04 -9.7365009065861208e-05 4.9649174734808788e-04 -1.8871115968147230e-04 -1.7590959292026814e-04 5.4702197542055636e-05 -1.0500359518783495e-03 3.3312659085605467e-04 1.1003640408201267e-03 1.1681946336883741e-03 -5.5028662157364291e-04 -9.8853980651338828e-04 1.8999239241229027e-03 -5.1691685970138611e-04 2.3794302612902235e-05 3.1280063677806801e-04 4.1529846180265416e-03 -4.6992713354682353e-04 2.0041973388906228e-05 5.9160168954632778e-04 -1.0929030127420497e-03 2.1233584400638136e-03 -3.6755327140360256e-04 -8.0249619553917468e-04 7.7582096587085290e-04 -2.8280724503128066e-03 8.2806353559810621e-04 8.6956596658481640e-04 3.5907235954245843e-03 -1.1332477425102210e-03 -1.5620461802202774e-03 1.1786816038113609e-03 -2.1488637300020675e-04 2.1210016151985197e-03 -1.6643220052626670e-03 1.5367977803259234e-03 3.8102896738205863e-05 1.5818166656371706e-04 -9.1971194754820866e-04 -2.9062006319296799e-03 -1.8538527100773973e-03 1.0509398876951831e-04 -2.1804236239517452e-04 2.2291347965500068e-04 4.1630706123114503e-04 7.2211944803705246e-05 8.3125633026955373e-04 3.8965334964961612e-04 -1.6029305263334460e-03 -4.9144210919364311e-03 6.1879818192702005e-04 2.2413666102262905e-04 -2.2149055326832706e-04 -4.1578733189020660e-05 5.4483105207444574e-04 -6.4155337003974231e-05 8.1215814199815900e-05 -5.3946702217681644e-04 2.3415404209701119e-04 -1.4245714826197704e-04 -4.9135854299391546e-05 4.2595409604425486e-05 -2.0278636004437061e-04 3.0745529542034795e-04 2.4890893776091427e-05 3.8408256909130013e-05 -1.4352677997390691e-04 -2.7104645159136092e-05 -1.8276888346638765e-04 3.5665762090565643e-03 -1.2426109860439231e-03 -5.3029260861629096e-04 1.4360900091827953e-03 -4.4673943940247724e-03 7.9110469970048326e-04 1.7581079044837308e-04 -9.2779610952200154e-05 4.5259033709646491e-03 -3.7269766202350342e-03 -9.5215694304059918e-04 9.0962620790613802e-04 4.2024089921607161e-04 -9.0321219355785597e-04 -3.7367761345553550e-03 5.1529870221089479e-03 1.6587784658857661e-02 -2.3841947474762546e-03 1.2600063679186386e-03 1.7729553707568346e-04 -7.5206879024120390e-05 -6.9806129901259228e-04 9.8970694075886309e-04 9.4678880406167461e-04 -3.0934814630531084e-04 -1.1318051092385970e-04 -7.5810707176382497e-05 -8.8102812051301868e-04 6.6536663795251170e-04 1.4544080770380287e-04 1.3830805177085168e-04 1.9070293569318532e-05 7.9960373388412651e-05 1.1263734687881244e-04 9.8383751170113415e-04 -6.6831892695456507e-04 5.5340016430719318e-04 4.3387981122009877e-04 -3.2267186802484998e-04 -1.0478587310355234e-03 2.3943435590948852e-04 4.4328983012636286e-04 2.0644245223766827e-03 2.6326490783346132e-04 -2.0622109728189112e-04 -1.4009052316169873e-03 -2.0212143604727752e-03 2.4171436946951561e-03 -5.2698484317151783e-04 -3.1991120863604007e-04 5.5775602738291513e-04 -1.9539238292894494e-03 5.9045041323550957e-04 -4.1620388961463375e-03 1.4253171635000437e-03 6.3820202279604916e-04 6.2429538187535824e-04 -5.5368040765656334e-03 -9.5352013802744019e-04 2.3144816889311402e-03 -9.4061866039720048e-03 1.0370141960469991e-02 9.9879817687680353e-04 -9.5068756303939416e-05 -3.5912727006650854e-03 -1.1965189170787880e-02 -9.1293133391996701e-03 2.0716771801084074e-03 -6.7880665488550184e-04 -8.5305964031856421e-04 4.0562381006564860e-03 8.4473368100108047e-03 -7.4459895027430348e-03 -4.1562416133395425e-02 7.0517785653784037e-03 -4.5233701439099695e-03 -4.0163758708620760e-03 1.7468475727758503e-03 -2.3063187785988789e-03 -1.8537176426549375e-03 -1.2561220598311922e-03 -7.7300303460448271e-03 1.5641278611076993e-03 -4.4141547440076645e-03 1.8111574339557926e-03 4.3482421748496916e-03 -2.6224883018064471e-03 -5.3455178410012410e-03 -2.0487165857922037e-03 -3.9600514683527308e-03 -7.4107683514247763e-03 -1.5040436076604283e-02 2.0490325877447819e-02 6.8259775860104403e-03 -1.5223289319440071e-02 1.1148298979080559e-02 
      </Row>
      <Row Index="169">
        7.6327478767399580e-03 -5.4004326424119953e-03 3.3483639378028285e-03 4.1864515413675748e-03 -1.2195577176660338e-03 -1.5609077662372683e-03 -6.2147736403313572e-04 -5.7480128283589893e-03 2.5582739366657586e-03 -8.1132370591224345e-04 1.7737057579497329e-03 -5.6624380382159709e-06 2.7499713278222220e-04 4.4317350388171535e-03 1.8980345206273327e-04 -5.9734385015222102e-03 7.5819851059003669e-04 -1.4015462275512244e-03 1.0584489796459963e-03 7.6726156510674645e-03 4.1196446823830793e-03 -1.1175497617552765e-02 3.5914954824494555e-03 -4.1990539591892084e-03 -5.6367547422818756e-04 -1.1102266419415639e-04 -1.3540487563075132e-03 -2.0425132122578585e-02 7.3531400244268227e-04 1.5914115929220041e-03 7.6583384618705841e-04 1.5106200835781213e-03 -3.5126993415460833e-03 -7.8728810356833677e-04 8.1865600366374247e-03 -2.3022586706613691e-04 2.1463469185195663e-03 8.9061699111125242e-04 1.6223183299401995e-02 -1.7258856959301294e-03 -2.3761694497872743e-02 2.1064805432719769e-03 -2.4358643061333785e-03 1.9259001511474916e-04 -3.0816225337866598e-04 2.0586029258835431e-03 -1.1044781092091199e-02 1.8153691503081798e-03 9.3918209251606100e-04 -3.2904522317675489e-05 6.2004952251178136e-05 6.3733858056622128e-04 -1.9924135472961860e-03 -1.1990242898680213e-02 -8.8055152792332336e-04 1.6450615689439594e-03 -5.2703471518499370e-03 1.9566670549247822e-02 -7.2741666352323436e-03 6.2239655997786900e-03 -7.7950885175296497e-03 5.8597579046278945e-03 -1.5131985520495245e-04 1.0424116770452185e-04 -4.2824850932834391e-03 8.4719011680754186e-03 -4.6991918314101544e-05 1.1414090011874489e-03 6.5761094131955820e-04 -1.7909609221687106e-03 -4.5570549587708141e-03 -1.8446587754911703e-03 6.4242683370329678e-03 6.6310578058074651e-04 -1.3232542769244203e-03 -4.8213511199152806e-03 -1.1683061594630062e-03 7.0436977419959662e-04 -3.9523453360361810e-03 2.8784938444409098e-03 -2.2949491503407391e-03 -5.3887085226912495e-04 4.4931904261104978e-04 -7.7705274271100411e-04 -7.0296679644138160e-03 -8.6165751814304414e-05 -1.2190673718267056e-04 4.8358477530888871e-04 -9.8853381126522144e-05 -1.4991156803055364e-03 -1.1506276928848706e-04 2.4624013324488561e-04 2.1262147680419473e-04 9.0601797592787525e-04 1.0272759263333792e-03 -2.0785570972022410e-03 -2.4537084619697530e-04 2.3649400620640226e-03 -2.3682757501062093e-04 2.7392268874474462e-03 4.0279007460761705e-04 1.2430501702626958e-03 1.2102785871035970e-03 9.1756830314539684e-03 -1.3583515141235378e-03 2.3105443099514529e-04 -1.3662354468775215e-04 -1.1322113520958500e-04 1.9733081025844444e-04 -5.5216914653167734e-05 1.6118967763449205e-03 -7.1622510049262900e-04 -2.6056632683682940e-03 1.4377819571026341e-03 4.3691632196614406e-03 -1.7538033643051815e-03 4.6145600599662509e-03 2.8672246574935117e-03 1.7272145570934697e-04 1.3101123392727522e-03 -2.0349046521583565e-04 -5.8050079516104251e-03 -3.3820749149649429e-02 3.7174590134841329e-03 -4.8229842715965328e-04 9.9548415374502109e-04 1.2878463026851561e-04 -7.2576764184390102e-03 -4.6535049153222183e-05 -7.9931807176625430e-03 -5.9912246659618671e-04 -8.2776362041101035e-04 -1.3049234969378610e-03 4.0262555490797741e-04 8.9811780246457215e-04 5.5381326454489923e-05 -1.9406505708294329e-05 -1.0568875865447492e-03 1.0988737873093455e-04 -3.7464057778891283e-05 7.4258209959748899e-04 8.0092864086499325e-05 1.7342476861288312e-04 -1.1217398764706583e-05 1.3311804957360390e-04 4.5057973965443080e-04 1.0167125690405707e-04 8.8282988495520646e-05 -4.9598022372854917e-04 -8.0988414258732289e-05 3.1694529696700601e-04 -1.5961132087812750e-04 -7.2604651089362149e-03 3.0549380827224366e-03 2.3668633280688432e-03 -1.1334881002503065e-04 4.7677785154302300e-03 -1.6494780331290093e-04 -4.4142924437660632e-04 5.0831683632645529e-03 -1.2644772318593976e-02 -1.4824501521798180e-03 1.4298468223022534e-03 -1.8074015412647020e-03 5.2581718709416893e-03 4.0701867636245073e-04 -3.8871357601303214e-04 4.9597234533399134e-03 -2.3841947474757376e-03 3.2363566748362410e-02 -4.9316031026508064e-04 2.5414879756818776e-04 1.7202780760399369e-03 3.4177177265339864e-03 4.9137134932253964e-04 2.7095520092686523e-04 4.9207191327930002e-04 3.1887453458222248e-04 1.6921131062686556e-03 5.9132281734806669e-03 -6.9445029016634158e-05 -5.7924391109548390e-05 -3.7241241838013514e-04 2.9512720617464192e-03 8.0011879910658456e-04 -2.7389767955608051e-04 3.1582090807508179e-03 3.0583535628403544e-04 -2.4984196806834055e-03 6.0224604784499952e-04 4.8881443984738204e-03 -2.9470379861320731e-03 2.6552905431757052e-03 -1.1907094781011291e-03 1.0109880733814595e-03 -1.7044747910032517e-04 -1.1975057828034289e-04 -3.5338906817501581e-03 -6.6414788150053307e-04 -4.8484024734669066e-04 -1.2670400633687238e-04 -3.2807847377140718e-05 -6.0090877588684114e-04 -9.1421359316474203e-04 -2.0318532616157630e-04 -2.8060231104950861e-03 5.9051989420566998e-04 -6.6093633639778722e-04 1.8176443359933184e-03 -5.7619965915566536e-03 -1.0951867031955879e-02 -2.3735111674660150e-02 -5.7593182355632645e-04 -1.1298394887042011e-02 1.7281101058699382e-03 -4.9640425647262468e-03 -1.2086467361902437e-02 -8.5119416893071169e-03 1.0969425228447559e-02 9.1373738249903155e-04 3.7220451246648412e-03 -8.9072055270400068e-03 -2.6661595973613296e-03 -4.5243775651465732e-04 -1.5395315223178134e-02 6.4235799179817362e-03 -5.7327044016420595e-02 1.7661892396843813e-04 -4.7625016503365959e-02 1.5071729663481317e-02 -4.0922190339313672e-02 2.2136006392923582e-02 -6.8993283904860885e-03 6.9963945989349585e-03 4.4543493958665997e-03 -1.0764604788098386e-02 -2.5163914534405803e-02 -5.4569154145233771e-03 -6.8097501313598143e-03 -1.8086213059441848e-04 7.7515284996412231e-03 -1.8413115911718139e-02 3.4320644970030085e-03 -2.6258739416255863e-02 -1.9191543446906048e-03 1.0511855803111547e-02 -1.2785721401238636e-02 7.8159107360279284e-02 
      </Row>
      <Row Index="170">
        -1.0956427106870531e-02 1.6955018081321049e-03 9.6360240970391753e-04 -5.3301217076598198e-03 2.4002481936855502e-02 4.7853094082602257e-03 3.9762245111163441e-04 2.7350123235427848e-03 -9.0106180358058147e-03 4.3132215050555398e-03 -6.4100970674411673e-03 8.7224081630044774e-04 1.8743588534044886e-03 2.6560555404732816e-03 2.3138957993463702e-04 8.1373435901510582e-03 3.9744963665848372e-03 -2.7392739124292714e-03 -2.7709376569115603e-02 -8.3893264321353855e-03 -1.7357858560652223e-03 3.5259720838293207e-04 -1.3788847645111700e-03 -1.0470759420855236e-02 1.9454214311386622e-03 3.8501244937447026e-04 9.4721362935724918e-04 1.3977751650127490e-02 4.1220918234313383e-03 -7.6574354361816366e-03 -5.2422689586772986e-04 1.6504901310359079e-03 3.2158071192683081e-03 3.8059965042585436e-04 -1.3038259978148115e-03 -2.4236379325374407e-03 9.1625442027732651e-03 1.2800595387847460e-02 -3.2932305018577857e-03 8.7887223383376067e-05 4.9389106319788212e-03 -6.5368893885591473e-03 -3.4013886071791843e-02 -8.7234791204271467e-04 8.6496397975954764e-04 -2.7100695884184067e-03 1.1202570889227936e-02 1.0086846281491813e-03 -2.9668601900502967e-03 4.0053981516401105e-04 1.7895096993032211e-03 2.4570708168871747e-03 3.3321225423890016e-03 9.9483566498352258e-04 1.4259204590997054e-02 -2.4338295593366501e-04 3.1089540242699415e-02 8.6705232770489804e-04 3.3834179960727517e-03 -5.4513012187930310e-04 2.0564184232543942e-03 -6.3293891555392078e-03 -1.0543395326662736e-03 1.3094590262274775e-03 -7.6874716142816268e-05 4.9848993456900748e-03 4.7833297804349140e-04 -1.5086233887334280e-03 9.5125427987114569e-04 4.5910227789158764e-05 -9.3531038248754195e-03 1.1615844876331494e-03 -3.1573820379259265e-03 1.0753396718856967e-02 -3.0615942156839646e-03 4.1924963853109315e-02 1.2357271175725271e-03 8.6287019549256827e-04 1.4043019760114281e-03 -2.3196424700077135e-03 7.8769195975548004e-03 8.1819538245845582e-04 1.4065894176492752e-03 3.4792604972161412e-04 -3.0964545512291441e-03 1.4708281888253794e-03 -6.8810652984609665e-04 5.0391454916499934e-04 -8.8366228645906861e-04 -2.7390866579374631e-04 -2.2752246426150508e-04 -5.4796182025861062e-04 -6.3279819254335665e-04 1.0770295212827637e-03 2.3268653753854840e-03 -2.9084165958680464e-03 1.2787021049687625e-03 -1.0585969588045585e-03 1.9751483177636656e-03 -5.2758813641325175e-02 4.4278981592816777e-04 2.5173901616241962e-03 1.6753375281124416e-03 -9.2414130885462575e-03 -5.8979380302624437e-04 1.3806023665818292e-03 1.2759552208236376e-04 -1.2485637960314864e-03 -5.7047139804684149e-04 6.4595483782964314e-04 2.3988941373166636e-03 -4.9164490617910131e-03 1.3754569872554221e-03 -1.1031826948185136e-02 8.4942649183325503e-03 -9.3970577620434287e-04 3.3964953191453762e-04 -2.0029115914330670e-03 3.5800158198411251e-02 -2.9498490833475832e-03 8.8225129418238128e-04 -3.2103821684652499e-03 1.0352051843235205e-02 3.7811432783398948e-03 -2.3456022046714885e-03 -4.2101834056134258e-04 -3.5888094948818556e-04 4.0944593249644945e-04 -1.6645356264897446e-03 -6.4684306187949847e-03 -1.0962292038085748e-03 7.7313137228969733e-03 4.2696593093928759e-02 7.4693642657828324e-04 3.3056231212396509e-04 -2.2241082238193960e-04 1.6162633421093714e-04 -1.3299019096444332e-03 2.9865443854096285e-05 -8.4086827831753811e-06 -2.7755554021756910e-04 -4.0621046740396552e-04 -2.4798620480421998e-04 2.1619316039705701e-04 8.8700322302671003e-05 1.0007803070920555e-04 1.5257188445140860e-04 1.4758542637051896e-04 1.1990614562660575e-04 5.7188228230611177e-05 -6.1912743844530146e-05 -7.5817760660713395e-04 9.5571245361523033e-03 -2.4293311520309779e-03 3.7744819618527117e-03 -3.7144877988670357e-03 -1.6769858594516254e-02 8.0881275009224950e-04 3.6744291037717376e-04 -4.7311794484828640e-03 9.5154846138772592e-03 -3.7788337551709471e-03 -1.2087219953912569e-03 3.5005217323687277e-04 -2.4959372802379246e-03 -7.7570972813456865e-03 -5.9270457325352223e-05 -5.3041900487686144e-03 1.2600063679191961e-03 -4.9316031025385459e-04 4.1158983237521846e-02 -1.5624756314998045e-03 1.5452900935159115e-04 -5.3468356207653223e-04 6.3149634668190416e-04 -2.6796680589840326e-03 9.5192865654712862e-05 1.1568760741909045e-04 1.2035115707034749e-03 -3.1591471198290089e-03 -1.0096087119497998e-03 2.1846468116072208e-03 -5.2552904428147806e-05 -5.8253605697031891e-05 2.5266084594354442e-05 2.0659151978408426e-04 1.0371324506932567e-03 7.8983469989061389e-04 -2.7091983378232007e-03 -8.4538623420725642e-03 -6.2222036809980175e-03 2.7087901403469242e-03 1.7824065299562038e-03 1.6176884745597330e-03 -1.4572236091216065e-02 1.2975538091403601e-03 -1.9254659007457425e-05 3.2910926406931719e-03 -6.4976582869272596e-03 -6.2993525122256961e-03 2.9744838434068929e-03 9.9275401459678861e-04 -1.0270696577100987e-03 -4.0604495093870714e-03 1.6668413230386048e-03 2.4577750369995828e-03 -9.1718184020245144e-04 -1.3514737991710338e-04 -2.2240265847928726e-02 -1.6284077925339240e-02 6.5786542084443596e-03 4.9347570552118747e-03 5.5780518496640567e-03 1.0773350454295796e-01 -6.0723210530942472e-03 -9.3002393687777150e-03 6.1179443003371737e-03 -3.3202741277244145e-02 4.0013404700946966e-03 -1.1538956540127548e-02 1.4942743031878154e-03 6.1074634524127154e-03 3.9347252694865572e-03 2.0655852724202253e-03 8.5384218124661508e-03 1.1108029412370130e-02 7.2182293780916756e-03 -6.7855017127339337e-02 3.8382228828375525e-02 -9.7595677856011989e-03 8.5147389752608573e-03 -1.7254817560056330e-02 7.7150657210572723e-02 -1.5419860450644772e-02 1.0121520467053228e-02 1.3276636520842308e-02 7.9609418225486603e-03 1.5252896753975105e-02 3.5389220002702546e-02 7.7037211514513308e-03 2.4463142558054469e-03 -3.1811266561487278e-02 -4.3763444779783590e-03 9.1362141093194668e-03 -2.5622090559490315e-02 -2.8318876855898290e-02 1.7853125466492292e-01 -1.4416915367781299e-01 
      </Row>
      <Row Index="171">
        -1.9141601152966706e-02 -6.6371965700928459e-03 -8.3523506596856756e-04 2.4487457723729213e-03 -1.8860356923151855e-04 -5.9729879287100107e-04 6.1930316015875245e-04 -1.3332442274181455e-02 3.6343860540370698e-04 3.7517075784125925e-03 -8.2867259334125452e-03 7.5771830979690221e-04 -3.4452040795849839e-03 2.6702783148747217e-05 -6.9057893006409764e-04 -9.2405585646849614e-03 -1.2389910753270324e-03 -8.7904381729479036e-04 2.2551674077408946e-03 5.9358767010960906e-03 3.1515360789954316e-03 2.8752579697405301e-03 1.4221252638998948e-03 -2.5815852402888417e-04 -1.3701690011745510e-03 1.2302170403362877e-03 1.3032277287907755e-02 -1.5305921802734337e-02 8.5585432017779711e-04 -6.0657004054409311e-03 1.9578990621605674e-03 -1.6115976893324974e-02 -4.6502709223623061e-03 -3.5447507733501332e-04 2.0192180817192984e-02 -4.2244479069630369e-04 3.6928436626207997e-03 -1.0228695350070205e-04 -1.5688486346531610e-04 5.4712058191508373e-04 -5.0802074786193141e-03 1.3732544762698196e-03 -5.3818494590999744e-03 -1.5720065349700690e-03 -8.2209273496786084e-04 1.9640354489306011e-02 -3.0291303635845090e-02 -2.6174675559027666e-03 -3.2499875020670643e-03 -3.6873111651981039e-03 -1.0679973961437786e-02 -5.7653249248974942e-03 5.1062297536930146e-05 -7.3707465369305565e-03 4.8307851066309304e-04 -2.3036341882169348e-03 3.2213159564943583e-04 8.2992822073530981e-03 -9.1772322144492591e-03 1.6031498712990033e-03 -2.3667018237132076e-04 -3.3737107608089456e-03 -9.3870593424272286e-04 -7.2817517846979207e-04 -9.6953113456785811e-03 -7.5884726949958792e-03 -2.7546119554176518e-03 -3.1388121800641766e-03 -4.6687425298240128e-03 -1.2791627160925356e-02 -3.2722410459088483e-03 -2.2086314236974269e-04 6.2117294337921403e-03 1.3032563207676651e-04 -1.3818060642996205e-03 5.3495566509188797e-04 3.0719982962067460e-03 -1.8222471989417094e-03 -1.5028312764663668e-03 1.0718127018600008e-03 -2.4506383734373798e-03 -3.8630251910376110e-04 -1.4516131547441589e-03 3.6685616726900294e-04 6.0505242426278638e-03 6.4498023121559167e-04 -2.8390451471050487e-04 -9.0379915326760721e-04 -2.2990282045660332e-03 -9.3808659109782117e-04 -9.1713145024974879e-06 1.7364118069079434e-04 -7.0161163738306775e-05 8.9535571992652163e-04 -1.6619519642305410e-04 3.0290776155457028e-03 -3.3963551432958164e-03 5.2988068993680207e-04 -1.7513565167716696e-04 -1.3788372759671874e-03 6.2206797888382515e-05 -4.1146080776128420e-03 -3.6128801652859921e-04 -1.2655852194244366e-03 3.2266040330620298e-03 4.6062648008886342e-04 -1.8067481881980877e-03 4.2632826507440309e-03 2.7998444014178461e-04 2.1940672142796696e-04 2.0005945638538920e-03 -1.4012665052912099e-04 -8.6426206145683721e-04 7.6964636265256132e-04 3.0169440875348237e-03 -1.4463271644193365e-03 1.6624588208073304e-03 -1.5596339035296883e-03 3.2476052944235517e-03 5.5059468908191540e-04 2.3907225389582787e-04 3.5956847533016884e-03 -1.4413619877385597e-03 -3.6213043990858179e-04 1.7340710281574878e-03 1.1618335768686372e-03 4.2118593160920051e-03 -2.5618124798710180e-03 3.7710080336956142e-04 6.3754084152772006e-03 3.0178683481194013e-04 9.4075662563012676e-04 -1.3628647733631592e-03 1.7291178581668393e-03 -1.2906803362463764e-03 -6.0517205595412606e-05 -1.3071465387505077e-04 2.2600972128480890e-04 6.3859523179872187e-05 3.1351187564115603e-04 -8.4296745815413401e-04 2.5711144052295042e-03 -7.8141647201862736e-05 9.6329750935333154e-05 -2.0943329351044528e-04 3.7953778196537125e-04 -7.7444717951332146e-04 -7.8052062840423841e-05 4.7886215809158890e-04 -2.9157855097846773e-04 4.8585054217981094e-05 1.8695869169806263e-04 -1.1403161941884218e-02 -2.1010553186004421e-03 -3.4483523274998241e-03 1.9289827412226623e-03 -1.2515617607241659e-03 -1.5006177216009969e-03 -5.5364743683893828e-04 8.4877825105627702e-03 1.4091563991615041e-02 1.9962506874339394e-04 2.7480815511871266e-04 -8.7481087345452589e-04 2.5745446115981786e-03 3.3616610140256684e-03 -5.8350878575637918e-04 8.7201032647209256e-03 1.7729553707834540e-04 2.5414879756629214e-04 -1.5624756315118747e-03 8.5109750683818070e-02 -3.1770626521366377e-03 -9.8000188493899687e-03 8.6742116249302094e-03 -1.7211040304189167e-02 -3.2357288410185311e-03 2.8436450339593133e-04 -2.0222947681798720e-02 1.2381259272256973e-02 -6.1480948149710696e-05 -1.6173537357858439e-04 -1.2884107711520765e-03 -1.3163514940483359e-02 2.7048855411441171e-03 1.9026663398077615e-03 -1.6116411232539374e-02 1.0415766621495986e-03 1.1177568286439860e-02 -4.7065029933835434e-03 -7.5193584620666942e-04 -5.1458924972195928e-03 -2.0327767509949611e-03 -1.3130772902511881e-05 -2.2244410511625475e-03 3.9397112576895321e-04 -3.7704420879528200e-04 -7.2683561142824855e-03 4.7808409881143843e-03 -1.0077353312999042e-04 4.6887910460325770e-04 -4.6640488246218244e-04 1.3394503018288250e-03 7.8831655342002569e-04 -3.1237230625761540e-04 -5.5334364487446214e-03 -2.5379114037694088e-04 -8.7172497668839470e-04 2.3657755519492720e-03 -3.0536853687827589e-02 9.7334304485913355e-04 2.1394593634609573e-03 -4.0832609218062008e-03 8.3221278364032734e-03 1.1283545399689875e-03 1.3191152641379501e-02 -4.8060671506267565e-03 -3.1592169179147603e-02 -9.3952546600277482e-03 -1.5608644641074297e-02 1.0004279987433688e-02 -1.5421459090110253e-02 -9.2188012297015221e-03 -6.2595133763137969e-05 -3.8154357235908605e-02 2.7835348278121687e-04 -2.0754436891786193e-03 5.9278027060466233e-03 -6.4275553298001373e-02 2.6174997595334482e-02 -1.4509540763515353e-02 5.3821671107698275e-03 4.2210059278945927e-03 4.2534285541388495e-03 -2.3045690892803283e-02 -3.3780672036915427e-02 1.8190477095416754e-02 7.6386763789918280e-03 5.2154892557500117e-02 -1.8777872074329155e-02 -7.0197622398437853e-02 5.1400495669682023e-03 -8.5393609522146051e-04 -4.5800145500029324e-02 -8.3340066926242476e-04 -1.2458198590104948e-02 -1.0236689365625846e-02 1.0400348594776025e-01 
      </Row>
      <Row Index="172">
        2.1820335650777861e-03 -1.1482720622908231e-01 -5.8466932149636832e-03 2.6358461080592177e-04 5.1194124674583917e-04 -4.9872322615685839e-04 -1.0699753661760907e-03 -5.0737164301054807e-02 4.1442826814334800e-03 8.4826918987471363e-04 -3.3328422885974098e-03 2.5879993048486599e-03 -2.4067116387741436e-03 4.0428538727951685e-03 -3.8238265545343557e-04 5.9590639817402175e-05 -9.2477305732776335e-04 -3.9939095444097624e-05 -1.4954981880813440e-03 2.8401954902545958e-04 4.7709413612871114e-02 5.7123696771430033e-03 -5.2257994707519118e-04 6.2719858913188493e-03 -3.6262853520556133e-04 6.8651753041547347e-04 -4.9680667918654145e-04 7.3919231395596519e-03 -1.5016360907493438e-03 -3.5701411538889907e-04 1.6571458467156477e-03 -1.9485144502680396e-03 -3.2273845254472337e-03 -2.1621631533633918e-03 -1.2760066852405064e-04 5.8571110632860991e-04 1.9115347162780242e-03 7.4603726917880659e-04 3.6371223030535055e-03 -1.2361014333862400e-02 -1.4432111219876878e-02 -1.1352284351995911e-03 1.9059240625150103e-03 -1.2723147917321652e-03 6.4911662941469911e-04 2.8426970486405453e-02 2.4132750789611357e-04 2.3992987179122542e-03 -1.8800568445861091e-03 -8.4452457233414272e-03 1.0627963195584461e-03 3.7960632844622521e-03 -4.4995710081880318e-03 1.4609313147093640e-03 -1.2041858876055238e-03 1.1567707653676538e-04 5.3980803476990280e-04 5.5421119474222090e-03 -1.2689544948347894e-01 -1.0823669970124461e-02 6.6740655231883102e-05 -6.4825309847865338e-03 -1.1689358528251112e-03 -1.9044155083807954e-04 -3.1930670574844194e-02 -2.1287325071855843e-02 -1.2535945932888939e-04 -1.8762086813608600e-03 -1.0636922249671625e-02 -3.6684845997136434e-03 -5.6277524885985581e-03 -3.1826022070370157e-03 -1.2096441198098870e-04 -2.2011409902902629e-03 1.5514530023703948e-03 -1.9227297622084619e-04 1.6919287520205349e-04 9.9689889957379086e-04 -3.1455196848228285e-03 7.6167859278217231e-04 1.3011283508854586e-03 -3.3109854909452033e-04 1.2990174354235375e-03 1.8271144808292492e-03 -2.6778808632705355e-03 -1.7671596916831855e-03 -3.0881816649177228e-04 -9.2304552140951837e-04 1.3104566296566064e-03 -8.0662847534748857e-04 7.0999003817096300e-05 1.4727023078038078e-03 1.1667296432844420e-04 7.2809786455972051e-04 2.9123169454792165e-04 -3.4188570491075921e-03 -5.9068808129127924e-03 -6.2939104469842090e-03 -1.2481674270114161e-03 4.5249800217773885e-04 8.9925477510901717e-04 4.4599350849844682e-03 4.3857503447750704e-03 -2.0052278059618452e-02 -5.8785683150841474e-04 3.5370998210488294e-04 -1.9067237376561466e-03 -1.5955207427935684e-04 2.1013839515193504e-03 8.0722884192650118e-05 -7.6446500699159955e-04 3.3007910734898847e-04 1.4152068353979813e-04 3.3324362487996992e-04 4.8820010463249460e-03 -9.6378452938577809e-03 4.3543385995033082e-04 5.4411626647885795e-04 9.6393284482712289e-04 -2.5068906595715435e-05 -4.6416018753904281e-04 -1.5230965385553304e-02 1.0332987463046369e-02 2.2953061472657729e-03 7.6866318627241746e-04 1.3778987062448280e-03 -2.3663945826266635e-03 -2.7378827648157451e-03 -4.9462546441740867e-04 2.2241396864175686e-03 3.3800928757840505e-04 3.9427893072216461e-03 5.7159964098577585e-04 -1.2840155472051500e-03 -1.9902991142340121e-03 -1.9497500164555412e-04 6.6421964762917616e-04 2.2617691664955099e-03 -5.6603392969327600e-04 -1.6414042753174567e-04 -3.2265109023401420e-03 -3.0033998010889486e-03 -7.3697168679540354e-04 -2.1472723674244453e-04 -4.1039918891044897e-05 5.3480518936624465e-04 -4.5723262441077636e-04 1.5147205701515366e-04 9.5547700449591984e-04 -5.8928573749021257e-05 2.2260484498336735e-05 -7.1194923284234531e-05 -1.1221442825030178e-03 -4.9419854907589329e-03 -5.5504670951804693e-03 2.8868038820240147e-04 7.3925974608736347e-04 1.9848588638293860e-04 -9.0160892122423885e-04 2.6637931793635796e-02 3.7160378609351567e-03 1.2689135980454736e-03 2.9493403350278101e-05 -8.4655024860295783e-04 9.5818941324304950e-04 -4.5243439342534993e-03 6.6119082540671810e-04 8.0740460312568249e-04 -7.5206879023226276e-05 1.7202780760381959e-03 1.5452900934868725e-04 -3.1770626521348197e-03 1.0291463578610827e-01 -4.6956220237688827e-03 1.2586588561085653e-04 -1.8643064124007971e-03 -2.0310083663660234e-04 -2.1897070768748363e-03 5.0653681118724161e-02 -2.9628153788863097e-02 -2.1779385428682616e-04 -1.6756555535371851e-03 9.1379681481143470e-03 -1.9027077000859814e-03 8.9017924972689712e-03 1.7129698552109756e-03 -2.4395219721208179e-03 -2.5240828340590728e-04 2.7827287135898842e-03 -2.9228658792946568e-03 -8.7083448947986378e-04 -5.3250758432339639e-02 -4.1237906053927260e-03 2.9539941554937736e-04 3.1808966793924138e-04 5.4133225131736660e-04 -4.7763455724087703e-04 -2.0082688061466309e-02 -1.8396887355507131e-03 1.5896452091866166e-04 1.2003805465472167e-04 5.1515120638697342e-04 4.7105475251478014e-05 -1.1190174830956255e-03 -6.1536282975830573e-04 2.9863246384075524e-03 5.0617995009554200e-04 1.1270947200091920e-03 -1.1428840393295483e-04 4.8012206122762767e-03 -7.7975826192835523e-03 -5.9830199507985432e-03 3.3222001101538556e-03 -1.4728311441360172e-02 -3.5489705940885447e-03 -1.7318898378521356e-02 -1.7395367556534543e-02 -3.6072012279919491e-03 7.4857263668352530e-03 -8.1661596742406226e-03 2.3591130960676474e-02 -1.2182626113713856e-02 1.6724992611428926e-02 -4.2205037705126342e-03 9.5775384263397725e-03 -1.4739759246255055e-03 3.2899352138682789e-03 -4.8654883828071404e-03 -2.5372218794012961e-02 1.8560377691556976e-01 -1.7215825761508603e-02 3.4962217099743613e-03 -2.0920482302044623e-03 4.5608698049249899e-03 1.6406924868766413e-02 -1.1193300114284574e-01 2.8973001119680656e-02 -9.1694233530379247e-03 1.3191808645848626e-02 -5.5673080598052281e-02 -6.9788891638514353e-03 -3.2884140328411637e-02 7.1208568749297433e-03 4.4862957144781446e-03 1.8940881674474486e-03 -1.3692887729244600e-02 -2.4214740538169360e-03 5.7691312021316311e-03 
      </Row>
      <Row Index="173">
        -3.6049436190227226e-03 -9.4474639226047319e-03 4.5674191911250911e-03 1.9217061308531812e-03 -1.0200516708801330e-02 -4.1389351178513500e-03 2.0150440366140457e-04 2.8194632931806324e-02 -7.2808843302856821e-03 -1.2816044596340795e-03 3.3868915777767964e-03 4.0490907740020848e-04 -5.7784258226911494e-04 3.1072878267633941e-03 7.9131385866394212e-04 1.6659644337919804e-03 -1.2173067139611081e-04 1.9508727297974510e-03 -2.4015968371356592e-03 4.2505769509228394e-03 5.3058187954091451e-05 -5.5992477904524635e-02 -6.3878820380124102e-04 -1.6190497465012332e-03 -3.9119937416614049e-03 1.1723271704658670e-04 7.4757565290166708e-03 -3.5491921912342766e-02 -2.7596549173578358e-03 -2.8200512311811476e-04 1.0290800814933831e-03 5.8013543949778966e-03 -9.6791548459096433e-04 4.3967567305056021e-05 7.4837068930289075e-04 -1.2911371885065449e-04 -9.1202568461958705e-04 -9.8173467914748624e-04 3.3151588321033536e-03 -5.3194050153457795e-03 -7.2741232945310041e-02 -1.1860850527792288e-03 5.4637366900245343e-03 -1.6869704060211016e-03 7.7102210106205771e-05 3.2019246172102084e-03 -4.4925080758891719e-02 2.1120354806910269e-03 -7.8279279786558353e-04 -1.0349613786285738e-03 4.8125872707120015e-03 -4.8933721125582474e-04 5.9335654825461159e-04 5.8542197227076272e-03 3.0903572407481317e-04 5.8027863020522112e-03 3.6008829272196619e-04 2.3900938566957519e-03 -1.1114802064873135e-02 1.6563867105471294e-02 -3.9680704487519355e-03 1.5306237561797758e-02 3.8488990144425195e-04 -6.3143218469230433e-05 2.3057909443723101e-02 4.5213324853771442e-03 2.4087708506818212e-03 -6.2781137278691140e-04 -1.6549571618143123e-03 -1.4047655896996247e-03 -3.6945582261674430e-03 1.3816252294203135e-03 3.1659700370166299e-03 -1.8419490573856959e-04 -1.2051865053497937e-03 2.2328524697133451e-03 -1.8914433294792143e-03 -2.3052893177291922e-03 -8.7592109735951038e-03 -4.7702337102907815e-04 -4.9509376941671741e-03 -7.5100977002715051e-04 -3.4809957797165593e-04 3.7232619618949303e-03 -1.2876856145554949e-02 -1.9241542478202478e-03 1.6830451347243924e-04 -2.5313484737665704e-05 1.1699571659870870e-03 -1.5162655608477009e-03 -2.8298504092882926e-04 7.1967363902136067e-04 5.5180637935903741e-04 4.7977110461389777e-04 4.5570692400879499e-04 1.6140941522469893e-03 -2.2256578780270597e-03 4.9322783301656127e-03 1.1467150402294408e-03 9.7084234944536940e-03 -2.6167254152205388e-04 -1.9920402469127928e-03 -1.3508503972806743e-03 3.1653824717276152e-02 2.0266944083664751e-04 -1.8191886980961811e-03 -4.1509222911270335e-04 -4.1756208346964314e-03 3.5082786895806843e-04 1.9378612540726751e-04 -3.9920507407141190e-05 -5.2163090425897188e-04 -1.3487562994761587e-03 4.4671581244170450e-04 5.6773512841704239e-03 -3.4262469816986919e-03 -1.6848085312536426e-02 -1.7384244550850813e-03 8.6702102346648629e-04 4.1941560718120486e-04 1.9610025290274285e-04 6.1462804172597897e-03 -1.9787327462815918e-02 1.2303623310868088e-03 -1.8067606775395853e-03 5.6093602126135698e-04 -1.4993316257859825e-03 -4.7145183986026934e-04 8.7477451813216915e-05 -5.1798667283431410e-04 4.3364068872422511e-04 -5.6190660048034708e-03 1.9999643755894548e-03 2.5613116125321536e-04 -3.6176322914087790e-04 -2.7981762366146657e-04 -2.3805159522772353e-04 -2.9568566373812362e-03 3.8307711907195358e-04 6.5068284865477013e-05 -2.7345805068577705e-04 3.3251964973261463e-03 5.4190396683176899e-04 1.0905215581219930e-04 2.5219720840274863e-04 8.6337763790173602e-05 2.1225328649342417e-04 1.9292037646796278e-04 -1.5834773738649440e-04 3.1490319342518370e-05 -4.3217250078470947e-04 2.3129546819950202e-05 -6.6061274304368908e-03 3.2875359811291270e-03 -2.7629751008844600e-02 -5.9222370063941217e-04 -4.9078451425973828e-03 -1.5758961592140606e-03 -2.1483724413152820e-05 -1.0464282801335181e-02 -2.8099937692759307e-02 2.1788808454610226e-03 7.7854770096318982e-04 -3.0265895261512299e-05 1.5585673271836138e-03 -3.6784076764572980e-03 -5.5423295208260545e-04 -8.6576448749491053e-04 -6.9806129901269333e-04 3.4177177265397444e-03 -5.3468356209505864e-04 -9.8000188493850837e-03 -4.6956220237650836e-03 6.3836006438988402e-02 -1.1840713123100822e-02 -1.9847368060952865e-02 8.5202854970293802e-04 -8.6209286585559042e-04 1.0878376889298547e-02 -2.6394644791081223e-03 -6.5534226713361132e-03 1.2423954231878323e-03 -1.9253870961634528e-03 -8.2469261476254829e-04 -2.3882881324187159e-03 -2.1972450594442720e-03 2.0164403973374490e-03 1.3520125939133810e-03 9.9631827071242490e-03 4.2038777893259466e-03 5.5628638089658122e-04 -5.1671357260282286e-03 5.2080818895790942e-03 -8.9072258431874133e-04 1.1213459000180524e-03 4.0329230445553237e-04 -2.2303462133686978e-04 1.2711831940790641e-02 -5.1754195710965629e-03 -6.4812558241552894e-04 4.1916447350500151e-04 1.0724951311232874e-05 -4.3243835976968772e-04 -1.5077694285668324e-03 3.8070821329865744e-04 7.8521976453242595e-04 3.8278707746697998e-04 7.8183495155418172e-04 -5.5030796298925668e-04 -6.9382547659569277e-03 -9.9821276371072614e-03 -3.1394910650057485e-02 -1.3083150654116218e-02 -3.4657000384815031e-03 6.3896383209879675e-03 5.8090704748569909e-03 1.0667529650306627e-02 -1.1637148711820945e-03 5.0089662291056929e-04 8.9261950765360566e-03 2.2388983032154974e-03 -1.2180855166950561e-03 6.4811057890692969e-03 2.9837992185209284e-03 2.0346243698067673e-03 4.5460834695413297e-03 -9.9851171522184357e-03 2.6998247203247139e-03 -2.2802703516691034e-02 6.8333233305606644e-03 -1.2664078637188025e-01 7.1622171259632956e-03 -1.4328218074134539e-02 1.5945839248240813e-02 -9.0886261541938129e-03 5.7056691424671645e-02 -5.7739629936375950e-02 -1.1536233713505060e-02 -1.0446729696037986e-02 -8.1278596332294215e-03 3.3927301313503985e-03 -1.7620095154287255e-02 -1.5904125361444754e-03 2.2744467960252915e-03 -1.2302916966704380e-03 1.5646720206867464e-02 5.3334352096416626e-03 1.0101454363646417e-01 
      </Row>
      <Row Index="174">
        1.0661572477257504e-03 -1.9944119967890625e-03 2.8137067083961499e-03 -3.7413045650557782e-03 -5.3732649634080365e-03 -4.9550375452557926e-03 -1.4767522207398583e-04 3.4063893807299642e-03 -8.6767875413268185e-03 -1.4497239070165922e-03 1.4420697340174257e-03 -1.5102016897966628e-04 -9.3503633869431897e-03 2.5085654708228147e-03 -2.8982864968407239e-04 -1.6010200127037459e-03 -1.6058522848049378e-04 -5.9949447293672700e-05 -2.2938611522367027e-04 -4.8395707071187399e-04 1.2534913268935077e-03 -5.3786664413936480e-04 -3.3868945347616999e-03 2.7690013942057584e-04 -3.9482515322773436e-03 -3.1084120216132800e-05 2.5127248482669957e-03 -6.9566879267042650e-03 -6.0050112623577859e-05 1.6841702155393169e-03 -1.6539156784782516e-04 -1.0075345009735833e-02 9.5688728350472080e-04 -6.1087303246715923e-04 3.7159927267915727e-03 3.5299308460740215e-04 2.1450112263159717e-03 1.6659846646863499e-04 -8.7809048191566253e-04 -5.1616857507347236e-04 -5.1173288483688378e-03 -3.5485100662788829e-03 4.4361482333546559e-03 -4.0078529843691132e-04 5.7229037117516313e-05 -1.0914055314440018e-03 -8.8295315581953769e-03 1.0889135213891267e-03 -5.5869157608639045e-04 5.7889922192879556e-04 2.1826583206407298e-03 -5.1882387651781478e-04 -1.1529577126078647e-03 -2.4410024635271093e-03 -5.8029734640854813e-04 2.3177065559499741e-04 1.3409282431223555e-03 4.1282233958571668e-03 -7.8120826585670810e-04 -1.2232700733894215e-04 -9.4456222958099727e-03 1.7036577311868657e-03 -2.5378969923152764e-04 -5.4112305324420518e-04 5.8397671874599322e-06 1.5415819524874162e-02 3.0284068228428329e-05 3.3537306878052399e-03 6.7551301908824269e-04 -1.1821938680726937e-02 -4.7430405951199546e-03 -5.3071877717195126e-04 -2.8980387704864510e-03 -3.9771625875512778e-04 1.2744614089456935e-03 2.5529418051789890e-04 6.3941060018141843e-04 6.8197839218259518e-04 -1.5398707250702821e-03 1.7929546827604669e-03 1.6321888990269203e-03 -7.6484107246312723e-04 -2.2238250565649392e-04 4.6808637506789985e-04 -2.3309374030769867e-03 -8.3201811289027733e-04 1.2915266986698371e-04 3.6400576269495638e-04 6.3151108836429046e-04 -1.1246338726809959e-03 4.8185097624856834e-05 6.9430254415160739e-04 2.9601843323510003e-04 2.5623277067618640e-05 2.6904920655131071e-04 -6.7373656965846740e-04 -8.7804999694067378e-04 8.3607764834524474e-04 2.3850701765344385e-03 4.0234686341309653e-03 -3.9240992799200337e-05 -5.5780190535196020e-04 -1.8584995339135605e-03 -3.2291187769745155e-03 -4.0600560288735991e-04 -1.3918983000223944e-03 3.4064005789775768e-04 5.6957459014873105e-03 -2.4946376539669579e-04 2.2292732286421034e-04 1.1300201018682680e-03 8.1053541227606336e-05 -1.9151335330744746e-04 3.4434252364864536e-05 -4.9432127692460286e-04 8.0104942423901617e-04 -1.1107356995830701e-03 -4.8858735393123472e-03 2.8831866114646778e-03 1.0752755658732390e-03 -1.0541047782112697e-04 -1.7269950061343567e-03 5.9458334273661366e-03 3.8713835768525558e-04 -1.2287184563038644e-04 8.6555435337986892e-06 5.0520762285961559e-03 1.0157908472738469e-03 -9.5597494735998804e-05 4.8137295609037428e-04 2.8864407893744313e-04 -1.6306691043993320e-04 4.4936664522177985e-04 4.4725610242105042e-04 5.4501788500266432e-04 -1.9629118584555121e-04 2.0544780165784754e-04 -3.3950081678372113e-05 -6.5973986992850134e-05 -1.0436819499859380e-04 5.0386665076266864e-04 6.8647732621973765e-04 6.2154103926685971e-05 1.0344324924192608e-05 -6.4783498451860726e-05 -1.9306789194394638e-04 -2.2195213108023432e-04 -1.1920572850118288e-04 -3.9943743133125423e-05 1.3683270193463789e-04 1.0995383569229833e-04 4.1223850173417845e-04 6.6159874446940822e-04 1.0489859868849476e-03 -1.2462153322708195e-03 -5.9049097163074932e-04 -1.4255499441561898e-03 -5.0147514123125600e-04 -8.3074565666539256e-05 -5.4982074315537699e-04 -8.6276216399873897e-03 5.3595194642702139e-04 -5.8322604108714416e-04 1.0839165328691423e-03 8.0254235033028511e-03 -4.6781243443864634e-03 1.2012202212280550e-04 5.4842896027541537e-03 9.8970694075928983e-04 4.9137134932388774e-04 6.3149634667749818e-04 8.6742116249347717e-03 1.2586588560895701e-04 -1.1840713123099700e-02 2.6927738032504318e-02 2.0454840034903804e-02 -2.5838827232928883e-03 1.5654077733718401e-03 -1.9433999425835999e-03 7.6371289130199721e-04 6.3057745243785650e-04 1.6306684785325448e-03 2.1393722285923556e-03 -7.9522953556774370e-03 1.2699720600065599e-03 9.2429018412165480e-04 -7.1580459290030429e-03 9.5092125033219548e-04 -2.8247349616580828e-03 -1.9019774017884922e-04 3.2443725460953171e-04 -7.7693995188687459e-04 -4.1006090870443967e-04 -6.5081361221904247e-04 -1.1606061183496348e-03 6.7987466168736388e-04 -1.6755913514311500e-04 2.1718586614817180e-04 2.0376668337411486e-03 -1.7687798761453310e-04 5.3751478541935662e-04 4.2095002171165164e-04 1.2663053323947351e-03 -2.0482999587018865e-03 -8.7646875478550665e-05 -1.4276024834966241e-03 -9.9589569699631679e-05 -3.1184145425557005e-04 -7.5969729487889034e-04 9.2011321976957858e-04 -2.1951622020145375e-03 -6.4677705348649512e-03 -1.7997289061920364e-02 -8.9709043720399562e-03 3.6570333298037352e-03 2.1614226067892483e-03 8.1454360584457767e-04 2.0351761623494218e-02 2.6762330414747439e-04 8.7543410735426257e-03 -2.2598887484438328e-03 -1.4778150460695276e-02 4.8712001140671949e-03 -1.2351103477933108e-03 -1.4624670537121274e-02 -2.7824181394437183e-03 -2.2909800362304810e-03 -4.3460445226392690e-03 2.7225778929434565e-03 3.1813672449921455e-03 -1.1314521977770648e-02 1.2238872433922712e-02 -6.8526827933401563e-03 1.8834766077933766e-02 -1.7646583904483704e-03 2.3049506029618402e-03 8.8829706624051104e-03 -3.1719997172000350e-03 -3.2870318778490466e-03 8.9756860366059206e-04 -3.9153540973565271e-02 -2.5931885909037812e-02 2.1833228688375593e-03 -1.1383570351503131e-02 1.1113031755822468e-03 -1.5279044740215512e-04 3.6868541521808684e-03 2.0713818848269165e-02 
      </Row>
      <Row Index="175">
        3.8934593930674277e-04 -9.8147025196226867e-05 -7.4511912792067092e-03 -2.0884796566443646e-03 -1.1964810621100136e-02 1.7015993227599349e-03 -2.1493360904326284e-03 4.5798848082281296e-03 -7.4785639778865307e-02 -3.5129558461878367e-04 8.5083204946872857e-03 -1.4488695265035753e-03 7.5332749846478862e-03 -3.4404556367317943e-03 -2.3517195861439445e-03 2.8507093167186304e-03 9.3607116365125023e-04 -7.6845964203313410e-04 -1.9174169650969571e-03 1.7587602209076098e-03 -3.1334388048188389e-03 9.2964742741985518e-03 -7.1753798021774451e-06 -6.8695578060322948e-02 2.2411807113206714e-03 -2.1208466365254530e-03 1.8088933964430093e-03 -1.1659655165369501e-02 -6.9476936998354166e-04 -3.0793205961346382e-04 3.9230555252152688e-03 2.7527372480746052e-02 -3.5983072555071903e-03 1.4468443828138042e-03 2.7659135587456696e-03 1.4285529999688330e-03 -6.7189382435942080e-04 4.2034607090383896e-03 -1.6424876392107171e-03 1.0301975596331836e-03 1.8281238792576815e-03 6.4410401585729138e-03 -1.3497369921477104e-01 -5.1097077498506172e-04 9.4995031846333011e-04 -1.4216954584462843e-02 -3.2698899739848852e-02 9.9114110416997081e-03 -4.7383581990893126e-03 -4.5852717657247910e-04 1.5970072676581598e-02 -2.1946728736760290e-03 -5.6787291429404030e-04 5.8970832248985069e-03 2.9931398586526270e-03 5.1803547984005487e-04 8.6399397596157168e-03 -1.8398829042461928e-03 5.6040451042063330e-03 -7.4335269829500783e-03 -1.0392515631071783e-02 -1.3693082586791774e-01 -1.1552197014860766e-03 3.9722122609558985e-03 2.9124268555850152e-03 -9.9424642437279831e-02 5.2108746964818903e-03 -7.9546408073738473e-04 -4.2664476195784593e-03 1.1360142968545359e-02 8.2169177615555866e-03 -1.5126049804972674e-03 3.8950988630614414e-03 3.8130974019605600e-03 -1.2300718629870665e-03 4.4762463831653637e-03 -4.1171946394010228e-03 2.3818197666402724e-03 -1.9687358871850677e-03 2.0723208913388091e-03 3.2160952992735567e-02 -1.6134260834841990e-04 4.3296475204995062e-03 4.9496102403501219e-04 -4.0122545464880532e-02 -2.5855317012254686e-03 1.4629574942781262e-04 -1.8667273231084761e-03 -4.6748895287724718e-03 1.1572395946057752e-03 -7.8670666321668803e-04 2.2600904432800543e-03 -5.2990374301619542e-04 -3.0485936861356089e-05 -2.4998989073891573e-03 -1.0414194684728595e-03 1.5255132439194671e-03 5.3570188938321939e-04 3.3005093482002257e-03 6.7257732757639577e-03 1.7929545664859010e-03 7.5057786657489432e-03 -1.0102948655278651e-02 1.1517912902410238e-01 -6.7780521388437591e-03 -3.4281860002017780e-03 1.3191049956253124e-03 1.1833092146738817e-02 5.9466066604886413e-03 1.7283673951371918e-03 -1.2166310428387284e-03 -1.2441288800423000e-05 4.5077734762814271e-04 6.9172863496220309e-03 8.2622369094209926e-03 -2.6161971751676345e-03 1.1122304085953438e-03 -1.6553053926648019e-03 -7.2335852455437374e-02 1.0888378315824145e-03 -5.4308642217640053e-05 2.5993182553954441e-03 -8.2265842022447577e-02 7.5062556500979918e-03 -6.5432784933147073e-04 9.7153684158259382e-04 -2.0282331157251421e-02 -3.7149073568875333e-03 -3.7581438170101317e-04 1.4501366991365172e-04 6.1358469527614213e-04 -1.4059390668080540e-03 -2.9375675560905663e-03 7.9520606104003296e-04 3.6236751977876420e-03 -2.6111397081408803e-03 3.0203274097701546e-04 -1.7495949219613329e-03 1.1075808707671007e-03 -1.4281933133094117e-04 2.0903321695149592e-03 8.2901162017194087e-03 1.7559412841338063e-03 1.7090139743335011e-04 3.6369103413460391e-04 -1.3081890437730364e-03 1.4864311484167987e-03 -5.3239765889708337e-04 -1.8335786013028068e-05 1.0471364737973847e-03 -9.4494863297491264e-04 3.7503425667057607e-04 -6.3815215266049760e-03 5.9532898203679060e-03 1.5985330557404878e-03 1.4261546610031661e-03 -4.2784632240403936e-02 -1.1235836780181148e-04 1.9931634862125139e-03 -6.1876254967093598e-03 -8.8065847923351273e-02 6.0023100913468774e-03 1.3776210445237728e-03 3.7169322448046653e-04 -9.1117551544720697e-03 -2.0420151447657284e-03 -5.4636878796167441e-04 3.6491530889779383e-03 9.4678880406055734e-04 2.7095520094970764e-04 -2.6796680590133763e-03 -1.7211040304176084e-02 -1.8643064123848863e-03 -1.9847368060944726e-02 2.0454840034907176e-02 3.8129239012176047e-01 -2.7545434725292327e-03 7.4653471707358809e-03 -1.1907453823753356e-02 -1.7065381287255293e-02 -3.4528836812092165e-02 2.9657635339915001e-04 -1.0721627479108604e-02 2.4711604465265248e-02 -1.7968532022947566e-03 7.0794696055738503e-04 5.0603464693558253e-03 -5.4050267498535424e-03 8.8994684244141017e-03 -2.1730899207320659e-02 6.8163461878298359e-04 1.5247857015792078e-03 -2.1170916898827050e-03 -1.5335007981060807e-03 -5.5764818577879148e-03 2.9435442809201359e-04 1.6030232812174968e-03 4.3961936951186359e-03 -4.5833921766305338e-02 9.0044450174835513e-04 4.8448729049819388e-04 -2.5006313737668595e-04 -8.3135357450132841e-04 -2.1101905674535083e-03 9.6494207751286472e-05 8.5919441051778337e-04 1.2586267986018031e-03 -2.4806811096535089e-04 4.1638706553487736e-03 1.5374877372317592e-02 -1.8906983407337177e-02 -1.8148794585544543e-02 -2.1829897035796679e-02 -4.2586427311486014e-02 1.5810016601610147e-04 -2.9001770789487340e-02 1.0705763409130375e-02 1.0357850340325259e-01 1.8627151989899886e-02 2.4211828312598785e-02 -5.4925583448597326e-03 -5.1722441620105988e-02 -1.7542399959027843e-02 -7.6228344610330687e-03 2.4220554165849048e-03 3.1022399741718523e-03 -3.6235717092299559e-03 1.1557921867573259e-03 -2.5919653939699458e-02 -1.5911223880507364e-02 1.0585713676531489e-02 1.8298797808972818e-02 7.8395546631485194e-02 -5.6417297306959966e-03 3.5851883028795689e-02 2.0950570272072797e-02 -2.6989592671638990e-01 -2.5893718942949489e-02 -5.2906598325241895e-02 -1.7358418793907003e-02 8.9199621688192232e-02 2.1190645244259620e-02 -4.3573763207847144e-03 1.1037081819546511e-03 2.3252699693631085e-03 2.5258463980004642e-03 -1.9775824944433758e-02 1.2564572782203837e-01 
      </Row>
      <Row Index="176">
        -1.0923067232081439e-03 -2.9885423405670922e-04 -1.6978812871592010e-03 1.3741930101160899e-03 -5.5317458624347306e-04 -1.3441019793114942e-02 -3.7353942576365869e-04 -5.5807090222287359e-04 8.2715405269260280e-03 5.3482003597674478e-04 -3.3670680848520490e-03 -3.6310029032603393e-04 3.3145343828146342e-03 1.6839994957006024e-04 1.4288871589018283e-04 1.7473763898099258e-04 1.6998112882002315e-04 1.5622707612012463e-04 -6.7568541882645917e-04 3.9795382437120145e-04 -1.4174154406233676e-04 5.6585594036069956e-05 8.1675821533253880e-04 9.9890280291947166e-04 -9.8099422542561633e-03 -7.9818464626652636e-05 3.3629383103607078e-04 1.4451525016375734e-04 -3.5556632138206102e-05 -1.8101061458929068e-03 1.3256996965883058e-04 3.6500305099341693e-04 -2.1624923307133069e-04 3.0154146671993441e-04 -3.2208749395102806e-04 -1.6220769951570847e-05 1.3993967170723679e-03 -2.3402284489120124e-04 6.9471165623161764e-04 -7.4692656836954086e-05 3.5659405120298110e-04 1.1257196919614125e-03 -3.5918228843811809e-03 -3.1249951331519983e-03 -5.2056415901442603e-05 -8.4789202745135309e-04 -2.3387087663532752e-03 3.0783857824500964e-03 -2.0257037404092064e-04 -4.5116955166825011e-04 5.2648899261666235e-04 -3.3370164067194306e-04 4.7217032552479598e-04 -2.4271209941546790e-04 3.5207927318978496e-04 1.6113226130134924e-04 3.0670053542018565e-04 -1.9641931694883499e-04 -7.7795224818238485e-04 -3.5263213689811033e-04 -2.1199994624996783e-03 6.3155204728077767e-05 -6.8681266283092662e-04 -3.7218042161966947e-05 3.8586458218053260e-04 -4.3831611554167732e-03 1.3170508550891975e-03 -8.1543456005321374e-04 -7.4025807376530304e-04 -5.0676435154995807e-03 1.1237484191492586e-03 2.1121728698715245e-04 -1.4066161774343999e-06 2.9548377829545708e-04 -2.7027343058965217e-04 4.4541985160961427e-04 -1.0537766461390062e-04 -1.1213859566434675e-04 -3.1087444161129836e-04 4.4180155205296153e-04 5.2628428992635020e-05 -8.9665835846457144e-04 -3.9856054616507178e-04 5.9397033004993799e-05 1.2012407621253968e-03 2.2139175651835451e-04 2.1410269009871312e-04 -1.0521518984901897e-04 1.3076949538703010e-03 1.2895508535443970e-04 1.7394219740935406e-04 -2.4479100133819427e-04 -8.4809142826483531e-05 4.6821356535628792e-04 -1.5084229584099156e-04 3.4536721617615864e-04 -8.1515054746192925e-05 1.5955067694634317e-04 -4.7534704961781820e-04 1.2224589200896772e-03 1.1826119050686102e-03 -1.0195499878789900e-03 -2.9200532081451180e-04 1.5797928010204514e-03 -6.0661373879198179e-04 7.5709154292922794e-04 -1.9911283008121293e-04 4.4186116285969725e-03 8.2246661137212393e-04 9.8279160893932670e-06 -1.5329933943268787e-04 1.6580229990226930e-04 1.2322130934143947e-04 2.8650109170264031e-04 -8.4089473917531602e-06 -7.5203604665550930e-04 -9.7095105842701524e-05 6.8590793638981958e-05 2.7882877184523129e-04 -2.4227844120472896e-04 1.4176036817327569e-04 3.2450414767917519e-04 -2.8937900630862630e-03 2.9594146130222860e-04 -2.7357023876637841e-04 2.0368544232586753e-04 5.6455771862576384e-03 -2.3606588919822204e-04 8.2903222352506933e-05 -9.4763565567854147e-06 4.4372606448350713e-05 3.9081367074143061e-04 2.1825651992158151e-04 1.8833025174517642e-04 -7.9489698270032000e-04 3.1998050860426508e-04 -6.6076101719613332e-05 1.9270968932447489e-03 2.1753753046578630e-05 7.7593655313329399e-05 -2.4713449715394272e-04 -9.4067740237901965e-04 -6.0825508428438029e-04 1.4686202292336608e-04 -2.1664525339694683e-04 2.8360617199360929e-04 -8.9867933846058626e-05 -1.0318254910256480e-04 2.2545022268968259e-04 1.0487647675820722e-04 2.1021014385429386e-04 -4.6066392704628950e-05 -1.2951807509801309e-03 1.0864003715232759e-03 -1.5706280813781743e-04 4.4560959077626105e-04 -4.7476566532465760e-06 -4.0393710364306197e-03 1.9311065261251248e-04 -8.7520278736416492e-04 9.8080414732039725e-04 2.1910515771599508e-03 -7.5574926248582995e-04 -6.2681860647852415e-05 8.2724189352918701e-03 1.0616685307828604e-03 6.6545042187485920e-05 6.1293493144843388e-04 -3.0934814630509535e-04 4.9207191328154323e-04 9.5192865649809503e-05 -3.2357288410142116e-03 -2.0310083663714791e-04 8.5202854970543862e-04 -2.5838827232935041e-03 -2.7545434725232618e-03 1.3906259417195267e-02 -4.6130378112724420e-05 4.4423607402374714e-03 3.8052590244470469e-03 3.1884539632063792e-03 5.2448037378265084e-03 -6.1768576498284007e-04 -1.1377279755436188e-02 6.2211940555064599e-04 -2.4077611938940553e-04 6.8873040399479966e-04 -6.7489256090903175e-04 8.3913443495677053e-04 3.2193395584654769e-04 -6.6234594800779721e-04 -4.3253304787284000e-04 4.4882540724755710e-06 -6.5017022099697660e-05 3.6638179289638509e-04 -3.7275919006729357e-05 -1.5696967846059017e-04 2.5431729301675571e-04 -7.6081377431717130e-04 4.9833272061480609e-04 -6.5732371739888424e-06 -2.3056281017041268e-04 1.2042037475105253e-03 7.3754668664728607e-05 5.6001104462810345e-05 3.4531893241970119e-04 8.1662265806339645e-06 8.4991947662157541e-05 9.6216143204475054e-05 -2.2423992206057324e-03 -2.9423651216184624e-03 -9.4347006973071780e-04 -1.6543678769105126e-03 9.3481328609064038e-04 5.4594391585394168e-03 3.2159202816087534e-03 -5.6214620485302161e-04 -3.1339229557402369e-03 3.6685584327396281e-03 -1.6807927179193416e-03 2.9435394530315240e-04 -6.7638467991391078e-03 -3.4340602639575724e-03 6.2155875224777815e-05 1.0190911284748000e-03 1.0545138892391051e-03 -7.0529057522529504e-04 -2.5565588211989550e-04 -1.3732163032635172e-03 -2.1307018426919011e-03 1.6179770429438842e-04 6.2638513962523113e-03 7.8437963844433210e-04 4.0750173849099909e-02 -3.6045526659021919e-03 2.6311000877442398e-03 -1.6147003824041812e-03 -7.4431745587659887e-03 2.7340808674773891e-02 -2.2710064425770235e-03 -4.3924400836231045e-02 4.1452789607610094e-03 -9.0723503846816078e-04 -4.2672935432526947e-04 -4.5188688416210397e-04 -1.7979989051894506e-03 9.4369594672228524e-05 4.8041225811022350e-03 
      </Row>
      <Row Index="177">
        2.3645339453010669e-04 -3.0547906888065135e-03 -1.6099758860052549e-04 3.5711208533938110e-04 5.1172271308248807e-05 9.9765892017238816e-04 -6.9008730532837785e-04 -3.7621654115638226e-06 1.1898118387417625e-03 -6.3660369066564004e-04 -4.7343367054472705e-04 4.2871462354954551e-06 4.1089876341999349e-04 1.4071235000116967e-03 1.6569933706357155e-05 -3.9303200176434711e-04 -1.2247629753546290e-04 4.2220255984345631e-04 -2.3098929852819871e-04 -2.1473859583460986e-05 2.4627655524764036e-03 5.0481658100495763e-04 4.7227379738693995e-05 -2.6698613353631495e-03 1.0329323084150403e-03 -1.4022563507577199e-03 -3.8603532875453733e-04 -2.7174585204999477e-03 -3.7566234641153023e-04 -6.3094689879940671e-04 -4.0140491216944518e-04 2.4064303265345444e-03 -6.8358054172677502e-04 1.9900933597822613e-04 6.3611565390420122e-06 -4.2323919666630450e-04 3.6646828897942546e-04 -2.0637984344663157e-04 -5.9329867540391934e-04 -1.6132513888184041e-04 1.8764106582580542e-04 5.3271415719120807e-04 -2.5402255028088294e-03 3.7961857337458910e-04 7.3013901150365684e-04 -3.5353825811566819e-05 -4.6354885785476613e-03 1.3959009109423826e-04 -1.6100060370977803e-04 9.1008569380191667e-04 1.0370040700764804e-04 9.7826296152400682e-04 2.3178600595955695e-04 1.7080050618779007e-04 -8.0564965948218270e-04 -2.4158433434801410e-04 4.7060863203582382e-04 2.5472237473284087e-04 -3.7198345264619799e-03 -3.3123814411725044e-04 -1.2568340257203964e-03 1.4235926836209459e-03 2.1351678095678228e-04 2.0927082768729954e-03 4.8146802458937099e-04 -1.0633268995887818e-03 2.2157146250838949e-04 3.2271419161972528e-04 1.2648672041194664e-03 -5.0883071417146680e-04 -2.1247150276525219e-03 3.5597499915157593e-04 7.0248700583833146e-04 -2.1837494032320853e-04 8.5449197945020386e-04 -5.5917481025076488e-05 -9.7361929735431674e-04 7.4569278890090906e-04 -8.4034312191358373e-04 -4.0305523624332160e-04 1.9331127321924359e-03 -1.2783716262982628e-04 4.0784246326879079e-03 -6.2454298388353591e-04 4.1685706815067225e-04 6.1994369611438616e-04 1.2679678664156806e-05 -1.8815555074527986e-04 -2.6834001918409245e-03 1.0802768656183598e-03 -1.4073034014245754e-04 -2.5700383368780499e-04 1.3495546787981906e-04 -4.3782493480883783e-05 -7.0569973638013456e-05 -6.7393961556652671e-05 2.5577657715389682e-04 -6.3441916706775655e-04 -7.3153202240657314e-04 -6.3688180490546753e-04 -9.3162850450662950e-05 1.1373377322384989e-02 -3.1641175725988582e-04 -1.0280953864701542e-02 4.6705286216121820e-04 1.6752537748758282e-04 -2.5971316049874598e-04 -2.3256553783669500e-03 8.5538883860961697e-04 -3.4163628416996206e-05 -3.3482875607046894e-04 4.0966813181586917e-04 1.4146978168085803e-04 -3.5552470477098058e-04 -5.7296705864283773e-05 9.1347076424519794e-04 1.0270166975344386e-04 -4.9367135505060577e-04 5.9654429610989882e-04 -1.2172603847598494e-04 -1.1615224254828205e-03 -6.1257882911211654e-04 1.4191657979443079e-03 2.0408087000264971e-04 2.6561978118134913e-05 -1.4822585530211698e-04 -7.0419714480395175e-04 -1.7208816910572675e-04 1.1130157875068047e-04 3.0428048548965247e-04 -2.3174175694896200e-04 2.3684136056144767e-04 3.5839984463711342e-04 3.2458591791395151e-04 -3.2191891638656779e-04 1.2903831669052552e-04 -3.5528517684803719e-05 3.1478613000633909e-04 8.5433099888098654e-06 -5.2148786164017311e-05 -1.4892077073516067e-04 -1.8054361513076362e-04 -6.2491110599448025e-05 5.4508035248168791e-05 -3.9566747989069195e-05 3.9818057149362774e-05 -4.7648509537484215e-06 2.9494690669448851e-05 -6.7280000822383468e-05 1.5909334182235635e-06 9.1321370343385192e-05 5.4649240546962921e-05 3.2788942430535262e-05 4.6809230178075298e-04 -7.5726133130341738e-05 2.3946052483556600e-04 6.0555205169520593e-05 5.0584052887943463e-04 5.1193803460387053e-04 -4.7292085976041731e-04 1.2423542204012747e-03 1.5658727339128197e-04 1.2824092809249750e-04 -1.0755288389162170e-04 -8.5995640493695207e-04 -1.6576956006649941e-03 1.3203672354117780e-04 4.5178245756059138e-04 -1.1318051092420751e-04 3.1887453458182306e-04 1.1568760742479574e-04 2.8436450339916486e-04 -2.1897070768754495e-03 -8.6209286585381406e-04 1.5654077733740640e-03 7.4653471707357673e-03 -4.6130378110673977e-05 7.0170805212310602e-03 9.7230756387504946e-04 9.2685105409861107e-03 -1.6443994311037789e-03 3.1676299742662388e-04 4.4018285222105838e-04 2.2225129655721351e-03 -1.1079127623060524e-03 -5.4169431821619982e-05 -1.3454029575944715e-03 4.6393905918074929e-04 -1.2324541850727202e-03 -3.3895202760544571e-04 3.0514883389409775e-04 -1.1357108316328492e-03 -5.2182262861567809e-04 1.2533502042374984e-04 -1.6842430062832787e-04 -1.7568654494627879e-04 1.2407689858010594e-03 1.1343136137132169e-05 6.7592462427193303e-04 6.6691068230186314e-05 9.4932357731488439e-05 3.8457962381001213e-05 -1.0349517772875788e-03 -1.8345890085935375e-04 9.4653917101683864e-05 3.2622233239240281e-04 2.4947904024737985e-04 1.9265239131115690e-04 -1.6293060951683190e-04 2.2682807418353363e-03 -2.4167000411756141e-03 -4.6112810200126827e-04 6.7360761475923430e-04 5.7021250600652312e-03 -1.3181963601074809e-03 -3.6150864641566513e-02 2.9974177931934264e-04 -2.2697055574529357e-03 -1.0966168576910190e-03 -1.0515454717083701e-03 -5.1679418752079848e-04 2.5494647670153999e-04 3.6297118884444117e-03 2.0139416354322348e-04 2.8032022986582660e-04 -2.0537793341148249e-04 4.3372956672748541e-04 7.4396443455924553e-05 1.0955243143204174e-04 6.4187312836158587e-03 7.7162511363233982e-04 2.4317929262799602e-03 2.7718236965703835e-03 -4.4386056671598863e-03 5.1550936663324894e-02 -1.5468304548208085e-03 8.7884060575970195e-03 -1.1725058022920036e-03 7.5087183372418102e-04 3.6101956082296412e-03 6.0086953581617326e-03 -1.0086042919640511e-02 -2.3136352702618360e-04 1.0320908957967072e-04 1.3132374009822362e-03 -7.8930750812667740e-05 1.3606767737660546e-03 -5.5959328905166666e-02 
      </Row>
      <Row Index="178">
        -5.6112787142597285e-03 -3.4879941027713912e-02 6.6261941471560531e-03 5.0515474954080687e-04 1.2364071542788485e-04 -2.9184622668116111e-03 1.0763998058267721e-04 -1.2847640592349452e-01 8.7366059760637937e-04 3.0741341832436751e-03 5.0700254531499435e-03 8.7002834924392210e-04 -1.0721176936892231e-02 6.4511574371429320e-04 1.0919789704066929e-04 2.5296764717872150e-03 -1.3547826899758960e-03 -3.0251735267608354e-03 -2.8673043915395007e-03 1.8685952894216033e-02 1.6050297106775621e-02 3.1613431672375458e-02 5.7843409848108360e-04 3.1028305483349061e-03 -1.0813920098974583e-03 3.7098630581209344e-04 -9.2232537307083418e-03 4.2115382940287327e-04 -1.3986924238543925e-03 4.1358962435413954e-03 -9.6064894150438285e-04 -8.7086602539557419e-05 -1.4243372912532172e-03 4.5723285257453367e-04 1.6448955872136739e-03 7.3190569652781517e-04 1.9533484414204910e-03 -4.3081610061281722e-04 2.3380625610277934e-02 8.5617909181268104e-06 3.2478581359825287e-02 -7.4075479429595859e-04 -3.3172842650133205e-03 -1.1891596763836942e-04 -6.0520724612890542e-04 4.0088662611050041e-02 3.0856216268740633e-03 1.2878683302487981e-03 4.0671419780170803e-04 -3.3793512185879490e-03 3.9859223044463252e-03 -8.0401336275168211e-05 4.4444231418397095e-03 3.5644130820602932e-03 -2.1387745760409749e-03 1.8612841680961283e-03 9.0109766660823737e-04 -2.3900759742308542e-03 -3.8247633919127624e-02 2.5000135231678100e-03 1.4743439702259789e-03 6.2151035682728346e-04 -1.8278563584936333e-03 9.8978630822954550e-04 -9.7298923407568405e-02 -5.8805051388924057e-03 3.0629638609236398e-04 5.6745127981221860e-04 -3.9574825199985147e-03 -1.1245152858291786e-02 -3.1877895737713827e-03 1.3932130097133455e-03 1.4214258417901693e-03 -2.8914281803316694e-03 -2.8529891055533232e-03 1.3425980595380832e-03 2.2422344478585099e-03 -1.6570526638905875e-04 5.9357765477815946e-03 1.2841087611610708e-03 6.7590701707574870e-04 -5.0083737745792978e-04 1.6168544416512737e-05 4.1921693292774620e-03 2.6971916575919963e-03 -6.8363928313414091e-04 1.7082194744356960e-04 -3.7178865791100829e-05 8.9026935964742486e-04 -2.9287123218889322e-04 4.2750699130972639e-04 -2.9978004832327890e-04 7.1607275960856691e-04 4.0313768336930692e-04 3.9611520596195826e-04 -7.3162129327584841e-03 -4.3667931289026810e-04 2.5838895653026270e-03 -1.0666729803850764e-03 -3.3131834276663163e-03 -1.8801545761850356e-04 -1.0626268938208115e-03 3.2338915896217464e-03 3.3971544534247555e-03 -3.8831534347052304e-04 -1.3064516562085438e-03 -2.6670198553331061e-04 8.5026613185219628e-04 -4.5820527433811705e-04 -2.6256045116664420e-06 -3.0848401817706698e-04 9.3294543401467589e-04 -2.1767706585885862e-04 -1.2274057939486074e-04 1.0415260880370376e-02 -8.8307662031858157e-03 7.4886632617130397e-03 1.4793694484961646e-03 -1.6253422591686652e-03 -9.9602947624003466e-04 2.7260324391656984e-04 -3.3996109392529048e-02 7.6872949623059267e-03 2.9877958350442539e-03 -1.3965178831291676e-03 7.9109433478843916e-05 1.8382608630663352e-03 -1.1336018809496480e-04 -1.8555591238327051e-04 1.5342579992342897e-03 -1.2271781760301225e-04 1.7073373793405015e-03 1.8592063340242253e-03 -1.6778135977074146e-03 -2.2982248584695335e-03 2.3041267153487257e-04 8.8370245238040255e-04 2.4560606332850155e-03 -4.6898275089592883e-04 -4.2595103693039704e-05 -3.2269446419817662e-03 -2.8364686821425070e-03 -5.4416474151587971e-04 -5.1723860068972143e-05 -1.1683304686656874e-04 3.2590204455193656e-04 -4.6157991837705512e-04 2.7073521800786255e-04 9.0759699370338259e-04 -2.9348821737320077e-04 1.2780650607221175e-04 5.1627513875392769e-04 -1.7931956435504291e-03 -8.3163482501296508e-03 8.9180321100808604e-04 -1.1285901635027726e-03 -4.1566185652631982e-06 3.2402300955364140e-04 -6.9124826557637837e-04 5.0631244882354917e-02 1.3293986573267719e-03 -5.4102930034331245e-04 -7.6040912118686466e-04 -6.0802295974969871e-04 4.4798074043286111e-03 5.1977291409949916e-05 4.8957404897404314e-04 -1.3462578188659924e-03 -7.5810707175946648e-05 1.6921131062677690e-03 1.2035115706990407e-03 -2.0222947681797818e-02 5.0653681118722982e-02 1.0878376889292662e-02 -1.9433999425860424e-03 -1.1907453823772533e-02 4.4423607402344443e-03 9.7230756387476497e-04 1.0699919693328665e-01 1.0167961818642005e-02 1.1825379641942982e-03 2.2625728816698214e-03 4.3326076810080681e-03 -4.6531499550495105e-03 -6.8474544379818446e-04 -5.6544487424440703e-04 -1.6991246929688453e-03 1.1955754178627342e-03 9.7656226611216696e-04 -7.7763101428639583e-04 -6.2153132245064552e-03 -1.4745093628506501e-02 4.0990572087373778e-03 1.7255826977976038e-03 6.8833750909717915e-04 -4.8896563634448194e-04 1.9031776947469085e-04 -5.2721839637547854e-02 -3.8019656197176011e-04 1.3934904415310908e-03 4.4897065810992808e-04 4.9511047564450641e-04 -1.3434477368961366e-03 -3.3980600864968861e-04 3.4041568361279831e-04 1.4103793587130157e-03 2.7738676840718306e-04 -2.6125796339931181e-04 -1.4173756052572833e-03 -4.1415194071515289e-02 1.5636129301524263e-02 3.7271323122324215e-02 1.1077192238316248e-02 7.6052937884346552e-03 -2.5709511882844763e-03 6.5695852043133676e-03 -3.4349964519652609e-02 7.7344213730289419e-03 1.4508213837013929e-02 1.3296539598285754e-02 9.0754470314896828e-03 -2.6864889956655005e-02 9.6502001973472404e-03 4.9112489479054343e-04 9.7148947053610074e-03 -5.0935691284340473e-03 -9.5817270320335858e-03 -5.4824334336205285e-03 -5.5604848273386666e-02 7.1469799525945926e-02 6.9151719085032315e-02 2.4895982674493070e-03 4.6181790503935253e-03 9.4756272190414399e-03 -1.0783068889027702e-03 -2.3962564237986272e-01 -4.6457810370355568e-03 -5.9252237992294555e-03 -1.9324149426559471e-02 -1.5740443489161739e-02 -2.0323270511847624e-02 -3.6451596376546125e-03 -6.3385014291683257e-03 4.7909411490473803e-03 3.5403841648946376e-03 -9.5189097748934574e-03 7.0813580606655137e-03 6.5805695474345172e-02 
      </Row>
      <Row Index="179">
        8.5128466951899153e-03 4.3877357627497560e-03 1.6890572121919800e-02 1.0555630665965141e-02 3.0906337468292022e-02 2.9368987377538236e-03 4.8333091733703260e-03 1.9143187629901637e-02 -2.1780936487316138e-01 -1.6878660289892988e-02 2.0683048522111627e-03 -3.9342969014718315e-04 2.2338022361356809e-03 -1.3537731574699854e-02 1.9486661228985958e-03 -1.1799375932693978e-03 9.2758955155274395e-04 -1.5381097937758603e-03 -4.0499994910931682e-05 -7.4878072382045247e-03 5.7953165828196762e-03 -4.1100205081771923e-02 1.9766024832236495e-04 -5.8215626353489647e-02 -1.4936774277538034e-03 -1.8389687811464972e-03 -1.1083218299493103e-02 -7.0389116958242015e-02 -2.6995356069200394e-02 -2.8853071008380360e-03 -4.5606501028215840e-03 2.5380346950737910e-02 1.2765789774485878e-03 5.4132283998751668e-03 1.5629576518250143e-03 1.4488307278433463e-03 1.7699819118757176e-03 -6.1715362816633368e-04 -4.7373900619609444e-03 -4.4019237528054589e-03 -5.5556487961101020e-02 5.8844980784399370e-03 -1.4417680856842141e-01 -2.9315973147880925e-04 -2.3897693259400388e-04 -3.6078183632210492e-03 -5.8741070266129070e-02 2.7058785070016800e-02 2.3510495251934382e-03 6.5575032900015984e-03 6.8074382926143762e-03 5.2757936689260543e-03 1.5620743185542962e-02 -4.4057170910144355e-03 -3.1159603447497020e-03 8.7082002765690517e-03 3.8359871779732324e-03 1.2797388028991108e-03 -1.3070599395688633e-02 7.8969335959038767e-03 -1.3964563411881237e-02 -1.3633121336714893e-01 4.1477827161107150e-04 7.0379028484524042e-03 1.4814654455592269e-02 -2.3682490737681483e-01 1.8601092751612647e-02 5.3359276704537384e-03 9.9708469502330088e-03 9.5399685232117060e-04 2.7531944035124045e-03 1.1002366902983729e-02 1.2172139061705778e-03 2.4709372816356656e-03 3.3968580468575760e-03 -1.7586473488545029e-03 2.3769882098423345e-03 -8.4715686664003087e-03 -1.1615697088099536e-02 2.7419623195421503e-03 -1.6041601237243477e-02 -2.6226364662852719e-05 1.0738493169761571e-02 -1.3176631472178180e-04 -5.5546850398297432e-02 2.6795596811478584e-03 -2.7274498926743024e-04 5.6759256939212244e-04 -8.8222195098864014e-03 -3.5197955800681247e-03 -1.1261413882712040e-04 -2.2387888338486484e-03 1.6577383596014239e-03 -5.4724754173246515e-04 -1.6694523995727933e-03 -7.6696937514969532e-03 1.0646061549890729e-03 2.5237806407412904e-02 -6.0871926684417238e-03 -4.1319877824720130e-02 -4.8036703267128750e-03 1.4057310136051521e-02 1.4628593191148842e-03 4.1696552762131356e-01 -1.3790144169462684e-02 -1.3814422495184664e-02 2.2252263994965646e-03 6.1586186492156546e-03 1.8675643179236270e-02 1.4418966900015817e-03 1.1119410089892159e-02 -7.1159721967795075e-04 -7.2564796415093696e-03 9.7457581945154526e-03 3.7231612357995214e-03 6.0291526993509481e-03 -2.3340558294358632e-02 -3.7257338754196805e-03 -7.7153011271352781e-02 3.0478409906955529e-03 1.6111409187887019e-03 -2.7624595954309356e-03 -2.9786577756316668e-01 1.0136455311294371e-02 7.0924057805457318e-03 2.7191185067327109e-04 -3.2986687113693326e-02 -1.0270873872860575e-02 8.7677613085300476e-04 -5.6340710385472947e-03 2.9729764598734661e-03 5.0086344846668879e-03 -6.0926133502935444e-03 2.7087342382434917e-03 -3.1851244970155269e-03 1.5542610290367950e-03 4.5286751688010732e-05 1.8982750093756856e-03 -2.0797844848455824e-04 -2.6694265080435924e-04 -1.8752427430602913e-03 4.7413142846913781e-04 -3.4075088558648339e-04 2.3231889808998088e-04 -5.1742018395416374e-04 3.2510475336695009e-04 -5.4517068931265837e-04 -2.2764452802624333e-04 -1.2317445256192043e-03 -9.8698229870720303e-04 1.1162552115751186e-03 -2.3027201346821624e-04 -6.3353452878961714e-03 -5.4284147000425442e-03 -2.9848706860409857e-02 6.6766883312740569e-03 -6.2757558958886378e-02 2.8393821859386617e-03 3.9463178183340893e-03 2.1708927889091262e-03 -2.1701724708763764e-01 1.9474119674235020e-02 7.4500477337037128e-03 -1.3063990110677645e-03 -2.2580682704935712e-02 -1.5982702373990298e-03 4.8772733823898226e-04 -8.8005476862779153e-04 -8.8102812051866000e-04 5.9132281735681073e-03 -3.1591471199302491e-03 1.2381259272309153e-02 -2.9628153788819334e-02 -2.6394644790621591e-03 7.6371289131071940e-04 -1.7065381287199838e-02 3.8052590244313650e-03 9.2685105409762714e-03 1.0167961818709936e-02 4.2958364977719665e-01 1.5482423906239273e-02 -4.2012826742510723e-03 -2.0355586392538927e-03 4.3958532858697434e-02 -8.2982957657438752e-03 -2.0585340236564534e-03 -6.7651318919945691e-03 3.7305074687360405e-03 -1.0789971812198238e-02 2.0430296351736099e-03 6.2775610533074566e-03 3.5109589843917407e-03 2.0130056610276575e-03 2.1586787630073910e-03 -1.1434186411293300e-02 7.4478129751325299e-04 4.6871457249562151e-03 4.4365644265328312e-03 -1.1122363959493579e-01 9.7465024987985413e-03 2.4869456861116592e-03 9.3941569931397574e-04 -1.2081769374980508e-02 -2.9965769513450122e-04 1.9097028567174523e-03 -1.3718905485060402e-03 8.5474359753525461e-04 1.2017409635735746e-03 3.7129951080091023e-03 4.9393260297785513e-02 2.6520077762274292e-02 -6.7051601959405155e-02 -2.9204431894490589e-03 1.2614755752893753e-01 1.1695483139251140e-02 -5.0954137729121204e-02 -1.9511415669746790e-03 -4.5298018897344222e-02 8.0147755221723641e-02 3.3783760101314612e-02 -6.8683454736711003e-03 -6.8174200828358927e-02 -4.7465608875003701e-02 5.5006572571270652e-03 -2.8137565367849324e-02 9.3147986704053779e-03 1.2953128883296782e-02 -7.9418788010947559e-03 3.9348511997860935e-04 1.5023482799879827e-02 -1.0541052735060034e-01 5.3401911111543431e-02 1.4464991305996322e-01 1.0881938650924849e-03 7.7739710276221841e-02 2.7977574988833354e-03 -8.2096611588057233e-01 -9.5834184127529032e-02 -1.1620777113720823e-02 5.0646726775204508e-02 1.1633766497435075e-01 1.5630347318497329e-02 -2.4249477370046152e-02 1.5879227335846430e-03 6.0862356633870074e-03 -1.9590638927745596e-03 -2.9232493304611768e-02 5.0800745571237615e-01 
      </Row>
      <Row Index="180">
        3.0933810658726958e-03 4.7807116058426330e-03 -3.2580806802801066e-03 -5.0465104620397733e-03 2.6996839400849834e-03 7.9213960719661403e-03 2.7566573328522727e-04 3.9955315902883287e-03 2.2108230122294421e-02 -4.3539123499053683e-03 -4.1026103811309398e-03 -9.8839712538584430e-05 3.7905878883347614e-03 8.6762638707659975e-04 5.5088462834752740e-04 -2.3861530136522410e-03 -3.2180303482546712e-04 -7.8506876382874666e-04 7.6661958280380821e-04 1.1586420514840823e-03 -2.3537806221530649e-03 3.3943600833278437e-03 -2.4180484834020362e-04 5.6137274253625358e-03 5.6227208289050222e-03 3.2759061804753080e-04 -3.1476161981551509e-04 6.8552322975565377e-03 -9.6749877508497083e-04 -1.5452506045073935e-03 -1.9041804144936947e-04 2.5432212822572649e-03 4.9695201470806435e-04 2.2372442105489561e-04 -3.2859586758154924e-04 -7.0613815191694130e-04 -1.5980445549548944e-03 2.3752854137712442e-04 5.8463031547282647e-03 -3.0469174752856265e-04 6.5669392464306475e-03 -1.3518525581626695e-03 6.0743523183331705e-03 3.3859617127771774e-03 -1.9958630895627882e-05 -1.6296598147850991e-03 -6.7168882608157621e-03 -1.4440413210806788e-02 -1.5469533017750045e-03 4.0582600461495227e-04 5.4453565268356013e-03 -3.3938734516020530e-03 1.6371251125026562e-03 6.0541722010086681e-04 -2.3551761062710619e-03 -3.6127613676750596e-04 -1.3786897540798843e-03 6.2055668687943655e-04 6.7113379326976651e-03 4.3449970050375708e-04 2.8623961923674827e-03 5.1523787332310965e-03 -1.2973747496217852e-04 -1.0339710508011635e-05 -1.9605775994335772e-04 3.2231421711046704e-03 -5.6917425724899232e-03 -2.1636550430522913e-03 -3.4584649062910800e-04 4.0650046408504219e-03 8.7439393705531741e-03 9.0169288479258203e-04 6.6987195502099528e-04 -3.1925928443781362e-03 -3.8569274662873972e-04 -1.2938579508326130e-03 1.4112327386966023e-03 -2.0644629786414903e-04 -1.1854713160490415e-04 -1.7372293078928346e-03 -5.5635887418743080e-03 1.4372075470789150e-03 -1.3628376866289100e-04 -1.1013285416796859e-03 8.4354176292831679e-03 3.1009468267850643e-03 -5.6339890599729943e-04 -1.2318419088785428e-04 -6.3458498730926440e-04 7.7327636928909566e-04 1.8449733135307610e-04 -8.3965614814403983e-04 -3.3042737413382667e-04 -4.7695471154693588e-04 -3.2033062841887051e-04 4.3349270504439846e-04 -1.6620482231846402e-03 9.6920030811992620e-05 -3.5762020093856386e-04 -1.7783241614481443e-03 -4.7913169771004929e-04 9.9659758731386432e-04 -1.3797465039775240e-03 -1.7074024981598601e-02 5.8352867186794912e-03 2.2984741927827338e-03 -1.8651016713531446e-04 -8.4920570651330143e-03 -6.5841684898243838e-04 -3.6314881356295636e-04 -1.0340748946214258e-03 4.6887172491894523e-04 3.5825831694445785e-04 -1.4203008224363857e-04 2.2134680442238448e-03 4.6855388113886676e-07 1.4994281858271216e-03 1.7507225319346184e-03 5.7177491667071943e-03 -1.3389333007040533e-03 -1.2268811892196183e-04 -1.0739482230156978e-03 2.7733598998263553e-03 -5.3817936698568576e-03 7.1671109584954345e-04 3.9381452758760396e-05 -6.2407406811072208e-03 2.9225803836002012e-04 1.1001944493156364e-04 1.4541665568781753e-03 -1.4310000914439960e-04 2.7067277311956274e-04 -1.1698172340566383e-03 -2.7681518035829180e-04 -8.3500191912541492e-04 4.0393625740475227e-04 1.2198739597596106e-05 1.3704270170153434e-03 -5.8969243765443055e-04 -9.4881385946308849e-05 -3.6058850329606261e-04 -2.2363131886419560e-03 -4.2707629380552307e-04 -1.3933013442569259e-04 -1.7949878791076804e-04 -5.4424242901549393e-04 -4.5507523471811098e-04 -4.3400247029793185e-05 3.5031492974354995e-04 -1.4859161915757000e-04 -2.4045109128513465e-04 -3.1661276727382431e-05 -1.5904396495643094e-03 5.1602596361759005e-04 1.7539262905843286e-03 -1.6571803757116600e-03 1.1698762339560735e-03 4.5431656761977714e-03 -1.0400999983858688e-04 -2.7821422277794806e-03 3.6903303199547904e-03 -7.7299508960625082e-03 -1.8702674320135824e-03 5.9397679778993261e-04 4.2345003818680550e-03 2.9859533195841087e-04 -5.7107748343600663e-05 1.5340068615865322e-03 6.6536663795290179e-04 -6.9445029023749993e-05 -1.0096087119385725e-03 -6.1480948159761684e-05 -2.1779385428773168e-04 -6.5534226713401533e-03 6.3057745243711577e-04 -3.4528836812093476e-02 3.1884539632064564e-03 -1.6443994311007709e-03 1.1825379641868111e-03 1.5482423906242257e-02 3.5024636147389376e-02 -1.3442253606175151e-03 -1.3775221163014398e-03 8.4976327374638831e-03 -7.3496870677788916e-05 -3.1768619345201045e-05 -1.1023758706748266e-03 -2.9176592164088782e-03 -2.2366107040943575e-03 -1.6799232319833716e-03 1.2843021335209315e-03 1.1190125765824996e-03 -2.3953352748906642e-04 -9.7284128651132552e-04 1.1187774087886627e-03 4.7005671927241848e-04 3.2985039173308474e-05 -1.7878805684931999e-05 1.3105067974388779e-03 -1.2758845820926385e-03 -7.0999437413518543e-04 7.2870381050438597e-06 1.1799829799259373e-03 1.3767953477860700e-03 1.5220789568463813e-05 -2.7448746116869212e-04 3.4177014882551249e-04 3.7705836439787108e-05 2.8467506934543491e-04 5.9154278385999170e-04 2.5608549442397506e-03 6.3680917946878912e-04 3.9405445577587661e-03 1.7260818027589390e-02 -7.0447661644478972e-03 -3.1492012220300744e-03 4.2579722699240194e-03 6.1750457061307551e-03 -2.5920525209958280e-02 -1.3857535107893303e-02 -3.9381203274865134e-04 7.7624978922914735e-03 -5.1546093613783536e-04 2.2997294250809448e-03 -1.3393446296308641e-03 -3.3176240505584679e-03 -9.1811735578182575e-04 2.0095408523004279e-03 -1.2118312716662253e-02 -9.1301779372768982e-03 9.2533751317666838e-03 -1.2378236813679829e-02 -4.1079075142688680e-03 -3.6736893917096364e-02 2.5888091239449629e-03 7.1019471689695579e-03 3.3404113112622896e-02 2.1246776835220103e-02 1.2019974888071137e-02 2.0033250934875352e-03 4.4449029986553340e-02 2.3834516128050272e-02 -1.5154327570586108e-03 -8.3641406699705954e-04 3.6838226779133953e-03 1.2901043382316790e-03 -4.8306353125352718e-03 -4.6615459407690026e-02 
      </Row>
      <Row Index="181">
        -4.7959311402883250e-03 -1.5898411054919251e-03 -4.2653807492169038e-03 -1.1482410676722115e-03 -1.3570598926576523e-03 9.9618360016373361e-03 2.5881012794341118e-04 -8.9498494053748409e-04 1.1745756633885820e-02 5.3847467724245607e-04 -4.1215213804754756e-02 -4.1840457509034062e-04 -6.1849767940414272e-03 2.3877865566558363e-03 1.7613904338137121e-04 -2.3576047384118262e-03 -1.0684359301857646e-04 4.6918017181986349e-03 -2.1479214409716677e-03 -1.6953502315510132e-03 -9.2047612542463903e-04 -1.3935283739275424e-05 1.0102511139065122e-03 2.8242572652655224e-03 8.0209990002266824e-03 7.9637822725819312e-05 1.1532975407705895e-03 4.7009318773067656e-03 2.4342722893193236e-03 -2.6618186585471229e-02 -4.8854400584729752e-05 -6.8883265661640993e-03 -3.8144563621121704e-05 7.9975572817067480e-05 3.9682018763940769e-04 -5.4428253600581416e-04 1.0566220909252542e-03 1.2178902714829942e-03 -1.9001575840291707e-03 -6.7565985783768880e-04 3.1388806480962712e-03 2.8913599810705609e-04 4.3069901101207174e-03 2.1039815512026009e-03 -1.1958302146764486e-05 1.1283955165091236e-03 1.6228142900488760e-03 -3.9341339789671550e-03 -4.4811710190880514e-03 -6.0765580672972005e-05 -2.3677750326296142e-03 2.5582906039631236e-04 -7.0994131641401832e-05 -9.6515308285813914e-04 5.6425367080371771e-04 -1.2058475230808858e-04 3.1631145666584331e-03 -2.3693637342380538e-03 9.4617684928059622e-04 -7.4751208286314937e-04 1.5700560569414566e-03 5.3490680362474922e-03 -2.1874846540259038e-04 -1.8887763832524027e-04 -1.4205929723507282e-03 1.0053596657547141e-03 -2.4528662171779529e-03 -2.4256174157311909e-03 -2.1565903497788619e-04 -4.3699704953338693e-03 1.7728777962892665e-03 9.1891874189558827e-05 9.9722947651757201e-04 -2.0463172316305705e-05 1.1997117189881652e-03 3.7533083538556999e-03 1.1364873854026380e-03 3.1903803261456898e-05 1.0741680170007672e-04 2.6966303384533810e-05 -1.1176192597898093e-03 2.5717555278991300e-03 -9.7916613534144986e-05 -3.4762564077342743e-04 3.0999577371313921e-04 4.2490008342544773e-04 -2.8905313041463260e-04 1.3674456427752586e-04 1.2945398686884610e-04 -2.9621584889724927e-04 1.6528350341135341e-04 -2.7688768929479807e-04 -6.2209736605939791e-05 2.4928113174463003e-04 -2.9994723750742839e-04 8.2274473678211886e-04 6.0364820736203860e-04 1.0342296057688077e-03 -1.1733194560121835e-03 1.9987561908449388e-03 5.6745142897672931e-04 -4.5704524986805414e-04 -1.2750559023166806e-03 6.2617659307280570e-04 3.2623772127739650e-03 4.5243332927203889e-03 -5.0003507521049128e-05 4.0631521936225897e-03 7.8123863331166121e-04 -9.7488850143265463e-05 4.4620512018276400e-05 -2.5108288899645573e-04 -5.2021648558391671e-04 -6.1195335739123351e-04 1.6555786101079321e-03 1.1256128643134685e-03 1.0426332394982034e-04 5.1400081949441783e-05 -2.0315705289712196e-03 -5.5890215086657478e-04 -1.5379729281695268e-04 -1.5358045443259571e-03 -2.5847467458849070e-03 2.7015252284436249e-04 9.2398720668854864e-03 4.8638037020013250e-04 4.8970615213902611e-03 -1.2453283857126257e-03 -1.1531722988700079e-04 6.1169857119467872e-04 4.3589162023887506e-04 -2.0049136334743859e-03 2.7747987972442209e-03 -1.9718646070471800e-05 1.0620127869730477e-04 8.8778604884300674e-06 4.4821016235756320e-06 1.1672376812711118e-03 1.0104513268316166e-04 1.4312244785608869e-05 2.1401442906961320e-04 -1.5960635419867299e-04 -1.9393774935539982e-04 6.7025507840149301e-04 -8.3584933594335782e-05 1.3574762082819598e-04 2.1729344490480462e-04 -1.3958535093995509e-04 4.3256123239596183e-04 1.1751203502856866e-05 1.0333351073015952e-04 -1.2875400966447215e-04 3.5590709017402512e-03 9.7239348623315920e-04 4.7809113752544978e-04 -8.3932309524168617e-04 1.0673833172527747e-03 3.2237741911822692e-03 -2.8110969257640003e-05 -1.4520435838935927e-04 -5.3918624125289601e-04 -2.0000517454192689e-03 -5.2686814530680821e-03 2.9095196793693054e-05 2.1527230270192532e-03 7.2494999540195239e-04 1.0312207445371474e-04 1.7803686513002617e-04 1.4544080770589266e-04 -5.7924391108444001e-05 2.1846468116031499e-03 -1.6173537358312909e-04 -1.6756555535342242e-03 1.2423954231892088e-03 1.6306684785344120e-03 2.9657635340646360e-04 5.2448037378266150e-03 3.1676299742865638e-04 2.2625728816697064e-03 -4.2012826742224632e-03 -1.3442253606194897e-03 1.7300271958541356e-02 -1.1739823706173640e-05 -4.0176827444721765e-03 7.8865094843066615e-04 1.3315594449708496e-06 -3.5076100228041967e-04 -4.8058947454980084e-04 1.5087962000592276e-03 -1.0450119332862089e-03 -1.9026463779869356e-03 6.4352749097812021e-04 2.6585683518780655e-05 -9.4629677255857113e-05 -3.1227302906281593e-03 6.7348912937648011e-04 -1.6492010588419151e-04 -7.1494371962626917e-04 -2.0141085095685995e-04 -1.1301235839920969e-03 2.5085866693354193e-03 2.2776726990726944e-04 7.1678944088342754e-04 -3.9641955565316884e-04 -3.4600674649158961e-06 1.4366246250252507e-04 1.7148420178162064e-04 5.9501640214931328e-04 -1.8272706384599834e-03 -9.3729430334670641e-03 -2.0609074403015915e-03 -1.8563426062668436e-03 5.9507082615784706e-03 -9.2624816098507944e-03 -1.6211490233801310e-02 1.0881832243212956e-03 -2.9103841491865464e-04 6.5822487414249602e-04 -1.1920080407462856e-02 -5.5474155865602739e-02 1.0054446200706245e-03 1.4948382161298940e-03 -2.7204107074262256e-03 -3.3826462146822707e-05 -2.0565215363404707e-03 1.2301986510470147e-03 6.7701149291978652e-04 -4.2368501151915780e-03 9.3501134955251974e-03 -1.8297536663168940e-03 5.8024669495219889e-03 -4.5499103828396514e-03 -5.2081800944907821e-03 -5.0820334037857559e-02 -2.7778128657687342e-03 -3.5081144943212251e-03 -1.9170497740537552e-03 1.3043567042975820e-02 2.1416784466690414e-01 3.0067297749856829e-04 -2.9856098957703563e-02 2.7037286929273889e-03 -1.2306727179440006e-04 -2.4122249927188118e-03 -6.8897588411378770e-04 1.0860865369158484e-03 1.3047861606358169e-02 -2.7218185074223916e-04 
      </Row>
      <Row Index="182">
        -5.2011837858628946e-04 -5.2955602206145556e-03 8.7937127211219247e-04 6.3134950423596832e-04 -2.9694599394450572e-03 -1.3957614691797885e-03 -1.5659675619785537e-04 -2.8817453535382315e-03 1.7232550238477336e-03 2.6601898253216297e-04 -1.1609489313985748e-03 -6.9950610108129993e-04 -1.4358987924156267e-03 4.1633247294130867e-04 -2.0083803238361863e-04 -8.0967947975015518e-04 -5.5375714557702482e-04 1.9242008177716881e-04 2.1020017804747161e-04 1.9667813551076238e-03 2.1103835066343963e-03 -1.0167642838075051e-03 -3.0290663433396418e-04 4.1471109461000411e-03 -8.7076938528659557e-04 5.9809389947480552e-05 -6.2709796698553078e-04 -5.3026426441725449e-04 3.4263847566880353e-04 -2.4785271564923064e-04 7.7898605108005226e-04 -2.4606495539075549e-03 -4.0035683737898358e-04 -4.0552491704373044e-04 1.9294942236812926e-03 -3.2725598506881258e-05 -5.4734819022878023e-06 -4.3026000180793923e-04 8.2633159475768020e-06 -8.2568321543191603e-04 -2.1689197171691488e-03 1.7548427616733558e-04 2.9240909928989409e-03 -5.9320048836573706e-04 8.1819107388520287e-05 2.6159768516600818e-03 -2.3129688381840867e-03 -5.5460929731086621e-04 -8.1512579265780039e-04 -3.6929009391624933e-03 5.8430982664647683e-04 -2.8011524778746161e-04 -4.9602483085138885e-04 -4.9876718801214730e-04 1.2803400111084662e-04 -9.6679587883992054e-04 6.1498225652544328e-04 -7.7792673960631886e-04 -6.0109802079807862e-03 4.3855599310766574e-05 6.1532161653111463e-04 2.0479590406926422e-03 -4.9419006680935518e-04 -1.0545604440188872e-04 -1.4549010244546690e-03 6.4025517235388046e-04 -8.5132087800598132e-04 -1.2160438979675545e-03 -4.6565762963132300e-03 1.0235424886412573e-03 -1.4370545856435902e-03 -3.8626235690075728e-04 1.1785995552173259e-03 -3.8759308035491813e-04 -1.5765732294068103e-03 6.2748674746526505e-04 -5.2946061595070953e-05 4.7078505161634275e-04 -2.6033858321931717e-05 3.6733408739459631e-04 -1.1188499128329294e-03 -1.4627685827317593e-04 -4.2803722559716837e-04 5.1810104997739720e-04 7.8200471652865172e-04 -4.9720134216655817e-04 1.3784113681002152e-04 -3.0395584767354319e-04 6.6550481069328597e-04 8.8084285613522408e-05 5.6646059159232457e-05 2.1939502658444889e-04 -2.5794801377077405e-04 -4.2867148662042867e-04 -3.8248906509486674e-05 -5.9545911928379422e-04 -3.9595891782453260e-04 1.5458876538351144e-04 3.7107111215002120e-04 -5.5735643541448762e-05 -3.8094536900783616e-05 -1.2775689370572000e-03 7.1850700315747879e-04 -4.9609930629879000e-03 -6.6118231635898823e-05 -7.6336091648428737e-05 -6.4519841977094103e-04 1.3544645036616489e-03 4.8476336126203898e-05 -1.5845654970023549e-04 2.4754806618782952e-04 -3.9233863612334312e-04 -3.4436828960492907e-04 -2.4740242145572088e-04 1.3949539589316854e-03 -6.6943457204946509e-04 5.3430811680286495e-05 -6.5163028544103847e-04 3.5190861887261968e-03 3.4307327507162970e-04 -1.9432715264289528e-05 -8.7606406120113072e-04 5.5196514097823508e-03 3.7378898167080075e-04 5.0178099189794861e-04 -1.1164217736755523e-05 1.7193041581457036e-03 1.7387228120764684e-05 -1.7824995962293405e-04 4.5345388974430550e-04 -9.4087195325355847e-05 -9.7697122013922595e-04 -1.2622366428822031e-04 -3.4961018495157866e-04 8.7067446212726407e-05 3.1746635354810054e-04 -1.1350907461510332e-05 4.5816620249441065e-04 -9.8408645696863230e-05 -1.3009583430297479e-06 -1.0025644887263531e-04 -9.9524288415277326e-04 -2.7039457915120331e-04 5.2847905342684031e-06 -1.6344393515186841e-05 2.2422786787431638e-04 -2.0270770136867480e-04 8.7227885101459867e-06 1.0306311606101060e-04 -6.2478232575929822e-05 1.8041709111219108e-04 7.2737904350343816e-05 -9.5526127267348557e-04 -5.3752968003707713e-04 -1.0182587015529986e-03 1.2708102972794084e-06 5.2619749899114002e-04 -4.2427968510813652e-04 -2.2727426816103642e-04 2.1001096133675939e-03 2.7432424208384352e-03 -4.1580182409357088e-05 -2.5555482037726803e-04 -1.1021632011119569e-04 1.5705179227388628e-03 -1.8980029985992374e-04 2.5971796392940051e-05 1.3157340141765625e-03 1.3830805177130471e-04 -3.7241241838114350e-04 -5.2552904429613322e-05 -1.2884107711522187e-03 9.1379681481137606e-03 -1.9253870961650557e-03 2.1393722285917146e-03 -1.0721627479111958e-02 -6.1768576498332558e-04 4.4018285222088491e-04 4.3326076810077177e-03 -2.0355586392642802e-03 -1.3775221162999046e-03 -1.1739823705505257e-05 5.4402236301684288e-03 -3.5384765312671462e-03 1.7999663742120707e-03 1.0463570082644218e-03 -2.5345339485901980e-03 7.0175092583925618e-04 -1.4750527083289627e-03 -1.1754578604925361e-06 6.2996084275873665e-05 -2.1041687489125331e-03 1.5758582839406761e-04 2.2801641409813490e-04 1.9408493353024618e-04 1.3781942416985093e-05 -2.6651226268458616e-04 -8.8757853062064126e-04 1.5069834355521076e-03 -5.7497066842241752e-05 6.8471218023363430e-05 -3.7274882857666366e-04 1.4365549924570139e-04 2.9559485659333082e-04 -7.3707860929955301e-05 -9.1863484838232467e-04 -4.7985507913813491e-04 1.4725325820846494e-04 2.6199391965072322e-05 5.3252795450265365e-04 -2.2947308812179502e-04 -1.0656082508277240e-04 4.6945291025367775e-04 -2.8391484814166076e-03 3.0827426252046249e-04 4.4744973318562049e-03 -5.6048882934829050e-04 -2.4441255599647730e-03 6.2878272707616787e-05 -1.6747320009548735e-03 5.9553390032235764e-03 -1.2422467687248867e-03 3.8294397118079438e-04 -1.7024610015850718e-05 -4.2272343565180961e-03 -9.2949480302854525e-04 -5.9966014045023110e-04 1.2763630560227932e-03 -7.6542495496751926e-03 1.2134574429596706e-02 -4.2515195892207378e-03 1.8353135159006242e-03 -4.4369227038817249e-03 4.6402739493164183e-03 -5.6293950137226035e-03 -9.1493723282773803e-03 1.2442281696846432e-02 2.2330331218758351e-04 8.7506314928173547e-03 -1.5919771490959383e-02 -1.3154398695864055e-02 -2.8400553857583673e-03 9.7842787777712879e-04 -4.3133061768219948e-03 -8.9990184710653925e-04 3.3715741381148603e-03 9.2429218063197699e-05 1.2286174422370150e-02 
      </Row>
      <Row Index="183">
        8.7937666766186497e-03 -2.2012632029386331e-03 -6.9172711864973202e-04 -7.5334681269813254e-03 3.5714422540687393e-03 2.6492360181037303e-02 1.3041555182657857e-03 -8.1977899823311440e-04 5.3175407452672602e-03 -1.6375469996573910e-02 -6.7220957196185479e-03 2.8097404250951915e-04 1.7363908691033620e-02 1.8186618989024534e-03 2.5858652376319416e-04 3.4755408318777603e-04 1.0165837008722523e-03 4.6182820832663257e-03 1.4348521563314713e-04 4.3366201213931033e-03 -1.7339720770369049e-03 -8.8741265419134407e-05 -4.6734570526835327e-03 1.8940198321895640e-04 1.9148328718641652e-02 -1.2093663447366764e-03 -4.9744702130796042e-04 1.5525550052737529e-02 -7.9596154578506061e-03 -5.9674411480090186e-03 -1.3553518317455313e-03 4.8973648309691080e-02 6.8025841167621394e-04 1.0646467301467840e-04 2.1423556240384167e-03 -1.3816607112763228e-03 -2.2011856051679698e-02 1.9086256750526151e-03 2.2276303831474567e-02 -6.1066014264943291e-04 4.9621853392483595e-03 -2.7767716639367709e-03 1.4750364434854626e-02 4.7819313578396916e-03 4.3673714084508514e-04 -4.1583459795929978e-03 -1.5867271991937375e-02 1.3897603675343338e-02 -7.2554516480077130e-04 4.2732855163257408e-04 1.0035079559945325e-02 1.8850177542500957e-03 5.1088519327023678e-03 3.2977594872856258e-03 2.4641677525230887e-03 -4.5565148248711100e-03 -1.9890928736684618e-03 3.7076093017909262e-03 2.5490130298166129e-03 3.5408101729775994e-03 3.2707075220724732e-03 6.6588296402094243e-03 -3.6097726560234931e-03 1.8897916793317315e-03 -5.5665103765321078e-03 -2.7122424288238134e-03 1.0179842508804125e-02 -1.3087641445251180e-03 -5.2496692457383197e-04 3.6436612835150983e-02 6.0851808790039000e-03 3.8874021909557632e-03 1.6864977921259849e-03 2.9344640593901030e-03 2.0436249559398342e-03 -2.0952719225786898e-03 1.0659682553757904e-03 9.0375838932301236e-04 4.1183257917017622e-04 -3.3444437446208120e-03 -3.4063227249211004e-03 3.4119886903087363e-03 2.8195387567283448e-03 -1.9629698546627661e-04 -3.7486942383031657e-03 -7.0741023358462940e-04 -1.4006499575420503e-03 -1.7487260148050035e-04 4.9197150946664217e-04 2.6427249629334204e-03 1.3976696916908737e-04 -1.3009288051083253e-03 -3.8205834057379335e-04 -4.3771377160360669e-03 3.1444916408134276e-04 -1.0911638019580547e-03 -1.0262600872278614e-04 1.3866185998216904e-03 2.1534720605012291e-03 -1.1137152089337028e-02 2.3746118593814865e-03 7.3872393046451306e-03 -9.6617964233198031e-04 4.2054328479344122e-03 -1.0436885379053708e-02 2.5164499285268626e-03 9.4054299511688922e-04 -2.6341158244043379e-02 -5.1662278751494588e-03 5.3783912723176942e-05 1.3494877133015445e-04 1.9304129696294872e-05 1.6294840265541786e-03 1.4602128666794841e-03 2.2189737620859851e-02 1.3457905999274145e-03 3.0195834561579718e-03 1.3056000116911061e-03 -8.2692129047045107e-03 2.1976214983089018e-04 -1.0312505640658861e-03 -4.4642885579183455e-04 -3.1252145996718814e-02 -6.9096093257263599e-04 3.3762310688084493e-03 1.1779023133587593e-03 -4.2683743985436860e-02 -4.7824336112043406e-03 1.1086324711079582e-03 -1.9646402496549184e-03 1.2958724161382380e-04 -1.3727693108865166e-02 -1.0452654446986391e-03 -8.9505346964877022e-04 1.4785021404146337e-03 -4.6236527846005553e-04 3.6328947679972387e-04 -1.8722686931902212e-03 -3.7690171794385640e-04 -3.3840777164556861e-04 1.1757836622541479e-03 8.6106233096359670e-05 5.1463856506567046e-04 -3.0167513007552327e-04 3.9026358653208973e-04 -1.4092547128251288e-03 -4.4730294608765473e-04 -2.1911537340832220e-04 5.2877569670386343e-04 -2.1938600484497909e-04 -7.4437589234407431e-04 -4.0194242745761766e-05 -1.1674582869777000e-02 2.8953063863050837e-03 -1.3116850251101899e-03 -9.7283320578872481e-04 -8.7991160355441536e-03 1.0287103526641413e-02 3.9936608345719554e-04 -8.4110810027395160e-04 -1.9179205710546939e-02 3.4908935945905193e-03 1.5692847473423041e-04 9.3143959118242099e-04 -3.4035264506530924e-02 -4.1105417151470576e-03 5.6886020458789765e-04 -2.3167671538982110e-03 1.9070293567633248e-05 2.9512720617341790e-03 -5.8253605688355021e-05 -1.3163514940503017e-02 -1.9027077000686177e-03 -8.2469261478720912e-04 -7.9522953556776001e-03 2.4711604465213925e-02 -1.1377279755438412e-02 2.2225129655923104e-03 -4.6531499550588745e-03 4.3958532858524677e-02 8.4976327374712834e-03 -4.0176827444701234e-03 -3.5384765312680682e-03 1.3366821858788916e-01 1.3546018085513110e-02 -6.3880841525007807e-04 -1.1689905910626658e-03 -9.9555944241344705e-04 -3.4963960386159704e-03 1.7161374425210037e-03 8.5886763659994980e-03 1.6619353495052171e-03 -2.1980493177162761e-04 -2.7454804906693254e-04 1.7292730423258129e-03 -1.5487998001817373e-05 9.6079962615356652e-04 -1.3814145970687131e-03 -9.2969945759871220e-03 2.8424966342005470e-03 -2.5137303876445773e-04 7.6890685359279126e-04 -8.8219871014691836e-03 1.5450996667229723e-03 1.3589413010222904e-03 -1.1865460513803550e-03 8.7806380801429742e-05 3.6967067185057242e-03 9.6302958137930018e-04 2.0900433725855733e-02 2.0597796657783702e-03 3.7223567245937002e-03 -1.4267583308597868e-03 7.1162061937106127e-02 -2.6439243080217535e-02 -2.5507366413620707e-02 2.1278783713667105e-03 -2.1383393340657808e-02 2.9951528194481668e-02 -1.8520608806241186e-02 7.9714972940392315e-04 3.3985102525588055e-02 2.0767953573422107e-02 6.9016007666979472e-03 4.9878284625437877e-04 2.9379468067393440e-03 -1.8960190626588474e-02 -1.6979095911852653e-03 -6.9897849094857606e-02 -7.1175649841762195e-03 4.5234225426594348e-03 -1.5677096094505020e-02 -2.1142826989124690e-03 -1.0493369270243909e-01 2.5158828223448740e-02 3.9947459509275252e-03 -4.0081175711492438e-02 -4.1889714997242380e-02 -1.6116347459534927e-02 6.1979399681146735e-04 3.4851630027218128e-01 2.1641228034910004e-03 -6.6871889415137317e-03 9.7608603053384833e-03 -6.1198938235172418e-03 5.2690269137544689e-02 -7.4826966603251648e-03 -3.7038987226191644e-02 
      </Row>
      <Row Index="184">
        9.4678148066782960e-05 2.9501221496832583e-03 8.5245924780653209e-04 2.6206792918480500e-03 9.0984985807220017e-03 8.8893608068019679e-04 -7.3478869091020589e-05 -1.6348678383376475e-03 1.6946303367017801e-03 -4.5796860618184630e-03 1.2852375540150281e-03 -3.2832457892487468e-04 7.2454086033936077e-03 -4.2162995977766482e-03 -2.2075812388426411e-04 1.9831280281085474e-03 -8.5059638462434465e-05 -8.3882483280197512e-04 1.6206718089665070e-03 -8.9382098201512723e-04 -3.3524362430589587e-03 -4.5356847694522084e-05 -1.9786943717862472e-04 -2.8427194007304840e-03 2.1314005783029579e-04 -6.5372343267036822e-04 1.5331244425591355e-03 7.0386091436426754e-03 -3.6096598476340188e-03 7.8263590619708640e-04 -1.4313585406467710e-03 6.1548801582984158e-03 -3.2168010899320124e-03 -5.8987826997203025e-04 6.1757145598473340e-05 -5.0539793920511254e-04 -3.9374008126483000e-04 -1.2408791661142407e-04 1.7744361154733625e-03 8.2790928846734890e-04 4.6005553232759955e-04 6.4042951464634776e-04 -5.9927140804518914e-03 6.5867377558901166e-04 3.4937919153688046e-04 -1.8962575718813740e-04 2.2496120026995331e-03 5.4562716236260002e-03 6.7854740395342783e-04 2.1456322425989285e-04 2.8936067118060342e-03 -3.3809811394430768e-03 -1.3440759825304842e-03 1.5261641679418826e-03 -4.8403051602537162e-04 4.0315217916829255e-04 -1.5615445308084924e-03 1.4362443504927908e-03 -2.7524090629242181e-04 1.4056718854099683e-03 -2.2606795764440850e-03 -1.0826972802917754e-02 -2.3927008328351873e-05 8.0411013342444881e-04 -2.7245858365970432e-03 -1.4310396492006765e-02 1.2261677824367337e-03 7.8230842971267929e-04 2.0591105144419455e-03 4.4935154038403292e-03 -1.3154866346287739e-02 -2.8358137962423979e-04 -3.9860152409917360e-03 3.8449935449384872e-04 -8.9582817829258685e-06 5.1579029832460148e-04 -2.0854727934588313e-05 5.7877232881457449e-04 -1.0680848010929510e-04 1.0612717756255988e-03 -1.2960281423197561e-04 3.7307134516924875e-04 8.1972102096306715e-04 -2.0846946476422989e-04 -3.7556759559701711e-03 -1.4648697993032631e-03 3.4000033223128808e-04 4.5905646361960126e-04 1.0274435303322979e-03 9.8062023752205300e-04 -7.4816315620044541e-06 3.4285668226809087e-04 6.7405016136037887e-04 4.2019500626937342e-04 -3.1773234920623840e-04 -5.5330110703564334e-04 7.8155631453254160e-04 -8.9248046540950929e-04 1.3605912296041963e-04 -4.1889564556870026e-03 5.8963551563863447e-04 1.6286234531501780e-03 -2.0311963718089819e-04 1.3889930259679648e-02 -2.0134658217852690e-03 8.0622988769002684e-04 4.0242310998861225e-05 -4.3077435239401371e-03 3.0969813465631024e-03 1.3478007805467008e-04 3.2519721668081581e-04 3.1502051809686842e-04 2.6839079377389977e-04 6.8590438327988720e-04 1.4673571955272466e-03 -3.0423625353841700e-03 3.6400140874995150e-04 3.8321359673696120e-04 -6.6417864943834892e-03 -2.8075074098309852e-04 2.2308059463439463e-04 1.3415050923321430e-03 -1.2429098148092208e-02 6.5552700518791665e-04 -4.7148283601052162e-04 -1.9526157267924925e-04 -7.7842060125314187e-03 -6.4672111564929823e-03 7.2239134170760098e-05 -1.0154864353993653e-04 8.8277742672557996e-05 1.2533922440419790e-03 -1.6516420620985707e-03 -1.1794098931764505e-03 -1.9146268629638094e-04 3.3421671163460359e-04 -1.7975602511114189e-04 5.5056465618217091e-04 -9.7318082446493404e-05 6.2116732702284465e-05 -2.1283081869743266e-04 -5.2228575211915422e-04 -4.0923327826116395e-04 -6.5671958626117074e-05 -8.4418008533787681e-05 -2.6142208318883568e-04 -8.4976615266793337e-04 -1.8732484921954920e-04 8.2834465288946380e-04 3.7408163031645643e-05 -2.9193187955990998e-05 4.4141318035975251e-04 -6.9780980823181109e-04 -8.3275471062552002e-04 6.4759931598734003e-04 3.0638179324210570e-03 -5.1793369602241100e-03 1.3699136359407531e-03 2.6462690339311120e-04 -1.0074064241485481e-03 -7.7315831041824094e-03 1.2687708389101384e-03 2.1073826838757829e-03 1.1434764176931856e-05 -6.9313930522044232e-03 -5.0370403467932499e-03 -7.5889017817577049e-05 -1.9909697622833931e-03 7.9960373388116121e-05 8.0011879910842163e-04 2.5266084588713663e-05 2.7048855411462361e-03 8.9017924972731519e-03 -2.3882881324203270e-03 1.2699720600082998e-03 -1.7968532023055102e-03 6.2211940555061390e-04 -1.1079127623043888e-03 -6.8474544379565350e-04 -8.2982957657800546e-03 -7.3496870677638645e-05 7.8865094843000479e-04 1.7999663742131041e-03 1.3546018085511735e-02 3.4009983477896348e-02 2.0858860296433038e-03 -7.4053774315378101e-04 8.0128582662167670e-04 1.6754900785466678e-03 -4.4075924007644339e-03 8.5174621903016945e-04 3.0953019912210262e-04 4.3458687806578224e-04 1.0823306149134789e-03 -2.0204933220882665e-04 2.2974707888900664e-04 7.1339898226212262e-04 -1.0869358711016949e-03 -5.0967865441126784e-03 -4.0752351633611494e-04 5.5782747440164156e-04 5.7248017282841336e-04 -1.3673541860016220e-03 -1.6900218926477609e-03 -2.5528423616010687e-04 -1.3541196823291788e-04 5.6623188399961271e-04 7.8435128490791342e-04 2.4093906108170601e-03 2.9967031626542098e-03 7.4271816951786982e-03 2.8509710531442411e-03 -4.4629347188239483e-03 1.3453966495452213e-02 -2.4662783366648120e-03 -4.9250541643108530e-03 2.1799389784835461e-03 7.8577269468390366e-03 6.8918817118521995e-03 -1.8047876840784579e-03 -7.1257466532598235e-04 6.6621292903625041e-03 -9.2794127940939962e-03 -5.9463037474324736e-04 3.1657182311918899e-04 3.8284452833014111e-04 1.3342728668283934e-03 1.9100966287757231e-03 -5.9060705607769260e-03 -1.2301306570356729e-02 -9.8305031368235447e-04 1.0180805808136347e-02 1.2767686373305056e-02 -4.4740730044002495e-03 6.6310884260010125e-03 4.9252266887543916e-03 -3.1100828380721833e-02 -1.5240914547003253e-02 -1.9203243857169604e-02 4.0957144837992726e-03 4.5980581238182466e-02 -2.5254890905894986e-02 1.3346585707169813e-03 2.3992015119295692e-03 1.0299072152312096e-03 -4.6098292220821211e-03 -1.0102862866417367e-02 2.0889602916797770e-02 
      </Row>
      <Row Index="185">
        -1.4233265309235405e-03 4.1987308149804298e-04 1.2187007903857114e-03 3.9777418485486264e-04 -3.3040281130770569e-03 -5.5192969051532661e-04 3.4327114029872362e-05 -1.7598471976559729e-03 6.0491297155649843e-04 4.2109941191254070e-05 3.9137565887203008e-04 -1.0200139444843044e-04 -8.2043565335851833e-04 -5.0767178855141547e-04 -3.7721375204221084e-04 6.8582346881285563e-04 4.8108945223562598e-04 -7.9281077169567559e-05 -3.1604459111528609e-04 -7.0125293305180333e-04 2.8628451909979867e-04 -2.2768358307399990e-04 -6.9607701477067635e-05 6.0905822146113849e-04 -4.3902821612899540e-04 9.4781503714434705e-05 -2.4364003082845377e-04 -5.9726946821716306e-04 -9.7704263373667708e-05 8.3233982698122035e-05 -3.0570354940523403e-04 -7.1396891988676750e-04 -2.6450082063343326e-04 -1.2980536547176867e-03 2.4421969221491251e-04 2.6089221254922679e-04 1.5133501686236789e-04 -5.0978941083358207e-04 -2.2147453791380588e-05 -1.0820310573710773e-05 -4.4632896979007568e-04 3.2506315684046510e-04 8.1794674299746038e-04 1.0505254531635350e-04 -1.6457237110239619e-04 9.6690978706780346e-04 -1.6229864760119884e-03 2.6955088277925152e-04 -1.9599421952281909e-04 -6.7525277308041511e-04 2.0216172714208587e-03 -7.8651787666681101e-04 -1.9372511090799522e-03 4.5013336317021354e-04 1.1475188902205346e-03 4.6363835167491496e-05 -4.4799773769738636e-04 -6.9008280024055076e-04 -1.2986879914695632e-04 4.2599444846914969e-04 -4.8178726327952059e-05 2.6423900865982300e-03 -1.7160369900698445e-04 -1.3728770722299180e-04 -1.6218820737056629e-03 -2.6158983821763012e-03 -1.1962983394831189e-05 -5.9663618147940019e-04 -5.7069030691039369e-04 1.6166128826751553e-03 4.4131458021586287e-04 -1.3527692220508571e-03 -3.4311818127555826e-04 2.2445331874429233e-04 -2.7984357242240049e-04 2.4253574303312363e-04 -4.5311912915684590e-05 3.4828202025372632e-04 -1.3670607017574683e-05 1.3209993888545939e-04 -7.1921676924985604e-04 1.0376395520760164e-04 7.0650644305570251e-05 2.6926052249561308e-04 -6.7034645907036207e-04 -3.7185928792285178e-05 9.1203790798478635e-05 1.1138713331166217e-06 5.6707077094067689e-04 2.2370629394089555e-04 3.1367962932817906e-04 -1.1134589330807681e-04 -4.1187782431356099e-04 -1.5090026332043055e-04 2.8405463015638644e-05 7.0015609835076759e-04 -4.4247418388608365e-04 4.4497396594671827e-04 1.5900521146883874e-04 -8.1627544930166270e-04 9.5678322076635897e-05 2.6071898269659148e-04 -3.0205436605881060e-04 7.0214747962069578e-04 3.0383785124485862e-05 -1.9010781782716083e-04 -1.6729648974142942e-04 1.1919924775367558e-03 1.6221427336459365e-04 -1.0163955524151948e-04 -7.1776151112170749e-05 -6.6719066669816912e-04 -1.6966842426264454e-04 -3.2194782128852888e-04 -3.2066531540440564e-04 -2.6425558313329504e-04 -2.7265234303439090e-04 -3.4827068464528895e-04 1.4419091557441096e-03 7.1652854423363737e-05 1.3616745377857919e-04 -5.5099919205388250e-04 -3.3031061811369770e-04 -6.9776913631032256e-06 -1.9763666583964701e-04 -2.1949293213157473e-04 8.6606644010149146e-04 1.6635884825898380e-04 -5.4553316951574103e-04 -4.2629202169069003e-05 4.6554337737673022e-05 4.8608032281344650e-05 2.9566006316974602e-04 -1.9220736784985622e-04 -1.0824003393740861e-04 2.1038221883609709e-04 -9.0490125102147469e-05 -3.2713992634708514e-04 -7.1182361878425619e-05 -1.0264683472940453e-05 9.2571034326670906e-05 -1.4018230713517471e-05 -7.2015264935349274e-06 -7.3951124667339383e-05 -1.5028708710025626e-05 -1.6422073249407415e-04 -1.8609752896401089e-04 -8.1795038702360285e-05 2.6699140571812474e-04 7.3272994469965428e-05 -8.3670041105095175e-05 1.1397124693918984e-04 4.0927925438832217e-04 -2.1064193713238723e-04 -4.8919910377580550e-04 1.5332327614996701e-04 1.1886978874536770e-04 -1.1687666875495095e-04 1.2341212531568783e-04 1.1335528377944500e-03 -1.1332830309221300e-05 -3.3249574501225760e-05 -5.0802010117504795e-05 -1.2398649402050560e-04 4.9240744669762652e-04 5.1216802077813693e-04 -4.6799556482372644e-04 -4.5059754188130161e-04 1.1263734687878673e-04 -2.7389767955557609e-04 2.0659151978438272e-04 1.9026663398081156e-03 1.7129698552106774e-03 -2.1972450594436310e-03 9.2429018412166239e-04 7.0794696055922048e-04 -2.4077611938956654e-04 -5.4169431821962698e-05 -5.6544487424427595e-04 -2.0585340236510081e-03 -3.1768619345308490e-05 1.3315594452933998e-06 1.0463570082644125e-03 -6.3880841524964949e-04 2.0858860296434664e-03 6.0439004985342829e-03 -4.1161048220797036e-04 -4.0325560469162951e-03 2.6824791363242026e-04 5.7980710959651383e-04 -2.0059306298819777e-04 -1.0918414730775152e-04 6.1019743464092008e-04 1.4832302640520686e-04 3.3861422519672969e-04 4.4998087509238637e-05 6.2233785910583965e-05 -6.8774582267937972e-04 -3.5285889233051346e-04 4.2246377816731956e-05 -7.2594823055127243e-05 -5.5104486401826998e-05 1.0050437472214654e-03 7.7440579718875569e-06 -1.7943386563716549e-04 -1.7217385519639972e-04 -1.4663640637234426e-04 -7.2438310453137590e-05 -3.9994701439453266e-04 -1.7443464753073080e-03 1.2870740591191168e-03 1.0337438351188184e-03 -1.5622469545853793e-04 6.9824415338693470e-03 2.0539711175989746e-04 -6.1999423792958512e-04 6.0032291010798141e-04 -6.1927571521080797e-04 6.8676354653132341e-04 7.1935645764493723e-04 1.2512433284712415e-03 7.2644189825383945e-04 -2.2394671050306706e-03 1.1832191247148144e-04 -4.6745170515366530e-06 1.0659318323690077e-03 6.0785840914647133e-04 3.6073226575954832e-04 1.1175223455530960e-03 7.9775521787735053e-04 -4.7719751440716471e-04 1.3433482161246207e-03 5.2641626870251167e-04 1.6112287418115125e-03 1.5021530182867645e-03 -4.2586494658890858e-03 -1.6093813177940803e-03 -4.3272399942080890e-04 -5.4826779067506065e-04 -7.1398964206659168e-04 -4.5839219189370171e-03 3.4063118319599510e-03 8.0378755840118882e-04 3.0463910187908248e-04 -1.7355186119663078e-03 3.0003004413982999e-04 2.1037841832294529e-03 -1.8934117841449840e-03 
      </Row>
      <Row Index="186">
        -4.7010771018979793e-03 8.1365915527217905e-03 1.6391080579715514e-03 8.6436732267589078e-05 4.4321806653146306e-03 -9.6555296119335988e-04 -7.8452296516275111e-04 3.7382784022897270e-03 -3.0696207930819546e-03 -4.2593699866147298e-04 -6.1763150439973725e-04 -6.4585532045465595e-04 6.5879262756476636e-03 -2.4636451450857702e-04 1.9721949205652465e-04 -2.7310310944204427e-02 -9.9161443253760083e-04 -6.5402889686039592e-04 -7.3039580419660916e-04 1.5609198071536413e-02 -4.0991407944572546e-03 -7.9463527812563550e-04 1.3652511047753156e-03 1.0418137079558701e-03 -8.9634667255178435e-04 2.6437547397713544e-04 -2.2669407842210356e-03 6.8475813979156086e-04 1.6433700007687652e-04 2.7089900177152716e-03 1.3312994528190056e-03 2.1033837298877903e-03 5.0168626484041441e-03 3.3070646166499015e-04 1.7152288303191397e-02 4.0427474102328249e-05 -1.1663800915905007e-03 -2.7300047018163388e-04 3.9695659480856278e-03 4.9669241770938788e-05 5.7498476621000022e-03 -1.7490626837588473e-03 6.5200803270097640e-03 -6.7900526059466726e-04 1.8431877969962707e-04 1.1860086142754904e-03 -2.1694855750064978e-02 -2.7462220634686535e-04 -2.3319815347775472e-03 -1.5374119931084833e-03 7.7267891536428237e-03 -2.0572841267675231e-03 5.6309533081800103e-05 -3.5816619536275393e-02 5.5701578083550141e-04 -3.1194971796089238e-03 2.4746829487026778e-04 5.2544517170746152e-03 5.9833953896853134e-03 8.3188130664788723e-04 -7.1359575584938398e-04 -3.7343825197962274e-03 2.7725432428140490e-04 2.4174127079791552e-04 1.5062579851217450e-03 2.4673367924359792e-02 1.5462558217318317e-04 1.2018701552960389e-03 -8.4446885665773511e-04 7.8369849370479167e-04 -1.3702517039080554e-02 -1.1342417363770230e-04 7.8014828028709279e-03 6.2858547012512814e-04 9.0350403643225854e-04 5.8788101094347026e-04 -2.3753264803143270e-04 9.1886807897986235e-04 3.3034119469117253e-04 8.9837122041677491e-05 4.2870895196231648e-03 -1.8121854764445683e-04 -8.0163974052374274e-04 -3.2035294712646351e-04 2.1253416103440906e-03 -5.5817145808337298e-04 3.8372545693525517e-04 -2.2895999269081056e-04 -4.4664501118988367e-04 -1.3277851506953743e-04 -3.0460957483329485e-04 5.1088371107329408e-03 -4.3362631404334287e-04 -1.6324024808281818e-03 -4.4699098448366644e-04 9.1476855026206838e-04 2.3072942977169627e-03 -8.8413956975827109e-05 2.0085430983606207e-03 -4.2003785520170270e-04 1.2263169020732510e-04 -1.3127649455030694e-03 -2.8031500928539857e-04 -1.4547929946620297e-02 -1.5105071648617418e-03 6.7123501650000173e-04 -7.3081060770590592e-04 -1.5670905349818240e-03 -1.7142848326889620e-03 -2.7143524642404696e-05 1.0411135450224273e-02 -3.1318384123926995e-04 3.8378512066844441e-04 -4.4437040180497810e-04 9.8279795574025240e-03 7.9158153186576451e-04 6.0064070523716505e-04 -6.7804198903785172e-04 3.4338583221444432e-03 7.4261335665888563e-04 -2.9257442166197301e-05 -1.0191225806363822e-03 5.8954306248158658e-03 1.0378588656167525e-03 3.1033209720502042e-04 8.3605011367153320e-04 1.2446160399779359e-03 2.5484997972215250e-04 1.0925838107592460e-04 -1.6694894216540759e-03 -9.6500267427052002e-04 -4.6230751046572906e-03 2.5989105152669464e-04 6.8360803120514344e-04 1.0239761069019272e-03 2.0976410864880055e-04 3.7765784652048416e-05 -3.0773004500245249e-04 4.3343616859803830e-04 -9.2846244008771750e-05 1.1197579672516810e-03 2.8834276573211121e-04 2.8032806135488053e-04 1.1774555231400466e-04 -6.9624020242244537e-06 1.9038294300643076e-04 6.1872041607610945e-04 1.6651032538328282e-04 -2.6704657955094527e-04 -1.2535380473498769e-04 6.1897410490306876e-04 -2.0608378409576230e-04 -3.5975141022632096e-04 -1.0691174286802923e-03 -4.1872958811288172e-03 3.3748841955020818e-03 2.7735133898406715e-03 -3.9716891883297915e-04 -1.4940705577796032e-04 -3.4414680644279843e-03 2.0535083295435640e-02 9.0313987692134962e-04 3.0694848885643115e-03 5.1960495632404318e-04 -9.8349300265288438e-03 1.1178326152404515e-03 -1.7099716300140197e-04 2.0000258925978523e-02 9.8383751170157021e-04 3.1582090807471853e-03 1.0371324506882659e-03 -1.6116411232538701e-02 -2.4395219721195516e-03 2.0164403973307182e-03 -7.1580459290049702e-03 5.0603464693359489e-03 6.8873040399416909e-04 -1.3454029575933370e-03 -1.6991246929710865e-03 -6.7651318920544691e-03 -1.1023758706693379e-03 -3.5076100227734866e-04 -2.5345339485897097e-03 -1.1689905910630153e-03 -7.4053774315692390e-04 -4.1161048220790812e-04 4.5023590087894722e-02 -1.8869440941500781e-03 -5.2748361239845134e-03 3.7866173672519189e-04 -1.4808795278713274e-03 3.4394564624017358e-03 1.3657492948848063e-03 -6.7271096153085231e-04 2.4583841505506987e-03 4.5262553594484852e-04 -2.0639519933343816e-04 4.6806255182566502e-04 -8.2438608983712773e-04 -3.2393809870057301e-04 -6.8878612100585414e-05 -1.1516811554967247e-04 6.3289395793268829e-04 -3.4308887685302143e-03 -3.3006436114191339e-05 -1.0646974191936111e-02 -1.1768201461390686e-03 3.2194452024626122e-04 -1.9988788248380615e-03 -3.2695224611642398e-02 2.8098446783403497e-03 1.8165557969633012e-02 -1.6575143090220866e-02 -9.5198198487798924e-04 3.2623969588569156e-03 4.2684043936228487e-03 7.1688525913176961e-03 -6.2244790872419846e-02 1.4903847188217547e-03 -7.9229773756626532e-03 -2.1338788853017543e-04 3.6402702776460669e-02 -1.9466140770809034e-02 5.4883244761997707e-04 -5.9294693835884357e-02 -6.7620178721003532e-03 -1.5671138413040298e-02 -5.1134741480682467e-03 -3.5036201358079791e-02 -1.2337147121432229e-02 3.1096870320363040e-03 3.0300468422892052e-03 3.0099119079882511e-04 6.7709353440638395e-03 -6.4680191861205098e-03 -2.8646978770235781e-03 3.3809623062087249e-02 -2.7508191532797776e-03 1.5146299627799217e-04 -9.9073044374160847e-03 1.5553296878672985e-02 -2.6959176817724348e-02 2.2327088725363972e-04 -7.4566199260949761e-02 -2.9801454050494142e-03 1.8373860583105417e-02 7.8123178717811794e-03 1.8312805110446778e-02 
      </Row>
      <Row Index="187">
        -1.1520419072600786e-03 -1.6546087452913721e-03 1.0151934766899212e-05 4.8589414120407334e-04 1.9509598833340712e-03 2.9311004097185012e-04 -8.5942131458026198e-05 -3.1051559100764292e-04 1.2440758171193885e-03 1.6584851310977094e-03 -8.7259948601584036e-04 -1.7732960476673099e-04 -6.7153203894015142e-05 4.5023763412904445e-05 3.9195381035648483e-04 4.3082756624307494e-04 -1.0495732638073905e-03 1.0562508289383432e-03 -1.9917348302529638e-03 -2.4399952423518560e-03 1.1568474922620921e-03 -6.7028882110574048e-04 5.1485733999638182e-05 1.1046482359595954e-03 -9.4536505425916930e-05 -1.7830638730019364e-04 2.8919952002285157e-04 3.7310010500152778e-04 1.1951061898143375e-03 -7.8934541970630909e-04 4.4745966327426612e-05 -7.4698500996661882e-04 3.0464514218452835e-04 1.3374341817280859e-03 8.6590212918458143e-04 -2.8345322076606122e-04 8.9082935990246991e-05 8.6291938296359158e-04 -7.8557490366332585e-04 8.0767355635784355e-04 -9.5782024623419088e-04 -7.6106295316747882e-05 -5.2255317978287114e-05 -2.1199946255752271e-04 9.6373721480693189e-05 6.7030511123907302e-04 -1.4671301201709293e-03 1.8612508253556745e-04 -6.4190799809061942e-04 -4.3759417844303414e-04 2.0409538585902656e-03 1.1506776818606679e-04 1.6976148215989565e-03 -1.3907519712340005e-03 -6.0866834479449544e-03 -3.2710879667069084e-04 7.0825513271778780e-04 -1.6011004945814394e-04 -2.5751842926782413e-03 -2.3235084535750284e-04 -4.0890173972299090e-04 8.5217414606814394e-04 5.7435730474427252e-06 -9.1688182642379878e-06 3.4462709898638866e-04 3.5741039923425331e-03 1.4882373469320229e-04 -3.3530642106339645e-04 -9.3544408141148791e-05 1.4879763121368860e-03 -2.5309153403170895e-03 8.8684476612519575e-04 -7.3166441531348839e-04 -3.5965023278510698e-03 7.1005263011186901e-05 1.8654279158431533e-03 -1.3172588002833413e-04 -1.0734668784312916e-04 3.0148331375911197e-04 3.8383254438093212e-04 1.4193406013867488e-04 -2.3766982133401494e-04 -3.4377038113281039e-04 3.9962125626631650e-04 5.2306076434703586e-04 -4.0694253526269916e-04 -5.1182229206312986e-05 9.3735208388967713e-05 -3.9348402186215959e-04 2.3394873224112959e-04 -9.3375089087920234e-05 -1.2528850364546679e-04 1.3182203231809433e-03 -1.8827744187450740e-04 2.4117522791928690e-04 2.7284784306825551e-04 9.8926587224829575e-05 -2.7004523746015940e-04 3.1997672199480728e-05 -1.3119905363802135e-04 1.0463106305132631e-04 -1.2063037979193226e-03 6.9905818658708846e-04 -2.7489990363428404e-03 5.6326116090469908e-04 3.8496720094644194e-04 3.3407914130744419e-04 -7.9165258496456626e-04 -2.5140491830127074e-05 3.3274270229227394e-04 7.4371406249677796e-04 2.5620291402248824e-03 -8.0794717383735233e-05 -3.5631798554064398e-05 -5.1519270316273164e-04 6.3321542246655730e-04 6.3133602281174525e-05 -3.6871144010455819e-04 8.2238504708544310e-04 9.0506136431488466e-05 -4.8174513539369561e-05 5.6862414928123169e-04 3.2360557584161006e-03 -1.3874300689502330e-04 -5.5968954124406236e-05 -3.1557990963994174e-04 1.6754185089191452e-03 1.9548885259642484e-04 1.1000532691848088e-04 -1.2258469675925920e-03 -1.3087958535631186e-03 -1.1781565662779469e-03 1.8004463955676175e-03 -2.5716265417662380e-04 5.8168714398300868e-05 6.9293277468513771e-05 6.6886751221219341e-05 7.8335067460819606e-04 1.3868855779144344e-04 2.0607926697267596e-05 -9.2797703381573946e-05 -6.7071067826756183e-04 -5.2859256093905512e-05 1.4534399614979463e-04 -4.5831203009370764e-05 3.1219141140172705e-04 7.7416067910147251e-06 7.1553153867443957e-05 -5.8069478134504241e-05 -5.5670086437654723e-05 1.9328806385279890e-04 1.7393697608168322e-05 1.6787151312534698e-03 -2.9874376326350077e-04 -8.4067624768870012e-04 1.0102364888596432e-03 -1.1980837688129256e-04 -1.6997585287931920e-04 -2.4843451343098676e-04 6.2408852854984676e-05 2.7507528632690287e-03 -9.2401519054966614e-04 5.9798465776080356e-05 1.1529321461306661e-05 -5.0950446242937217e-04 -1.9124407788926397e-04 3.3481433047502718e-04 2.1821941823644761e-04 -6.6831892695483862e-04 3.0583535628392328e-04 7.8983469989156647e-04 1.0415766621491851e-03 -2.5240828340625937e-04 1.3520125939142924e-03 9.5092125033250773e-04 -5.4050267498518632e-03 -6.7489256090845192e-04 4.6393905918059274e-04 1.1955754178625266e-03 3.7305074687444782e-03 -2.9176592164099147e-03 -4.8058947455051847e-04 7.0175092583914982e-04 -9.9555944241572691e-04 8.0128582662151602e-04 -4.0325560469162205e-03 -1.8869440941507269e-03 1.3509748826089659e-02 -1.5489856110114126e-03 3.5319264033388236e-03 -3.4739825803975846e-04 -6.0790449172055776e-04 -5.4903847048772306e-04 1.4511627608642844e-04 3.0041918559459624e-04 -1.3892338370908463e-04 -2.5056686045134296e-04 2.7430681669781413e-04 1.8441988202953900e-03 -4.6692525244088843e-04 3.9862540821109953e-04 -3.0048517611219502e-05 -2.6480127447002862e-03 3.0578728983215314e-04 4.8850491859955044e-04 -6.2841024408347179e-04 1.1341099834426666e-03 -1.5361136677510682e-04 -6.2051110798620583e-04 -1.3974004659718889e-03 3.8062208529670888e-04 -7.3645018399824290e-04 -1.8172952109512404e-03 -7.7234264011864567e-04 -2.9062300156625922e-04 3.9612200612573409e-03 -1.2352114335222573e-04 -6.2193761412586198e-03 -8.9015113920587604e-04 -1.6372438065626685e-03 -1.2186736015226650e-03 3.0825040750527685e-05 1.1730644000264761e-03 -9.5621209718170183e-05 -3.1089943104379292e-03 -3.7574547063959391e-03 -2.1157647049414750e-03 -6.7419590173271274e-04 7.0342419103322316e-03 3.4607056428240038e-03 -9.9291463014733374e-04 1.9711495997243433e-03 -2.2019647574763710e-03 -5.4033786470801190e-04 -5.2861358369802299e-03 -1.5946335218874064e-03 6.9411696768250748e-03 4.3020483018765855e-03 6.3086488853448166e-03 3.3117377307761639e-04 -3.6395218280855369e-03 -5.8161228901569724e-03 -2.7395041956617349e-03 -1.2451639027193993e-03 6.5809986309137763e-03 3.4990091947358611e-03 7.1108379226163740e-03 -1.0241741023025849e-02 
      </Row>
      <Row Index="188">
        3.5099139744536006e-03 5.7426830376870255e-03 -2.0540392085506565e-04 1.3705399978757461e-03 -7.7730209498273403e-03 -1.0874901389339321e-03 5.1222145812882675e-05 -1.1031480272443023e-03 -5.3522205545282441e-03 3.6652859275184996e-04 -4.3757863352710110e-04 -3.8558727759739750e-04 -3.6803128675311552e-03 -2.6297824504332001e-03 -3.5437752040944417e-05 -3.3535995059279025e-03 -1.1175590791599743e-04 -2.1587974459510249e-03 4.4367247971137010e-03 5.3138479206013833e-03 -3.3635003666005435e-03 9.9713091511111074e-04 6.3854617137417812e-04 6.7141352495566353e-03 -9.4152567471042503e-04 1.9023044156842099e-04 1.9031858828751254e-03 9.4870391534411340e-03 1.0839523976251680e-03 1.3267368442573899e-03 7.4926899498781174e-04 -1.1905578875142308e-02 1.0088086583952592e-03 6.6927788891414219e-04 2.0899375645452856e-03 5.1916559220375352e-04 -5.2426722635908578e-03 -1.3016602328150863e-03 3.7538210388228781e-04 1.2404204449240619e-03 -3.9161643912427602e-04 4.4433448877451848e-04 -2.6364511851273420e-04 -5.2624065466465655e-04 -3.5793496899439933e-04 2.8963373964350156e-03 2.9911885396824572e-03 -1.1381993593786131e-03 -1.4840237282755242e-04 -2.5931716029992564e-03 -4.8248925463147338e-03 -1.8170123234723355e-03 7.8770496908192600e-04 -4.5324428812278531e-03 -4.7631649072919779e-04 -3.7975546022656283e-03 -2.9597413853267845e-03 -1.4478441607685133e-03 7.1124041983491385e-03 -1.3524909641573005e-04 1.8444605460075959e-03 -3.9885393052828044e-03 3.4569043095722396e-04 -1.7462786396271746e-04 -8.1636303980159308e-04 2.0668171277289024e-03 1.4373593585012903e-04 -1.3020518387143395e-03 -3.7056649882218256e-03 -1.5981937531308332e-03 2.2370471143592216e-03 5.1368617521764526e-04 -4.4326057473143693e-04 -8.1063179925161717e-04 -1.0389154890754013e-04 -3.7398842868414002e-03 5.6748220808475885e-04 -2.9966963599520335e-04 1.9721615821518147e-03 -4.2263017779601078e-04 2.3025217745557608e-03 7.4246989632740156e-05 -1.2474142364831773e-03 6.3750301351747640e-04 3.9040045018821357e-03 -9.4757968944113313e-05 8.0165962762779840e-04 -9.8836525837969931e-04 -1.2573815059863862e-03 8.2134378939536547e-04 1.2778029915250580e-05 -7.2444781000929187e-04 -2.4692434537849223e-04 -1.1803503586654846e-03 -2.3021493807212721e-04 -3.4708085931033118e-03 -1.7360548876448403e-04 -1.0285899030941144e-03 1.7434759838843954e-04 3.7327162682530904e-03 -4.3715379442611736e-04 -3.5864478830546207e-03 -7.3152968492622497e-04 -2.7726716701587800e-03 1.4540004427540821e-03 -7.7173566613096913e-04 -8.8710100724792313e-04 3.4920648997356263e-03 -6.5540866682348934e-05 -7.0570927466781161e-05 1.5966277904856715e-03 4.1111154986035389e-04 1.9489850496568167e-03 6.0079787283059483e-04 -9.6174511147755198e-04 -1.2533937092433951e-03 1.9456564585337843e-03 -1.8411817276016000e-03 6.4306356307250283e-03 2.9564869311577867e-04 2.3960808096494285e-04 8.5286742194507327e-04 2.1683292579166968e-02 1.0075311680964863e-03 2.3289348116738921e-03 -5.5387149750791686e-04 -6.8640589265429510e-03 4.4800343367484875e-03 3.5965837599716288e-04 -2.0033534821542118e-03 -8.1107527178199011e-04 -1.1828554012754060e-02 -3.9987243442132113e-03 -3.0467099329463312e-04 -4.6370778492566250e-04 -4.4597087751218159e-04 2.7591902786172954e-05 -2.8275083180048116e-04 9.3150026906363870e-05 7.3708093764807475e-05 -7.4890937274505105e-04 1.4607905485151842e-03 -1.9736019455678794e-04 8.8521169900544658e-05 7.6580979539706023e-05 3.1734492511455398e-06 2.3489140748725313e-04 -9.4255935080998429e-05 4.5890635782265370e-04 1.4062855184666074e-04 -3.4919594336350174e-04 3.4708349068004367e-04 -4.9909427920889395e-03 -1.2423209770388126e-03 1.7881337350807939e-03 -1.5658058021552528e-04 -1.7810643936386544e-03 -1.8567993069668314e-04 7.9635967892299937e-05 9.0607085045341790e-04 3.5741579130076639e-03 -2.7142939511578396e-04 1.6125734497830384e-04 -1.3317976507802457e-04 4.2029202960562530e-03 3.3482479270774213e-03 -2.2385788523336886e-05 5.4178357055200046e-03 5.5340016430809199e-04 -2.4984196806870584e-03 -2.7091983378231209e-03 1.1177568286437442e-02 2.7827287135872014e-03 9.9631827071200996e-03 -2.8247349616606805e-03 8.8994684244089149e-03 8.3913443495486212e-04 -1.2324541850733048e-03 9.7656226610966929e-04 -1.0789971812217601e-02 -2.2366107040900952e-03 1.5087962000615964e-03 -1.4750527083293597e-03 -3.4963960386085930e-03 1.6754900785452139e-03 2.6824791363247262e-04 -5.2748361239855629e-03 -1.5489856110112330e-03 2.5425529924158516e-02 5.1146693752321566e-04 4.2402788256575702e-04 2.3292596058855802e-03 5.3012552296452888e-05 -6.0682866369683210e-04 -4.8451333618955509e-04 1.3743840983983029e-04 -3.8691024067696877e-04 -5.7308531248574581e-04 1.2229242107326872e-03 7.1589429465773182e-04 -2.1549223229330451e-04 -4.9769227139910620e-04 1.7609843410659326e-03 2.2234430096600105e-03 -3.8855863520245211e-05 -2.3523882639669832e-03 -4.0362677902371134e-04 -1.3272621082152105e-04 1.4531142594236667e-03 1.1250782871963150e-02 1.1726975314841678e-03 4.1676999270673816e-03 -2.1448037566525560e-03 -8.3201719728768254e-03 1.6348713045594536e-03 1.1601485881916862e-02 2.5596938646332721e-03 2.0935046380383127e-02 -1.3548735705295810e-03 1.2396828045295122e-03 2.6047116534844567e-03 -2.2664433424288873e-02 -4.1908923473389951e-03 4.3211662320428892e-04 -1.7263191104744429e-02 -4.0467743073187446e-03 -1.5526677887458857e-02 4.3970884553326990e-03 -1.5453558161443172e-02 -8.5042840488262737e-03 4.0295395705343927e-04 -2.4442944876021623e-03 -5.0321094163054900e-03 4.6411192331499967e-03 -1.4848347104289346e-02 1.7942545762356099e-04 1.7910268122215210e-02 3.6140649520439677e-03 3.9808534777572872e-03 -1.4855158417937853e-02 -3.2788883082917962e-02 1.8199457606865505e-02 -2.2226719814170716e-03 -1.1731228676234448e-02 2.5465554447673053e-03 2.3354763463727713e-02 -1.6340521655465314e-02 2.9010796209916000e-02 
      </Row>
      <Row Index="189">
        1.4971184654648075e-03 -2.1448385751302729e-03 -1.0950353342501218e-03 1.3542203372636803e-03 -7.5388113491175919e-03 -3.7171651484154003e-03 2.7355847108967782e-05 1.2648320330191157e-03 7.2374796688296945e-03 -3.0780195598236176e-03 6.0783174130691724e-03 -4.9277181231225774e-04 6.1004922869001407e-06 1.1471258205144729e-03 -3.9393624792138232e-04 4.3721045804769390e-04 -2.1407617059229934e-03 1.7178436241838679e-03 9.0756180211772220e-03 -1.7970498101734910e-03 2.0083910446331843e-03 -1.6396607554970827e-03 5.5636054274561721e-04 5.9439847611895691e-03 -2.5169357508712745e-03 -3.3457187463351723e-04 -7.0955636322375323e-04 -2.1501612292785278e-03 -3.2257775370010868e-03 4.6310778122494595e-03 2.5957731826348890e-04 1.6562960266776291e-03 -1.1467380613499763e-03 -1.0711801733418692e-03 -1.2368194345126482e-03 1.1445981196126981e-03 -3.8256529800299536e-03 -8.3412015176968640e-03 -1.1100376346797301e-04 -8.5924984843302465e-04 -3.9634795834035674e-03 2.0438774551826133e-03 1.7557008188056944e-02 -2.8158714121862688e-04 -2.2264474347196903e-04 -1.4935674674088767e-04 -4.4044061576823876e-03 1.6108614448863204e-03 7.7131924710701488e-04 -2.5799300087895466e-04 3.3050125064596758e-03 -2.9989351595274757e-03 -3.0428015723631373e-03 -1.0986261592348060e-03 -5.1698462356300906e-03 9.9881439932392353e-04 -1.7384689905977361e-02 -2.3823050563913928e-03 -3.3071457160930642e-03 1.7428396712763222e-05 -9.5371382949686369e-04 6.8375304804034389e-03 1.2974815555334696e-04 -1.0330221898560976e-03 1.1040259099831806e-03 -1.6568264298413016e-03 -1.7065124075317517e-04 -1.6837490807895469e-04 -1.1998065673739177e-03 4.4526626990765220e-03 6.5527075281467170e-03 -1.8551402823866608e-03 -1.5893686224503489e-03 -3.7559590488987684e-03 2.6797295888766805e-03 -1.8683747480051281e-02 -6.1609546055806791e-04 -3.9761464573982719e-05 -1.7598659205265814e-04 7.1528316633879966e-04 -5.1329056359147411e-03 -8.8292594491745646e-04 -6.4586660321002136e-04 3.8237472234546599e-04 8.4707776538577029e-04 -1.4499661218380436e-03 3.6924192700002901e-05 -6.2831335692254547e-05 1.6350294373711836e-03 2.2415191714684601e-04 1.9282144650078267e-04 -1.3982683494314502e-04 1.2303790194472843e-04 -6.1315647668320518e-04 1.5185449744291096e-04 1.5773200116762850e-03 -4.6758099413869367e-04 2.5749072098868778e-04 -2.7194655274154125e-04 1.7186355040839804e-02 3.1396352660779253e-04 -1.4352414875922971e-03 9.8582070729147028e-04 -1.5693250378546880e-03 -2.8171475468524027e-04 -4.1851861479858779e-04 -3.1563599121811159e-05 -1.2999062072370350e-03 3.3679813482798701e-04 -3.5515710324114831e-04 -1.3400112121839981e-04 1.1884989550874324e-03 -7.5893612471924403e-04 4.5576233318617779e-03 -2.5077692939959447e-03 -2.0366103407343326e-04 4.9932015116136742e-04 2.7128238887869430e-04 -9.6382838075806977e-03 9.9472617841158111e-04 -2.4141442073209805e-04 -3.2671282391140075e-04 -1.9121780920549614e-03 -2.2804467790859882e-03 -6.5939070485739569e-04 3.9449358013185997e-04 2.9668653605887277e-03 -1.7669270144393921e-03 4.5325549266225047e-04 -5.7897525253794435e-04 3.7996395548076328e-04 -2.9501345485923513e-03 -1.9813834111423782e-02 -4.2373269067482312e-04 -2.8211747894047660e-04 1.5277640763773485e-05 2.9203885733229787e-04 8.1871657770005233e-04 4.0989144990344502e-05 2.4049356910897199e-05 2.0131864495527411e-04 -6.5628562855644555e-05 1.7191175809664130e-04 -3.8697082705477096e-05 9.2821228163703586e-06 1.2736561996772906e-04 4.9788152147444472e-04 1.2685089967425509e-04 -9.5942433238495437e-05 -6.6008001429201018e-05 1.6259001979498119e-04 3.4799951185699818e-04 -1.4353725044532143e-03 3.7664037583368462e-04 -1.6673433328775016e-03 9.0473770838183634e-04 -4.2879080018516690e-03 -9.1621777167305183e-04 -4.0268482675090010e-04 2.0505250295074339e-04 1.6323437930809530e-03 9.4484119838135656e-04 5.3704659257622443e-04 6.3261579984878486e-06 1.2017712648248391e-03 1.9999476218298985e-03 1.5286291337970838e-04 5.4890583279393161e-04 4.3387981121959505e-04 6.0224604784085863e-04 -8.4538623420677157e-03 -4.7065029933895247e-03 -2.9228658792969237e-03 4.2038777893209922e-03 -1.9019774018019450e-04 -2.1730899207324125e-02 3.2193395584522756e-04 -3.3895202760265974e-04 -7.7763101428825893e-04 2.0430296351630975e-03 -1.6799232319814686e-03 -1.0450119332886809e-03 -1.1754578614162764e-06 1.7161374425209612e-03 -4.4075924007656976e-03 5.7980710959684646e-04 3.7866173672272685e-04 3.5319264033389563e-03 5.1146693752197913e-04 2.1818826289344073e-02 5.3565285596416518e-04 -1.7775889186227578e-03 -1.7450756897266929e-04 -9.4159624722364851e-04 8.0011449817794476e-03 -5.8402911728094810e-04 -1.3490343480234026e-04 6.8328109846096222e-05 1.2179347301096884e-03 3.6344517926131291e-03 -1.5962623754081050e-03 -3.1332452944496305e-04 -7.4796030634293267e-04 4.6802047450104980e-03 -7.6030902840264788e-04 -5.2017285212844339e-04 4.1908601261714647e-04 -4.0770287416818030e-04 1.0209310650539751e-02 6.9596891536938491e-03 -3.7748410857388779e-03 -1.8706755200877717e-03 -2.7806513689529800e-03 -9.3955172113914104e-03 3.8016014283804435e-03 6.1780949031288515e-03 -3.7559543849159703e-03 -3.2047659765298813e-03 6.5465152651299208e-03 9.8519134044914389e-03 1.2095043669969538e-04 1.9813693980424226e-03 2.6516841285280086e-03 -1.4808603265815908e-03 1.2232726400426830e-05 -5.2947550757257572e-03 -1.4283775684414673e-03 1.0450309923610219e-02 1.0685434352656386e-03 7.8895930316272844e-03 -5.3462956421361212e-03 4.4532537274034195e-03 -3.0493866663165236e-02 1.2245881517474636e-02 -3.2382966624765214e-03 -1.3055553075881077e-03 1.0090864406814760e-02 -1.1807118093941690e-02 -3.0001918838475444e-02 -5.4823143689570284e-03 7.0230441051608852e-03 2.4002626991425732e-02 4.6982688290675544e-03 4.0346122831518734e-03 7.0344423924430435e-03 1.5392640942421376e-02 -7.6244003917247463e-02 2.7994457331809951e-02 
      </Row>
      <Row Index="190">
        2.0957732190080857e-02 -1.3394131598475356e-03 3.3741195358322207e-03 3.0460345312045174e-03 -1.3759332574653879e-02 -2.2433771926227558e-03 -2.2337188706943178e-04 3.3417340737304596e-02 -4.3529881413657476e-03 -1.9893129644829571e-03 4.8698844307675376e-03 3.3899837870458339e-04 -1.2078562126451422e-04 3.3493511105020871e-04 -3.9702033605281545e-04 -8.2233550608566686e-04 5.1366254146397285e-04 -1.3817541144985346e-03 4.9925068593465113e-03 2.3905858884069316e-02 4.3176145220285567e-03 -2.3456833023793866e-03 -5.3986125630934960e-04 6.6645939995695902e-03 -4.6165337928577577e-04 1.1998303890258979e-03 -8.7428216787623636e-03 -9.4364970765107997e-03 -1.0217252387526021e-04 5.0615796015840153e-03 3.3918683273066186e-03 4.2793998729580632e-03 -4.3121104436552506e-04 -2.4961732534636120e-03 3.4616489644438420e-03 -1.4167818816706538e-03 -7.4003345046664004e-03 2.3773500536429376e-03 3.0157724600556150e-02 -2.8492333314145135e-05 -2.9209316933265783e-03 5.7549634388170956e-04 1.8648808067517120e-02 4.8642877660569350e-04 8.4294780932646363e-04 -1.9294866774012293e-02 2.9712703426715281e-04 -1.5681035946336630e-03 1.4559308657898090e-03 -1.2811336047131444e-03 -8.9579945497504643e-04 3.4374215261843144e-03 -8.3638273096162952e-03 1.6225983506300175e-03 -2.5480011473759112e-03 -5.4350086245245300e-03 3.2052997575534106e-03 3.2912294506590833e-02 -2.0661706664755813e-03 1.7318110156838984e-03 -2.7188797201650461e-03 -8.4893794963951386e-05 1.6032286982403665e-04 -4.7083383194207462e-04 2.5145282653522893e-02 1.0376987030858487e-02 -2.3583096322599140e-04 4.8570621857239871e-04 -3.9379350535635339e-03 1.1842989870697457e-03 -6.5645226081824173e-03 -5.7547534548838541e-03 8.8657373685793739e-04 -1.2955974423790075e-03 -3.6397710731201488e-03 -3.1549919900687173e-03 3.4734310307663885e-03 1.8962688454133014e-03 -1.6451940303200963e-03 1.7337670183445704e-03 -2.8984512499768897e-03 -9.7000443736390942e-04 -1.5184814039872164e-03 -2.8129109503129968e-03 1.1398764533869232e-03 -1.0139991779817559e-03 3.3981983950352387e-04 -5.7322600158362866e-04 8.6830054447177216e-05 -8.0301826865038228e-04 -3.1712907877117728e-04 -1.6559672286819288e-04 -5.2066212657001128e-04 -5.8598329655042483e-04 1.1565502319231882e-04 -9.3538405779501621e-04 1.4052800530309981e-03 -1.4923457010281548e-03 2.1115837586177869e-04 9.3274233970017939e-03 -9.1269012514453782e-04 -4.2966499313183380e-03 -4.9483760494552220e-05 -1.3482195261503294e-03 -4.1945661666441605e-04 -1.8042451501099855e-03 -1.0825410132334025e-03 -1.0871614160263784e-03 1.2455808023825576e-03 -1.4701186830874862e-03 -3.1021532605939942e-03 7.4629609903316754e-04 5.7337069077973389e-04 -4.3075548685683751e-04 2.0739821241784973e-02 -3.1259519618481030e-04 -5.1621410578713001e-04 -1.8424850658341754e-03 -1.3323416994768492e-03 1.8769047506176119e-03 2.8853700692865530e-04 -1.8944963543163912e-03 -4.3801616865087045e-03 -2.2413514927873456e-03 1.1829647916703286e-03 1.1091281483348531e-03 -5.0358292668336050e-03 -7.2744778795154688e-04 1.3394157816520994e-03 4.5564004530116997e-03 -1.0577522833483347e-03 -4.6429851811871691e-03 -3.2959943702406350e-04 -8.4767586469558683e-04 -1.3978423590606083e-03 -2.0718152890330382e-04 1.8860492286871638e-04 1.0155343389214259e-04 2.0377842987321163e-04 -1.3116334363537168e-04 -6.2229247544511382e-04 1.2608498972825114e-03 1.8109689914244317e-04 6.6404153902108231e-05 -2.5235728003551196e-04 -2.3001082839871822e-04 -2.2431925478076198e-04 -1.3767597054944113e-04 -1.2599302753136176e-04 2.0088196707600530e-04 -2.4830385778862622e-04 7.9335030637298944e-05 -2.6222297228254133e-02 1.2389568908338158e-03 -8.6830944740878477e-04 3.3888309293851251e-03 1.7739061999749901e-03 -4.9239421137219595e-04 -9.7982008215232678e-04 -1.2766208332928205e-02 5.3415337492417614e-03 1.2104471724322585e-03 1.1709433222333464e-03 -1.3765632921789129e-03 2.1561791016699410e-03 -3.8682917325509724e-03 -1.7365243545691541e-03 -6.5041202439023588e-04 -3.2267186802335856e-04 4.8881443984671921e-03 -6.2222036810123602e-03 -7.5193584620805720e-04 -8.7083448947666842e-04 5.5628638088334181e-04 3.2443725460572920e-04 6.8163461874528805e-04 -6.6234594801014082e-04 3.0514883389584635e-04 -6.2153132245084675e-03 6.2775610531783377e-03 1.2843021335318047e-03 -1.9026463779831023e-03 6.2996084276865927e-05 8.5886763660084995e-03 8.5174621902590984e-04 -2.0059306298851593e-04 -1.4808795278698494e-03 -3.4739825803887289e-04 4.2402788256923904e-04 5.3565285597104856e-04 7.1034189357462224e-02 -4.7160469457519436e-03 -1.1642058683867158e-02 7.7701535568639925e-03 -1.4043032636239936e-02 -3.9954161923121895e-03 -5.7907622484380632e-04 -7.3222781994148646e-03 2.1998105569154814e-02 1.8221197330459107e-03 -2.7091743370694973e-03 -2.5920057534939774e-03 5.5888887796556206e-03 8.9097903301507415e-04 1.6668989178421519e-04 -1.6274540466851742e-02 1.0338657392609831e-03 6.8953936910586648e-03 -1.2502849307067026e-03 1.3652589568169435e-01 -1.5142842232493292e-02 -2.9298545837426859e-02 7.8321840287307529e-03 -7.2981561953056537e-02 -3.6145776024825351e-03 1.4440403725876710e-02 -2.8826586959249244e-02 2.7698512813510059e-02 -4.6548367096587683e-03 3.5951168895112873e-03 2.8577754432600492e-03 2.7282302020715200e-03 1.8466227678026189e-02 4.9209910362473649e-03 -2.1530838211295783e-02 2.1779681922477166e-03 -7.8820660469291152e-03 1.4509319951169518e-02 -8.9103754255185227e-02 -4.7481474723926054e-04 -8.7728651659365227e-03 1.1883560644356382e-02 -2.5806377177152631e-02 8.3245434561572441e-03 -2.0594407746313406e-02 6.2123621792062100e-02 1.3091374124851968e-02 -1.3004775310002893e-03 -3.0738778600183130e-02 -2.2191130430616851e-02 2.6798179369034086e-02 -3.5872126479019009e-02 1.4469749665008965e-02 -1.8436943867077143e-03 1.1635788344525125e-03 1.0718181241796281e-02 -1.3393226134778675e-02 1.0200955022133026e-01 
      </Row>
      <Row Index="191">
        -3.6447791905540863e-03 2.9761896662424175e-01 1.5201107291834288e-02 1.6357011118174249e-03 5.2751014030675246e-03 6.7536436288320907e-03 6.4938817285602277e-04 1.0619456135765383e-01 2.2485342041270083e-02 1.4837619271915626e-03 -2.1053151975395723e-04 -1.1423519530687111e-02 -8.4839279560832738e-04 2.3400115939473543e-05 -1.7727585939705305e-03 -4.3933401879016551e-03 1.7147151365714311e-03 -2.0947116234381665e-03 4.8378187727543855e-03 -1.2560413000264458e-03 -1.8777765080463746e-01 -4.8603093725008012e-03 -4.9528942480344187e-04 -2.4012106948022582e-03 3.4167630754371649e-03 2.9765139773205997e-04 7.9445420511534397e-03 -1.6475782924541618e-02 4.0556604169809688e-03 -5.2970865650191238e-03 -9.9523898208370501e-03 4.7764742631250753e-04 5.8725296143471821e-03 1.5134227544796159e-03 1.1754792395328104e-03 4.3032625152669896e-05 1.6077660476095431e-03 -3.8572026621765728e-03 -3.6220773119110192e-03 2.9553603527095323e-02 1.8989858756775849e-02 -1.7017470223348423e-03 -2.1506972804688704e-03 6.2044399752669115e-03 -2.0104793204542004e-03 -8.3871687013228932e-02 4.7169280666737423e-02 -6.6877996059916192e-03 4.5418439822654914e-03 2.4833858469443307e-02 4.5437892243050879e-04 -1.1718367618134455e-02 4.7574299815709986e-03 -2.8685211308439348e-03 3.3817530110762800e-04 -3.0539951407469734e-05 -3.6220919021480256e-03 -7.4694196056883516e-03 3.7619784395956046e-01 1.6024563342269531e-02 6.7309388983627962e-03 1.2631622689479547e-02 2.7060069457387984e-03 3.6256843078604634e-04 6.1324313760987501e-02 9.4164632294738260e-02 -2.4900008841066395e-03 5.0709651714659050e-03 3.3764457354056782e-02 -4.0053213264644102e-04 2.2045871235902193e-03 2.6175843097933985e-03 -2.3075541959092574e-03 1.9459872573442715e-03 -8.3350401144459858e-03 3.5438774601518602e-03 6.4714403521500680e-04 1.5450678472371845e-02 3.4638168301497846e-03 -8.5617177719550823e-04 1.2049079592365555e-03 2.2035962253403258e-03 -3.5482937960302692e-03 -2.9667383381250939e-03 3.6020471150272140e-03 8.1536782131885754e-04 9.3199601837055100e-04 5.4461244636275956e-03 1.3739629165438779e-04 2.1578989762839969e-03 1.7365958982207004e-04 -2.0254761219645374e-03 1.1134815071920478e-03 -1.0866843277833800e-03 8.1236265882461169e-05 9.3041682997423159e-04 3.5910147955051076e-02 1.0099678109718060e-02 -3.1988548128744848e-04 5.1688610328146124e-03 -5.5267558137687078e-04 -1.1505202596250626e-02 -1.1737193828090227e-02 6.2678600687762598e-02 1.9565585296675630e-03 2.9352536179646643e-03 6.7183729185651001e-03 3.5385427281306567e-04 -4.2494122141873113e-03 -1.5057407676748664e-03 3.2474827841031165e-03 -4.4833036586227129e-04 -5.2179450822942442e-03 -1.6902191464656909e-04 -1.1768998286258811e-02 -6.8191235065471817e-03 2.7221807979754264e-03 5.7828855473873969e-04 -5.7851893795246674e-03 -1.8435595459359172e-03 2.2295639832585288e-03 2.6805816014817612e-02 -2.3427731864008063e-02 -5.4070308073013214e-03 1.3479840885924891e-04 -6.1454983166613431e-03 -2.7433200271735105e-03 2.0101184187761591e-03 4.0171717868628170e-04 -5.1144742444406317e-03 1.2359361369657096e-04 -1.1123607952427316e-02 -3.8832096671502841e-03 -5.8603773009320700e-04 2.2502068199199165e-03 8.3763099858032131e-04 -1.1079061457353624e-03 -4.2069688616728498e-04 3.4626518666662953e-04 -2.7525634677753191e-04 1.9443811069957849e-03 -2.8622583426213922e-04 1.0813025137406936e-04 1.9876989077308388e-04 5.2416769668374116e-04 -3.9558154413502880e-04 7.1984831943502740e-04 -3.9887908302023607e-04 3.7546807581962668e-04 2.2351823048613167e-05 -6.6748031290365961e-05 -8.1441262381965699e-04 8.6978870505024855e-03 1.2265639597388498e-02 1.0578303866356713e-02 5.9650710037732649e-04 -6.7576964228329064e-03 2.8201742924441600e-03 1.6611553755529456e-03 -8.6052882461057731e-02 -3.0267018700056610e-03 -5.3246485653586978e-03 7.2091971264999152e-04 3.1810586721171341e-03 -3.1533868516710256e-03 6.5875763712016002e-03 3.1696023331325546e-04 1.8853955441039804e-03 -1.0478587310382298e-03 -2.9470379861291380e-03 2.7087901403542599e-03 -5.1458924972265611e-03 -5.3250758432337508e-02 -5.1671357260196296e-03 -7.7693995188924357e-04 1.5247857016104662e-03 -4.3253304787282780e-04 -1.1357108316336992e-03 -1.4745093628510411e-02 3.5109589844788368e-03 1.1190125765790579e-03 6.4352749098538524e-04 -2.1041687489132899e-03 1.6619353495426418e-03 3.0953019913102658e-04 -1.0918414730853927e-04 3.4394564624067661e-03 -6.0790449172102787e-04 2.3292596058791183e-03 -1.7775889186276497e-03 -4.7160469457449943e-03 2.1976989600660413e-01 2.1857426058989951e-04 1.0426903206544463e-03 -9.3474290494160034e-03 -7.1671289293863578e-04 -1.2290735672587632e-03 7.6230457111296765e-02 -6.0751283529053290e-03 -3.0458597833918615e-03 -8.3036430060165955e-04 8.1449529417491461e-03 -5.9753321325013134e-04 1.2317152674106286e-02 2.2535105522141045e-03 -5.6633616094670502e-03 -1.7867849026195980e-03 -2.6875360157246025e-03 1.4254145117203231e-03 -1.7893843567694544e-02 1.3500228985370893e-01 -7.1717451036343721e-03 1.1241647039859842e-02 -1.2247980209243396e-02 -4.4500545289637393e-03 3.8527893759040789e-02 1.1803364862359086e-01 8.7525161516227579e-03 -1.8035819779302721e-02 -7.8455388251888053e-03 -5.2120125370814271e-02 -2.0851511891718131e-03 9.6526095688648506e-03 5.6121321062856996e-03 -3.0304353743466364e-02 3.5409102515559903e-05 -1.3720735282866280e-02 1.2116959710557675e-04 7.5311902202757783e-02 -5.5683528719245090e-01 2.8321656494003505e-02 -9.2717831128611341e-03 -5.7883076866500731e-03 -2.8677411736414814e-02 -4.0491987801751651e-02 3.2853254960317935e-01 -9.0456656015542564e-02 3.3894982123333514e-02 1.7424361342693824e-02 1.6686027268160619e-01 1.1500193858226520e-03 5.9208714880069568e-02 -3.4993224438113046e-03 -1.3802806638328821e-02 -1.3490463510877973e-03 2.7368593291689627e-02 -1.1694680087283651e-02 1.4686627729491242e-02 
      </Row>
      <Row Index="192">
        2.8633834866338657e-03 1.4459799134351331e-02 3.2259389792838170e-02 3.4504395405230131e-03 -1.6640823619695197e-02 -1.0953321852781896e-03 4.1748817813812289e-04 -9.3964731040501459e-03 2.1904972091336961e-04 -7.4467724299562830e-04 5.6169773474065970e-04 1.0662064586069889e-03 -2.1266236836832257e-04 3.0150611444470111e-03 8.7907839257111379e-04 1.2999296278945749e-03 -7.0868781935897970e-04 3.0424002651426030e-04 -3.1176944749338907e-04 4.5747561292750413e-03 8.4827865207971753e-04 -4.9650782522937059e-02 -3.7740942907369514e-03 -3.0223400252597510e-03 -1.9400391785918472e-03 3.8206110528329982e-04 -9.6566111729200384e-03 -1.3000964094396661e-02 -6.0099904942143706e-03 -1.6814530559750712e-04 4.9529913538041981e-04 -7.8278199617168916e-04 1.3258365867858894e-03 2.1918980705580050e-04 -4.3125599609250831e-03 2.6184246054397273e-03 -3.4183405341736001e-05 -3.5138674236512082e-03 5.6216630127294033e-03 1.1993832878257449e-02 -5.3049232615894226e-02 -7.3449841754625877e-03 1.1289502258393785e-02 -8.8472328371825421e-04 6.5287420587638312e-05 1.9099080383323599e-03 1.1793262767315210e-03 -1.5890190971709489e-03 1.4865953483932451e-03 -3.7249410600891097e-04 -1.3986441303331584e-03 -4.3632063349770961e-04 3.9191987814497578e-03 7.1661717004621681e-04 -2.6208254370040096e-03 5.3555855237969402e-03 -3.1395170848155379e-03 3.6289060536456863e-03 1.8490204600558970e-02 3.6988079306753532e-02 4.1597012001256956e-03 3.3652311252301351e-02 9.1271361164302345e-04 -4.3486256255262368e-04 -9.0884219822082724e-03 2.4231245797519008e-02 3.7308558474974732e-03 -4.4613933468383785e-04 -1.1483305891395786e-03 1.3099315820184337e-03 -8.2172625477014288e-03 3.9261753303504454e-03 -1.4401880568654102e-04 -4.9524713315059997e-03 -2.3563593616594564e-03 3.4239385962634358e-03 5.6732403027850986e-05 2.4407281648738607e-03 -4.1933562113482641e-03 -1.2824852904441486e-03 -6.0319684467901643e-03 -2.2708534473430092e-04 -8.7838500286187521e-04 7.2340617958929765e-04 -6.7042781466250811e-03 -1.7970234284353653e-03 6.7731409056967420e-04 1.5229862985002666e-04 1.9710122076963877e-04 -7.1502065002993116e-04 -1.8659302474420764e-04 -8.6495028669863507e-04 1.1197978647417535e-03 4.6463950004325440e-04 -1.4401916021842837e-04 -1.8740532288816641e-03 -7.1804804540696876e-04 4.3707982111770996e-03 -1.2182859731425695e-03 1.2042019576543467e-02 7.6155595772802939e-04 -2.7020585738708781e-03 8.8620658034853014e-04 5.8453991786291959e-03 -1.3458661736880512e-03 5.9119366674945020e-05 -8.0785244560940361e-04 5.4688384174374596e-04 -1.7949792101503072e-03 1.4555406982628494e-04 1.2823107692468850e-03 2.6287163473293074e-04 -9.1271596817835317e-04 -3.0734765154008937e-03 4.6756396649417949e-03 3.6978313540461799e-03 -9.7611017429060608e-03 8.6128791631796462e-04 1.2321720202667587e-02 -5.4031613081757628e-04 -3.4953761940924311e-06 -5.6251668780039898e-03 1.6085258205995323e-03 1.5027056228796424e-03 -4.2450793094593662e-04 -1.0677393269752735e-03 -5.3355389368956721e-04 -3.9931703716298908e-03 -3.3388809745101456e-04 -1.8287762418778830e-03 -8.2645755766064428e-04 -7.6949919348834623e-03 2.4993861586012928e-03 4.6168546066556893e-04 -5.4183106498310049e-04 -2.1610600032021974e-04 4.0756474470687886e-04 -1.8998551329306316e-04 -1.1240938410783143e-04 2.4706945689892314e-04 -2.0196604549678151e-04 3.6933963165484106e-04 -7.5663551862669657e-04 1.7335650206207036e-04 1.6439954147000785e-04 9.1872967304169060e-05 3.0466599466002554e-04 7.7436435073722067e-05 5.5690263019107095e-06 -5.8946646841649567e-05 -7.6308756666404205e-05 4.4056510770619224e-04 -7.9114217382970572e-04 -2.5343314138822522e-03 -2.4436279671178680e-02 -1.1136516901018726e-03 1.6670924092052064e-03 5.1449221373312762e-04 3.9391119213260783e-04 3.9958892686840350e-03 -3.4851026729764978e-03 4.3838695262444745e-04 1.4487195885452269e-03 -5.0046976499533956e-04 -1.9700748702348690e-03 -2.6163181109804864e-03 -3.5050102048826953e-04 -1.9037596988861968e-03 2.3943435590840579e-04 2.6552905431786668e-03 1.7824065299438543e-03 -2.0327767509941558e-03 -4.1237906053929185e-03 5.2080818895789138e-03 -4.1006090870641249e-04 -2.1170916898855347e-03 4.4882540701923768e-06 -5.2182262861705242e-04 4.0990572087399868e-03 2.0130056610101060e-03 -2.3953352748525697e-04 2.6585683518062439e-05 1.5758582839459426e-04 -2.1980493175002185e-04 4.3458687806673135e-04 6.1019743464054961e-04 1.3657492948880023e-03 -5.4903847048840167e-04 5.3012552298814389e-05 -1.7450756896869590e-04 -1.1642058683860285e-02 2.1857426059146076e-04 6.4073694745812912e-02 -1.2138716676780405e-02 -2.2366468617243854e-02 7.4890248344084841e-04 -8.4827700931287180e-04 1.3212522779964885e-02 -2.0570571382248267e-02 -6.6832738992587829e-03 3.0726651598494397e-03 -1.5153945036509081e-03 -4.5585342937302367e-05 -2.7585087518114540e-03 -6.0094836796351287e-04 4.6726541295456442e-03 7.9252826702220168e-04 1.0683645071971505e-02 3.4910060115123775e-03 -2.8665732105051300e-02 -7.5557998225964564e-03 1.2406890768623562e-01 -1.9396284404814283e-02 -7.3624853385962641e-02 -4.0386959964670063e-04 7.0178183537386654e-03 4.3881938506310350e-02 -3.9388085850820806e-02 -3.2026841295747944e-03 5.3716770962126143e-03 -6.8044586543428327e-04 1.5191875783143692e-03 -1.7258431423331920e-03 2.0772532760173395e-03 9.7520013166413622e-03 -5.0084201988558437e-03 9.5424218577353868e-03 1.8293445747125561e-02 -1.1156413110043444e-03 -1.6436177261747009e-02 -8.4031425264089271e-02 -3.7443458638207056e-03 -2.9799380886657741e-02 2.9978597778485497e-03 -1.0110212369581050e-02 -1.5499900233902852e-02 -6.8097678078756965e-03 -8.1237665075156104e-03 5.0530619266779845e-03 -3.0189508313437866e-04 -7.9397390957881668e-05 -1.4971107983722479e-02 -7.3154629379560288e-03 4.3912642447280180e-03 4.6689553633142821e-03 2.2359289768672349e-02 9.2964658969675873e-03 5.6291845596952016e-02 
      </Row>
      <Row Index="193">
        -6.2036558915680667e-04 5.0255229266913531e-05 4.1584267245834243e-03 4.0549516569836231e-03 1.3921593176094236e-03 -2.1375461588751684e-03 2.1751806768061837e-04 -8.8979060370628013e-03 -4.9217645094062294e-03 -6.0083923836722053e-04 3.9177626439709898e-04 -5.0402355180861544e-04 -4.0181717501015313e-04 6.1612508350990811e-04 -9.4384385448133008e-04 2.2293421527481289e-03 1.1572070905818211e-03 9.1483830467427914e-04 -2.7700707753525811e-03 -2.5719840278955707e-04 1.1946971005750238e-03 -1.4834371677941126e-03 -3.2115198285929836e-03 2.1064306725373447e-03 -1.2379274761781570e-03 1.7109219507042205e-04 -1.8534982921471965e-03 -8.6776205032131244e-04 1.5770521489207648e-03 -6.0094041397821055e-05 -4.6811016609311917e-05 -2.6221206922368359e-04 2.0906282849210769e-03 -4.6416612830542771e-04 -4.9558873885292773e-03 -5.3900262598811639e-04 2.5585719365091297e-04 1.4602097837700442e-03 -1.6770689701095991e-03 1.1328349978775021e-03 1.3908950972947587e-04 1.7472235830840940e-03 7.9499262191875045e-03 1.3054643046261222e-04 -4.7003614520870277e-05 2.5775248525072864e-03 4.8490594294719920e-03 2.2802736148165928e-04 2.1000978317973866e-04 -3.4508096979015204e-04 1.4406984446391040e-04 4.5937820051885903e-03 -1.9703520645240110e-03 5.3804060715213009e-03 1.2750583750554684e-03 -1.8566026966160634e-04 7.6862260077433919e-03 -1.3163809368279683e-03 -2.2596571140515325e-03 2.1409637356173440e-03 3.2346860907084335e-03 3.0709602632712310e-03 6.1767864054850137e-04 -1.2910113223101455e-03 -5.0153717328025454e-03 -4.5194562317008719e-03 2.4934114954586022e-03 8.8889241979809436e-04 -1.3490400855917370e-05 4.6908029525228635e-04 -1.5531575819960178e-02 -3.5797809150400067e-04 3.6099431397859233e-03 -2.1266305296865793e-03 -2.9423918848472692e-04 5.7974459519517137e-03 3.2169793243821271e-04 -2.4753058955816545e-05 -7.7663119207816876e-04 2.3590434879776677e-03 9.7312670591893262e-04 -2.5555194440390265e-04 -8.7078949135156129e-04 -3.9997041827528196e-04 4.0524186741698054e-03 -9.3866300877910175e-04 3.6697727244855687e-04 -1.6916640031055348e-04 -5.6620182809584006e-04 -1.0287924300402592e-03 -6.6366828375637719e-05 -1.4012800161297950e-04 -2.2295696722618268e-04 -1.4609482934611895e-04 3.2225801632538003e-05 4.8191305259514747e-04 4.3246095503813448e-04 -1.6475274123273413e-03 6.0248380053574187e-04 2.3762450983457195e-03 -3.3751482779705499e-04 -2.5974408437629817e-03 1.1290879797823082e-03 5.4429857248650647e-03 -7.4583011830658226e-04 -2.2671356384884166e-04 1.8650075356731980e-04 -4.0015277398017674e-04 1.6458024979700433e-03 -1.3502147196618698e-05 -1.0970589941918297e-03 -1.4122805704311521e-04 1.2754879633215268e-04 -4.9498925901814237e-06 -6.5381183499361008e-04 -1.1936951194301579e-03 7.2954765819039594e-04 -1.7439086672649384e-03 6.8485819298975785e-04 4.1022873059571544e-04 1.6171448516696702e-05 -1.0734358130890386e-03 8.2195324309934648e-04 1.1672375904941395e-03 -2.9546358300033007e-04 -7.8279182807037087e-05 4.0429795166368429e-04 -1.9538036749513783e-03 2.1328038768553671e-04 7.0003499922732110e-04 -1.0965104335830582e-04 8.8450838282270452e-04 4.9146309091398239e-03 -1.0705350053363230e-04 -1.1068383611765940e-03 5.5071583178524378e-04 -8.1044269890068063e-05 -7.5890307144161272e-04 8.0119238948722377e-05 -1.2617806832752578e-04 -4.9505001354119738e-04 2.0361584236390485e-05 -1.7598529943064849e-04 -5.9204485364200529e-06 -1.1077435905484419e-04 7.3904350512834295e-05 -5.2543884994750206e-04 1.0801801295799248e-04 3.5701396942010169e-04 -4.2345445223956954e-05 -2.6780944156333319e-04 -2.5301279776938413e-05 1.6274469021888452e-03 6.9017167773713231e-04 9.2944454369362937e-04 3.7440857688559887e-03 -2.3542347725067805e-03 3.8358015088461319e-04 9.5987114149420562e-05 2.6296387499692422e-03 6.6836047517757641e-03 -2.8940197625282852e-03 1.6172033254125352e-03 -5.0280864185776126e-04 -9.6850473316854630e-04 -6.2203440868337789e-03 -4.3319415487513878e-04 -4.2565878347336607e-03 4.4328983012604796e-04 -1.1907094781013839e-03 1.6176884745603775e-03 -1.3130772902648219e-05 2.9539941555085589e-04 -8.9072258431913826e-04 -6.5081361221766207e-04 -1.5335007981113048e-03 -6.5017022098144174e-05 1.2533502042627598e-04 1.7255826977960013e-03 2.1586787629954488e-03 -9.7284128651251977e-04 -9.4629677254696272e-05 2.2801641409833304e-04 -2.7454804907455074e-04 1.0823306149125415e-03 1.4832302640524207e-04 -6.7271096153060511e-04 1.4511627608658310e-04 -6.0682866369680944e-04 -9.4159624722380333e-04 7.7701535568620861e-03 1.0426903206507531e-03 -1.2138716676779952e-02 2.5379449049973541e-02 1.9784451789596598e-02 -3.7055199188018749e-03 1.7147393616137522e-03 -3.5533251192677558e-03 7.4999225040399894e-03 -1.3245379009686445e-03 1.1196646169488716e-03 1.6710776564552725e-03 1.6944016670145290e-03 1.3572801341109816e-03 8.3036971095771573e-04 -3.5921638171114421e-03 8.9284061663280026e-04 -2.6177777708722453e-03 -3.1956875724414874e-03 1.4353954697598346e-02 1.0104295637317687e-03 -2.4255628700467810e-02 5.5857097562977090e-02 5.4439476794944833e-02 -8.2793886689758525e-03 1.3521588380746625e-02 -5.2922645873854507e-03 -9.1793697896096725e-04 5.8729364783805084e-03 1.2546080106674877e-03 4.2843009624299010e-03 7.6881225706600109e-03 3.0580009071969838e-02 1.8904815715136301e-03 -1.0771782592051693e-03 3.7086288013654422e-03 -2.6935228495180760e-03 -6.9040345397637839e-03 4.5335931176331669e-03 2.0417286958906433e-03 8.7711258721000912e-04 1.1318380600990864e-02 -3.1272685897542176e-03 4.3132821752448289e-03 -9.9640420910741372e-03 -8.8537749593436965e-03 -2.3861486551968857e-03 2.4824799483921019e-03 -3.3947655395066096e-04 4.9537174027154338e-05 -1.0806099240789375e-03 -4.6800717605436283e-02 2.3868117748929597e-03 1.2063690639804161e-02 -1.3075563054142747e-03 -5.2537417540924310e-03 2.0238287213964843e-02 1.2445379439845361e-02 
      </Row>
      <Row Index="194">
        -1.4400293576400662e-03 -4.6959472477875464e-03 5.9214064688017931e-03 5.6267477784604711e-04 9.7672477970262711e-03 -7.2739616173133625e-03 -4.1986720337257900e-03 7.3599363053286349e-03 -5.8512599340782567e-03 -1.3932532842857143e-02 5.4515289944871755e-03 1.3423938605230060e-03 2.2262203158036550e-03 -6.5599802663043050e-03 -3.8260658845894746e-03 6.9510041135260880e-04 -1.5180749917304533e-03 7.4244778125527253e-03 1.2807254742693090e-02 6.1470887984989495e-03 4.6132942297889556e-03 -1.7456375881760994e-02 1.5449415942633757e-03 -3.0656433935508987e-02 -5.7619818371838910e-03 -1.4481327031860692e-03 3.5370106437684207e-03 9.9732861044131288e-03 -2.3741099574118525e-02 6.2677684862277108e-03 -5.2127215531928006e-03 -2.0995826004678933e-05 -4.7990902464276706e-03 -3.6029312015275830e-03 6.6412387948420748e-03 3.9352179123001768e-03 -8.0966927041250802e-03 -1.0552555818929971e-03 6.9945193206410183e-03 -7.8678598302295288e-04 -2.7316603857419186e-02 1.9453402980356138e-03 8.4152926638445563e-02 1.2743885226424861e-03 6.2290939519693556e-04 1.6481989562000671e-03 -2.5302974738368705e-02 -4.3444875527405558e-04 6.4994416071735006e-03 4.1170743174844676e-03 -1.2470421670283394e-03 -3.2190809695003542e-03 -1.4264810745171580e-02 -8.8780434786651513e-03 -6.0636716135763491e-03 2.7500196766329817e-03 -1.1287789603845556e-02 2.2774211253731025e-03 -1.7506196933118289e-02 1.1457427392594921e-02 3.8293867472701110e-03 8.4840661547140511e-02 4.0082435686469853e-04 -1.3861955737862752e-03 7.8497387930233087e-03 -6.6269695359160996e-03 -1.9948380397394883e-03 -8.3097325711684045e-06 7.1794114677297717e-03 3.6709863839581858e-04 1.7003147995857129e-02 -1.4378630210232723e-02 -3.6492426365214159e-03 -1.0783726240422079e-03 1.6537822084324687e-03 -3.6988020545917905e-02 2.7132658872136561e-05 -2.5552042960383381e-05 -7.9225836177847786e-03 1.2737132751050508e-03 1.3458079464656259e-02 -1.1314913253676348e-03 -3.8570235292863398e-03 8.0307464841722354e-05 -1.0979052421298818e-03 -4.4380050458285025e-03 9.8492829421410050e-04 4.6373617972556014e-04 1.4519075571265945e-03 1.2856935447446531e-03 -7.9951984769552863e-04 1.9341164737771803e-03 5.2446205814730106e-04 -1.2343356319202518e-03 -3.8368413191468970e-03 -1.8829383141386324e-03 -9.4535683765432921e-03 -8.2789652995385217e-03 2.9656534515193553e-03 8.8468316705374278e-02 2.1663290057667949e-03 -3.8197973777568529e-03 4.7037964714640515e-03 -3.2182701929458629e-02 -1.2059517217174329e-02 3.1848429568278325e-03 -9.2829350940534967e-04 -4.9433022371887852e-03 -1.0252831853409477e-02 -2.2987858318455467e-04 1.2330980069592858e-03 6.2388390852749012e-03 -1.3089877187701972e-03 2.4024968864828376e-02 7.6315371940757579e-03 2.4511004480295730e-03 5.5361731535883835e-03 -2.6563093242455964e-03 -7.8140279659637504e-02 6.7890680541727016e-04 -2.3066131673774898e-03 1.2125000353651709e-03 2.5448970940105842e-02 1.9638425744247113e-03 -1.8979506862355339e-03 -1.4897536731395735e-03 2.4490286173590942e-03 1.2695205173481487e-02 9.8582517534161196e-04 3.5991182630387697e-04 -4.1586816503048516e-03 -1.1022227703371055e-02 -4.6745317117336080e-02 -3.3672399879255358e-04 6.9711148240440921e-04 7.7539346676424366e-04 -1.1748062276121672e-03 -1.1785462222628253e-03 1.7511707743055971e-04 2.4847088123094345e-04 7.0035138957239354e-06 -1.5977374615928392e-03 1.1641214039256088e-03 -3.3355411806003230e-04 9.2099520744716242e-05 -7.2504786479318383e-04 8.3915081442337410e-05 -5.0456776227255349e-04 9.3502889207253571e-04 1.6189540538730598e-04 -7.1997548133192080e-04 -8.8276830096876632e-05 -5.5154898487437126e-03 -1.0137908929749272e-03 -4.8770908785756295e-03 -2.0774870657535825e-03 -2.8899582957252291e-02 -1.7061536394080371e-03 -9.0379793964230452e-04 -7.0967055815272795e-03 2.9207841078257940e-02 8.9220997234226353e-03 1.5529026864674260e-03 -1.0107858896532826e-03 2.7039699512360245e-03 1.0260617980076749e-02 2.6824804243379390e-04 5.2603221211370080e-03 2.0644245223781256e-03 1.0109880733477263e-03 -1.4572236091173297e-02 -2.2244410511985113e-03 3.1808966792723492e-04 1.1213458999879133e-03 -1.1606061183617872e-03 -5.5764818578220628e-03 3.6638179288690786e-04 -1.6842430061136948e-04 6.8833750906921454e-04 -1.1434186411400649e-02 1.1187774088095015e-03 -3.1227302906259961e-03 1.9408493352485179e-04 1.7292730423495606e-03 -2.0204933221699755e-04 3.3861422519804662e-04 2.4583841505389503e-03 3.0041918559715886e-04 -4.8451333620142282e-04 8.0011449817749478e-03 -1.4043032636283453e-02 -9.3474290493998635e-03 -2.2366468617259400e-02 1.9784451789591713e-02 3.9323757298717033e-01 -6.0426556101264746e-04 7.1916080542801346e-03 -3.8189664632828739e-03 -8.8745400761973098e-02 -2.2032580901834423e-02 3.2664086909384143e-03 -8.8452212941047825e-03 -3.5743262517708122e-03 -4.3895076564184413e-03 2.2997840343522667e-04 3.6021243524890934e-03 -3.3817480963118261e-03 6.0952766495378716e-03 -6.5523232300157205e-04 -3.7151466893642071e-02 1.7345156985719076e-02 -5.4950292650713682e-02 4.1431499959131812e-02 8.5266140915597999e-01 2.7540861769753122e-03 3.0424809116589464e-02 -8.0184635659744374e-03 -3.0110161670658264e-01 -2.5218695039661627e-02 1.1777316176209141e-02 -2.1843027211828001e-02 3.7684792660954069e-03 -2.3013022981844961e-03 1.6091529961528004e-03 6.0844003087823922e-03 -4.1905213193715075e-02 8.2650168661815120e-03 -6.3552712543139614e-02 -2.1791617620215843e-02 1.7559560933464807e-02 -4.5925138882967523e-02 -1.7298409526588787e-03 -9.2419202663974645e-02 1.9206382536499891e-02 -2.2107114148393309e-02 1.8809911029124660e-02 6.0678736617273320e-02 -6.4433776661135922e-02 -3.6961831027957914e-02 2.8194468100234044e-02 7.5198647998480032e-03 4.8338837216224687e-02 1.6123715316819286e-02 -1.0690188519301820e-02 2.0194221399247266e-02 4.8856336856061000e-02 -1.7360471460179810e-01 1.0948931147805274e-01 
      </Row>
      <Row Index="195">
        -1.2104494068355472e-03 -1.6211842407979141e-03 1.5609613629600644e-03 -7.0219661513476125e-04 -1.4782827441307302e-04 6.8363878330178138e-04 -1.9911608727841978e-04 3.0533356418862775e-04 -1.4254162194883169e-03 -1.4013242786506024e-03 -2.9934158188817768e-03 1.8432348864636048e-05 3.8095402859006323e-04 1.1229211386248709e-03 -2.0700878848450279e-04 7.4258066001191975e-04 3.5473671942021017e-05 5.8907347040452595e-04 -3.4171479217962562e-06 3.3506769196411067e-04 7.3268467751314535e-04 -1.5969130720837957e-03 -5.4410715421219146e-04 4.9202472663065211e-04 -7.2288230018800834e-04 2.3051924059229613e-05 2.5966047731377749e-03 2.4698505592312889e-05 -2.0216865158449518e-03 -2.2532616959746654e-03 1.5364065836673269e-05 -3.0738386969782661e-04 3.9237171084091573e-04 -1.3814693438466384e-05 -2.4894954605910596e-04 -4.5926306465000053e-04 -1.0197304386857682e-03 1.0056122884030301e-03 1.0831227255868468e-03 -2.7268926489398826e-04 -2.6958015067179292e-03 -5.8283088619933560e-05 8.8641985972233439e-04 2.1737244889395713e-04 3.8721377516448899e-05 3.3302815289751753e-03 3.7193364309602468e-03 -9.1207216134586364e-04 -5.7082768807626035e-04 -4.5836309455589939e-04 3.4794696799645385e-04 6.2127450885104962e-04 5.0514591763843944e-04 4.7011981469434992e-04 -8.5541491455697755e-04 -5.3554270790127001e-04 6.3000172119443733e-04 5.5492761474172647e-04 -3.0943269783037658e-03 7.0120214286335976e-04 -9.0682260342715270e-04 -1.9285588756177111e-03 6.7995035616462939e-04 1.4394325892853888e-04 -2.2183479437330456e-03 1.6262140059089304e-03 -6.3397025276107528e-04 7.3580887511713166e-04 -5.9089439416049354e-04 -7.3760378071794502e-04 -4.8153123579327576e-03 5.3406317636540968e-04 5.5426854094244027e-06 -1.2038900126570438e-03 3.8921787635243232e-04 2.2173708962131434e-03 -2.4355790007298678e-04 1.0098648135461151e-04 -7.4417733898213267e-05 -2.0440233396753354e-05 -6.3817451984890918e-04 7.2845083198483937e-04 -3.0752772969488864e-05 1.7545848905498179e-03 2.4287782241283473e-05 -1.6126760670372164e-06 4.0046114626440398e-04 -2.9147971507792816e-05 5.1194868348679139e-04 -1.5633952343278943e-04 -6.3295229012260215e-06 2.0576339489763572e-04 -5.3256837220302423e-05 -3.1610170447406855e-04 2.7772346187733901e-04 -1.1293180091098559e-03 5.4504684279536777e-04 2.5656453902508686e-04 -1.6574570429198337e-05 -5.6036485312296186e-04 2.2901358251675892e-04 -4.3973697000762227e-04 9.2400739605135590e-04 5.7589891894354803e-03 -5.7952348276127125e-05 4.7921649282468967e-04 -9.7278114822114991e-05 3.4488714014300906e-04 3.4319368050101913e-04 -1.2579321707895607e-04 -2.4190829549801006e-04 2.4942558459276672e-04 -8.7474443685153650e-05 1.3648659789599303e-04 2.2861785436860088e-03 8.4213615181866859e-04 -4.7294262275798457e-04 -3.6531551662589295e-04 3.7272868819065595e-04 1.2780108456053607e-04 3.3006197540986636e-04 3.7233253340315624e-04 -9.3982108023288324e-04 1.7868227677759609e-04 1.1218601797904492e-03 -5.3245008689678801e-05 -1.7968213563693925e-04 -6.0147737786424207e-04 -9.7369515252674981e-05 -3.9503434067691620e-04 -2.7464993703181349e-04 -1.6557929064585255e-03 4.6494564080248803e-04 4.8591924368271574e-04 3.0083529517479471e-04 -2.4027556675900198e-04 7.9908462078372359e-05 1.0527089249935803e-04 1.6692099523682674e-04 1.1193872408070448e-04 -2.6158795248265907e-04 1.5271769069958078e-04 5.1991397369129068e-06 1.5594698903552260e-04 -3.4898331177644055e-05 3.5414221107919655e-04 1.2427303077309495e-04 -8.2629627579648186e-05 -1.7457156862684650e-04 1.2695162314032391e-04 2.0637579952565018e-04 -3.6877287123938604e-07 -4.7317088027200912e-04 -1.2919286314381205e-03 -9.1575552616569378e-04 5.0996403364752954e-04 -3.3430022792348482e-04 1.4130063258231966e-04 1.2716976605753208e-04 3.5585721272869599e-03 -3.8216514450841472e-03 -7.6950445530183785e-04 -3.0101155113635987e-04 1.6972583663459550e-04 -4.6981966821064546e-04 -2.2341969559137799e-03 1.0726804005064953e-04 -3.3786030003734972e-04 2.6326490783400245e-04 -1.7044747909891495e-04 1.2975538091381386e-03 3.9397112577010257e-04 5.4133225131923479e-04 4.0329230445396852e-04 6.7987466168745875e-04 2.9435442808572413e-04 -3.7275919007171386e-05 -1.7568654494569402e-04 -4.8896563634238596e-04 7.4478129748906108e-04 4.7005671927382968e-04 6.7348912937591947e-04 1.3781942417475691e-05 -1.5487997998593877e-05 2.2974707888879061e-04 4.4998087509010622e-05 4.5262553594702104e-04 -1.3892338370896662e-04 1.3743840984061954e-04 -5.8402911728027990e-04 -3.9954161923094651e-03 -7.1671289294272106e-04 7.4890248344044921e-04 -3.7055199188021025e-03 -6.0426556100993479e-04 1.0230115213518827e-02 4.1777082909268408e-04 2.2379614051725757e-03 1.0184895704443839e-02 4.4667420385928686e-03 4.1998915079876180e-03 -8.7833387593244682e-04 4.4693169434560061e-03 1.3507403824451719e-03 -4.2286952319805338e-04 1.2480348986791982e-03 -1.4121789754835184e-04 1.1203098469515038e-03 -1.3326258279629157e-05 -7.9088526999336658e-03 -1.6802127806195624e-04 1.7553496163031932e-03 -1.0904598026698693e-02 -2.6561803486867229e-03 2.4164472309680586e-02 3.1580115505979779e-03 3.7814421580669522e-03 3.2913187988776516e-02 1.0389793065126208e-02 5.2742521333133440e-03 -1.5771738753850711e-03 1.1043546754319728e-02 4.6868872278565780e-03 -9.8538150641714348e-04 2.3063542067928711e-03 -2.0034556636978067e-03 1.1363083963984453e-03 7.0577493283702404e-04 -5.8869464098249254e-03 6.4164666631706616e-03 -4.9735663541158283e-03 1.9817076093949244e-03 -3.5790784048446780e-05 -2.1366816893921628e-03 3.5980618157244529e-04 -1.0912857045495092e-02 -7.4159468010040665e-03 -9.6548623929828105e-04 1.7708253029172082e-02 -2.5455270050318722e-03 4.8441100788084460e-04 -1.2193793930571812e-02 -1.2943969946640089e-04 -1.3296887167224616e-03 5.5839585843621376e-04 5.6333900548383876e-03 3.1190683414663808e-03 1.5087343683873248e-02 
      </Row>
      <Row Index="196">
        -2.7095565736539630e-04 8.4376978626243826e-04 7.2583712172338832e-04 2.1835319935819067e-04 5.1697879973462701e-03 5.6727678428741823e-04 1.3897605236571527e-03 -1.4596604482879361e-03 -7.0103241986103071e-03 -1.9501761302649677e-03 -2.4192098019463690e-04 3.5388085285152117e-04 -1.0209933676938107e-04 4.2193211562128324e-05 -3.2588558998578390e-04 3.0657885390737716e-04 2.2206658890288776e-04 4.4563006748209177e-04 -1.5059042356039241e-05 -7.9576000723860507e-04 1.5400508730718798e-03 1.6361474017129174e-04 5.5519182550757204e-04 -6.7614900244542531e-03 8.7507315044065698e-04 -1.7722569830754017e-03 1.7968211527396444e-04 4.2726026699876907e-04 -2.6402296217144169e-03 6.3991799409135464e-06 -4.8923109062151693e-04 5.4064087104200957e-04 3.1280557176778349e-04 -7.3500897795515663e-05 -1.8907341209364326e-03 -1.4171584379664166e-04 4.7136887436944469e-04 -4.3394397194249090e-04 -4.6031996803062511e-04 -4.0113394300833605e-04 1.1750267564680783e-04 1.5160172275674455e-04 -1.1651082881535491e-02 7.5046775992551606e-04 3.0236319376864412e-03 9.8453053315993022e-04 -1.6942792401516416e-03 2.0710822507296889e-03 4.5679639510737280e-04 1.3636670498267667e-03 1.5205035035606440e-04 -9.3360927839652996e-05 -2.6889132238507030e-04 8.5515519204364468e-04 -1.3860512553130477e-03 2.8929277422050283e-04 9.8180482711068828e-05 -9.2675902281813549e-04 -1.2333218836276310e-03 -1.6010910863760441e-04 -5.4880780002486418e-04 -9.0317515808391903e-03 2.2007579158950241e-04 5.8924248287189340e-03 -1.7858373678910633e-03 -1.4254206741347614e-02 1.2542202269631847e-03 4.6105837421050316e-04 1.9531261144735516e-03 -3.7770813910889545e-05 -1.1850137009176559e-03 4.6389204162389230e-05 -4.3433251444346954e-05 -1.2387512006600161e-03 7.5996604658181213e-04 3.2883327037230847e-04 -1.4046327209305820e-03 3.2313114519399999e-04 7.5526753258338408e-04 -1.2392895115275349e-03 -1.2614320298946387e-03 -3.3275775236782032e-05 9.7586770100606818e-03 8.8526581758341383e-04 -7.0999564679498639e-03 1.4024651061090021e-03 -3.7068569163902637e-04 -1.3639612029631154e-04 1.0872963822650388e-04 5.0862516683177275e-04 -4.9941677769023418e-04 1.0826874616136906e-03 -6.6403803327331340e-05 1.4379395837992720e-05 -4.1696921295170802e-04 -1.6753336631748911e-03 -6.5652443423588197e-04 9.0314317357731433e-04 -1.7747010923660038e-03 -7.5158134812543520e-03 -4.6536399524964300e-04 2.6219790967811501e-02 4.7227236539589684e-04 -3.5583298305805200e-03 9.7223039295599167e-04 -1.1029494686287901e-03 -3.4634283906779303e-04 3.6366312196900105e-04 1.8720021541687726e-03 -6.5018950046373276e-04 1.0415762998054016e-03 4.4423107073703755e-04 -2.6477490914229851e-05 1.0798685241684286e-04 -3.1677245567479986e-04 2.6154339064626483e-04 -5.5739225178833007e-05 -1.7302388970352918e-04 -3.1525138154694121e-03 1.7290095535999611e-04 -1.7401403679221318e-03 -6.6807929285201198e-04 -5.9119724543848229e-03 9.7013178628938901e-04 1.3121038288836347e-04 -5.4871729355928604e-04 -5.7456114823123926e-04 -5.7075834766621633e-04 -1.4935825345544461e-04 4.8064172854248022e-04 -9.5346583173467475e-05 1.4085730893844198e-04 -4.7023941060102877e-04 2.4337527248286320e-04 -5.0550810419254912e-04 4.6402493660039571e-05 -2.9985346339735379e-05 4.1701486211661015e-04 3.7892116816503176e-06 2.5037726978217645e-04 -5.3362701957605611e-04 -3.8362770095422922e-04 -5.3821535272779129e-05 2.1475480925118380e-05 -8.0821201937642678e-05 7.9356175555867414e-05 6.6994272516624626e-05 3.5528840628302485e-05 -6.4607718358367962e-06 -4.7433051810917689e-05 4.9670716477456713e-05 -4.7321731857571849e-05 -2.4406255181892017e-04 2.8013462848820725e-04 6.8454541396880189e-04 -2.9320846981432253e-05 -2.9245791831470115e-03 1.1186609733090241e-04 1.7767210331334623e-03 8.5170397346576165e-04 -7.0065721342435910e-03 1.6156709842468919e-03 2.0163417284202500e-04 -1.5679924102432116e-04 -4.0590000568505036e-04 -3.6300410228832722e-04 -1.0942104676593331e-04 -4.9864256727774614e-05 -2.0622109728246629e-04 -1.1975057827670393e-04 -1.9254658996715503e-05 -3.7704420878573175e-04 -4.7763455724161852e-04 -2.2303462132960972e-04 -1.6755913513812060e-04 1.6030232812259959e-03 -1.5696967845720694e-04 1.2407689857997228e-03 1.9031776947806001e-04 4.6871457249957060e-03 3.2985039166252839e-05 -1.6492010588910894e-04 -2.6651226268390588e-04 9.6079962611541714e-04 7.1339898226022028e-04 6.2233785911232020e-05 -2.0639519933352002e-04 -2.5056686045151714e-04 -3.8691024067506264e-04 -1.3490343480913186e-04 -5.7907622484251742e-04 -1.2290735672571360e-03 -8.4827700930849986e-04 1.7147393616086665e-03 7.1916080542438615e-03 4.1777082909299980e-04 8.9478154758966671e-03 1.2021815550347635e-03 2.4889909780991693e-03 -1.1861508420120564e-03 6.8252474547835342e-04 1.0085031981614812e-03 7.0968687716717262e-04 -8.1633097983167271e-04 -5.9787777379622983e-06 -6.7425747361023311e-04 3.9554853954757005e-04 -5.4993119710502710e-04 -1.9141727867360539e-05 4.0514226793948050e-03 9.0695825570838873e-04 -3.2470883655885893e-03 7.3108337343515423e-03 3.2799737232933932e-02 1.9297738687094530e-03 -6.9184763944748540e-02 3.9814132541320353e-03 2.9585663724900797e-02 -3.4051905699226358e-03 3.4971849056825979e-03 1.1435522242179141e-03 5.4415415295159522e-05 -4.3764528283281130e-03 8.0991810640358578e-04 -3.4824226991673653e-03 8.8249973736489757e-05 1.7171504922772787e-04 -2.5269242235586697e-04 9.6522667079584554e-04 1.5815058487981155e-03 7.8587471764898515e-04 1.7790077037381467e-03 1.4385361077244502e-02 -1.8842442629200128e-03 1.2394195086246397e-01 -3.2608108150982140e-03 -1.9177916533027452e-02 -8.5446240336496272e-03 3.8451137596154199e-04 7.6509427461849463e-03 2.5971250578825256e-03 -1.1402344795917452e-03 5.8225129468082726e-04 3.0676029968157176e-03 9.8536019720113846e-04 -3.9942856199883664e-04 -1.4975676445591370e-03 -1.1171855078965055e-01 
      </Row>
      <Row Index="197">
        1.9817885569113378e-02 8.6892044528794066e-02 -4.7838321110550697e-03 -2.7117495415128340e-03 -2.1697578393232747e-02 -1.3868796626891611e-03 -1.9234018651050760e-04 2.8690927650275549e-01 -3.8242910803980582e-02 6.3885925604301686e-03 5.0569814596142480e-03 -4.2668698250427281e-03 -9.1043566263235981e-04 2.8729258690082179e-03 -4.4279872168050474e-04 2.4104453160317119e-03 1.9631508755255005e-03 5.0952086567883914e-03 -3.5655985074292719e-03 -2.1335454478642712e-02 -6.3729180491027271e-02 -6.3731178912330877e-02 -3.6445324207640059e-03 -7.2384007682996243e-04 -1.2091579565281715e-03 -1.9429605861446598e-04 -9.0143542881572364e-03 -2.3787874780725526e-02 6.6245529547359974e-03 -3.6763518295833408e-04 3.4543594867580962e-04 -2.7163078282456798e-03 5.9218448899461609e-03 -4.9086352985890785e-04 2.1563078737364960e-03 8.9966848290366601e-04 3.6478087163236000e-03 -3.0057318973259195e-03 -3.4631983173124672e-02 1.4292248557192799e-02 -6.3481163814722130e-02 -2.3291133708294165e-03 1.3951708221165260e-02 5.2386280483668335e-04 2.4406639592364221e-04 -1.3186385760484309e-01 1.6371130560748764e-02 -1.0393872676078719e-02 9.2944943864767260e-04 7.8467474260556919e-03 -2.3647522644276997e-03 1.9273496373267140e-03 -1.8659202511657480e-03 -6.3686245007544030e-03 8.8749631358764347e-04 2.9914497353078582e-04 1.9795441219668392e-03 1.5681020970579995e-02 1.1795731130689519e-01 5.8798659628555711e-03 5.0571643542749734e-03 2.5846951264709983e-02 -1.3611137672427109e-04 -1.3991697901266087e-03 2.3019698479021045e-01 -1.5867739224835753e-03 -7.9011566109501857e-03 -2.0328932375245565e-03 1.0360877624426749e-02 1.6994214541364017e-03 -3.1886026256028183e-03 -7.5056552098717866e-05 6.0672216850812255e-03 2.2603455408694989e-03 2.6684658263308597e-03 1.1544746211400864e-03 -6.6736123477872666e-03 6.2530064010706543e-03 -7.4489192105575974e-03 -2.8198290416274596e-03 -3.9946617441501096e-03 1.1161534108600829e-03 -2.4317554592513668e-06 -2.7996394121890256e-03 7.5905899750722261e-04 1.1573397434013200e-03 7.2707590318016671e-04 1.5885585231372179e-03 -2.2591023556619086e-04 2.5728079342045643e-04 -4.3795403376702645e-04 1.0128997561840922e-03 -5.4950176488852143e-04 -3.2346204740565238e-04 5.2090883564229890e-05 1.3401726886503679e-02 7.8040864705637703e-03 -3.3882928307310540e-03 -3.6951545378775021e-03 1.6623162807153230e-02 -8.1956545325003599e-04 -1.2243569565599033e-03 9.0965287542920520e-04 -2.0329247677160212e-02 1.3007287145296170e-03 -3.0079084847081739e-03 2.7729444317179208e-03 8.0536884276819561e-04 8.4828363356019565e-04 -1.2931312364017865e-04 5.0071781080144664e-03 -1.3112105199585000e-03 -2.2227760209712136e-03 -2.3127553905286057e-03 -1.3883282102941137e-02 5.9457722326283699e-03 -1.6498193265232469e-02 -2.6524768809458137e-03 1.2758351440604151e-02 -4.4021441488579019e-04 -1.0361140551741681e-03 4.8582736000713250e-02 -7.9795822139646366e-03 -1.0053743361615151e-02 -4.7838142330462550e-03 -1.4808080219810334e-03 3.0362096092910115e-04 3.8327494906636068e-03 -9.3345629694800442e-04 -3.5961683743542250e-03 1.4889564032877752e-03 -3.8262533532681092e-03 1.6470804123175442e-03 9.4083329176188838e-04 -9.3038957037602614e-04 -7.2941410562543142e-04 -7.2867390194937456e-04 -9.4176062345940371e-04 -3.6571278388590716e-05 -1.3259083898985830e-04 -2.7993499038962452e-03 1.3632251808936360e-03 -7.9814854077485051e-06 -3.0849483479636688e-04 6.8302003389527087e-05 -6.4572035279122442e-04 1.2629255887521311e-04 -2.9690199374810954e-04 6.7690592500937227e-05 4.0735452627085910e-04 -7.3218476723369008e-04 -8.7898938433078957e-04 4.9181964857680088e-03 1.8721123976206646e-02 -2.9320637213039180e-03 4.2651183897991600e-04 -8.1582958568399352e-03 2.0703952535224331e-03 1.3437943134717231e-03 -1.5888304728599387e-01 4.3383821062628711e-02 -3.9608864370692829e-03 4.3308923617388024e-03 1.3713554600702036e-03 -1.3419595706873240e-03 -3.7116070425446228e-03 -5.4003750610865774e-04 1.1686932526446397e-03 -1.4009052316189046e-03 -3.5338906817498003e-03 3.2910926407047130e-03 -7.2683561142790065e-03 -2.0082688061469678e-02 1.2711831940803386e-02 2.1718586615171454e-04 4.3961936951548118e-03 2.5431729302341499e-04 1.1343136132047071e-05 -5.2721839637550283e-02 4.4365644266725068e-03 -1.7878805698395839e-05 -7.1494371962272513e-04 -8.8757853062083891e-04 -1.3814145970863423e-03 -1.0869358710988964e-03 -6.8774582267909566e-04 4.6806255182146872e-04 2.7430681669714414e-04 -5.7308531248891200e-04 6.8328109841267470e-05 -7.3222781994179420e-03 7.6230457111301900e-02 1.3212522779970655e-02 -3.5533251192715887e-03 -3.8189664633333995e-03 2.2379614051752025e-03 1.2021815550298433e-03 1.8728710007842153e-01 -2.4495487092157098e-03 -6.2510239248535528e-03 7.5782726447948495e-04 2.1970307766698838e-03 1.3970370062248699e-03 -1.7680357719647094e-03 -3.2864885010431470e-04 2.0242339632006181e-04 1.2144121977666547e-04 -4.3930483783265412e-04 -1.9089266607950758e-03 2.1671725842390847e-02 3.5274289285310290e-02 -3.9878348570112923e-02 3.3747766800092506e-04 -2.1091851820484460e-02 4.3808811679916324e-03 1.4462690634561640e-03 2.2466598367239554e-01 -1.1068032355654939e-01 -3.4878063158095801e-02 9.6053475664190924e-03 -2.0048696411875934e-02 6.7402750874167297e-03 -1.0942165531039449e-03 -2.4835903289550970e-03 -1.0936287513429566e-02 1.0659901944315257e-02 1.3515053492166813e-02 -2.7641163381119408e-03 1.2406983548482203e-01 -2.3777714385076384e-01 -1.2118133003248457e-01 -1.2665874065909001e-02 -3.5211484320855128e-02 -7.1598456203412876e-03 -5.1552751382868758e-03 6.1699952226804111e-01 4.8032946485930580e-02 3.9741769866850421e-02 -3.4783206159523905e-02 5.2950335703460423e-02 -7.7983565979977618e-03 -1.0642245754608919e-02 4.6655201340443340e-03 -1.4426709711786133e-02 -6.2435371059274009e-03 1.6577051917470234e-02 1.1648575477054814e-02 -1.3904030212568147e-01 
      </Row>
      <Row Index="198">
        -2.4818199512110671e-03 4.1442997335842613e-02 2.1853861321826651e-03 -4.9798359020399863e-03 -1.1023874820870846e-01 9.9472377508379173e-03 -2.4635857736458114e-03 -3.0394361352833799e-02 1.5106454997774210e-01 1.6532272590204192e-02 1.0402665246347816e-03 -2.3361068195785692e-04 -1.5109750080285339e-05 1.4195858583270445e-02 2.8002132942962776e-04 7.9869605800925170e-04 -2.8177431991930667e-03 1.1525007905355822e-03 1.3848294642575490e-02 8.5123968837075431e-03 -2.2417481864603142e-02 2.4613030429914695e-03 -2.7505331736381033e-03 7.0662821656273911e-02 9.7067779701085488e-03 1.8342767863549615e-03 -4.4032320488934656e-03 -7.3930898810979723e-02 1.8376562183389483e-02 8.4972774937203122e-04 6.3405426944969645e-03 -4.3347901777095466e-03 4.9662227349984538e-03 -6.6101884650271933e-03 -1.9077384121393148e-03 -8.3037487572219827e-03 -4.7404598788044344e-03 2.2030061061032447e-03 -2.5134197896110808e-03 2.5671831318276883e-03 1.4995478150373720e-02 -4.4885390715174722e-03 1.5379514740331407e-01 -1.1847808639604274e-03 -2.7135816412326152e-03 6.8905476636142160e-03 1.2646190300227511e-02 -1.6432236736780959e-02 -3.6716936852984050e-03 -3.5445274568257634e-03 3.7043472249892462e-04 7.0147668802102436e-03 -1.6762333108440414e-02 7.0964054394379722e-03 7.0623147026797062e-03 -2.8466648769007591e-03 -2.8787135070073161e-03 -3.1784886860313222e-03 5.8132542349370729e-02 1.2760882158393397e-02 1.2829536319483942e-02 1.5601691374512039e-01 9.7802853060369177e-04 -8.9041883208776929e-03 -1.8965071608216810e-02 3.5969801307048221e-01 -7.4665454702255024e-03 3.2572178283850894e-03 -1.0514006682037644e-02 2.8017510436309373e-03 -3.7837622837564963e-02 -1.2014283836298434e-02 8.5116527477546722e-04 1.7536772085882703e-03 -2.5905322049112750e-03 -1.3157487685169930e-02 2.0496250270781169e-03 -2.2531787650987567e-03 -2.3990605177925395e-03 2.6051136796179479e-03 -1.5059253968277578e-02 2.0585081646340882e-03 -1.2848461072868607e-02 2.9829860940685515e-03 8.1557834428799436e-02 1.6416734697964896e-03 2.2001435115819867e-03 -1.7744470373527096e-03 1.4260452885143330e-03 7.8626827437318358e-04 6.5932033579493669e-04 1.1889835007024979e-03 -5.4121201462386942e-03 -1.1001253740641620e-03 2.2871936012785303e-03 5.7661486027335840e-03 1.5421447752714687e-02 -1.3033761195289963e-03 9.7951812884042380e-03 1.1391690964894452e-02 4.1188647856421970e-04 -2.7079980115727233e-02 -2.6053859771420496e-03 -2.6555620912530881e-01 3.3816187540238671e-03 9.4795405814795779e-04 -1.4275519110105838e-03 -4.0195334935790791e-03 -3.1275517463882421e-02 -6.5929132317975557e-03 -8.6716238409704736e-03 4.0598383591967935e-04 -3.8700157292683238e-04 -6.9116018152872542e-03 -5.5067800766781527e-03 -1.4343807522132754e-02 6.4733237267633192e-03 -1.0094370128154451e-03 1.0896909704282227e-01 -1.1864846850275865e-03 -1.8116066983906863e-03 1.8839634803372134e-03 2.2095328159280236e-01 -4.3378816182992668e-03 1.9993323254292499e-03 -3.0492712303034977e-04 6.5698506684882243e-03 1.3617622266704293e-02 2.4200396308276962e-03 6.3431826311688422e-03 -3.9521872022139568e-03 -2.8160897425269296e-03 1.8516596885270360e-03 1.1550952597698255e-03 1.3861981196070898e-03 -3.6698277845493947e-05 5.1101398325893396e-04 -9.6627308083026796e-04 6.6405922947320633e-06 -1.9892496827932636e-04 9.6420601274364772e-04 -3.7207663463273595e-04 -5.8286387077633416e-04 1.8265231625436509e-04 -3.4279936142852076e-04 1.2725247300291397e-03 -5.9017301363082286e-04 1.6188149956648367e-04 -5.2650790635110859e-04 6.8364043643980802e-04 7.3382783395434595e-04 4.2139579724451062e-04 8.2274722817509346e-03 -6.7236904315801788e-03 4.8449019037733951e-03 6.6431271967639927e-03 6.8211283560424524e-02 2.3578388785071586e-03 -5.3398283860138680e-03 2.3636094093396533e-02 1.3156550005783096e-01 -1.5494461094190436e-02 1.6566402453616037e-03 -6.6052245509134674e-04 1.6201025921156950e-03 -4.3790095953773096e-03 -7.4286792027981365e-04 -1.3876825409198101e-04 -2.0212143604689753e-03 -6.6414788155515127e-04 -6.4976582868886915e-03 4.7808409880877867e-03 -1.8396887355690006e-03 -5.1754195711420925e-03 2.0376668337354631e-03 -4.5833921766407784e-02 -7.6081377430518848e-04 6.7592462428550659e-04 -3.8019656200982688e-04 -1.1122363959514248e-01 1.3105067974510665e-03 -2.0141085094231570e-04 1.5069834355483369e-03 -9.2969945760902391e-03 -5.0967865441418313e-03 -3.5285889232812817e-04 -8.2438608986312722e-04 1.8441988203009340e-03 1.2229242107270376e-03 1.2179347301146601e-03 2.1998105569084492e-02 -6.0751283528745863e-03 -2.0570571382266069e-02 7.4999225040350039e-03 -8.8745400761986365e-02 1.0184895704426435e-02 2.4889909781343105e-03 -2.4495487091385146e-03 3.8565761030742646e-01 1.9586356295888563e-02 2.4067352930188688e-03 -3.3636253035441320e-03 3.0695846057176533e-03 -2.2627415503257167e-02 -6.5689024009817857e-03 -7.1693400499594131e-03 9.8151187526044487e-05 -6.5116685184306595e-03 -3.3273247850415404e-03 2.2474355720027657e-02 -8.2689266594707544e-02 -3.7268645164459491e-02 -6.9332291040814023e-03 -3.0037813477817937e-01 1.7527616379457926e-02 1.1738714361526043e-01 -3.8962540091003906e-03 6.6804815254070893e-01 4.1095713649024083e-02 2.2881685713128444e-03 2.7374670806633583e-03 2.4844003306804932e-02 9.6390117352301269e-02 -2.7033223079966978e-03 -2.5496785724848370e-03 6.0693218260606981e-03 -1.7317881326693700e-02 1.3746149324273203e-02 4.8657100329640990e-05 -6.1492506272377429e-02 1.3142571330943185e-02 -6.0223258950477809e-03 -1.8803765622878796e-01 -3.4457687764102456e-02 -1.1910174979779475e-01 -6.0698790423717508e-02 5.8783482158334588e-01 6.0156075780701271e-02 -1.1152921249934750e-02 -4.9543324799911234e-02 -2.0306236513589190e-02 -1.3074759892311971e-01 3.2905233864561179e-02 7.4104816052312020e-03 -2.7878969002496701e-02 1.6966290422254671e-02 1.8648098020387388e-02 -1.8243968897113438e-01 
      </Row>
      <Row Index="199">
        -1.6707631257866437e-03 -1.0202723054234752e-02 1.4679250773693975e-03 -4.0187676914272240e-04 1.3207356540258369e-03 -5.2987989696545515e-03 5.2895840123710902e-05 -1.9656277727550603e-02 -5.9962777154378075e-03 -1.9731611234411233e-02 1.0082392737916380e-03 -5.7222304042146496e-05 8.8618627348223053e-04 -3.6403074012556977e-03 -4.6951477062599431e-05 -5.1204298646449764e-04 -1.2249674065167647e-03 3.3314965589108028e-03 1.1346659416133428e-02 3.2538731554405606e-03 7.2769502098037273e-03 -1.8095711757686872e-03 3.2553876177245158e-03 -2.1474243604749255e-02 -4.8815719180803352e-03 -7.8850524721349382e-04 1.2184716111932753e-03 8.5970380532457424e-04 -2.6655783859835747e-02 1.2643470122640950e-03 -2.5408630674834953e-04 1.0317067102465147e-03 -4.2064898607817019e-03 2.8861320025256980e-04 2.2904358697954375e-03 -1.9034325784186099e-03 -4.4834623213673916e-03 -6.9426196846604019e-03 -3.2421311284621425e-03 -4.4204195657837619e-04 5.3705156101063745e-04 4.0422606258709581e-04 -2.3539321895104492e-02 -2.2628507146800897e-03 1.8212768090976883e-03 1.0908051403509124e-02 -3.6021928305622619e-03 2.4364365897220054e-02 2.8806930855695689e-03 -2.3206853199438798e-04 1.7860283308382754e-03 -4.7813968771598381e-04 9.3343415251288808e-04 -1.1216269015232715e-03 -3.7312254945970347e-04 1.9323488248887827e-03 -1.4127808966610270e-02 -5.8074140133460572e-03 -1.3819198676675281e-02 2.0339398253734833e-03 1.5682917950442452e-03 -2.1464899392422084e-02 -7.1812864395338211e-04 1.0934520042166218e-03 -1.5032403057297583e-02 -1.2003566064934579e-02 1.2183217619142775e-02 9.4131291190742775e-04 -1.0565901265767522e-03 1.2876317858058969e-03 9.7926409283745249e-03 -3.2162297116444805e-04 4.1310657544796348e-04 7.2311522408911172e-04 3.4221055430788370e-03 -2.1437919096560887e-02 -7.7575936684207147e-04 -1.0690860248265266e-03 -8.1267739185614946e-05 -1.2873163636808235e-04 -2.3175964504929276e-03 -8.1225759114050096e-04 1.2763854836163936e-03 1.5279048262985262e-03 -1.4521270902818628e-03 -1.7065249945994732e-03 -2.2231597351777058e-04 -2.3387254106499444e-04 9.4826082249583124e-05 -8.1342643103448839e-05 -1.1785402777343430e-04 2.9424534658027690e-04 -2.5308262287452449e-04 -1.6676880059093915e-03 -2.2459405581444318e-04 1.7827372265172836e-03 -1.4153363266887313e-03 -1.6812130025342089e-03 1.2892758088507220e-03 -1.3162503610997661e-02 9.1422736658277465e-04 2.4876806804249771e-03 -1.0138655458911475e-03 2.2197671976756289e-02 -1.2531378986926283e-02 -1.2362166983493901e-03 -1.0785950604970305e-03 -1.6945836167650081e-03 -1.0439111372213313e-03 -8.4881525350494723e-04 7.6379903255583900e-04 8.3031827617164808e-04 -1.1627339418537200e-03 6.6796230081957522e-04 -4.0590648556723848e-04 3.2661903376546633e-04 1.9842785419989448e-03 1.0664128492340540e-03 -6.7836091310953060e-03 1.2816208685378448e-03 3.4214750279606921e-04 -2.6150390503939715e-03 -1.5927492005255728e-02 4.5893196272765741e-03 1.7419091232745065e-03 -3.9003697679655495e-05 -6.5688354552966661e-04 1.4899304189520800e-03 -3.4167802936087332e-04 7.6466530885614670e-04 -3.5713832405801036e-04 -4.2316019161787455e-03 -1.7108629403748375e-02 1.3235686020757935e-04 7.4707374652684816e-04 -7.6079611768045132e-04 6.0798546643521826e-06 1.0860415740609119e-03 2.0414878804265736e-04 8.6847569098917707e-05 1.4580749410364512e-04 6.9312592754989101e-04 1.0117617168567796e-04 3.5044930620696199e-05 6.8920899104900650e-05 3.0905766834472001e-04 3.1753205878403659e-04 3.0375302651715992e-05 -7.6068193673533863e-04 -8.2307528074396599e-05 1.3088446246079834e-04 1.9069539300366981e-04 -2.9764864759498910e-03 -1.0421583102268109e-03 -4.1190269309512514e-04 -2.9468511461072161e-03 4.2394630690844020e-03 -2.6557902549238684e-03 1.0216563605999250e-03 1.4369667419041773e-02 -1.4886006809866487e-02 1.7877839542776851e-02 6.6640873825216205e-04 6.3947851227268713e-04 2.9541156965746593e-04 6.8658577241263972e-03 -3.1861053985701238e-04 7.5167986664639169e-04 2.4171436946954410e-03 -4.8484024733808279e-04 -6.2993525122436497e-03 -1.0077353312035187e-04 1.5896452092298285e-04 -6.4812558242066665e-04 -1.7687798761645279e-04 9.0044450174369545e-04 4.9833272061159881e-04 6.6691068232455075e-05 1.3934904415432714e-03 9.7465024987661297e-03 -1.2758845820886183e-03 -1.1301235839946515e-03 -5.7497066840942607e-05 2.8424966342158239e-03 -4.0752351633450458e-04 4.2246377816729503e-05 -3.2393809869424306e-04 -4.6692525244251956e-04 7.1589429466135837e-04 3.6344517926180028e-03 1.8221197330570704e-03 -3.0458597834026706e-03 -6.6832738992620086e-03 -1.3245379009693900e-03 -2.2032580901808391e-02 4.4667420385938825e-03 -1.1861508420073076e-03 -6.2510239248789482e-03 1.9586356295907544e-02 4.0352730840460330e-02 -2.7510704274323890e-03 -1.2770650631733934e-03 -5.5380435814466255e-03 2.4696271064174385e-03 -9.0023826459912151e-04 -2.4460066209354980e-03 -2.3324805375742382e-03 -2.6990219947867159e-03 7.3970069282564624e-03 6.5250410420345101e-03 2.7198762485216060e-03 -7.0445370334225113e-03 4.8818755005640999e-04 -4.7574155218171002e-02 1.4975787584852136e-02 -1.2474394018274753e-02 -6.2236714494206188e-03 5.8039782938858406e-02 1.4060338871628075e-01 2.4407519459559946e-04 -1.7577397195480331e-03 -9.6343760998736337e-03 -1.1808041041609334e-02 -1.0516912979270168e-03 -6.8892323875691663e-03 -1.2840664349085831e-02 -4.2567950588901452e-03 1.7985040518320228e-02 -1.2776182027661318e-02 2.6824091999280729e-02 1.7902855124904676e-05 -5.2708182459360528e-03 2.4439070072241605e-02 2.3847964871417916e-02 1.5438782954192036e-02 -5.2903442984630622e-02 -4.1485040369807727e-02 -9.4195901075918548e-02 -5.7881223742660241e-03 -6.6710457458663891e-03 9.0454033219306753e-03 3.1677475592244771e-02 -5.2319136689765646e-04 -4.0727726352131118e-03 1.9245769281330729e-03 2.3217231588804045e-02 -7.0382672451766146e-02 7.3899440098659619e-02 
      </Row>
      <Row Index="200">
        -2.0344929146331788e-03 9.5876547304576953e-04 1.6371858930982613e-03 9.6171573312006696e-04 -1.2268334910545652e-04 3.3144720305289584e-03 -3.4559858256068363e-04 -3.3069120330025958e-03 -7.0555135057277386e-03 -1.1673756824114806e-03 -1.0813835169240768e-02 -1.2209560347808089e-05 1.2909348138076737e-03 1.1051209869262918e-03 3.1604745987550125e-05 3.4993139059505754e-03 2.1766584202116300e-04 1.8370437093483708e-03 -2.4596388411104618e-03 2.6510755503191246e-04 -7.2927965906394686e-04 -1.7083243414495533e-03 -6.7555820980929162e-04 3.3278146886871196e-04 1.9167012099386830e-03 -1.9814767350097932e-04 1.9529240477129065e-03 -5.6721923484065705e-03 -1.1411156517572869e-03 -8.5646267416608461e-03 -2.2479518736621962e-05 3.1095413840111349e-05 9.3620147925885223e-04 2.4170371807908254e-04 -1.1337887569039112e-03 -3.8717118902989033e-04 3.4464193162883627e-04 1.8429034099587301e-03 1.1688364301998574e-03 9.6053863924372429e-04 -1.0151566640876492e-03 -3.5770732955766465e-04 7.4843997171331056e-04 4.1836710371823300e-04 -8.3570545159269982e-06 2.7526903797484639e-03 1.0449056629259386e-03 3.0593550195920569e-03 -9.9730910640302706e-04 -2.5893131104252377e-04 5.4098476800845154e-04 2.2740754498571172e-03 8.2642534794739701e-04 2.4889561860523884e-03 -9.0361550174555827e-05 -6.5920889281607313e-04 4.7468554297375835e-03 6.8644489232563832e-04 2.1423540606851129e-04 4.7418029784014257e-04 -1.4332958125526686e-03 -3.9694359167899637e-03 8.5977967719205219e-04 -2.8090768173928693e-05 -4.3762937698301196e-03 3.1405339476046554e-03 1.3214090986947546e-03 1.3159159821866271e-03 1.9418508380523720e-04 -5.1128105096647641e-05 -1.1489660222797932e-02 9.2664206998145648e-04 1.2318027540444594e-03 -9.1079123993003633e-04 -9.7343808333283724e-05 6.8060478994689221e-03 5.3574582552197089e-04 2.2854455488015984e-04 2.2115390620619600e-04 4.4606974580374396e-04 3.9590899460460434e-04 1.0989400573420292e-03 1.6978697795716783e-05 7.9849563697225595e-04 -5.9608710628509393e-04 -5.6840994034732667e-04 4.7574729870502913e-04 1.1977661147014561e-05 1.0590618161992576e-04 -5.4016002295700959e-04 -8.6810071439360169e-05 1.0016781761896729e-04 1.9496319205010697e-04 -8.8738524796427333e-05 -8.7718987187410460e-05 -8.3522893777818533e-04 6.5605913205840465e-04 7.8936161093786966e-04 7.6412319956290029e-04 -2.6654541157556701e-03 6.1097993853212375e-05 -5.9793730101186636e-04 4.1907097865040172e-04 4.3947828451630297e-03 -1.8417425972105123e-03 9.3256635177062610e-04 1.1538903386665951e-04 -2.6235550084525939e-04 7.1203938103624339e-04 1.3679361420919941e-05 -5.2170779391263805e-04 1.4709176315392397e-04 -2.1977340627654294e-04 -1.0489932611777064e-03 2.4795868128567947e-03 1.3633520848139180e-03 -9.2054962602530765e-04 -1.1578596554085634e-03 1.9484265423824587e-03 -5.2845520674927367e-05 2.5367959080724024e-04 -4.7534885279441538e-04 1.2733523437435425e-03 1.3617618051214773e-03 3.0847305832972963e-03 -2.3076553132042100e-04 -5.4717043911828951e-04 -1.4301183842416114e-03 -1.1677246725735831e-04 -7.6137776642050056e-04 -2.8644707611842201e-04 -1.6572478346082230e-03 5.0061198919601462e-03 4.3528459987632632e-04 -2.4185209363111911e-04 7.4742908194581263e-05 8.0689272304109328e-05 -7.5238655809473282e-05 1.3998348758425026e-04 5.9100891440650673e-05 -4.2945850869537073e-04 2.8032753850894986e-04 -9.5568734196630660e-05 2.5708021768747235e-04 -5.1580154431596726e-05 2.7179508812353789e-04 -1.2276562860336450e-04 -6.6790051666253770e-05 3.5438883721300234e-05 4.8404794266273499e-05 1.3752072954834895e-04 -4.9214463148238518e-05 7.2836246612065485e-04 -9.2769278501307400e-04 -6.9349137856790583e-04 1.5142373936288924e-03 -4.9366812712231230e-04 1.0785675834911130e-03 2.2781188336882911e-05 2.8554579981788690e-03 -4.3333413810459388e-03 9.2730699221520651e-04 -5.0179835358747866e-04 2.4234414876010647e-05 -6.7187573770554005e-04 -5.4646875797645673e-03 9.6184368058999537e-05 -1.0062705022984338e-03 -5.2698484317078263e-04 -1.2670400633531270e-04 2.9744838434022161e-03 4.6887910460521875e-04 1.2003805465787831e-04 4.1916447350402036e-04 5.3751478542037046e-04 4.8448729049128730e-04 -6.5732371739282355e-06 9.4932357733073028e-05 4.4897065811179068e-04 2.4869456860891100e-03 -7.0999437413444763e-04 2.5085866693360160e-03 6.8471218023963103e-05 -2.5137303876244789e-04 5.5782747440151536e-04 -7.2594823055417213e-05 -6.8878612098331737e-05 3.9862540821136673e-04 -2.1549223229259848e-04 -1.5962623754067762e-03 -2.7091743370663036e-03 -8.3036430060917654e-04 3.0726651598499207e-03 1.1196646169483846e-03 3.2664086909432385e-03 4.1998915079877117e-03 6.8252474548010592e-04 7.5782726447578392e-04 2.4067352930363887e-03 -2.7510704274321045e-03 6.4898646282228545e-03 -3.6706818051897142e-04 3.7087040593289612e-03 5.3693047747927977e-04 5.7059901873471476e-05 9.4239040849237814e-04 -1.6673731483518567e-04 1.9749837019821786e-03 -1.8422485191737950e-03 -9.1118437886105463e-03 -1.5282381817615202e-03 7.6976176703093023e-03 -4.0234960813511998e-03 1.2068113817036763e-02 5.2826012700450875e-03 3.8659053796023342e-03 3.6407292911235564e-03 1.5124316216074313e-02 1.1069500109454926e-03 -1.6172850361850424e-03 -1.4116938010050786e-03 1.0193785305259086e-02 1.2635607393358863e-02 1.3141051960332748e-04 3.8775614992131759e-03 3.5475460692392170e-04 3.0933983404353872e-03 4.7810801163348246e-04 -1.2110141128737414e-03 -5.6376922141929478e-04 -2.3435665599628938e-03 5.7868618294192884e-03 4.9546186368391119e-03 -1.2872343309250805e-02 -1.3683569752360094e-03 -1.0080888226193310e-02 -7.5961214484815843e-03 -6.1696151289645862e-03 5.6575964484029490e-02 7.1769598380222281e-04 1.2114198031442462e-03 -3.3917698305168643e-02 -1.1276405975107011e-03 1.6557872950734589e-03 -6.7200945726322544e-04 1.9118942370412277e-03 2.1806949855614283e-02 1.5414201371921310e-02 
      </Row>
      <Row Index="201">
        -3.3782630548868887e-04 -1.5531588887602067e-03 1.8287846786356633e-03 -8.4195681506108008e-04 4.1083517621292951e-03 7.7317041385050085e-04 3.5138739914302363e-04 -2.8460917958401284e-03 4.1347682261099871e-04 -3.6757513511865344e-04 -9.4207479038976969e-04 2.6553343742595644e-04 -5.4454316621748572e-05 -5.0138633066102237e-04 -1.2461968371381632e-05 1.0153546178562380e-03 3.4695298701922219e-04 -1.4269221087340710e-04 -3.3466856586728889e-04 -1.4375860077428257e-03 -2.6549228327886719e-03 6.9483745590473434e-04 -8.3318193833120538e-05 -1.7584880390766021e-03 4.0792775817535950e-04 -9.1538741095145541e-05 3.1923522408969585e-03 2.1879383230873819e-03 -8.3326958267521557e-04 -5.9574527134676706e-04 -2.9858060575705531e-03 -8.9873044143134323e-06 9.1932000261427387e-04 -1.1844018929336965e-03 -8.3495163504835462e-04 -1.8885512774113086e-04 6.0854556357876725e-04 -1.4860054505475319e-03 1.0429589012677723e-03 3.1664668649984129e-03 3.8900424213694079e-04 -1.5555395365440036e-03 1.5969695810503746e-03 4.9121362393716485e-04 -7.8195033734724737e-05 2.9783383101038979e-05 4.6385287413393365e-03 -2.6989536399806176e-04 1.8511568513474366e-04 4.2054028100240622e-03 8.0261665154197220e-05 -2.1879528063429837e-03 -7.5273867256370544e-04 7.9127709409425209e-04 -3.9265532540871673e-03 1.6546065157146733e-04 -1.3972189429128576e-04 1.5865629384752555e-03 3.2303685004527842e-03 2.5408480497474215e-04 -8.5805880516723332e-05 2.7461778544279076e-03 4.8184832040438792e-04 1.9465479960241450e-05 -3.2737815254009206e-03 -2.6553539263416345e-03 -6.8037936900522140e-04 4.1572058914161707e-04 7.2444910945518816e-03 -5.4776645626584790e-04 -4.5782259776355663e-05 4.0626456127473148e-04 -2.1219425068181620e-03 -3.0106163126349152e-03 1.2995938543550090e-03 2.3730127178597316e-03 1.0026094664278284e-04 6.4539317433318609e-04 -1.4098424045000998e-04 -4.3672832729141391e-04 -1.4102266554961757e-04 1.9550202684215514e-04 5.4078204146386030e-04 1.1006195278176478e-05 -8.5762792319129047e-04 -1.7013960729259786e-04 -2.3869470514903878e-05 1.1644136431732998e-03 1.9477253781267367e-04 1.3681877344213144e-04 -8.3845283988768951e-05 -3.5982253340221225e-04 7.1634916728465468e-04 4.0645137106889171e-04 1.1787853977150427e-04 -1.8220144384366310e-04 1.1604769470443610e-03 -4.1802322647171639e-04 -3.5470073272087215e-04 4.8130763337494130e-04 2.5691498343452589e-04 1.2681593875228546e-03 -4.6688719437904588e-04 4.3623627583719050e-03 1.0851984036896242e-04 4.8808243204488276e-04 1.7272542022415580e-03 -1.3946646354968739e-05 2.8510130604114951e-04 2.2482935043676702e-06 1.3908250410067267e-04 8.7260786584199062e-04 2.8006481332074702e-04 -5.9256874105519022e-05 -4.2182213941923340e-04 -5.1761402927985069e-04 -6.3508485238606294e-04 4.7951872266038678e-04 -2.3079896218912359e-03 -2.6467822114562846e-04 -2.6948206810730385e-04 8.9678253144136037e-04 -4.1332602614755163e-03 -4.1087045784962825e-04 -8.6883741847114149e-05 -1.0238602750311265e-03 -4.2626696133117657e-04 -2.6921663881180865e-04 -4.0429128867318175e-04 -3.6806296900113861e-04 -1.4003187980172121e-04 1.1663537768885602e-03 8.7350033388790033e-05 4.1657789684966464e-05 -2.1543996907148196e-04 4.9104107702016206e-05 -9.1284643766658812e-05 -3.9180738774325096e-04 -6.5712681575115869e-05 -4.9768344302865171e-05 -2.0223650061639600e-04 9.2517680995319890e-05 8.1311921947660720e-05 -2.2189439220733487e-05 5.4873755106997188e-05 -3.1288138936980819e-05 -8.4037851554766014e-05 6.5224396991801518e-05 1.2984704926754864e-04 -6.7180025373314659e-05 -4.8474708968280469e-05 1.1589292231836928e-05 1.1905477413475486e-03 1.8001862073740401e-03 -3.3767811594175891e-04 -1.1271626822651670e-03 -8.5979778572339719e-04 3.7226383289117200e-04 1.3905770876775726e-04 -1.7211479827936166e-03 -2.8903563458250615e-03 2.8820820324092342e-04 -1.9899189274132420e-04 3.0855194978037052e-04 -3.1443437974085437e-04 6.1996403251342747e-04 -5.2573266411377591e-05 -1.5935293930238771e-03 -3.1991120863633692e-04 -3.2807847375436190e-05 9.9275401459647918e-04 -4.6640488246101411e-04 5.1515120638698578e-04 1.0724951314065867e-05 4.2095002171254562e-04 -2.5006313736970136e-04 -2.3056281016982415e-04 3.8457962380385874e-05 4.9511047564487765e-04 9.3941569933756255e-04 7.2870381025288630e-06 2.2776726990723353e-04 -3.7274882857668253e-04 7.6890685358908524e-04 5.7248017282933580e-04 -5.5104486401781455e-05 -1.1516811555001630e-04 -3.0048517611458111e-05 -4.9769227139928953e-04 -3.1332452944552716e-04 -2.5920057534932102e-03 8.1449529417503587e-03 -1.5153945036501084e-03 1.6710776564556917e-03 -8.8452212941073152e-03 -8.7833387593177993e-04 1.0085031981610381e-03 2.1970307766690368e-03 -3.3636253035566957e-03 -1.2770650631716968e-03 -3.6706818051816142e-04 5.9843772791890789e-03 9.4644180291300953e-04 2.8503058522780429e-03 9.9806526579322664e-04 -2.0263342039413476e-03 4.3392570354240179e-04 -2.3884226990851950e-03 7.0694181419519346e-04 -7.2833922239966993e-03 1.2491257382018454e-02 -1.1340424803649935e-03 6.5619527625318808e-03 -1.0315871832347378e-02 -3.4187647141769428e-03 -2.5267023469801191e-03 5.6555440504565471e-03 4.8041657515734710e-04 -3.5041342185219504e-03 -3.3645724898738773e-03 9.8986669802704833e-04 2.1605178529336775e-03 -1.6613066299305439e-03 2.7732432126757411e-03 -4.2650731508777490e-03 -3.2556444351939319e-03 -3.3545990566462743e-03 2.8947105481085212e-03 5.1770291904031981e-03 -1.0067294326940222e-02 3.3705685882020643e-05 -4.3496964533737987e-03 2.8080166892743771e-03 -2.6492583729965649e-03 5.7835786637633101e-03 6.2397201096161953e-03 -1.1401420828082277e-02 -4.8076505115755559e-04 4.8754539991246806e-03 1.7365997460867477e-02 1.7247985841254314e-03 6.1193220981876732e-03 1.6805174432617809e-03 2.4421831691900497e-03 4.0472548590179446e-03 -4.1895532334852870e-03 4.8134106964914207e-04 -1.0614943322928441e-02 
      </Row>
      <Row Index="202">
        -1.9679306344485155e-03 -1.8244191046555124e-04 -6.1011398098805556e-04 -1.6971962887280976e-03 -4.7961723274648506e-04 -2.0310088331761777e-03 -6.5796293851464257e-05 1.2438891301096229e-03 1.5144197831336243e-03 -4.7182448069485114e-04 1.0965385023267850e-03 1.5848284378640126e-04 -2.1227198884256064e-03 -1.4420674400079554e-03 -7.7097149890454090e-05 -6.6813863549307351e-05 4.7426269537098901e-04 -9.1688115004714228e-04 2.2468789653837073e-03 -5.2149536859266092e-04 1.0887970202255500e-03 6.9624283364914333e-05 3.6896835235300822e-04 1.2592803860993818e-03 -1.6057921608963232e-03 5.7507100572550942e-05 -4.1134850669291096e-04 -2.6134538314587534e-03 1.0391450867372459e-03 9.2983333858928988e-04 4.3193473572266002e-05 -9.1724958429080430e-03 2.4686100899699935e-04 -4.1267511930939531e-04 -1.5105503232696032e-05 -1.9590781096426525e-03 3.3720978959020723e-03 -1.6954692364371748e-03 -5.5475637498338037e-03 -2.9651155490795569e-04 2.9457981085523506e-04 -1.6231712063022471e-04 -2.7461156889992482e-03 -3.3671809678381681e-04 1.5199927755081988e-04 -1.0262747591687875e-03 2.5963672650920712e-04 9.1769851727537357e-05 3.9566386330368872e-04 -4.7934383621911882e-04 -3.3243106072086324e-04 -1.3964473618620628e-03 -1.8544085282032731e-03 9.0326568267021386e-04 2.3006175678848056e-03 5.0455689381218678e-04 -2.9106965442108196e-03 -4.0799696271477974e-03 3.9494966177565209e-04 4.3997469295633889e-04 2.1743872715055805e-03 -1.5004734917220760e-03 -4.3630133322087640e-04 -3.5984568238795487e-04 8.7993001734822281e-04 -8.9461397349014380e-04 9.7806638923782327e-04 -2.4380748031482499e-04 -8.5057661926444964e-04 -2.4963845043197569e-03 5.8990443507160630e-03 -1.1174076486723753e-03 6.3107164289830575e-04 1.7719920346189537e-04 -9.1240045081757604e-04 -3.0673228132099962e-03 -2.8929757555010626e-04 -5.1106642645382138e-04 -1.0939962154012269e-04 -3.9949961621348659e-04 -4.9226785835031596e-04 1.4392741478943196e-04 -9.2562379292829931e-05 -4.6165232885992270e-04 1.8890169084134706e-03 -3.4870022443842853e-04 2.5410055932676182e-04 -7.5465294897519392e-05 1.5229180614851241e-03 -7.2632978541002912e-05 -7.7055425180319663e-05 -8.8901195089586556e-05 -4.1701893766454845e-04 7.8821045873765216e-04 3.3750444299523842e-05 2.5523530789300229e-03 5.9315225163451629e-05 1.0854865051065628e-04 -1.6888909887270939e-04 2.5169066153089012e-04 1.9567580825209370e-04 -4.6473357262349885e-04 -6.3275756672101719e-05 -8.0743809538485556e-04 -4.7601966010397782e-04 -1.1453476972468325e-04 -2.7307403464171202e-04 3.5704723588632328e-03 1.6945042673490040e-04 -6.5008946732556146e-04 -8.3840794413348276e-04 -5.2395955078073054e-04 2.0515701548037425e-04 2.4690391134346226e-04 -3.9250286273875296e-03 5.5696021750663142e-04 -3.0751360654930908e-04 1.0502750929570212e-03 4.1186588434836806e-04 -2.2305398706063534e-04 2.2451969340057536e-04 1.2256174000329332e-03 4.5969660010516068e-03 9.6397420557996108e-05 -5.7377597751647174e-04 3.5484895529359233e-05 2.8582447267188615e-03 4.4094196843765150e-04 -3.9940207791486400e-04 4.9872632992277064e-04 2.4292138591896110e-04 2.7751048963434470e-03 -1.2643397845714067e-03 2.8564120515037601e-04 -4.6825039854422873e-04 -4.1801072606919567e-04 6.9512160769903217e-05 1.4272599798221221e-04 2.7522230228539430e-04 1.2566768731145199e-04 -7.4299566934699838e-04 8.0549575718383780e-04 1.6846721602265958e-04 1.8961505137051133e-04 -5.5748650264143688e-05 3.8159322835645154e-04 4.8176673107174650e-04 -1.0114480650137007e-04 -1.5510039463298523e-04 1.2673238461912207e-04 4.6781338781849794e-05 -5.7579616440765192e-05 2.7197612677481880e-03 -2.9583415231260754e-04 5.5957930965966503e-04 -1.7178560804955265e-03 3.2788738791737315e-03 -8.7021361710617454e-04 -1.0894705717842248e-04 -3.0459558477045223e-05 2.3129101620609537e-03 4.0942684781388041e-04 -4.6172366770241884e-04 -8.5918854991989818e-05 3.9740841983601054e-03 3.2732969489821851e-03 -4.9732374764316334e-04 -3.6110358621538070e-05 5.5775602738318108e-04 -6.0090877588819510e-04 -1.0270696577018815e-03 1.3394503018251927e-03 4.7105475249556265e-05 -4.3243835976944584e-04 1.2663053323946042e-03 -8.3135357449532345e-04 1.2042037475101285e-03 -1.0349517772876545e-03 -1.3434477368993456e-03 -1.2081769374956331e-02 1.1799829799246132e-03 7.1678944088730010e-04 1.4365549924495453e-04 -8.8219871014715463e-03 -1.3673541860012013e-03 1.0050437472214641e-03 6.3289395792986026e-04 -2.6480127446995663e-03 1.7609843410633520e-03 -7.4796030634587747e-04 5.5888887796500045e-03 -5.9753321324330856e-04 -4.5585342936758775e-05 1.6944016670160469e-03 -3.5743262517786102e-03 4.4693169434563288e-03 7.0968687716720861e-04 1.3970370062317788e-03 3.0695846056990692e-03 -5.5380435814495798e-03 3.7087040593312501e-03 9.4644180291316186e-04 3.1898026303076664e-02 2.9857274537000876e-04 3.7185028577038431e-04 -4.8725488531790925e-03 8.4122026548472204e-04 5.2072889368863628e-03 9.5572820334848116e-04 1.1508923189806914e-02 -5.8985833742044701e-04 -1.3216662168641967e-03 9.3731901269653636e-03 -2.2701033263465717e-02 1.1833569094762500e-02 3.9044422021915172e-03 3.4132220007440520e-03 9.2760455810371786e-03 -1.3396713428061048e-02 1.1869766222351551e-02 4.2413760465937166e-03 6.9719130537167481e-02 -1.0078878938222376e-02 1.6560736846515029e-03 -9.5642166261151844e-03 4.9617382946889766e-03 1.7298008173766005e-02 3.4805035499262697e-03 8.4565157000938904e-03 -2.1374005456636230e-04 4.1075130883162688e-04 -5.5822763295059856e-03 6.4619032033695666e-04 7.8443843980889345e-03 -2.3910110287105853e-03 2.8255481133562591e-03 7.6247200644974991e-03 -1.4003882546776824e-03 -2.3201475574622025e-03 -3.8020455824336542e-03 -3.0222789710642232e-02 1.9523449487819606e-02 2.7099130171761021e-03 -7.8747393730474631e-04 -4.9195493276477844e-03 -7.9584401528047920e-03 -6.2599153553062519e-03 9.0034430181059439e-04 
      </Row>
      <Row Index="203">
        -6.2805316402081554e-04 -3.4625662170779253e-03 1.5471165425420125e-04 -1.6326909468733872e-02 -1.4771036862575165e-03 7.0221804787906315e-03 3.1226038014828088e-04 -2.4392500565067199e-03 2.2894531337483495e-03 4.6224009075216572e-03 2.2463042801440600e-03 1.4014950400658191e-03 -3.1355983209589711e-04 -6.3536460723001564e-04 -8.2842943109515468e-05 -7.5401306124461623e-03 7.0165153852923615e-04 -4.1273036848696321e-04 1.6856837356882488e-02 1.5981419258823230e-03 1.0122413210765097e-03 4.2428148825481293e-03 2.5606750699417244e-03 4.7946443043025977e-05 4.8559259488935962e-03 6.4194491682427175e-04 5.1634685181962091e-03 2.0346093667894416e-02 1.6333035090040013e-03 2.5227862321157285e-03 -2.7205996469876342e-03 1.0594601117881607e-03 -1.0389890413247919e-02 -6.9889386056459606e-04 7.6142998915297577e-03 8.9320716146297561e-04 -9.9282990162879656e-04 -1.4199026256113939e-02 6.9646125003238260e-04 -1.6518781468956023e-03 2.9010614445374450e-03 -7.4903523935166139e-03 -1.4697200310507391e-03 1.9097917369017003e-03 -9.6193843209197577e-04 2.6903757150588854e-03 9.2360886678733156e-03 -5.2296858077646863e-03 3.2775082524251348e-03 4.0199115279865236e-03 -3.1922440428684695e-03 -2.2616778450471733e-02 2.0136421763009699e-04 -5.6655598483036779e-03 8.5592385490948497e-04 -6.4545726011664708e-04 -3.1702904643244358e-02 -1.0641710232887847e-02 7.5828214102706742e-03 1.3407264130531407e-03 2.6112042316939144e-02 1.2749775704416703e-02 -1.9498167311306595e-03 6.5023105327874364e-04 -1.5373174804067524e-03 -2.0611023438556392e-02 7.6731153465527460e-04 -5.5195335049147247e-03 3.3426070548110620e-03 2.9821766759808264e-03 7.1647041904112474e-02 1.0258574763760409e-03 7.9770339672484980e-03 -4.7327484117654804e-03 -5.3628319120943742e-04 -9.5274274337332002e-03 -5.7815942479567950e-04 -1.4240668494597264e-04 4.8783269225828249e-04 -6.8722899748975821e-03 2.4924764881641571e-04 1.0831711252527135e-03 5.9812135635693795e-04 -6.4016646453587955e-04 -6.1843971124854041e-03 2.8204528547283447e-03 -4.6113226787135309e-04 1.1244040744034563e-03 4.9252144359079365e-04 7.8154924396131170e-03 2.3242296732642808e-04 -3.1152859954327247e-03 -6.6675302632752693e-04 4.5343291744820088e-04 5.3198732591575992e-04 1.2163446080901905e-03 -1.5947338682891117e-03 -4.3703619401759867e-04 -1.0191284226036476e-03 2.4764015874738504e-03 1.8982815144892497e-04 1.4716310858524709e-03 -2.3706986977076461e-03 1.4468481390003354e-02 1.7592195120155110e-03 1.6287626352950628e-03 2.5540824647654306e-03 -1.7215509496029777e-04 3.3649726896626030e-03 1.9514885870533950e-04 3.5744935394962755e-04 -3.2641550778352360e-04 3.7959460271145586e-05 2.8568634336982634e-03 -4.0068963854603392e-03 3.1223294825647313e-03 9.0619670339534344e-04 1.0195808373914698e-02 -2.7636014435192969e-03 -1.1153774380501583e-03 -2.5790925787480665e-04 2.1726667355315516e-03 -1.4498043282357397e-02 -2.2036723363740838e-03 -8.0155236500284227e-04 -3.2626785122750451e-03 -1.1532550307453303e-03 -2.5372570898042441e-03 4.5642130080034886e-05 1.0591297235538893e-03 -1.2294302609250829e-04 -1.5513919243884075e-03 -2.3735647349989630e-02 -1.1663487489071958e-03 5.0693035456772029e-04 -1.2751351168232400e-04 -6.3170656124947788e-04 -6.0418732655126580e-04 2.4203941846053390e-04 -2.0731131059129133e-04 1.0277577801183397e-03 -5.1678086302112299e-04 6.9174430721003692e-04 -1.7567221109816649e-04 8.6090559390513847e-05 3.8779997187990206e-04 1.3894518922933975e-03 3.4690145983244680e-05 3.7228843344218766e-04 5.7486385159165288e-05 9.5266691884962401e-05 7.4936248925438001e-04 5.8723143255886429e-06 3.4738737606518980e-03 -8.9241113055072048e-04 -1.3787076312636449e-02 6.8072643421261281e-03 -2.5720832069115363e-03 9.4242026159678917e-04 3.0685605391875172e-04 3.3109487827764073e-03 2.0956916449227608e-03 -4.9416876833214326e-03 -1.1678505424559764e-03 3.4189825416891355e-03 3.2284818076188312e-02 1.1931373537597404e-03 6.5196357125259924e-03 -1.9539238292890023e-03 -9.1421359316732047e-04 -4.0604495093561057e-03 7.8831655339943463e-04 -1.1190174831034044e-03 -1.5077694285648702e-03 -2.0482999587091884e-03 -2.1101905673812761e-03 7.3754668657725203e-05 -1.8345890085442323e-04 -3.3980600866168054e-04 -2.9965769493425776e-04 1.3767953477840031e-03 -3.9641955564660540e-04 2.9559485658692611e-04 1.5450996667528544e-03 -1.6900218926368684e-03 7.7440579723831864e-06 -3.4308887685446376e-03 3.0578728983093797e-04 2.2234430096463669e-03 4.6802047449995623e-03 8.9097903299518999e-04 1.2317152674132820e-02 -2.7585087518176947e-03 1.3572801341121240e-03 -4.3895076564718135e-03 1.3507403824484599e-03 -8.1633097981254499e-04 -1.7680357719609379e-03 -2.2627415503403490e-02 2.4696271064138884e-03 5.3693047748581317e-04 2.8503058522824343e-03 2.9857274537412981e-04 6.7680582450151183e-02 2.6407209410490434e-03 -5.7322719090126548e-03 -2.0348548361053152e-03 3.2084427868066413e-03 1.2457671797184504e-02 1.3017476207122776e-02 1.0262444370331655e-02 -3.9387812715700977e-03 5.8495160420288628e-02 -1.7420711793275680e-02 8.5200418247429691e-03 -9.6000715550622895e-03 -1.7551389347197966e-03 -6.1034738722615112e-02 -6.3807940423355070e-03 7.6911291200549977e-03 -1.3063054671489174e-03 -9.7980282173894071e-03 7.4415799869756022e-02 3.7376546459425685e-03 -2.3164487223556907e-02 6.6256829303701532e-04 9.3450357567111154e-03 5.7700392320887244e-03 -5.8289781418809309e-03 6.8305401750058670e-04 1.1207720283502885e-02 -7.3889095091863935e-02 1.9725718902356298e-03 -1.6835387621275587e-02 7.1744832213966880e-03 -7.6983091367646139e-03 -3.6601914090517565e-02 1.0326659875149710e-02 -1.3225707111091695e-02 3.1691196069034859e-02 2.2206987020172032e-03 2.5961601570273640e-01 4.2010012947235609e-05 -1.5956585755770625e-02 5.1463448583499369e-04 6.0240310787060478e-03 -9.6122784138053016e-02 -4.3324858973872588e-02 
      </Row>
      <Row Index="204">
        -1.2013719282881914e-03 -3.2405852646727809e-04 2.3469575975137158e-03 -4.8541612824744415e-04 -1.5393054456051731e-02 -3.9828554154967138e-04 -2.1015630833732656e-04 5.5413742155912583e-04 1.5274722242198443e-03 1.0200049943387786e-03 7.4571104401146974e-04 -1.9410047747154993e-04 3.7902303557877260e-04 -5.3288836521312734e-04 2.8372310244820171e-03 6.4258178728049571e-04 1.1884417854891036e-03 8.8214603717494487e-05 -3.2861685493379552e-03 -2.4252732975649834e-04 -3.8879766536781355e-04 2.3693356501703830e-04 -6.2826816150676442e-04 1.6812625597678876e-03 -5.9862297062233342e-04 -5.7571497315555263e-04 -8.4327174471159365e-04 1.6716928442271246e-03 -3.6442808117768261e-04 -1.2288790300242405e-05 -5.3554653954342862e-04 6.6621543898957088e-04 7.0033248444098810e-04 9.4231337008248879e-03 5.5139283248644214e-04 6.4672805751575706e-03 -5.2050803361575020e-04 -2.2369368077010390e-03 -7.9700766726915266e-04 -4.8902193674393857e-04 9.4547995434370730e-04 -1.3528547475432553e-03 2.2862888527608767e-03 3.6204659946185904e-04 1.6544230077353717e-04 8.1149473134908053e-04 5.1546666067868365e-03 1.4270010835507234e-03 -1.9625313488731526e-04 -1.5945368550022293e-04 -6.7288758673370638e-04 6.3856161893545427e-04 2.5248716588334701e-02 5.7006237442579428e-04 -3.0298006434021606e-03 -7.6155215258041204e-04 -3.4977266954775614e-03 -1.0021719148157193e-03 3.6990099070340673e-05 1.2531103160434093e-03 3.5717250539971102e-04 3.2372845295269440e-03 -1.5863289068083694e-04 -3.2750619261605329e-05 3.0912336303502708e-04 -6.9027651572374851e-04 3.4624595488506708e-04 -9.4034878667123263e-04 -3.8396164874776335e-04 -6.3759582430202629e-04 1.4306459405098459e-03 2.0824569428347501e-02 1.4470108958898262e-05 -1.5557307904876933e-03 -6.3017931527106601e-05 -7.2305272937457036e-04 -6.7773669071761675e-04 -2.5734552143730736e-04 3.0316274667969729e-04 -3.3854486865897340e-04 -8.5132476804961510e-04 -2.3887340749791498e-05 3.1900583642223380e-04 1.4599090516293281e-04 -1.2349357216556826e-03 -1.4628596374185836e-04 2.1315180237091241e-04 -2.1771752993286807e-04 -1.3541382717243263e-04 9.6479425975603541e-05 2.3531288197690767e-03 9.8067264492848272e-05 1.9356596926462797e-03 -4.9773398898753682e-04 -5.6217416928222336e-04 -2.0840121808932827e-03 2.6003398415852920e-04 -1.0654111307445343e-04 -7.2301079095310689e-04 7.3908573018909574e-03 1.5490376629453029e-04 5.8527405162771468e-04 -4.4626589607760876e-04 1.2191254489405598e-03 -2.2227020125944411e-05 -1.0357695868379546e-04 -4.5247115727224609e-04 -6.7897385403933896e-04 9.2345355340816507e-04 4.2394545916170255e-03 1.0396212075236280e-03 5.6751511716997020e-03 -3.1363061619849638e-04 -2.3187412401087298e-03 1.8663422771254524e-03 1.3551502702354151e-04 -9.1888116082194070e-04 2.2297936321525878e-04 8.2919750917945980e-03 1.2489720554966361e-04 6.9337365761363570e-05 -1.2459391536133717e-03 -2.5186771112020081e-03 -6.1452466289640614e-04 -2.9042616204052958e-04 -5.8502042685106253e-05 -6.5189528759202853e-04 1.5784923590468885e-06 6.7971109814498264e-04 -6.3135400042548320e-05 -1.2745415525189391e-03 -4.4413323956355626e-04 2.9712956886262321e-03 -3.1719066689164842e-04 4.5417652989506168e-04 -1.5012812320998000e-04 -1.6617076252293671e-05 1.8164301548259250e-04 2.4052342644521886e-05 1.0951392468127141e-04 -3.8978612285222095e-05 -8.4615750738327141e-04 -9.4528097437218260e-05 4.5879115812928379e-05 6.2259442905617809e-05 1.5394902747511370e-05 1.5509601228369787e-04 -2.8006188816670052e-05 -9.4013071375736074e-05 -2.7086280884764004e-04 -2.8584487141069056e-05 -1.1631614046809380e-04 -6.4415557492919842e-05 3.9426490225762589e-04 -6.6717101934236911e-04 -6.2185884342632637e-04 2.6967195229589780e-03 -1.2246525638903423e-04 -6.9545947555920459e-05 -4.7734968923218582e-04 -2.2409097886849569e-03 -4.0354514364544504e-04 -1.6449396364924708e-04 -1.6098205058958829e-04 -5.3723898879151004e-04 2.2853810645231238e-04 1.1009102971822381e-03 -2.4910352571238647e-04 5.9045041323425233e-04 -2.0318532616247302e-04 1.6668413230427944e-03 -3.1237230626086909e-04 -6.1536282975931111e-04 3.8070821329852164e-04 -8.7646875479508585e-05 9.6494207756845718e-05 5.6001104462593057e-05 9.4653917101259616e-05 3.4041568361216704e-04 1.9097028567304445e-03 1.5220789568415674e-05 -3.4600674652556559e-06 -7.3707860930546584e-05 1.3589413010240076e-03 -2.5528423615984270e-04 -1.7943386563710442e-04 -3.3006436116082838e-05 4.8850491859979037e-04 -3.8855863521196490e-05 -7.6030902840479005e-04 1.6668989178266272e-04 2.2535105522180536e-03 -6.0094836796507206e-04 8.3036971095941251e-04 2.2997840342727080e-04 -4.2286952319875356e-04 -5.9787777385797176e-06 -3.2864885010103326e-04 -6.5689024009908991e-03 -9.0023826460227199e-04 5.7059901873140768e-05 9.9806526579379238e-04 3.7185028576914691e-04 2.6407209410467679e-03 1.1402846900814029e-02 -3.5201456723566447e-04 3.4582274421425183e-04 -2.1631002149463240e-04 -2.1878197756294562e-03 4.5101660259888200e-03 3.0954502347804048e-03 1.0767013693138367e-03 5.1833581309699414e-03 8.2046013806676837e-04 -1.2416975476578040e-04 -1.2860163780515350e-03 -6.9032450252273390e-04 -9.4279518609292727e-03 1.8897421306640324e-04 2.2479021898731992e-03 4.2427157602446947e-03 1.8386141570967672e-03 1.6378915949120220e-03 2.6362357747915739e-02 -1.7576193048620126e-03 -1.2044734675531986e-02 -6.4286660146049238e-04 -1.7092820221111375e-03 -2.1785761808116185e-03 -8.7011455062300722e-04 -6.2766134871058477e-04 -1.9267328975563747e-03 -1.0072079116601719e-02 1.9610312394095445e-03 6.2900786644611746e-03 -2.0896345770373831e-03 -1.0016914797689395e-02 8.5473593769172583e-04 5.7866872883267039e-04 -8.5815549329579764e-04 3.9864006259395226e-03 3.6891493492197981e-03 -4.1173673534680863e-02 8.0022204094358593e-04 2.3213381230396058e-02 3.4279950727839530e-03 1.3067635266991291e-02 7.5690053830713361e-03 
      </Row>
      <Row Index="205">
        6.0675996647442231e-04 -1.8549449545644636e-02 -2.2436641894073156e-03 6.7627480704258221e-03 -1.0551959901773655e-03 2.2805373355715142e-05 3.0298033163808982e-04 -8.4360723151546968e-04 -3.1273604247422163e-03 -5.0557494401057730e-03 -5.4317648529135856e-04 1.5430186701826283e-03 -8.3076678015620714e-05 4.0348859816010212e-03 3.8940434569055549e-06 3.5119568238590623e-02 1.9931986470210676e-03 4.7401995370158212e-04 -2.6639310020757168e-03 -2.4158478918820493e-02 7.7209471677081934e-03 -4.1582862586836411e-04 -1.5560792833866077e-03 -2.8835294753859486e-04 -1.1897631066968214e-03 -1.5687074393394300e-03 3.4973234130282679e-03 1.4406169977973504e-03 -2.6381406847098901e-03 -3.3775372418961142e-03 -1.8946266999405603e-03 4.8609404536004500e-04 -3.6155140621759270e-03 5.2094335885417842e-04 -4.9297052645383921e-02 5.3618756476595062e-04 9.5231226308697958e-04 2.9286658307422775e-03 -4.0709610608762395e-04 1.0859100663435095e-03 7.5865361828425515e-04 7.5336649707254399e-03 -3.6834422885659024e-03 -7.4318778138042496e-04 9.9153031353899079e-04 -2.0745023501207993e-03 1.1775798256649650e-02 4.3712237879545840e-03 5.6451008805065428e-04 3.2908712896275311e-03 3.7534543525061248e-04 7.6309355762148728e-03 2.5532544308588812e-04 4.8723311369965105e-02 -4.0184771442299816e-03 7.1384145242615049e-03 2.1364113713636806e-03 -6.4688088819582767e-03 -1.9976497434438564e-02 -1.7851955324432803e-03 -4.8676791928682420e-03 5.5915704443383965e-04 5.7758385454470540e-04 2.6436374622229586e-04 2.0091572446712114e-04 -1.0595466262170450e-02 9.2725111393051479e-04 1.3334257293883128e-03 2.0502923282048960e-03 1.4124052913611074e-04 -5.5251337093593679e-03 3.9985452329804883e-04 -9.2611936855332144e-03 -2.4209764856059062e-03 3.1480265688694706e-04 1.3915923053446286e-03 -2.9234219015472351e-03 -1.0702786878716286e-04 2.2602483771970786e-04 1.2095429102630300e-03 -1.0991265261769689e-03 1.5890746727963753e-04 1.9020212247358912e-03 7.5810969910494741e-04 -4.1710613589623913e-04 -4.2972498381602109e-04 8.4864974938553966e-06 -1.5338062233748520e-04 -3.1485078393754745e-04 -1.4881225801749338e-03 -5.0532042647584083e-05 -2.8153460695312070e-03 1.4535789347464492e-03 1.2853949298046209e-03 3.2520069816183855e-04 -1.1884962573507490e-03 -4.0381642261010930e-03 -3.2838406938523641e-04 -2.1956917458459575e-03 -4.3524523464073123e-03 3.9472873501922648e-04 6.0031221039874589e-03 1.0395858890506829e-03 -5.0880875355667210e-03 -1.4199870645531104e-03 2.8488557577874708e-04 8.4061887305195149e-04 -3.2114625355391920e-04 1.7505318770652863e-03 5.5939446169258993e-04 -7.2894398948687277e-03 3.2428243181638478e-03 3.4059773520338753e-04 -4.8239968631881222e-04 -9.0770297038511791e-03 4.7229497476136695e-04 -1.4114605632378069e-04 -8.1823330536448004e-07 -9.5267026315845030e-04 -6.5567593125698872e-04 8.2605682134736635e-05 -9.5985409246929741e-04 4.5922541750489654e-03 1.3875638712487716e-03 5.4619048231795402e-05 2.0092977077624998e-04 1.0761399299481496e-03 -1.8782031173047494e-03 -3.9101032600588788e-04 -4.4762269673011557e-03 7.3289793083551732e-04 6.8015303288535027e-03 2.7125725642939396e-03 -5.8050411418630486e-04 3.6103137732101769e-04 1.6744275049668375e-04 1.1900572470174180e-04 1.5454340450020078e-03 -1.5459489007157838e-04 2.1494510838512214e-04 -9.6310649608738388e-05 -1.5560224233505376e-03 -7.5691846361094660e-04 1.0738548775328588e-04 4.3419527625822189e-05 -1.1350994486525106e-04 -2.8818874225101281e-05 1.4879961234838058e-04 -2.9327154387130076e-04 6.2070989025709645e-06 5.0539637590958381e-05 9.1610665941925518e-05 1.7604049427594227e-03 -6.1315704497918316e-04 2.9572018518488549e-03 4.8915543749879914e-04 5.5103849350020516e-03 1.5547641131196874e-04 -1.3199237147358458e-04 3.3819773297651002e-03 -2.7981571130613753e-03 2.4133162801154876e-03 -2.5257225193712259e-04 -2.4275381153206479e-03 1.1428601679369654e-04 -1.2459968965287267e-02 4.3383034478668928e-04 -3.8214729058004999e-02 -4.1620388961475050e-03 -2.8060231104938488e-03 2.4577750370095627e-03 -5.5334364487388821e-03 2.9863246384072839e-03 7.8521976453821418e-04 -1.4276024834907544e-03 8.5919441052734712e-04 3.4531893242530087e-04 3.2622233239328058e-04 1.4103793587151303e-03 -1.3718905484599864e-03 -2.7448746117894607e-04 1.4366246249639981e-04 -9.1863484838211606e-04 -1.1865460514074826e-03 -1.3541196823287083e-04 -1.7217385519598550e-04 -1.0646974191935665e-02 -6.2841024408359604e-04 -2.3523882639669069e-03 -5.2017285213273173e-04 -1.6274540466853754e-02 -5.6633616094694285e-03 4.6726541295511112e-03 -3.5921638171145971e-03 3.6021243524628384e-03 1.2480348986799749e-03 -6.7425747360507675e-04 2.0242339632046795e-04 -7.1693400499874757e-03 -2.4460066209268600e-03 9.4239040849224901e-04 -2.0263342039410609e-03 -4.8725488531844267e-03 -5.7322719090291763e-03 -3.5201456723799778e-04 5.1281497482618441e-02 1.1990298628538874e-03 -2.5247293311955973e-03 -1.7787713145772589e-03 -6.3892626219003348e-03 1.4549749357749324e-02 8.7570199574784936e-03 -5.1046202284414643e-04 -4.3944482396141328e-03 9.0904270775096600e-04 -2.1425937067874351e-02 -7.6408910929165420e-03 -1.1230195520825978e-03 -8.3727716352153050e-04 1.4363457996857715e-03 -1.5470616457156517e-03 -1.0391879854437191e-02 4.4784966472063301e-02 -2.7048735713722954e-03 1.6812433880284461e-01 4.1141043375376041e-03 1.5447598139450826e-02 -9.9490140080068547e-03 6.4700920260815586e-02 3.1679382575079865e-02 1.0364391251108107e-04 1.9030515739484190e-02 5.6364068801749477e-03 6.2052761045109078e-04 2.3123537969104067e-02 -3.4569680508441669e-03 -3.3573745037374092e-05 -1.3064570688071946e-02 7.1956537779512553e-03 9.1769688715282165e-03 -7.5151828302833261e-04 -4.7516554560642216e-02 -1.8269733945804226e-03 1.2004296218389696e-01 1.4463156889723570e-02 -2.1022092203858346e-02 1.1691589062495992e-02 -9.0902971864267879e-02 
      </Row>
      <Row Index="206">
        1.4363994235900695e-04 -2.5849109580531656e-03 -3.5936549658453949e-04 1.4883461315927753e-03 -2.2200510196684542e-03 -5.3041444191048032e-04 3.0421174871847565e-05 9.4907279695221822e-05 1.5018597936521001e-03 -9.1049537320919997e-04 1.4760808283317340e-04 -3.9513541835086536e-05 1.9079911626143620e-04 2.4263958430733590e-03 7.8930238334009965e-04 1.4391337585452964e-03 5.3954458425996092e-04 1.3215439406412746e-04 4.2429883810374107e-04 -2.6567642521972915e-03 -8.2454947541609879e-05 3.3874732582772279e-04 -8.8161162433935617e-04 -1.5062654080125158e-03 -6.2646374142166501e-04 -1.4576664977970198e-03 2.4707919975992497e-03 -1.4759523027367749e-03 -1.2564189064406147e-03 2.9990994915136309e-04 -3.1360232646552751e-03 2.1316399412677509e-04 -2.1154351062025265e-03 8.1627264257115185e-03 -3.7538820718981923e-03 5.5319973862229801e-03 -3.3928172952560256e-04 -5.8992222429811447e-04 2.6918967023118559e-03 -1.1757870529638739e-03 -4.9317819850971598e-04 8.6322147181757194e-04 -1.8327959418706803e-03 -2.3309621342978374e-04 8.7427320806692226e-04 -1.9168994791174824e-03 1.5363758229124388e-02 -3.1467608437051103e-03 -1.4836416667419680e-03 2.9830132912207416e-03 -2.2560532945975920e-04 3.3341795667058954e-03 1.2494241183110965e-02 4.6144885723490153e-03 -2.4150178562476542e-02 -8.6496427626148013e-04 -1.8989003104740343e-03 2.7264813902899941e-03 -1.1532616470693298e-03 2.7392408770739998e-04 -1.9262233885646326e-03 -2.0702846403528367e-05 -1.0199111217245238e-04 9.4348917773746932e-05 -1.8515583462028543e-03 -4.4524506231559575e-04 -4.4166842422938635e-03 -4.7081353280861975e-04 4.7270031403144732e-03 -1.0591003323626551e-03 -1.1523610870974935e-03 1.0721639630064138e-02 2.7412879540359408e-03 -1.4396413495832601e-02 4.6704188049572783e-04 -2.9628982414128123e-03 -2.2842514491061266e-03 1.2771850690302738e-03 2.5323880203497492e-04 -1.3965865916662821e-04 7.9735890553168855e-04 -2.1107270171189405e-04 8.9086700159184205e-04 9.9556974154874425e-04 -3.8936224434176440e-03 -5.8933887619975860e-04 4.7865753144172261e-05 4.4646858487946083e-04 -1.2990934915393560e-04 -1.8853430279280254e-03 1.6904807078551307e-03 6.3059818116797495e-04 4.8543973753156864e-03 2.3633011335310867e-04 5.8121323703398350e-04 -4.0162892377201432e-03 -2.4781572171167976e-04 -6.1759314872997131e-04 -1.5876620234251918e-03 6.6165415986238710e-03 1.4572541585633708e-04 2.2540297359226729e-03 -1.2838463774449433e-03 5.4891843835851595e-03 1.8832523102327576e-03 5.9985308749038171e-04 -2.7274784909845241e-04 -1.2120831599854502e-06 -3.3681503518217118e-03 4.6734380960565041e-03 -1.1255802969900911e-05 1.3508722070716028e-02 4.9654381342685659e-04 1.6238938865193839e-03 4.8758952294815437e-04 -8.8731963096512533e-04 9.8779997996469547e-05 2.2852543531090574e-04 -6.7646993751292270e-03 -2.6411126092706807e-05 -3.0021083410693605e-04 4.3933477323938582e-04 -4.9899480047127381e-03 -1.2890943680625767e-03 -1.0873011344995421e-04 -2.5231165789687166e-04 8.1965888417243613e-05 -7.0320659642771348e-04 6.9209764187580633e-04 1.7138606238688136e-03 -3.9426683775778378e-03 2.5535117044046937e-04 -1.8903470186890676e-03 6.5962089632693398e-04 -5.8776546098704744e-04 1.5946019480908016e-05 -1.2248000166771952e-04 7.1445105948649652e-04 9.7729383803570860e-05 4.4983116087057426e-05 -7.1284806813223865e-04 1.3090762498558684e-04 -8.8999801523973393e-05 7.4192434244178387e-05 -7.1503997568482405e-05 1.2148509417778339e-05 1.1082700589801470e-04 -5.7401809022239542e-05 -2.8031371536981766e-05 -2.2582494706573905e-04 1.5792855469941590e-05 -9.5730943828026049e-05 -7.8289164246917028e-04 -1.0363528737308619e-04 -4.2917624947293002e-04 -4.4473988828236432e-04 3.4766055161030611e-04 2.0535043590398823e-04 -9.3644834825540551e-07 -5.7051215294612258e-04 -7.1154869122727008e-03 -2.8961075259174526e-05 -3.3619934816119612e-05 -7.0949761255094043e-04 -3.6236110695989890e-04 -4.5535188990873934e-03 1.1877637507642902e-03 -2.3074221468985007e-03 1.4253171634984411e-03 5.9051989420451302e-04 -9.1718184019791492e-04 -2.5379114037929300e-04 5.0617995009463561e-04 3.8278707746643853e-04 -9.9589569698644350e-05 1.2586267985983228e-03 8.1662265822065455e-06 2.4947904024783668e-04 2.7738676840688772e-04 8.5474359752523051e-04 3.4177014882408535e-04 1.7148420177739813e-04 -4.7985507913818858e-04 8.7806380790209402e-05 5.6623188399756129e-04 -1.4663640637213251e-04 -1.1768201461392434e-03 1.1341099834431027e-03 -4.0362677902326417e-04 4.1908601261578769e-04 1.0338657392586388e-03 -1.7867849026162515e-03 7.9252826702149869e-04 8.9284061663346184e-04 -3.3817480963128531e-03 -1.4121789754954783e-04 3.9554853954869822e-04 1.2144121978452209e-04 9.8151187526328981e-05 -2.3324805375797876e-03 -1.6673731483761651e-04 4.3392570354234357e-04 8.4122026548323972e-04 -2.0348548361069818e-03 3.4582274421334711e-04 1.1990298628548424e-03 2.1715102852893055e-02 -8.8101560532691757e-04 5.0075158437115821e-03 5.5073498634294893e-03 -1.8622134937744225e-03 2.3842436237362929e-03 7.1319336735191641e-03 -3.3885275678850524e-02 -8.4800679638912435e-04 -7.2387650026813008e-03 4.3826334151618150e-03 2.1991896959194530e-02 -1.9504228156277843e-02 -1.6252726420410766e-03 -3.6842583940667282e-03 2.3298064113471510e-03 2.0516374801628670e-02 -6.1103917120522832e-03 4.2207696243507994e-03 9.6317177373766751e-03 -4.2683759769008723e-03 1.0852794336179099e-02 3.3607180904897853e-03 3.4758375971336020e-04 -9.8055209615613946e-04 2.9906062864547434e-03 -4.6322066312411460e-03 1.2129883327227694e-03 1.3773998394659336e-02 1.7782400026684630e-03 -2.2831687525823253e-02 -1.4719506913602061e-04 2.7180637848059201e-03 1.1081361075662027e-02 1.2377638599384835e-04 -1.2917115863130496e-02 -3.0673975190306024e-02 1.0813527701637224e-02 5.5626718502184994e-02 2.8551335512903495e-04 -9.7492113284222588e-03 -5.3476726423878204e-03 
      </Row>
      <Row Index="207">
        -9.4725107123077917e-04 -1.0048855236800686e-02 -1.9805481369882666e-05 1.2025668096972892e-03 -3.1641331115911837e-03 -2.5246027822179926e-05 -4.7997949968179784e-05 -1.9159905158425139e-05 -5.0731734354992827e-04 -9.4004265905783899e-04 -2.0418095537218062e-03 2.8658329089647811e-04 1.1624070283368848e-03 2.0856756021025496e-03 -2.0007446668036683e-04 1.5123172565938564e-03 -1.7328499338769925e-04 6.1146405602082914e-03 2.0631596843927549e-03 -1.2891213729632842e-03 7.4697898701373156e-03 -1.9357771361784848e-03 -1.9942563762522310e-03 1.9221033779170948e-03 1.5366769825078848e-05 -3.3491575802324246e-05 1.0227864242173292e-04 -3.7116050576815433e-03 1.5904455172239939e-03 -1.9773844294003569e-03 -2.9512342305833966e-04 4.6575470319779070e-03 8.2402204205933539e-04 9.8976304347640591e-05 -2.0641190943950921e-03 -6.2883697228453416e-04 -9.3956172793589910e-03 8.9318646332351738e-04 -1.7879771169516034e-03 -7.5960642209771390e-05 -2.3705793164346400e-03 -7.7789598696656470e-04 -2.2641651625006087e-03 -7.8768981738856422e-04 4.8809595146800944e-04 1.0179645061997675e-03 8.3920076588563791e-04 7.7029930506410452e-04 -1.0990162075535138e-03 -5.0337588763492425e-04 7.5196603512482987e-04 -1.2985501166330737e-06 -3.4699264765518205e-04 2.6600285776410080e-03 -3.0587134820764666e-03 -1.2002207801658105e-03 1.0688961205535027e-03 -2.8007473381925219e-03 -1.3719870232927932e-02 2.8643323367715662e-04 2.7874076259996813e-03 -4.2985529277156940e-03 1.2172525016514515e-04 5.1490860925935966e-04 -7.2852541151280370e-04 -1.0102593832707479e-03 5.0697675655867781e-04 -5.1004589710297761e-04 -8.0526068511108540e-04 4.7842663685628527e-04 -3.8796281525429049e-03 -8.5005912413560480e-06 3.2302640733165161e-04 -2.3045443931768764e-03 4.1103557356408560e-03 3.2851100940317294e-03 6.8702480190099835e-04 1.0518152804738588e-03 1.3125956880981945e-03 -1.2505302522650898e-03 9.6941040351613151e-04 1.0703556695375977e-04 -5.1527663666432570e-05 -2.7491006144422792e-05 -3.3823696446512799e-03 5.6961534822100313e-04 -2.3475408231811001e-05 -5.5296189690587100e-04 7.3550043316927339e-04 5.5794283619130247e-04 -1.7327425698358584e-04 -5.8170070001668014e-04 2.2993680622560323e-04 -1.5035857168785856e-03 1.7276751152441039e-04 3.0725610199614298e-03 -1.1861428861850449e-03 9.1330307640734060e-04 -2.1433183650021882e-04 -4.8181926016521090e-03 1.0771725306959112e-04 5.2412755048555774e-04 -7.1123627812834898e-04 -2.1832705722579435e-03 -1.3786845835926289e-03 3.7520678119639132e-04 -6.4621751787303681e-04 -9.6422036901857265e-04 3.8499204618788752e-04 -2.4222599384276502e-04 -1.0378988177831595e-03 1.8795921555924593e-03 9.0796807554676339e-04 -1.1983239476249076e-04 1.9523382460912737e-03 1.9609871748481984e-03 9.3155202256878060e-04 -2.2037208042683825e-03 8.8963645129814112e-03 1.7339399583729412e-04 -9.0517317356220487e-04 -4.2032356014050625e-04 -7.7310661718602638e-03 3.4866607976190862e-03 3.9933297532713857e-04 -7.6249141045194350e-04 1.6251220168451382e-03 -1.9776424152018546e-03 1.0802442045091771e-03 1.9127121182127560e-05 -2.6473011169370324e-03 -1.2288950409915799e-02 4.0546805954230119e-04 -1.4720900735438005e-04 -1.0620860834393230e-04 -2.5749163962572835e-05 -5.6460532250573359e-05 2.0553473448853645e-04 1.1100416474329973e-04 -7.7204705117755499e-05 -3.2726449672642775e-04 -3.1575694482758427e-04 -1.4562013003177046e-04 1.2606524785094367e-04 -1.1798588566971047e-04 -3.2184189814093631e-05 -6.1221774588558525e-05 -9.7841386148348933e-05 4.3625056434863163e-04 -1.1240281607509102e-04 -1.5374489552196814e-05 1.4136473294869322e-04 7.7754233996614897e-04 4.7434455908145629e-04 -1.5115187774135102e-03 -2.3034889302647570e-04 1.1707671792454541e-03 -9.3015497906087565e-05 -7.2249356650951752e-05 4.2137025657320269e-04 3.8598598715185520e-04 5.0451581081516650e-04 -1.4852610935867994e-04 -2.7076605709961798e-05 -1.0852435007307221e-03 -1.1068384828327761e-03 3.4568949858237465e-04 -1.4648915634491444e-03 6.3820202279621949e-04 -6.6093633639826036e-04 -1.3514737991412703e-04 -8.7172497669229382e-04 1.1270947200091655e-03 7.8183495155526028e-04 -3.1184145425506779e-04 -2.4806811096135138e-04 8.4991947662004831e-05 1.9265239131300779e-04 -2.6125796340097790e-04 1.2017409635914911e-03 3.7705836437820772e-05 5.9501640214903095e-04 1.4725325820803738e-04 3.6967067185049544e-03 7.8435128490915841e-04 -7.2438310453007038e-05 3.2194452024555259e-04 -1.5361136677469341e-04 -1.3272621082297925e-04 -4.0770287416916351e-04 6.8953936910554660e-03 -2.6875360157244980e-03 1.0683645071973363e-02 -2.6177777708723321e-03 6.0952766495260893e-03 1.1203098469515244e-03 -5.4993119710045361e-04 -4.3930483782828413e-04 -6.5116685184434947e-03 -2.6990219947851681e-03 1.9749837019823130e-03 -2.3884226990844620e-03 5.2072889368850314e-03 3.2084427867981099e-03 -2.1631002149350638e-04 -2.5247293311926582e-03 -8.8101560532483233e-04 2.0767912007496104e-02 5.7825552338359879e-04 1.4047151965041561e-02 4.8861392635812656e-03 2.5555654966499204e-02 -3.5610211900619811e-03 2.1734348297302714e-02 1.6795413331803853e-03 -4.7031053302373296e-03 3.9282251765990874e-03 -2.3565104668871146e-02 -2.4997509306637486e-03 8.1837194538641501e-04 -4.0473237109143701e-03 1.7766458361632965e-02 9.9670037055010936e-03 3.6026038150869361e-04 -2.3439636061749793e-03 -1.0898522812157649e-02 3.3581799155621983e-02 -4.9468853353219961e-04 -1.7263339045411215e-03 1.5914078603173100e-02 -4.6545399048025706e-03 -2.8471240162331428e-03 6.8321285526645736e-03 -8.9390794922451257e-04 1.3430274005843581e-03 -4.5619520414987569e-03 -1.8485241764990348e-05 -1.5731135435781555e-03 1.3804869105459250e-02 -6.2322054600309797e-03 1.3907983894716015e-02 -6.5672027363065291e-03 9.1334404723971037e-04 4.1631114388101745e-03 6.1298436089998057e-03 3.4040965324599055e-02 1.9136380832696287e-03 -2.0623752452283536e-02 
      </Row>
      <Row Index="208">
        6.3013965305737324e-03 3.9260404217653089e-03 -3.5450268161386633e-03 3.1887203385897386e-03 -2.5838408744516012e-02 -4.7101357757819290e-03 6.9611963526129000e-04 -2.2924224571635454e-03 4.6940955199901435e-03 -1.1411567798257423e-02 6.2325578278293083e-03 -7.6975840216995418e-04 -7.7677038715332283e-04 7.6223933022049953e-03 -2.0088297587859787e-03 -6.4524533040717647e-03 -1.9883107388156164e-03 2.6603826255310603e-03 3.2960046634457105e-02 7.6252895603971388e-03 -3.2262769240812561e-03 -7.1336778332747874e-04 2.5969585898202169e-03 1.3706865991846173e-02 -2.8828903340508000e-03 -5.0606808659848482e-04 9.3506907771732928e-04 -5.1233529813026202e-03 -1.2150363659791642e-02 6.0189852240497832e-03 -7.6742987719174982e-04 -6.8655410595525566e-04 -1.0587696807441946e-02 -2.7194665600693488e-03 2.2944156305583219e-03 1.9209154153929670e-03 -5.4858260626995670e-03 -2.0318542497913109e-02 5.1406325402488864e-03 -4.8951700598136583e-03 -3.6184242582557591e-03 4.5781709097607037e-03 4.4568289341387124e-02 -6.5245028018048878e-04 -7.0813198933999955e-04 3.9451801459444158e-03 7.9338129070907204e-03 7.1256446105412707e-03 2.2448525766925742e-03 9.8608180873088758e-04 -2.4129929285485185e-03 -1.6615671605082510e-02 -8.8544960040785325e-03 -4.0540757032370492e-04 -8.7637403143961956e-03 2.3533461518644586e-03 -4.5308543527219108e-02 -7.4951160880909473e-04 3.4562675963760421e-03 1.5419557258984362e-03 2.1122950588052108e-03 9.1875615502485138e-03 2.1428232618904419e-04 -9.8471311874259726e-04 -9.1438678184330158e-04 -1.4102550148436366e-02 2.3506594570181505e-04 1.2519465155354792e-03 1.1456457391523164e-03 -4.8604232748215848e-04 1.5902138422338029e-02 -5.4285167141536750e-03 2.5397650848854036e-03 -6.1719157334935958e-03 4.5119564938129395e-03 -4.6708802449016727e-02 -5.3414260895712218e-04 -8.8906798622385985e-04 -8.8567574646057634e-04 9.1738772267634106e-04 -1.2201614691581250e-02 -1.0484672334859389e-03 -5.6445268985103915e-04 -1.1948812058886205e-03 4.0235715253910675e-03 -2.9232338543053182e-03 2.3847342132595102e-04 -6.6217753362241005e-05 4.5408232313377556e-04 2.5081312328002064e-04 7.4298604497537515e-05 1.0711729163287928e-03 3.1526162820235196e-04 3.3341709646748235e-04 -4.9081236108851345e-04 2.7059801611600820e-04 -4.3936014550795266e-04 -1.8731470263663079e-03 -2.5785387295172574e-03 5.9783028831386475e-02 2.3221012867640292e-04 -9.2906928753442751e-04 1.2308758386397889e-05 9.7208898327862392e-03 -1.9407248219153253e-03 -1.6394993872516795e-03 2.3343296148784724e-04 8.7246790372170514e-04 1.7193033512901065e-03 -1.4430258487968268e-03 -1.9565924169309620e-03 2.3724515547193029e-03 -1.0899262667001374e-03 1.5379787597763064e-02 -4.6795345190397721e-03 -4.5822512890433195e-03 4.6942182635666962e-03 3.1703484331888137e-03 -4.4649926486203730e-02 1.3289361274498391e-03 -9.2757957424763771e-04 1.5647546489247557e-03 -8.3766442188057955e-03 -3.9270150515193485e-03 1.9877590731742574e-03 -6.1316590413177698e-04 -6.0538051450610524e-04 -1.4863740397914382e-02 2.8486586710071218e-03 6.5140401909267176e-03 2.4261907099882001e-04 -3.3919259312930727e-03 -5.6852027984698836e-02 -7.6889595630938185e-04 -4.4861581067959407e-04 2.5845784068921195e-04 -9.8821279988534983e-05 4.3685243121387857e-04 1.0750749182481044e-04 -9.1406996234205088e-05 6.6277451655928545e-04 5.1843253148858067e-04 2.9726627311869435e-04 -1.9267602949482956e-04 4.8280247981220226e-05 -2.6624552053567318e-04 7.1163191002485571e-04 -9.4036790753546009e-05 -2.9949378896381319e-04 -1.4759359942884500e-04 1.0668353486317957e-04 1.2189911710865507e-03 -1.0930360133003032e-02 8.7947128002777153e-04 3.5502862184357692e-04 4.2980861044072949e-04 -1.3581805363499538e-02 -1.7322374882744167e-03 -4.4474190157511861e-04 2.2050789380990109e-03 -3.4422604650261868e-03 6.4471023222011977e-03 7.2439389363216505e-04 -2.6151445860458228e-04 1.2295186206868550e-03 5.6015469262229098e-03 1.2369278659849804e-03 4.7122526236551832e-03 6.2429538187581349e-04 1.8176443359829088e-03 -2.2240265847929340e-02 2.3657755519282397e-03 -1.1428840393729045e-04 -5.5030796300681306e-04 -7.5969729488425952e-04 4.1638706553281356e-03 9.6216143197165593e-05 -1.6293060950964278e-04 -1.4173756052605069e-03 3.7129951079316048e-03 2.8467506935719866e-04 -1.8272706384641381e-03 2.6199391963230290e-05 9.6302958139264975e-04 2.4093906108127111e-03 -3.9994701439416115e-04 -1.9988788248413991e-03 -6.2051110798558209e-04 1.4531142594226827e-03 1.0209310650545284e-02 -1.2502849307214903e-03 1.4254145117340196e-03 3.4910060114987859e-03 -3.1956875724405247e-03 -6.5523232295725681e-04 -1.3326258281491979e-05 -1.9141727851204084e-05 -1.9089266607851380e-03 -3.3273247850232196e-03 7.3970069282334383e-03 -1.8422485191779484e-03 7.0694181419522035e-04 9.5572820335881447e-04 1.2457671797217591e-02 -2.1878197756218633e-03 -1.7787713145657989e-03 5.0075158437200389e-03 5.7825552338853928e-04 5.1341507959179564e-02 6.7652980266274991e-03 -6.9021496513896287e-03 1.0452995517111192e-02 3.2608967915010141e-03 -1.0337218937517052e-01 7.5123359976061030e-03 4.1036630659378797e-03 -3.2261741030434592e-03 3.3605656286101529e-02 2.1401069981930764e-02 1.4074541842961235e-02 -1.4896776157832694e-03 -4.2667830950121680e-03 4.1928309186454668e-04 -4.4654901871145512e-03 -6.8536299731921102e-03 -1.1336556356488729e-04 3.0490094301659123e-04 7.1707691754626490e-02 -3.6381722951903478e-02 1.1761338584169098e-04 -5.7156552461744324e-03 3.9396602612297655e-03 -8.7618661726844432e-02 1.6964541513705144e-02 -1.7963765772544271e-03 -7.4320298035248644e-03 -3.4042288600402565e-03 -4.0491173582278037e-02 -3.1373172843620185e-02 2.2451152013602317e-03 1.0061901212594709e-03 8.2069630265437024e-02 1.3559693382758760e-02 -4.6324444685318369e-03 1.5031936865516776e-02 1.6505584902981270e-02 -2.3979811239367649e-01 1.5837345753933446e-01 
      </Row>
      <Row Index="209">
        1.9229011127806159e-01 -4.2747436682711248e-02 -3.1277276239823626e-03 2.4494134752152084e-02 3.2673968946650839e-03 -2.2142207847091741e-02 -1.5131149813299577e-03 1.2526971205504103e-01 2.1093907215381180e-02 -1.1683283307276270e-02 3.3561851660028279e-02 7.6549797895572071e-04 -5.9812275774673573e-03 1.0219559990504137e-02 2.7889229194193524e-04 2.6975581460177367e-02 8.1578245218504441e-03 7.7404979567670396e-03 1.5509505792217569e-02 -1.7498015071356460e-01 1.2757899013920881e-02 -2.1862042728845565e-02 1.3460594575469994e-02 3.0509126670711928e-02 -7.0227471412178805e-03 -1.3299153140336289e-02 -5.3777157360503147e-02 9.0357606026300732e-02 1.6165514225642136e-03 3.4133889144477729e-02 6.4444968638914246e-03 4.9239375780646757e-03 -2.4714262489533394e-04 1.7809867193292750e-03 -1.3449784822321303e-01 7.7963796021427671e-03 -2.1543736781258163e-02 1.0512515127340000e-02 -1.3943524237621238e-01 1.7932423119628726e-03 -4.4121429661140965e-02 2.7529767201153993e-02 -1.0649511826480607e-02 6.9631682081732066e-03 -3.8240428517215402e-03 -1.0361243235102924e-01 2.1516742006369372e-01 1.6496516465851430e-02 2.1045066657277775e-02 -1.8815117695153732e-02 -3.8287322106945743e-03 1.5375357743647219e-02 6.6404207826564338e-03 3.8616702767784242e-02 -4.9604718088190891e-03 -1.2741271018817954e-02 -5.7790165342733874e-03 -4.7749226327747141e-02 -1.3478279358900256e-02 -5.3083608601876831e-03 -7.8329223122782787e-03 -5.1217906051213791e-02 8.6246522979260137e-03 -1.8712315157461412e-03 1.1764047029545233e-01 -3.5224744359177440e-02 1.5551863196236346e-02 5.5040838671215203e-03 -2.7143311902275459e-02 7.8941755661138813e-03 1.2632540814167242e-02 1.0647830134056846e-02 -7.6376543008448511e-02 5.6648858469893482e-03 -2.2847595593578105e-02 -1.5144098537358389e-02 -5.7867455443637306e-02 3.8654753537235298e-03 -3.3331978832842196e-03 4.1596877337932402e-03 -1.4011047246550012e-02 -5.2428619587468299e-03 1.5033899652590129e-02 -1.4454585231451211e-02 -1.7896736182249962e-02 -5.7920973007127841e-04 1.7665069272082591e-03 -6.0025400104557411e-03 -2.6389512036501849e-03 -1.9644865911857753e-03 -3.7092808387653199e-04 -4.3073698727144720e-03 -1.7023416824603378e-03 -6.3152835032593176e-03 5.2263190784242568e-03 -1.5673295706443524e-01 2.2843022999532753e-02 8.8034115725130046e-03 -1.5786233395524655e-02 -3.1075577014840067e-02 1.1974735610984361e-03 4.1362601705631503e-02 2.7845474628290269e-02 6.2462972790550297e-02 -8.0554003063302085e-03 -3.2899014729782620e-03 -4.3005534695968357e-03 2.5713932589764453e-03 3.8609613534609493e-03 -8.4760703230590470e-04 -2.0631063202160571e-03 -2.4590782460135047e-03 -2.2262650950463213e-03 1.1371771445804856e-02 -5.5181103245735413e-02 -1.4103805655206813e-02 -9.4508842221243394e-03 9.6886392269669164e-03 -1.2734297049627256e-02 6.5164721340073084e-03 -6.8596205104038974e-03 -3.0185544369683060e-02 8.8229986202764954e-03 8.7515122342121422e-03 -1.2035824173851307e-03 -1.5333644609617269e-03 4.6522735011324794e-03 -2.3579908730642363e-03 1.2468711031556100e-04 -5.5994568796432720e-02 2.7602777589586388e-03 -1.3832216900663497e-02 -1.3053703671179365e-02 -1.0798019538941135e-02 5.3806922027356281e-03 -1.9150271508110842e-03 3.4485092146092162e-04 4.2303449602419489e-03 3.0839153173366804e-04 -1.3860293271019942e-04 3.3693785577568547e-03 -7.2802468830477970e-03 -1.0516245428419712e-03 -2.3959886654197082e-04 2.6855392088623705e-04 -1.3064679046372095e-03 2.5656510940434262e-05 -1.3092532995299083e-03 -1.2051825540825914e-03 1.4778748034342004e-03 -1.9486895779495085e-03 1.3031602161282926e-03 -2.7349366744911049e-02 1.6490486301588229e-02 2.3282802452815273e-02 -8.2990308008564703e-03 -5.1611992991841493e-02 -7.2582004863953747e-03 8.8757613737016159e-03 -1.8853571132683111e-02 -1.7301102080463732e-01 8.0352246918285446e-03 1.8402275406175109e-03 2.2662087876827519e-03 -6.4012788095177166e-03 -6.6661532064851738e-03 8.5093581834407329e-03 -8.9128056917981979e-03 -5.5368040765750434e-03 -5.7619965915288122e-03 -1.6284077925313230e-02 -3.0536853687807120e-02 4.8012206122835244e-03 -6.9382547659198046e-03 9.2011321978958949e-04 1.5374877372382405e-02 -2.2423992205934523e-03 2.2682807418308720e-03 -4.1415194071487665e-02 4.9393260298001535e-02 5.9154278382100856e-04 -9.3729430334979595e-03 5.3252795450517421e-04 2.0900433725785567e-02 2.9967031626620035e-03 -1.7443464753066731e-03 -3.2695224611632989e-02 -1.3974004659747545e-03 1.1250782871966823e-02 6.9596891536726213e-03 1.3652589568171769e-01 -1.7893843567712085e-02 -2.8665732105035046e-02 1.4353954697596386e-02 -3.7151466893714402e-02 -7.9088526999245238e-03 4.0514226793939307e-03 2.1671725842369496e-02 2.2474355719942246e-02 6.5250410420577267e-03 -9.1118437886044470e-03 -7.2833922240031117e-03 1.1508923189791766e-02 1.3017476206996901e-02 4.5101660259792339e-03 -6.3892626219040610e-03 5.5073498634237829e-03 1.4047151965022736e-02 6.7652980265755207e-03 1.4543217032328912e+00 -1.6685410140004775e-01 -1.8878571113564113e-01 1.2172952031542111e-01 1.1889658284135574e-02 1.0819733338626000e-02 -1.5228947442374008e-01 -1.7778494836514172e-01 6.0176375694264839e-01 3.1262726637689787e-02 5.1326510727386393e-02 8.3728980085753246e-03 3.5055425830785317e-02 6.0729038765345460e-02 7.8389092619182039e-03 -4.2526129161389759e-02 4.4853562841597965e-02 3.2860245711518077e-02 -1.0754622839493112e-02 1.7145832482814780e-01 7.4536765170362340e-02 -5.3581044066957344e-02 4.9781394567270015e-02 7.7917765736156760e-03 7.3503646934318184e-02 2.0648899926682848e-01 3.1135347484816178e-01 -2.6482107033862651e-01 -2.8194778291975135e-02 -1.8323669277075683e-01 -1.3653982540765514e-01 4.2988187146214968e-02 -2.6024017516791120e-02 -1.3737077296448158e-02 3.0382885839044310e-01 2.0357612635706901e-02 6.3357411310076439e-02 -8.5070473054191992e-02 -1.1876057825040859e-01 
      </Row>
      <Row Index="210">
        -3.3274779809308756e-02 1.2518977834851341e-01 4.6167767385486558e-03 -9.5256195576056135e-03 5.2542237579234763e-02 1.4026238277616190e-02 1.0123006378306224e-02 -4.7551395987222744e-02 -5.7694094230018589e-02 -9.1531274552667449e-03 -1.0820447083509169e-02 -1.2426766744002667e-02 3.8494857902592328e-03 -4.7860148028491797e-02 3.3296534201321601e-03 3.0459584781432292e-02 4.4977422701243056e-04 -1.9463236920442273e-03 1.0100455410072921e-03 -4.9029955977392889e-02 2.8003846809416061e-02 3.9029853852899477e-02 -2.1824406091256465e-03 -5.4844296748442267e-02 1.4736088041665873e-02 -2.2431455119325100e-03 -9.5149872295322291e-02 7.0523944194368859e-02 -3.0876780279004423e-03 -5.0129769548674097e-03 -2.0963670275787272e-02 4.0622204940298744e-03 -4.4033202580442028e-03 -8.1724276675340657e-05 -9.6269633814590749e-03 2.6553810988818958e-03 -2.9699444902251404e-03 -5.9879635921400443e-04 -5.0302810351535721e-03 -6.5844775347343454e-02 3.6479911091490846e-02 1.1395279129056690e-03 -4.2308993658520699e-02 9.0833102544595756e-03 -2.1520371093449175e-03 7.5852983647650918e-02 -6.0162554323333783e-02 1.4458239719141730e-03 3.4491239893912617e-03 3.8528354505724727e-02 5.2556045355973136e-03 9.1862649495417226e-03 7.3195307663986020e-03 -3.0373106797040229e-02 -3.8052618541735139e-03 1.0517037346199975e-02 6.5612588429377061e-03 -7.0114798253051447e-03 -1.4840045259852752e-01 -7.8949906853453544e-03 1.2290829455583629e-02 5.7345747006424232e-02 1.3884074090037002e-04 7.6353019334387540e-03 -4.6423267477982755e-02 -4.0373593770234195e-02 8.1900104362284398e-03 -1.3972007842435047e-03 4.8849892450736530e-02 -3.6084023088475137e-03 -3.4807982590192590e-02 5.3729750415034694e-03 6.6240883115640525e-02 -5.4216944715181487e-03 2.5191577168860238e-03 1.4693541761379270e-02 1.0066425793468725e-02 -5.0949887279306466e-02 5.8632028480349041e-03 -1.2294406086509058e-03 4.7139365569573571e-03 3.5742684180737443e-03 -1.2317576677719193e-03 4.6711166030011242e-04 9.3849399847102388e-03 1.4541985666193247e-03 -7.5313294874138070e-04 6.5276336376439426e-03 2.6866560860624132e-04 6.7921707534979170e-04 -7.2406258670964369e-04 -2.1400889394597861e-03 3.1584652047341108e-03 -1.9795013563922575e-03 -1.1704303722797418e-03 3.2293956759586739e-02 -1.9865741875264281e-01 8.0879006375027974e-03 7.8226322895229086e-03 -4.4215156011624956e-03 -2.3734405752418447e-03 -4.3059923884051603e-03 -7.7856620473820429e-02 6.0081225950209705e-02 8.8712302212512542e-03 2.4357780478347114e-03 -1.3094959881718195e-03 -4.1038947180418919e-03 -1.5805767085740677e-02 -2.0694052736446866e-03 2.1149527302872579e-02 1.4673897528860447e-03 3.0295422599147803e-03 7.3761627355762062e-03 -4.0600137015802652e-02 1.6959514112049295e-01 1.5315958639005367e-02 -5.2555907306103241e-03 -3.3378776466182702e-02 -5.8588704253953669e-03 -1.9296022293842077e-03 3.4982176649267817e-02 -5.1068794656321970e-02 -2.2059380727108627e-03 -8.6775667667149045e-04 8.0581865282288757e-04 -4.5210128299594896e-03 1.5443873923309419e-02 2.4274925550169749e-03 -6.9243194032247435e-03 -4.9105391226199231e-03 -1.3220021799008590e-02 5.1743769637545983e-04 5.3984068424070587e-03 -1.5266586562938221e-02 5.3893203032435305e-04 -2.3539320142510400e-04 1.3020553961322802e-02 1.2824076256789767e-05 6.9134740521962211e-04 -9.3483708074132664e-03 -5.2436054899108256e-03 4.7606480954713939e-05 1.2702819373216828e-04 -2.0464567773144939e-03 -1.2471048509063564e-03 -2.6989108562848509e-03 -3.0193054778490181e-04 1.7181876894060578e-03 -1.4630594374008014e-03 3.7445046714008889e-04 -4.2666493736956759e-04 4.0019015374600203e-02 -2.3800074980802263e-01 -7.3171302999325144e-03 -1.1481174301657890e-03 2.9777744648693559e-02 1.2173073448821334e-02 5.1747577455862059e-03 4.4148490740336950e-02 4.0233225177951082e-03 3.1577595547223874e-03 4.0963369612758236e-03 -1.4893150862385103e-02 -4.9173018270278479e-03 -4.7358625408254473e-04 -6.1147139902284911e-03 3.8828059108305391e-02 -9.5352013803340005e-04 -1.0951867031947593e-02 6.5786542084927142e-03 9.7334304485652279e-04 -7.7975826192939190e-03 -9.9821276370841705e-03 -2.1951622020071337e-03 -1.8906983407274564e-02 -2.9423651216129304e-03 -2.4167000411750017e-03 1.5636129301513479e-02 2.6520077762491046e-02 2.5608549442142359e-03 -2.0609074403044811e-03 -2.2947308812497347e-04 2.0597796657610837e-03 7.4271816951890710e-03 1.2870740591204004e-03 2.8098446783378916e-03 3.8062208529598615e-04 1.1726975314704565e-03 -3.7748410857581516e-03 -1.5142842232502285e-02 1.3500228985373075e-01 -7.5557998225821710e-03 1.0104295637347049e-03 1.7345156985607110e-02 -1.6802127805371105e-04 9.0695825571873723e-04 3.5274289285329198e-02 -8.2689266594820968e-02 2.7198762485485567e-03 -1.5282381817498004e-03 1.2491257382023934e-02 -5.8985833743211563e-04 1.0262444370289843e-02 3.0954502347769470e-03 1.4549749357762567e-02 -1.8622134937833301e-03 4.8861392635732529e-03 -6.9021496514378783e-03 -1.6685410140001011e-01 1.6336433066242804e+00 4.6752277931521133e-02 -2.0895602438878655e-02 7.1178789029709977e-02 -3.2961347199821064e-02 1.9795898250937333e-02 6.5013140893028787e-01 -2.1765390541238977e-01 -7.5258012932947500e-03 -4.5623058154346877e-02 2.3370035065570532e-02 4.6153743571666836e-03 7.6160608006398886e-03 3.8779067267717321e-02 -1.5152513846860227e-02 -1.5154583788323071e-02 2.4719850290302874e-02 -2.4751476873785521e-02 1.9540246450711116e-01 1.3852647214013086e-01 5.1680949685273682e-02 -1.8278692585500814e-02 7.5221323654883210e-02 -5.8768417533725727e-02 -1.0487814269176950e-02 -4.3190402587344989e-01 -9.5320209265171985e-03 9.6984998756248497e-04 1.7536313073330392e-02 2.9840871926361057e-01 7.8915943487786293e-03 7.4768289774013466e-02 -1.2905651469456063e-02 -8.6216711032647525e-02 7.1146013580834985e-03 4.0106690686320876e-02 3.1200839366654392e-02 -2.8754877859206918e-01 
      </Row>
      <Row Index="211">
        -1.6535172717902495e-02 -1.1324914518682668e-02 1.0835521008027628e-01 -1.0367772449551366e-02 -6.5001350018376980e-02 -1.3264123038016214e-03 -4.0122866040838206e-04 -1.5794571027820797e-01 -2.7565163085782836e-02 -1.7949623710687545e-02 2.8838217339537606e-03 1.4399408544068862e-03 4.8482485504161912e-03 1.0233159383228779e-02 4.3108896880427921e-03 1.5038863291203576e-02 -2.6104525637014320e-03 9.1893274037879950e-03 3.4541627869023785e-03 3.8519652024046183e-02 2.7526916355320154e-02 4.7841841747239558e-02 -9.0143347970542773e-03 1.6997469540285966e-02 -4.2370467978621474e-03 -3.5467428217284995e-04 -1.4984499803035820e-03 1.0422610177017051e-01 -2.6340824880461394e-02 4.0490372690936563e-03 2.3049331331447404e-03 9.9818316368880788e-04 -3.3307714133580133e-03 4.1971093351574865e-04 -2.6659664004422431e-02 1.2464724915163669e-03 -1.8717169312719818e-02 2.6945953712276356e-03 6.3123212586885483e-02 1.3963453191594505e-02 1.3798135153230234e-01 -2.2611025763726901e-02 5.2532577210743316e-02 -7.5767759179318390e-04 -3.7691065581657293e-03 8.5975365736833134e-02 8.8448154941336579e-02 -1.4699340346328043e-02 6.9321898735041649e-03 -3.4004621413421653e-03 -1.5055103838183936e-03 -1.3159103110105394e-03 1.4122575255090832e-02 -4.0636413145688367e-02 1.3437977148324821e-03 1.2191624530419680e-02 -3.1144728114167767e-03 2.5561335094625062e-02 -3.0587802554942227e-03 3.2611107634311909e-02 2.3231842865797121e-02 5.7242836851118814e-03 2.6463006521554137e-04 2.3645298599125758e-03 -1.5765786343624355e-01 -2.2541678586028138e-02 1.0666466680566089e-02 -1.6768537240935094e-03 -8.2920193616493384e-03 4.4184898431377352e-03 -1.9723359735963921e-02 2.2526156983559146e-02 1.1093663419449789e-02 1.3424169658357247e-03 -2.0434531734259626e-03 -1.9475880850362681e-03 8.5766406506001432e-03 3.2398719852729067e-03 1.1729281919318729e-03 1.5900944225790937e-03 8.3010211490005172e-03 7.7793125038940294e-04 -3.6272094729906572e-03 2.2786363026659380e-03 7.2088145535946627e-02 -2.8766232252801366e-03 2.8440665402061226e-03 -1.6795962520113816e-03 3.0287659839528676e-03 -1.4134031184072967e-03 1.8878725365353163e-03 -1.1273540422953046e-02 8.5046807894160830e-04 -9.4401831827583670e-03 -1.5794621002266029e-03 6.3393810316622855e-03 -1.9369919629278359e-03 -1.0279616098269015e-01 4.8475390797156400e-03 4.5758551084261100e-02 -3.0562608570615293e-03 -7.5511877964126849e-03 9.5617268358386565e-04 -1.0659564880007513e-01 -8.2491080973337086e-03 -1.8298395989374283e-03 -2.6042617169501122e-03 -7.0971199414979194e-03 7.4690971983368123e-03 1.5626345655688333e-03 -8.2923365107320946e-03 3.7031078785071747e-03 -1.1762556215825663e-02 -1.1971269907692279e-02 4.0893118369481493e-02 2.0982857480807721e-02 1.0941298310760791e-01 -1.5189227901781647e-02 -2.7836140275817264e-02 1.1261611314113843e-03 -8.9308194639550135e-04 -1.3407355704326841e-02 9.1150513438701924e-02 3.8349570957705876e-04 7.8144557884974025e-03 -5.5457368087504508e-05 -5.5889706230836402e-04 -3.6785796645216135e-03 -8.3517129729128209e-04 7.0275773928975271e-04 -5.0424927552864193e-03 -1.8159674861796885e-02 1.1839439428587718e-03 -7.1869563702800596e-05 -1.1859504264459021e-04 -2.0718487189807476e-03 2.3780041923158633e-03 -1.9258785006916088e-03 -8.5057665984691379e-04 1.3891961521561680e-03 7.9142380579447528e-04 -4.8443142683023246e-04 -1.4983196996212877e-03 6.4203617283285503e-05 6.5856206073304827e-04 -2.3253443937229680e-04 -4.1629406090526303e-04 3.5905123360304879e-04 4.8768285241648454e-04 -2.9407856368709795e-04 -2.0353382288939036e-03 1.8562643871039397e-03 -3.0979048634475034e-02 -1.8180014012878755e-02 -6.8152961000274348e-02 2.1007940535020850e-02 8.5622113888984538e-02 -1.9515922074535817e-04 1.1645331061404249e-04 5.5874937443446793e-02 1.6910586604970620e-01 1.0043091148148794e-02 -7.3498709487544289e-04 -1.0473737065385443e-03 -1.3781883473983733e-03 -1.4132211856099561e-02 2.0321139846218835e-03 -1.4121208628575748e-02 2.3144816889362984e-03 -2.3735111674682896e-02 4.9347570551958857e-03 2.1394593634603970e-03 -5.9830199508074458e-03 -3.1394910650088773e-02 -6.4677705348787926e-03 -1.8148794585604523e-02 -9.4347006973965553e-04 -4.6112810199680932e-04 3.7271323122315118e-02 -6.7051601959563223e-02 6.3680917949641546e-04 -1.8563426062478689e-03 -1.0656082508276590e-04 3.7223567245970998e-03 2.8509710531313742e-03 1.0337438351203706e-03 1.8165557969622822e-02 -7.3645018399663286e-04 4.1676999270718416e-03 -1.8706755200768579e-03 -2.9298545837443769e-02 -7.1717451036118589e-03 1.2406890768622084e-01 -2.4255628700466669e-02 -5.4950292650679945e-02 1.7553496162900923e-03 -3.2470883655784542e-03 -3.9878348570099108e-02 -3.7268645164441595e-02 -7.0445370334572413e-03 7.6976176702961401e-03 -1.1340424803570183e-03 -1.3216662168444063e-03 -3.9387812714674784e-03 1.0767013693315647e-03 8.7570199574642758e-03 2.3842436237424785e-03 2.5555654966504797e-02 1.0452995517138085e-02 -1.8878571113561993e-01 4.6752277931523839e-02 1.0703780576122111e+00 -1.3418957501462137e-01 -3.8749295785599680e-01 2.0638020088345893e-02 2.3507084599371980e-02 1.8810704373917708e-01 -3.9793271017507265e-01 -5.5675966319549920e-03 3.5409424066974171e-02 4.9560089922894290e-03 2.1683261972180130e-02 8.2957558569470846e-03 1.0143351559387595e-02 1.0180557167414286e-01 -1.7259296449848669e-02 1.2760891432404856e-01 4.5973229430998012e-02 -1.8465146680044892e-01 7.1514366307940280e-02 9.7208879939774381e-02 -2.3289832680478406e-02 -4.7897720977192401e-02 1.8995066562330982e-02 -2.7376267640658591e-02 -3.3814922398071012e-01 3.0818575787545077e-01 -5.4466571751197027e-02 1.9926541909230589e-02 -7.3829090776003914e-02 2.6388992002551580e-02 -5.3897669814373605e-02 -3.3888191087012895e-02 -7.1974622130618754e-03 5.7132493679206142e-03 9.9460988049386800e-02 -1.0385790923530827e-02 -7.5176942872874535e-03 
      </Row>
      <Row Index="212">
        -5.2860317307061085e-03 9.3986973561989984e-03 2.1337581218601111e-02 -9.5713531376668395e-02 -4.0585763859657183e-02 3.8799955877619335e-02 4.0127847108184771e-03 8.1060805744072040e-03 5.5938934015376050e-02 1.5570910479278523e-02 -1.3685870381412118e-02 4.2200790510923854e-03 -1.1458318761827496e-03 2.1256665012181732e-02 -4.9925235569604764e-05 -1.9084389182580860e-02 6.0757564420669944e-04 -3.1300995225763788e-03 1.3182691725067484e-03 -3.2048791310465383e-02 -8.4029736064947166e-03 -1.0565501690144696e-02 -4.8341841147440584e-02 4.9639605749584814e-02 3.7393829133642476e-02 -2.8690914456344016e-03 -2.6090134107539263e-02 8.7922970416124430e-02 1.6543279612886930e-02 -9.0475371180086875e-03 -2.4939998061945245e-03 -5.7197583573450183e-03 -5.9400722076922118e-03 -2.5222660544515010e-05 -5.6997630381688369e-02 -4.1564344963715433e-03 3.1949142601420365e-03 -5.2700591029766486e-03 -5.8323529488980473e-02 1.8660957332089834e-02 -3.4032344118701818e-03 -9.2182091430102975e-02 2.9929956550995357e-01 1.4159256949351356e-03 -1.6398320079103260e-03 -2.1638156447725404e-03 1.7097384359175494e-01 -1.8461577878302382e-02 5.9227740295152778e-03 1.5319173007531703e-02 5.5415377197017557e-03 5.1086542732007169e-02 4.8654793263698953e-03 1.6946416704721801e-02 -8.9922223702384729e-03 1.8800623375470850e-03 1.4971698519145826e-02 -5.1883062269770686e-02 1.8083153108129309e-02 2.6834948392881725e-02 3.3614262652420585e-01 7.4076067049620081e-02 7.0271587611658234e-03 2.1925926681745089e-03 -8.1063012478588270e-04 -1.2773368338634536e-01 1.1363612713483202e-02 -2.6770116978885254e-02 1.0208063197676793e-02 -7.3760400577464608e-03 4.1605938302064091e-02 2.0464664723303105e-03 8.0915576931584840e-02 -2.2516863894504312e-03 -9.6177352243017929e-03 6.1877400714634642e-03 -1.7733838359302159e-02 -1.5984403886281709e-03 8.5455020392252029e-05 -6.3699573158400760e-02 -2.3245583822380348e-02 5.1566155301161556e-03 8.8424196724666785e-03 -2.2902438487231724e-03 1.7052842638747401e-02 5.4867249529138018e-03 -1.2547283338126261e-03 1.7627640153874483e-03 1.2231449917422903e-03 1.4322532171991890e-02 1.9986113325980307e-03 -1.3989998473519474e-02 -1.0434950399745777e-03 4.1401234540158352e-03 3.2325788016719318e-03 -6.3165872770149650e-03 1.5026396174815035e-02 -3.4545891030305269e-03 -8.5158266412395323e-02 1.1863635632340820e-01 7.5040791895750851e-03 2.3160787480636515e-02 9.4053527696035012e-03 4.5760424063772759e-02 8.7856633098008629e-03 3.7136087405497333e-03 -1.6420630297799561e-03 4.0729579222838798e-03 -1.8541774335739825e-03 -1.9707065675810694e-03 -1.1140822109786969e-03 5.4067526802464606e-03 4.1799679234070962e-03 2.2392136036093729e-03 -2.1207264999343601e-02 -1.1953329282765336e-02 -2.2766938895427712e-02 1.2769610473377169e-01 1.3015030393043485e-04 -1.6502214997254384e-02 2.8396388722389345e-04 -2.6530752422948681e-02 -4.8967400263616262e-02 -7.0870920311004643e-04 -6.5065439921133984e-03 -4.5677667255595005e-04 3.3807930093791771e-03 -4.0308740603506501e-03 -2.3414046683178187e-05 6.0589786187900674e-04 4.2139437543142443e-03 1.3652813692760805e-02 -1.8470991877679002e-03 -3.9846317661148848e-03 -5.7095969992368130e-04 -2.1871182698048335e-04 -7.2932256736658006e-04 6.8670685373911373e-03 3.6574215506746848e-04 -2.2395742792985653e-05 1.4487749973370065e-03 -6.5581484308812419e-03 -8.8027243529464460e-05 6.8003930365421713e-04 -1.7229230536334257e-04 1.3429666470808396e-03 2.0564052861830780e-03 -6.7947115671849806e-04 1.3336885515285877e-03 7.0195846343051936e-04 3.7748621050650568e-05 -6.4956210980100142e-04 3.0711349066580025e-02 -5.6005607290600459e-03 3.1026489853783062e-02 -1.6950439744856610e-01 4.9499788358433518e-03 1.3843298601524633e-02 -2.7749728483880353e-03 -6.1319390204303582e-03 5.0969606621108790e-02 -1.9082159755439104e-03 -4.6583359300159432e-03 -8.9507024147298525e-04 -7.8138114610974176e-04 6.4877442956230394e-02 4.7387045674285909e-03 -6.5151428080759771e-02 -9.4061866039849059e-03 -5.7593182354492823e-04 5.5780518497361422e-03 -4.0832609218487831e-03 3.3222001101376464e-03 -1.3083150654085635e-02 -1.7997289061923234e-02 -2.1829897035630437e-02 -1.6543678769132663e-03 6.7360761475711989e-04 1.1077192238294051e-02 -2.9204431889083698e-03 3.9405445577286348e-03 5.9507082615836825e-03 4.6945291023993418e-04 -1.4267583308664946e-03 -4.4629347188055567e-03 -1.5622469545859989e-04 -1.6575143090263561e-02 -1.8172952109552928e-03 -2.1448037566844224e-03 -2.7806513689795920e-03 7.8321840286838945e-03 1.1241647039923849e-02 -1.9396284404820732e-02 5.5857097562986339e-02 4.1431499959047907e-02 -1.0904598026687171e-02 7.3108337343667142e-03 3.3747766802950160e-04 -6.9332291044034502e-03 4.8818755004530136e-04 -4.0234960813330233e-03 6.5619527625337916e-03 9.3731901269498846e-03 5.8495160420265292e-02 5.1833581309491204e-03 -5.1046202278699597e-04 7.1319336735006650e-03 -3.5610211900665911e-03 3.2608967914186855e-03 1.2172952031564857e-01 -2.0895602438826318e-02 -1.3418957501496875e-01 1.1471243660092796e+00 3.2079296990288997e-02 -9.6715855695444441e-02 -5.9036722296914063e-02 -4.0117690352725402e-02 -8.3996072192099119e-02 -2.8409680526159636e-02 -4.8864790773933492e-02 1.1862593954170747e-02 2.1227903685677646e-02 3.2853464373866506e-02 1.1153378986755521e-02 4.0440315083772660e-02 3.3381890902209312e-02 -3.8898077288497812e-03 -1.0328243451832302e-02 2.0510740840625732e-01 -2.1258704324863764e-02 2.6504565377537858e-03 -7.0070407291084791e-01 -2.7259161854412561e-01 -1.6491140307080770e-01 9.9256379879296586e-02 3.7279274889134295e-02 -8.5619760914545526e-02 5.3226799536618755e-02 5.7350682847480725e-02 5.0083442645591329e-02 -1.0724514457818780e-02 3.2125669328521450e-01 -2.2862876570624814e-03 1.1421451505090308e-01 2.5768901287219759e-02 -6.2925949207412388e-02 3.4625886212185097e-03 5.8487095947082221e-02 
      </Row>
      <Row Index="213">
        7.5922984530996968e-02 -7.3798388171419926e-03 8.2047994572090888e-03 7.1571769522335432e-02 1.1462938088887920e+00 -2.9250510734682711e-02 2.7040215511862559e-02 -5.1669372844985517e-02 9.8257326446343773e-02 -1.4774697748433033e-01 1.1222864502985139e-02 1.3604009491115024e-03 1.8291731067264255e-02 -3.2944076347251050e-03 2.7364340355181163e-02 -3.5263306376714043e-02 -7.0778570873230532e-03 2.2759684015792203e-02 -1.1788979873287567e-01 1.2059534677512368e-01 -1.1611595563501109e-02 2.3253873583218621e-02 6.3202883868322388e-02 -5.6336464937795161e-01 -1.4065349870119148e-02 -1.2966036752860541e-02 -2.8912389861787346e-02 7.0066614090249835e-02 -1.7900339520087025e-01 2.0051005026718582e-02 -4.1943239232973717e-02 2.5179450529499117e-02 -2.3430308311988980e-02 -1.0894892806597611e-02 3.6119729817557733e-02 -3.5452918030692775e-02 3.4878381658687785e-02 1.6166594326218253e-02 -1.3492119145289888e-02 -1.2725410297812267e-02 -7.5459382569831313e-02 1.8542280963987479e-01 -5.2901923315989174e-01 3.0465654358917793e-02 -3.7673987710316048e-03 -4.8079551057146896e-03 -6.5645529539629854e-01 1.9931319906692169e-02 6.1405164086155706e-02 4.7289302213515683e-03 -1.0684216439545979e-02 -9.5970524344803909e-02 -2.3070816021188212e-02 -9.3210364553313330e-02 5.9515039315662932e-03 3.6999582288621831e-02 4.2912910861035547e-02 -1.5892214062399379e-02 -6.2087772527133836e-02 -8.4700816100278464e-02 -9.7023011486542188e-02 -1.8826047214304964e-01 5.1489255244911991e-03 8.5243973736797152e-03 -3.3138780563133352e-03 -4.3403066173677973e-01 2.8375126197705547e-03 1.8184077611135718e-02 7.1017280264449284e-02 -3.7129525079951931e-03 -5.8414615832879130e-02 -6.0861533121293832e-02 -8.3858929822286932e-03 3.3821014161336108e-02 2.8140442357218409e-02 1.1192201652124772e-01 3.2205191333676275e-02 -2.3503973651662569e-02 4.9682635504118694e-02 -7.8164335742638216e-03 -1.0228510125598042e-01 -7.5264531207275102e-03 2.9220683321781651e-02 -1.4112957456413611e-03 5.7237949696123058e-02 1.4299033793151006e-02 -1.0220444456485955e-02 1.6951467528078579e-02 -3.5936998138729193e-03 1.2644377519944433e-02 -7.0422685909236893e-04 1.1062203049646724e-02 -4.7708364760824101e-03 -9.7801317895554463e-03 2.3246814322522819e-02 -6.5592432109599086e-02 -3.3424612011545951e-02 -2.0280018133299164e-02 4.5482007517446077e-02 -1.4897689977310078e+00 9.7842004822130124e-03 6.4284803251499656e-02 6.3770127365737728e-02 -3.6897441029194900e-02 -9.0538258080194528e-02 6.5483291793037718e-03 -1.3001718938732192e-02 -3.0297894360031531e-02 -6.2090939222310737e-02 -4.3182934886291317e-02 6.8569202092607834e-02 -1.6132205933735044e-02 7.6138084987306537e-03 -1.5241347956455598e-02 8.2352359447717932e-02 2.3660928001925652e-04 -3.7710315802287009e-02 -2.5411184433990749e-02 7.4877268881769010e-01 -8.5788868801993066e-03 6.7082126950966971e-03 -5.8156636900862778e-02 -3.0411163317680867e-01 1.4692390193336218e-02 -1.2995589956631795e-02 -2.1830743367961526e-02 -3.5856781914172298e-02 1.2275207968092131e-02 -5.4607237282184862e-03 -1.8269056048075161e-02 -1.1870768131355722e-02 -9.2479615884496699e-03 6.3720423928202347e-02 8.9194025078311659e-03 9.0669628224918086e-04 -7.9172158516565769e-03 8.9491048805415011e-04 -3.8373904291196782e-02 1.8215236144550101e-03 1.2294797937186137e-03 -1.7715043695278494e-02 2.4780321330129564e-02 9.0919437974480190e-03 -1.9206869278024473e-03 5.8064530534606635e-03 -1.7518748148116492e-03 4.4724594889782292e-03 2.1564149097932145e-03 -5.4521425172851697e-03 -3.0965569334471680e-03 -5.2639755573735889e-03 -1.7990359333708641e-04 -6.1847683252293117e-02 6.4984258882962720e-03 5.1613782955985038e-02 1.1140651096996829e-02 -6.6967527094533041e-01 -1.3463909237296547e-02 -1.1566232903742344e-02 1.3638547539393614e-02 1.3711624998277272e-02 1.2767118643733777e-01 -1.9785521088120012e-02 7.0476643577865559e-03 2.9556335879329654e-03 4.0543696465933102e-02 -1.9104215562705917e-02 5.6583979599007184e-02 1.0370141960499124e-02 -1.1298394886950627e-02 1.0773350454301389e-01 8.3221278364371543e-03 -1.4728311441331021e-02 -3.4657000383315761e-03 -8.9709043720536119e-03 -4.2586427311117309e-02 9.3481328604996805e-04 5.7021250600717277e-03 7.6052937884356631e-03 1.2614755752993867e-01 1.7260818027561964e-02 -9.2624816097831991e-03 -2.8391484814207502e-03 7.1162061937438487e-02 1.3453966495572027e-02 6.9824415338662219e-03 -9.5198198477874918e-04 -7.7234264011842926e-04 -8.3201719729301335e-03 -9.3955172114642549e-03 -7.2981561952925045e-02 -1.2247980209329268e-02 -7.3624853385846872e-02 5.4439476794967745e-02 8.5266140915566624e-01 -2.6561803486465441e-03 3.2799737232943924e-02 -2.1091851820575228e-02 -3.0037813477868214e-01 -4.7574155218160469e-02 1.2068113817121452e-02 -1.0315871832345190e-02 -2.2701033263511042e-02 -1.7420711793799386e-02 8.2046013806629393e-04 -4.3944482396750667e-03 -3.3885275678806032e-02 2.1734348297356369e-02 -1.0337218937528578e-01 1.1889658284074157e-02 7.1178789029540890e-02 -3.8749295785587368e-01 3.2079296989151018e-02 9.4847890340615919e+00 -5.4290561406084015e-03 -1.2155695985495318e-01 -1.5121858343895389e-01 -2.4307731325398083e+00 -4.5313612765392641e-02 8.5133439209833323e-02 -8.2332497866588306e-02 -7.5365660027337147e-02 -7.4418171170975600e-02 1.8476457491513401e-01 -2.0241526068818166e-01 -9.4194227673354641e-02 8.2239004570925006e-02 -4.9289024519169167e-01 -3.0716120398661800e-01 5.3639743197867240e-02 1.5839613572011602e-01 3.9112820963945782e-01 1.8863344902458477e+00 5.6674912423179513e-02 2.4736815808891199e-01 -3.0918328175717491e-03 -6.4925213933362880e-01 -5.3626604674746547e-01 -1.1432293623492491e-01 3.3733747087650234e-01 1.8474405509584821e-01 1.0946729421993173e-01 -3.5806443760920126e-03 -1.9155869013380686e-01 -1.2685456665024319e-01 2.4613230666866159e-02 4.9054990132220655e-01 -6.7841942674103506e-01 
      </Row>
      <Row Index="214">
        2.6897903285041776e-02 -1.3455721234474249e-02 1.2729424928415667e-02 2.2400488035022870e-03 1.3068872152644240e-03 -4.5549928451525071e-02 4.5896027056244043e-03 6.0191768605315499e-03 -5.2022176934872655e-02 -3.3647813115087171e-03 7.0080293052140891e-02 -8.8590772764122333e-04 8.1977275290364623e-03 1.0311930888258207e-02 4.7368854490804219e-04 -3.5431692546384896e-03 1.7328351533231314e-03 -7.1419157954436124e-03 5.8731136045753595e-03 3.3614782862571690e-02 1.0042256877852762e-02 -7.9647787435160877e-03 6.6331366467335048e-03 3.5035059742767993e-02 -4.8805280490981096e-02 1.7492292384738779e-03 2.4827911961918386e-02 -2.3985730818086859e-03 -1.5213859518820469e-02 4.4403345316508282e-02 2.9063189964670388e-03 -1.9934114213442725e-03 1.8692747664253440e-03 1.7306351191225533e-03 -5.7970915059890604e-04 8.6816297098014743e-04 -5.4346396867126778e-03 -3.4546449662447298e-03 3.0508354635525856e-02 -5.8286738057491405e-03 -2.4059349384109696e-02 -7.2000710594132822e-03 1.8445346724326406e-02 -2.8747398501672017e-03 5.7779423512865913e-04 1.5456855947778014e-02 3.5523532052763818e-02 1.5997996739964437e-02 1.1433138486388272e-02 -5.1197178258747811e-03 6.3729029769210577e-03 2.0729907257641678e-03 4.3901870546672328e-03 -2.7521207840214279e-03 8.2471387919358374e-04 -1.2295657277908521e-03 -1.0455169769142431e-02 1.7252011390450628e-02 -1.8788015701447225e-02 -4.1657883379273009e-04 4.8603870514540015e-03 -4.2786946651435787e-03 7.0818015923699018e-03 2.0316773048332237e-03 -6.9594820191729578e-03 -2.2006851093550273e-02 4.9977219179529742e-03 8.4424177286685359e-03 -8.3411464160141162e-03 -1.3315077465476416e-02 -3.2596955372816011e-03 4.7449924198085247e-03 -1.8931834293968719e-03 8.7196192109013915e-05 -2.3838713558688232e-03 -7.3672029780770254e-03 4.8462367937803230e-03 -2.2112541905872085e-06 3.2649326715999960e-04 3.1451933978684458e-03 -6.9513847356317549e-03 -1.2558746274535623e-02 1.8599568734059095e-03 7.8672406515847282e-03 -1.1019186445527795e-02 -3.9376336394464917e-03 -2.8548410899286586e-05 -1.0819426681018957e-03 1.3187668742983662e-03 -9.1354494478758375e-05 6.8339163262334801e-04 2.6815163187167909e-03 2.9814963848715653e-04 -2.7831749073049736e-03 1.6575047715004163e-03 -1.1131032888093362e-02 -6.8890008013690329e-04 -6.4826871762957722e-03 7.5668035461965225e-03 7.6455468996901588e-03 -2.2248638697733324e-02 1.8476661839625574e-03 6.8859405876212088e-04 5.6069047112041304e-02 -1.2716312498337011e-02 -2.0003025038782901e-02 -8.4455025169607664e-04 -1.8366801510202651e-04 -7.0219636388635723e-04 5.2110612827777243e-04 -1.3589895344304215e-04 -9.0150428968385765e-05 -4.3175193933973552e-04 2.5957806545876261e-03 1.2239398185576317e-02 -3.5157036310597134e-03 1.8549393581290263e-03 -1.1416518811327526e-02 6.0273772617858669e-03 2.9150083770285641e-02 7.6211219479269555e-04 9.7708662417760571e-03 1.4731042433219765e-03 1.1831177312406219e-02 -3.5406503557801035e-03 -1.7940738904192854e-03 2.0052647554733620e-02 2.5602214723672093e-03 -7.0333402533768151e-05 -1.6693321923631488e-03 -3.2168529106686968e-03 -2.9068757683935430e-03 -8.0976975928726928e-03 2.7739828767017263e-03 -2.3893273477195755e-04 3.1888577402207265e-04 -5.5455487439872450e-04 -5.4407934856221547e-03 9.7862438443179671e-04 1.2391960628454438e-05 1.7124364713107069e-04 7.0832209340299240e-03 3.3687549473289564e-04 -4.0975039893562429e-04 -9.9952737170964362e-05 1.5637885725250543e-03 2.7101086861755844e-04 1.1653253981253400e-04 -2.1336738504220409e-03 7.3232326037759796e-04 7.3301952700849642e-04 1.0066828554638006e-03 -2.8875223516628371e-02 7.7432130504251212e-03 -7.3602300392108175e-03 1.6722449282977638e-02 9.1872698800067945e-03 -4.0498688858204276e-02 8.0450212170746389e-04 1.4313400873743613e-02 -3.4761733097269376e-02 -1.8467929161531740e-03 -2.2283543774878085e-03 1.6596334258253097e-03 3.7982767746455454e-03 -4.0578954391317992e-03 1.5297697074300991e-03 4.1592376255245866e-03 9.9879817687934403e-04 1.7281101058866724e-03 -6.0723210531335890e-03 1.1283545400068151e-03 -3.5489705940879301e-03 6.3896383209777197e-03 3.6570333297936686e-03 1.5810016596241178e-04 5.4594391585315039e-03 -1.3181963601182067e-03 -2.5709511882565095e-03 1.1695483139009588e-02 -7.0447661644224280e-03 -1.6211490233805938e-02 3.0827426252781620e-04 -2.6439243080166101e-02 -2.4662783366719001e-03 2.0539711175921504e-04 3.2623969588830848e-03 -2.9062300156958154e-04 1.6348713045824153e-03 3.8016014283879934e-03 -3.6145776024355536e-03 -4.4500545289629378e-03 -4.0386959964679170e-04 -8.2793886689793983e-03 2.7540861770656150e-03 2.4164472309678598e-02 1.9297738686735455e-03 4.3808811679539430e-03 1.7527616379609257e-02 1.4975787584834047e-02 5.2826012700411687e-03 -3.4187647141854052e-03 1.1833569094774888e-02 8.5200418247765048e-03 -1.2416975475534561e-04 9.0904270770273202e-04 -8.4800679639615920e-04 1.6795413331805792e-03 7.5123359976452296e-03 1.0819733338419537e-02 -3.2961347199907703e-02 2.0638020088502289e-02 -9.6715855695463315e-02 -5.4290561407168147e-03 2.8497290286315347e-01 3.2095389368567749e-03 9.6752513692511359e-03 1.6020836099615260e-01 1.0598185261820875e-01 2.1589784066324208e-01 -7.3853929987818256e-03 7.0588311397511122e-02 6.0090288723599561e-02 -2.4021886310922665e-03 -1.0393399746900539e-02 -4.7576619422624398e-03 -1.8825138355718467e-03 1.9993755534127175e-02 -1.5649736522019916e-01 3.5707276013754674e-02 -4.5594612487230318e-02 2.5350431323411284e-03 -1.3089487307903318e-02 1.9234838710287119e-01 2.9073872397381434e-02 -3.0185202644794185e-02 -9.5883329745481860e-02 -4.5439899673027272e-02 -2.7025096768669216e-01 -3.2917870165014573e-02 -7.9748216972763630e-02 -6.0326656306638193e-03 -5.6491786975483259e-03 -2.4125483218581080e-02 -1.4428015791829868e-03 2.8626029035736467e-02 -4.2681223243944723e-02 2.5040892720689228e-01 
      </Row>
      <Row Index="215">
        -2.5376411353217887e-03 1.0678557544479705e-01 9.5456266416160673e-03 -4.7926134505621443e-04 -8.0631698233867510e-02 -2.3568100252259083e-02 -1.2201202803703626e-02 -1.1892033289561788e-02 1.0114208593762730e-01 2.2660747670301764e-02 1.6115957327203057e-02 -5.3792802088502290e-03 -4.3221618051058064e-03 -2.5421348390897214e-02 3.6189398363994929e-03 2.3042059399656090e-03 -4.3460883719308105e-03 -5.4435723747519038e-03 5.9836566298121924e-03 3.1965244578844532e-02 -7.7367390411314574e-02 -1.0324297364830315e-02 -1.0126296070681551e-02 9.5038153216012056e-02 -2.4659349020329846e-02 3.1299125776788797e-02 -1.3673585705253899e-05 -1.1100949000412808e-02 2.7614204716234658e-02 9.9394733394054802e-03 7.7612431997402531e-03 -1.6810344908998243e-02 1.7062676170950586e-02 -5.5157833733744943e-03 2.1394819817333932e-02 5.2869971521913028e-03 -8.8580309042369798e-03 -9.6230493875415490e-04 2.0580144455322413e-02 1.7604756972168900e-02 -8.1136622239093015e-03 -7.6216915305078459e-03 1.7866088078827147e-01 -1.0692801463235035e-02 -5.4851425107046659e-02 -5.1536802818115124e-03 4.1851599632462655e-02 -1.6064549022742458e-02 -8.0027658866277385e-04 -2.3352286962039948e-02 1.8576615570833344e-03 -1.3817265521894218e-02 -8.9880777475570550e-03 -1.1428354112169581e-03 3.5695228935026080e-02 4.4124632183720203e-04 -1.9835657879465618e-03 9.5265316637469510e-03 1.4956434113817946e-01 1.9158310939182410e-02 2.2720807541350529e-02 1.0010771170346844e-01 -1.1101416161178879e-03 -1.0744909088298726e-01 -1.4275119118618562e-02 2.6150506745369917e-01 -1.4972320486777102e-02 3.3832467976546710e-04 -3.1489921499753465e-02 1.1059307823146902e-03 3.0535652233010246e-04 -5.5768355290428673e-03 -1.1298476739894703e-02 1.0815646400194279e-02 -1.8973641661901575e-02 -1.2917792871605549e-02 5.1975708808313037e-02 -3.4621158765663962e-02 -5.9485738042193148e-03 2.5538142952612641e-02 -9.6191906610887945e-03 6.7361253882810279e-03 -2.1207119267109825e-01 1.9689817859963377e-02 1.6059572256585763e-01 -1.7925730706559229e-02 1.5895076132511815e-02 2.5663427353117552e-03 8.3759380105637576e-03 -1.2149603097598660e-02 9.0078361635054227e-03 -9.4790663388263363e-03 -1.1162431995390409e-02 5.7497762276098596e-04 1.2281832697391137e-03 6.0139253021848305e-02 -3.4578108161767984e-03 -7.0205883298871674e-03 4.1155418812554134e-02 1.3842549129623993e-01 1.4178850284830902e-02 -5.9696862384953175e-01 1.6962379624518742e-02 2.6750050702293038e-01 -1.4324462281156747e-02 2.1997310627142219e-02 9.1356796806048024e-03 -2.1798493635807603e-03 -2.6049259152215565e-02 7.7922525513776930e-03 -9.2275221913549754e-03 -1.9899448226035288e-02 5.0125039585912634e-03 1.0547270386897289e-02 7.3040070736568041e-03 -2.4317115524529642e-02 -2.8661763829564979e-03 1.7516866430908398e-03 1.0161470418732332e-02 3.6789438856549700e-03 5.0530693599164768e-02 1.2021446324561258e-02 6.1210998623977719e-02 -1.3900056302721203e-02 -1.8266407722541678e-03 3.4751730781807516e-03 1.2880358413414700e-02 6.2533793533960935e-03 3.7182072762272783e-03 -6.2159774976477955e-03 4.3730142440807918e-05 -1.0059977727691072e-02 -1.6068281986162836e-02 -3.6505676731512782e-03 5.5294434548902177e-03 9.3445416299936523e-04 -3.2900245018365436e-04 -1.1357767280358338e-02 7.6402973626303432e-04 -3.9679378829113026e-03 6.2955238083346743e-03 5.2983839343017855e-03 7.4263487959003172e-04 -2.8750471656039181e-04 7.6159092070590922e-04 4.2433294093330298e-04 -1.8794107823936618e-03 -4.8237397411211164e-04 3.1030560303307170e-04 -1.8934864881891417e-04 -9.6191497024258887e-04 1.1369361802187478e-03 4.9334149401819571e-03 -1.9985331181039290e-02 -5.3430813884103312e-03 8.3462605593736527e-03 -4.7989760110684343e-03 -5.8405236444945274e-03 -5.0912712182433720e-02 9.2774269507285845e-03 7.7228590635042504e-02 -1.8790743662407447e-02 7.7593868068435295e-04 1.2338118205390547e-04 3.6686460305647151e-03 1.8781819920860032e-02 -7.4026875173574536e-04 -7.0878245166068332e-03 -9.5068756288355094e-05 -4.9640425647790240e-03 -9.3002393689856078e-03 1.3191152641214288e-02 -1.7318898378499092e-02 5.8090704747186805e-03 2.1614226066934972e-03 -2.9001770789651549e-02 3.2159202815368326e-03 -3.6150864641537162e-02 6.5695852042555458e-03 -5.0954137729933624e-02 -3.1492012218876653e-03 1.0881832244176159e-03 4.4744973318462389e-03 -2.5507366412859642e-02 -4.9250541642721982e-03 -6.1999423794256801e-04 4.2684043936453975e-03 3.9612200612596793e-03 1.1601485881886399e-02 6.1780949032523846e-03 1.4440403725878959e-02 3.8527893758999121e-02 7.0178183536548921e-03 1.3521588380848715e-02 3.0424809117312490e-02 3.1580115506017236e-03 -6.9184763944744640e-02 1.4462690633379183e-03 1.1738714361598346e-01 -1.2474394018205288e-02 3.8659053796457413e-03 -2.5267023469951848e-03 3.9044422021956710e-03 -9.6000715547329973e-03 -1.2860163780615240e-03 -2.1425937067790113e-02 -7.2387650026522095e-03 -4.7031053301467979e-03 4.1036630662314028e-03 -1.5228947442383262e-01 1.9795898251100508e-02 2.3507084599601404e-02 -5.9036722296759603e-02 -1.2155695985485487e-01 3.2095389362176499e-03 2.0526575990354807e+00 -3.1553835866500547e-02 4.1235654489934520e-02 -8.7278935991613703e-03 -1.2234291306484346e-04 6.5054136978308641e-03 4.4404545079238841e-02 -2.5046472179477117e-02 -7.7741870527390598e-03 -3.3706258312950543e-02 2.1159651506493217e-02 -3.8992999459430140e-02 -6.5635929905358392e-03 -4.3265946579156778e-02 -2.3723223444011690e-01 -2.2428140376124804e-02 -9.9580472203422005e-03 -2.5561345275738584e-01 8.2254791408529246e-02 -2.3444432065100029e+00 2.6242696906580321e-02 1.5925045433647711e-01 8.2850121258532028e-02 -5.2952309521414609e-02 -9.8566881264898529e-02 -7.1053596503358893e-02 4.7373063224713130e-02 8.0772649841889255e-03 -3.7513412854989991e-02 -4.4512472057898489e-02 2.1050201842840455e-02 -5.2877981700006793e-02 2.3170344215560545e+00 
      </Row>
      <Row Index="216">
        -1.0153330020921298e-02 1.3399432970396952e-01 2.8209049642041586e-02 -8.5686075408192963e-03 -5.1893097983764777e-02 1.9302707704723539e-03 -1.6442111265990919e-03 2.5070233188892344e-01 1.5163734511216855e-02 1.4534218726524870e-02 5.6779132205583855e-03 -1.0228061248979108e-03 -1.4231544471339942e-03 -5.7687185507787932e-03 -1.1366495839932253e-03 -2.2756540073210853e-02 4.4001833530605216e-05 3.4339708894346524e-03 -4.8282028116828322e-03 -7.7625878887863410e-03 -6.1055012316115494e-02 -6.3785756139404251e-02 -1.4836609565386301e-02 -5.8755342513264197e-02 1.7061793517218048e-03 -5.5052255654395831e-03 -2.4155973484689237e-02 2.9729609995641233e-02 1.7949488838129649e-03 1.4964614013365518e-03 -1.6303870697255418e-04 -9.0470784310229310e-04 1.4074706434988411e-02 1.7641540162325782e-03 -8.0261181541204929e-03 5.5702046332028526e-03 3.4974647264232085e-03 -6.6868964327313971e-03 7.8038424623287188e-03 1.9066442563651698e-02 -6.8270510921057570e-02 -1.2403190404772980e-02 -3.7067730550008365e-02 2.6037418504368526e-03 6.4541087074910311e-03 -3.6817943365040143e-02 4.4173118355007715e-02 -3.4860041191628152e-02 -1.6321821543124893e-03 1.1141047495343150e-02 -2.6696916093427378e-03 -1.0648832752022955e-02 -6.5178366324356724e-04 6.4175615700551641e-03 -2.1701130578883898e-03 -2.2735565939152533e-03 1.0514990148928819e-02 4.8548519374125243e-02 1.2387180834299238e-01 9.8241505133384796e-03 6.9544312126315691e-03 8.3134026726988455e-03 -4.0648086286597385e-03 -3.3362326122062247e-03 1.4363050078251155e-01 -3.6271029520769105e-03 -1.0374092310983754e-02 -5.5897287031702395e-03 1.9050653348450790e-02 7.0169375395653308e-03 1.4252971930910132e-02 6.3448413824315764e-03 1.8670328302462236e-03 -1.1510832955054610e-02 1.0449339126975220e-02 1.4088148036283839e-02 3.8170321051402556e-03 -1.3234175470967120e-02 -1.0842928199032681e-02 -5.9763896553867565e-04 2.2244710700417190e-02 1.3500459240378597e-03 2.9529688503745276e-03 -3.5446070692517040e-02 -3.3165597590981422e-02 3.6032064910788836e-03 1.4637611911270327e-03 1.8073276599065227e-03 1.1460057795986455e-03 4.2932611700660477e-03 1.1789566144516941e-03 3.0986740300471324e-03 -3.5625683905073612e-04 -5.0352777524041714e-04 -2.2564967056062056e-05 2.8856360153591804e-02 -8.3578022849750411e-02 -1.8539750053691694e-02 1.2644430605298733e-03 -4.4219084475523099e-03 -1.2118083984059887e-03 6.6382025061510119e-03 -1.5878799153372036e-01 4.1532180936844645e-02 5.8602926600690025e-03 2.5819920888908894e-04 -1.8393532835286723e-03 4.4961890291727313e-03 3.4595750166022815e-03 7.0149743630887546e-04 4.3867738798683822e-03 3.7593826023273377e-03 2.3581333338975755e-03 -5.5132232363860542e-03 -2.7651698770470370e-03 7.3720529489095521e-02 1.3555168854558212e-02 -1.3742641167790280e-02 4.1705996870744916e-03 -2.0454813018519523e-04 -2.7883463068340349e-03 1.3412383795374971e-01 -2.4487673308168201e-02 -1.4723032919391999e-02 -4.3116832873083388e-03 4.6559996523413928e-04 -3.5186420997854635e-03 8.3844574533992796e-03 -1.6417219539988123e-03 -5.2956210224416739e-03 2.4248078275272830e-03 -1.1801677212024467e-02 9.3186932959901502e-03 3.2495191751435292e-03 -1.4479048818459312e-02 2.4977025115588756e-03 -2.4614616579481975e-03 3.9197119138121078e-03 8.4027735903548977e-04 9.4191330528723923e-04 -1.9030977613008640e-03 2.1461674212311585e-03 1.1020245048571319e-05 -2.0328220515533472e-05 -2.1652271200420180e-03 -8.7111142114156058e-04 -4.0125851187894461e-03 -9.8392538669945595e-04 2.4837763892733280e-03 2.9056401475027022e-04 -1.4868786228130174e-03 2.1918882104500861e-04 1.4853289380145773e-02 -7.0820455354231399e-02 -3.9031989046726084e-02 6.7784122453304774e-04 4.8833859868334967e-02 1.4470023278153961e-03 7.6604669694133563e-03 -1.9756347636892252e-01 -4.7630001744331581e-02 -4.0659465057069841e-03 1.3131725742126892e-04 -3.6050299064185349e-03 -7.0689552025292295e-03 -2.6771937997015433e-03 9.4630100881814834e-04 3.0018789619253420e-02 -3.5912727006643798e-03 -1.2086467361876871e-02 6.1179443003027377e-03 -4.8060671506053310e-03 -1.7395367556534397e-02 1.0667529650335988e-02 8.1454360584857013e-04 1.0705763409195051e-02 -5.6214620485366650e-04 2.9974177930643109e-04 -3.4349964519636719e-02 -1.9511415668049953e-03 4.2579722699115780e-03 -2.9103841491796931e-04 -5.6048882934568028e-04 2.1278783713915678e-03 2.1799389784956796e-03 6.0032291010719537e-04 7.1688525913266854e-03 -1.2352114335609731e-04 2.5596938646373574e-03 -3.7559543849142452e-03 -2.8826586959213626e-02 1.1803364862360106e-01 4.3881938506323853e-02 -5.2922645873865210e-03 -8.0184635660004635e-03 3.7814421580754020e-03 3.9814132541061645e-03 2.2466598367236262e-01 -3.8962540091528261e-03 -6.2236714493896957e-03 3.6407292911325674e-03 5.6555440504546910e-03 3.4132220007388032e-03 -1.7551389347499878e-03 -6.9032450252466866e-04 -7.6408910929395644e-03 4.3826334151583178e-03 3.9282251765890364e-03 -3.2261741030092791e-03 -1.7778494836519099e-01 6.5013140893020127e-01 1.8810704373919646e-01 -4.0117690352782377e-02 -1.5121858343928984e-01 9.6752513693316392e-03 -3.1553835865976751e-02 1.2663827692488601e+00 3.4061677097047632e-02 -6.5464605519942876e-02 1.6005840802332499e-02 1.1243647361930287e-02 1.0458176430817857e-02 -4.5081462069814240e-02 -1.0482020601799728e-02 -6.7617193445238907e-02 9.4544317467525375e-03 2.7467974378901774e-02 1.5200511853007369e-02 2.8428210377617960e-02 -2.1441206779768174e-01 -1.1529040831268736e-01 -2.5566906827679408e-02 3.4431508466331806e-02 -1.4819330041484727e-02 3.4479481125567493e-02 5.7028757343381242e-01 -1.0754263019449745e-01 4.8623909046323521e-02 -2.5439576204566799e-02 1.0618631305085284e-01 -1.8454223658969839e-03 4.9800437251898977e-02 -6.9982732790919988e-03 -2.9313434878386772e-02 1.7067153861831039e-02 5.2243839333603007e-02 5.1820363664202250e-02 -4.6479876296556567e-02 
      </Row>
      <Row Index="217">
        -7.4307288392179774e-03 1.7788081633593156e-01 -4.4998581977292673e-02 2.0987643785040477e-02 -3.8437300564037646e-01 2.7788094276820219e-02 1.8007856358970231e-02 -3.1401058347168798e-01 5.8135929084307258e-01 8.5820203521083556e-03 2.2232578700635275e-03 -2.7190299646399629e-03 -1.3514913207741314e-02 -2.0420770095007423e-02 -2.0113171263840129e-03 5.1107905212068871e-02 1.4582639325441585e-02 -2.7990172098122268e-02 3.2971543549454113e-02 -1.3634268860816090e-01 -8.0874629679037802e-02 -5.3757638581197753e-04 1.8395514815000569e-02 1.2279830463001185e-01 1.9345670374389445e-02 -4.0597390937727740e-03 3.9157752676598656e-02 -5.7466228932150587e-02 3.3608668087847793e-02 -1.1292999920468338e-02 1.1719904134964487e-02 -6.6433144078033857e-03 2.4146078963505145e-02 -5.2987657325339332e-03 -6.8381471595841070e-02 3.4126570719703875e-03 3.8465913703679355e-02 -1.1622167964230323e-02 -1.9224440311980950e-01 -7.5168627439648361e-02 -5.2125634948694266e-02 3.1191363214853940e-02 -5.9850399603012416e-02 8.4497778296228621e-03 4.9427663743761840e-04 1.4332993833339686e-01 7.4283583433802991e-01 3.7654952210675718e-02 -1.7441666187871685e-02 -8.7172944054979551e-03 1.8842241341791022e-02 8.1794509003688898e-02 -8.9022114776444727e-03 2.5622138370758135e-02 -1.9585995659723299e-02 3.2336334339668212e-02 1.8866080432216548e-02 -9.8332653242565904e-02 1.3859810967166766e-01 -1.8611070995794510e-02 -5.7949362536529381e-02 -1.5426181206467587e-01 2.7718685107098739e-03 1.6764347956792935e-02 -2.7809759811479751e-01 5.3798654910545807e-01 9.0966755187746884e-03 1.2588383306460393e-02 -1.3013113302485821e-02 1.6365446730102318e-02 -1.0106043328364167e-01 1.8248056980746163e-02 -1.1425399914510859e-02 -2.7448062322303096e-02 -2.6005629425506410e-02 -1.4825584118003610e-02 3.6278468203927439e-03 2.3992159899278054e-02 1.8417224968965334e-02 -4.7152209912085102e-03 -9.7291393806057974e-02 -3.1234864270870757e-03 1.1544120710760955e-02 2.0083126479047309e-02 -1.6289237752147523e-01 -8.9355585343471322e-03 -5.0037145964132446e-04 -7.0508985365530519e-04 -1.6087448115839516e-03 1.0160547695296229e-03 2.4756148707833284e-03 2.5051493204491043e-02 2.3755004606242358e-03 8.0213268460459786e-03 -2.7604643434675918e-03 -1.8595818120614904e-01 6.5943348104956501e-03 4.0011687550779725e-02 6.1215363364840153e-02 5.5582455952511600e-01 -1.0273014585688675e-02 2.1938525184546483e-02 -5.5617271610888086e-02 -4.0560044854214672e-01 4.7603835938852979e-02 -1.4492429741824013e-02 -2.4430880906218276e-02 1.4411983560425404e-04 5.1987303431141538e-02 -1.0598099138445234e-02 -1.6897892895435804e-01 -3.0811099297932160e-02 2.9298271546425100e-02 9.9812577338877911e-03 -2.2481193788492781e-03 -1.1193617056198832e-01 -4.4795249169303997e-02 -1.7963291545540050e-02 -2.7689289903877823e-01 2.3231616626234099e-02 2.2094947356210849e-02 1.4758459363766324e-02 7.6723517674021968e-01 4.1563030096657808e-02 1.5339008833721537e-02 3.2859126101889569e-03 -5.8804271061975964e-03 -7.7061893297000916e-02 3.9632721911524484e-03 8.0283114294487312e-02 3.0210741252067068e-02 2.2425611888827274e-02 -3.2704263415568272e-02 6.6373021291366574e-03 -2.2636850521995829e-03 -3.0471024082794583e-03 5.2656318277068508e-03 3.3426037947615117e-02 -2.5133489782331805e-04 -1.2810797445061534e-03 -6.0559744439829186e-04 -2.5350697642739787e-02 -8.7695565727733994e-03 1.3604654504634434e-03 -1.3110960093423586e-03 8.9104974807868460e-03 4.2004888258294886e-03 -1.2308133402074818e-03 1.8533067142022588e-04 3.5185117885943810e-03 2.3618075616599968e-03 -2.9081150681603586e-03 1.8963480493335161e-01 -1.5840912976910926e-02 5.0996340432822806e-02 -3.5338217397157354e-02 2.7041428900122566e-02 -9.7445693569113007e-03 2.3422286425356376e-04 2.0775679269368910e-01 -1.1555849770325626e+00 -1.9125214954550433e-02 -9.8704581965888098e-03 7.7680194079740167e-03 -5.7700068974688434e-03 -5.9581914647279521e-03 1.9457531093608697e-02 5.2083962198901712e-02 -1.1965189170791073e-02 -8.5119416893397314e-03 -3.3202741277131825e-02 -3.1592169179133878e-02 -3.6072012280374821e-03 -1.1637148711907130e-03 2.0351761623563780e-02 1.0357850340315645e-01 -3.1339229556802406e-03 -2.2697055574446567e-03 7.7344213730410338e-03 -4.5298018897373282e-02 6.1750457060400499e-03 6.5822487408156993e-04 -2.4441255599598199e-03 -2.1383393341171491e-02 7.8577269467748276e-03 -6.1927571520492520e-04 -6.2244790872437061e-02 -6.2193761412547566e-03 2.0935046380406427e-02 -3.2047659765611081e-03 2.7698512813421061e-02 8.7525161517315042e-03 -3.9388085850806553e-02 -9.1793697898123749e-04 -3.0110161670674362e-01 3.2913187988771214e-02 2.9585663724949834e-02 -1.1068032355641973e-01 6.6804815254064409e-01 5.8039782938881457e-02 1.5124316216056734e-02 4.8041657516370573e-04 9.2760455810518838e-03 -6.1034738722608894e-02 -9.4279518609218481e-03 -1.1230195520627040e-03 2.1991896959200938e-02 -2.3565104668905018e-02 3.3605656285980959e-02 6.0176375694269635e-01 -2.1765390541230245e-01 -3.9793271017506693e-01 -8.3996072191925647e-02 -2.4307731325391373e+00 1.6020836099647334e-01 4.1235654489130288e-02 3.4061677097249582e-02 9.2187825723506194e+00 1.3696477203013985e-01 9.8876613210402420e-02 6.5079194291142173e-02 1.0208535536471386e-02 -4.5115663018510704e-01 -4.8499976123612641e-02 3.1603306925762775e-01 2.0077153613487236e-01 -1.0920942739483808e-01 1.1840781294477401e-01 5.5930538599348778e-01 -1.0690654301294600e-01 -1.1602083100911015e-02 9.4083255781168607e-02 -3.2928404986545690e-01 -6.1133922195366147e-02 1.7517529822296957e-01 -7.1571199380593686e-01 5.8787502737590924e-01 2.7023479199249582e-02 3.7962409304838456e-02 -7.8756899060399399e-02 -6.6897932915625374e-02 -3.3522173971582636e-01 1.3106188807136876e-02 1.2802201742637798e-01 4.3707665943601925e-02 -1.4165763436681567e-01 -1.8324874956924192e-01 -8.4532625852261911e-01 
      </Row>
      <Row Index="218">
        1.7048287431670889e-04 -7.4815009118601949e-02 2.5022972083447614e-02 3.0610889206101000e-02 5.4059365734959841e-02 -5.3272065913336830e-02 -4.3916307043030400e-03 -1.2055430893924091e-01 -1.0339955359497310e-01 -1.4810153515280525e-01 6.0028275726431296e-03 -2.7711469989201293e-03 9.1979707401603217e-03 -2.1103370301433250e-02 -7.1106618745470362e-03 2.3731955827499096e-02 2.2841663887611181e-02 1.2863252050484220e-02 1.4464015355470266e-02 2.8280398663574624e-02 3.4695601974945089e-02 -4.8429071306572258e-02 1.4108880474765856e-02 -2.0338563511356589e-01 -5.0861452408065083e-02 -2.8880144161470191e-03 -1.4101546496231798e-02 -4.5213314224978873e-02 -2.2220954926717079e-01 -1.0894065116370810e-03 -6.3317627739145621e-05 8.9982434049825644e-03 -2.6894953547046133e-02 -1.7414313873650167e-03 1.7425678971723313e-02 1.2956159391239841e-02 -1.2832650455846639e-02 -2.4131234462517137e-02 -2.0156396322517062e-02 -4.0562698335362413e-03 -4.0599966556669198e-02 1.7448018129020415e-02 -2.3463716412666535e-01 -1.8791649349644612e-02 4.9469299472272299e-03 5.1600728432879550e-02 -2.8651672525971117e-02 3.1696691707707819e-01 2.8515095162817417e-02 -8.9991934187457767e-03 3.0359803156794929e-02 1.9451433804016260e-02 1.3022209077134805e-03 -1.1845671664683255e-02 1.9785431437207901e-02 1.2077507056086362e-02 -3.3780311691414044e-02 -1.9051482650027651e-02 -9.6909646542311351e-02 2.0035504754063738e-02 -1.0317056085631382e-03 -1.9090462186771018e-01 -3.6507806264922116e-03 4.7511745384376525e-04 -7.3691016384266561e-02 -1.3333056301632729e-02 1.7586243359033737e-01 1.7019301160359268e-02 -1.2688716496478479e-02 1.8878974988229880e-02 -5.9949457213737428e-02 -5.8455301170621254e-03 -2.6103051992603099e-03 3.3655036050663584e-02 9.0346499918553119e-03 -5.1574892561481789e-02 -1.5090035316558392e-03 -4.5584264784272466e-03 -2.4636357713777313e-03 8.9805064215418146e-03 3.0642597218812767e-02 -1.1216465725140540e-02 8.5522685158459510e-04 5.5105649643993893e-03 -3.1464179909521883e-02 -5.1779413639078564e-02 2.7249255527546853e-03 -1.5964957662974733e-03 4.1915109759026736e-03 -6.4325408821489516e-03 -2.1433835107408789e-03 5.1411071452870660e-03 3.4159575614232940e-04 -4.7830509046467851e-03 -3.9723271821479056e-04 7.1493944464062764e-03 -6.4332398110447941e-03 -1.1862816760857656e-02 3.2758908772637929e-03 -1.5825931783166480e-01 2.1123542114115101e-03 -3.1902579196253934e-03 -1.9245654057480521e-02 9.7210580790848322e-02 -2.1852827732902055e-01 -9.5735960464417846e-03 -6.6288453892854923e-03 -1.8426804088069900e-02 -8.5370664053112597e-03 -1.6636967818150702e-03 2.6893996933333816e-02 -2.6349500713390706e-03 -6.2761166749017092e-03 -1.0893561566037255e-02 1.1045312759231693e-02 -1.3695739026923226e-03 -8.1270880755933139e-03 -9.2213948182755107e-03 -3.4125628202015396e-02 1.8030078355834069e-02 -4.0178971775294697e-04 -2.1050959738600522e-02 -4.7886148562319986e-02 1.2628492021352858e-01 9.2372157096697292e-03 -9.4065955983753044e-04 -2.0739048516773974e-02 -2.8580218054925777e-03 -2.8633406488782001e-03 -1.0399900964769726e-02 -9.5516408418233750e-03 -1.1725459090189350e-02 -3.9667550271172608e-02 -2.3006518123211243e-03 1.8141813219966253e-03 -1.9322124557980616e-03 -1.5493477806280409e-04 3.0295234930971839e-03 1.6844014657923106e-03 4.5309534493074644e-04 -3.1509063094854045e-04 5.7324392193021656e-03 -1.3048101494660264e-03 2.7661152633269657e-04 -3.9095372765881556e-04 -5.4476225563311782e-04 -1.1158577877540213e-03 -6.5929545145202145e-04 -8.1070806745105889e-04 -1.6812084331379283e-04 -3.5482009557157024e-04 1.6468440679182454e-03 -2.8613656883437977e-02 7.1993251926676383e-03 4.1224068691414484e-04 1.5033942829736038e-02 8.8546338680109832e-02 -3.0057764730233798e-02 4.4356503542397133e-03 9.7714527877867524e-02 -8.2525248837558962e-02 1.2011568614495352e-01 2.1687921745531594e-02 4.1353821356192380e-03 1.6328591960353162e-02 6.2646932400959449e-03 3.3053407837037689e-03 -1.5183563054629146e-02 -9.1293133391955536e-03 1.0969425228511291e-02 4.0013404699403253e-03 -9.3952546599138653e-03 7.4857263668868246e-03 5.0089662285657255e-04 2.6762330413582225e-04 1.8627151989766708e-02 3.6685584327199039e-03 -1.0966168576668212e-03 1.4508213837101991e-02 8.0147755221154693e-02 -2.5920525209911560e-02 -1.1920080407457997e-02 6.2878272726246687e-05 2.9951528194626958e-02 6.8918817118593569e-03 6.8676354652963769e-04 1.4903847188976194e-03 -8.9015113921647737e-04 -1.3548735704905258e-03 6.5465152651702496e-03 -4.6548367095415877e-03 -1.8035819779440673e-02 -3.2026841295916542e-03 5.8729364783717680e-03 -2.5218695039402689e-02 1.0389793065132035e-02 -3.4051905698910048e-03 -3.4878063158301408e-02 4.1095713649388022e-02 1.4060338871628547e-01 1.1069500109479706e-03 -3.5041342185423725e-03 -1.3396713428058423e-02 -6.3807940423433115e-03 1.8897421308418198e-04 -8.3727716360028348e-04 -1.9504228156235370e-02 -2.4997509306714013e-03 2.1401069982127346e-02 3.1262726637301744e-02 -7.5258012936262331e-03 -5.5675966314669006e-03 -2.8409680526283537e-02 -4.5313612765930877e-02 1.0598185261831218e-01 -8.7278935997046198e-03 -6.5464605520217323e-02 1.3696477202990479e-01 1.3904232004958914e+00 2.4220679789823514e-02 3.6158703615226107e-03 -3.4655823012383125e-02 3.4739058631445045e-02 -1.7941340139235044e-02 -2.5293393626120805e-02 5.4941317957282153e-03 -5.7355364365882615e-03 2.6289543093522778e-02 -7.7135658790816491e-02 1.5728904750730022e-01 -7.9802397749230231e-02 8.0192692991455081e-02 3.3906438112330306e-01 2.4729729957031646e-01 -1.0241255371049196e-02 -2.8162244855596885e-01 -2.9097698493940038e-01 -8.4058948824959212e-01 -4.7086920855652477e-02 -6.1302856726625478e-02 1.1163414790080163e-01 -1.4537965064935285e-01 -2.2126914149782281e-03 1.6112615480952941e-03 -6.8686444050313919e-02 6.7819748153047338e-02 -1.4530560082103922e-01 6.2291097892587777e-01 
      </Row>
      <Row Index="219">
        6.8279550519291243e-02 3.7867381467341366e-03 1.5361285512610623e-04 3.9329037618206289e-03 -6.0560512353975388e-02 -7.2648246775134068e-02 3.6552508946164769e-03 -8.5859298471173129e-03 -1.3469040914420211e-01 4.8315637558136032e-03 2.4217568856547511e-01 9.1146314782837232e-04 -1.6922048409134624e-02 1.1865267460320336e-02 1.5901669770716428e-03 3.0243315800471016e-02 2.4636247434796539e-03 -1.8346651748577386e-02 1.8091716869144733e-03 5.5355407193016806e-02 1.0333372681908926e-02 -2.2902273097882286e-03 -1.8393898358276886e-03 3.7753082036640073e-03 -6.2961535586750911e-02 -8.0624732059668153e-05 -1.2764102782432396e-03 -5.6394997144582071e-02 -6.0534260192219025e-03 1.4349205291836123e-01 3.6725813086326276e-03 -1.3436529484185125e-02 3.7130986569649527e-03 3.6347102764318351e-03 -2.0551554443836162e-03 2.3989423503356245e-03 1.0249937483521321e-03 -1.0250678162929294e-02 3.6347748617994335e-02 -6.9764940194430025e-03 -8.9565482269868824e-03 -1.8330028374052842e-03 1.4816404496428737e-02 -1.3201418818969191e-02 5.8938535002761583e-04 -7.2356585993009204e-03 1.3934321680103445e-02 2.1930427728215240e-02 2.5577262489127894e-02 -3.2861824939842410e-03 1.8505433516200487e-03 5.7618424676992575e-03 1.0122612158502187e-02 1.4455605399505148e-02 3.9995786428033142e-03 -1.0782052640406943e-03 -1.3609031676327960e-02 2.2209548533735468e-02 -1.1755989061367876e-02 -7.1182888677293055e-03 -1.7246991558262065e-02 -2.9265115815606903e-02 4.3590128839583187e-03 2.8626676164897891e-03 -1.7351372058047598e-03 -4.3301074995197752e-02 1.3543659997200974e-02 2.5332226452046261e-02 -5.3518015472762970e-03 -1.7347382153104662e-02 -8.8494622627217912e-03 8.7220703386658993e-03 4.9785553341237243e-03 4.5423941012130986e-03 -7.2729732202279351e-03 -1.4260758598690609e-02 6.5695027998202704e-04 -2.5903383767655885e-03 4.4029717617635328e-03 4.0114245230922496e-03 -1.0121777380105994e-02 -1.7764384975870431e-02 3.2350503201828262e-03 6.9998998633372667e-03 -9.6595056360999632e-03 -2.2111489319197597e-03 7.3870709799423243e-04 -8.2566327068533951e-04 2.0171208155723118e-03 -2.3249583209016891e-03 1.1716220255325524e-03 1.4838259342455709e-03 -4.4151723611504656e-04 -1.7366237087666769e-04 3.1725523666042699e-03 -1.3151493084487931e-02 5.4840420705404291e-04 -4.4624557959420472e-03 5.0318934528745113e-03 1.6123749420154210e-02 -1.3687748189505293e-02 4.0355002312039813e-03 8.2547519497017385e-03 5.3654665093451626e-02 -1.1451540343978758e-02 -4.7633676690318622e-02 1.5194749849286628e-03 3.4873283640817409e-03 -4.3608609943167273e-03 -1.5794996170008166e-04 -7.0533808996298270e-03 -8.4812021492911005e-04 3.2841204111865897e-03 4.0510996089413998e-03 -4.7844392275796233e-03 -9.2198628071488292e-03 1.0309104221404408e-02 -6.1649854652580157e-03 3.7444014691372381e-02 1.4080709925174861e-02 1.1848283858426206e-03 1.2433347224390476e-02 1.0328102523002314e-02 -2.2119641755193858e-03 -4.6514247603213627e-02 -3.7664181232509551e-03 1.9836391858782026e-02 4.5665191692468785e-03 1.8962100722270704e-03 -8.3764291560040616e-03 -3.6005526139389309e-03 1.0136471142100457e-02 -5.7222536724427699e-03 5.0119389964073217e-04 -3.3359117100101206e-03 1.3612987688108591e-03 -1.9206906125465175e-04 -1.8623847103070943e-03 3.0542866992964697e-04 3.1608555379423662e-04 -2.8409270602858805e-03 4.8943303844263871e-03 -7.1090849502979808e-04 -2.7364160773299816e-03 3.5521055369739895e-05 1.6824931773807179e-03 -1.5884361912602164e-03 -5.6880850965051067e-05 -3.6269218419073867e-03 1.1034507959583532e-03 1.1213723994847082e-03 1.8027594417587183e-03 -3.1773289983624581e-02 7.5092910970491616e-03 -3.2238030249624461e-03 7.1390884136042047e-03 -2.0384442003515482e-02 -3.5032468459313036e-02 1.5174859601602836e-04 4.6959078908834564e-03 -2.7921657490042162e-02 1.2482051569798465e-02 7.2491575060896806e-03 1.5322554004833129e-03 5.3467221182987093e-03 -1.2992913386253059e-02 -2.6755690373444878e-04 9.0643250243074847e-04 2.0716771801030749e-03 9.1373738251470174e-04 -1.1538956540147286e-02 -1.5608644641012526e-02 -8.1661596742617082e-03 8.9261950765404663e-03 8.7543410735272942e-03 2.4211828312553016e-02 -1.6807927179274679e-03 -1.0515454717351658e-03 1.3296539598310231e-02 3.3783760101107174e-02 -1.3857535107867885e-02 -5.5474155865604335e-02 -1.6747320009465883e-03 -1.8520608806174909e-02 -1.8047876840841847e-03 7.1935645764497290e-04 -7.9229773756281929e-03 -1.6372438065688985e-03 1.2396828045588715e-03 9.8519134044849910e-03 3.5951168895785868e-03 -7.8455388251310598e-03 5.3716770962205854e-03 1.2546080106731403e-03 1.1777316176308401e-02 5.2742521333110047e-03 3.4971849056120684e-03 9.6053475663988707e-03 2.2881685714480349e-03 2.4407519456848400e-04 -1.6172850361816293e-03 -3.3645724898830262e-03 1.1869766222372126e-02 7.6911291201019489e-03 2.2479021898818693e-03 1.4363457996116741e-03 -1.6252726420639967e-03 8.1837194538549388e-04 1.4074541842973493e-02 5.1326510727070285e-02 -4.5623058154441981e-02 3.5409424067148289e-02 -4.8864790773937419e-02 8.5133439210127587e-02 2.1589784066323536e-01 -1.2234291172744799e-04 1.6005840802270660e-02 9.8876613209575220e-02 2.4220679789805227e-02 5.3486061000913976e-01 -1.4809877868657395e-02 5.1250696120906707e-02 8.8925242533300863e-02 1.0758154214704973e-02 2.5746558328749669e-02 -5.2693006601012976e-03 9.2586883743075964e-03 3.6665908729527713e-02 -1.4499627018937261e-01 1.5530873189565808e-02 -1.6503958430777114e-02 4.0761991569525383e-02 -1.3855312847591533e-02 3.4347797614219233e-01 3.6734045932454829e-02 7.2668044821007083e-03 -6.5900759174561355e-02 -5.9029576333480153e-02 -1.0529253481801508e+00 -1.3652768199836636e-02 -7.3976355743137476e-02 -3.0403490738690732e-02 -1.4473108072370650e-02 1.0561905043457255e-02 -7.6642031884417167e-03 -7.7990878617388085e-03 -5.6475694562333575e-02 2.6577012249920495e-01 
      </Row>
      <Row Index="220">
        2.6233942069155657e-04 -1.3757976368498925e-01 3.2384819774353146e-03 1.2624023708674319e-02 -3.9334285177876238e-02 -7.0025643098713120e-03 8.0868497800450079e-04 -6.4166098248068959e-02 -1.3194641110369359e-02 -5.8304714109174982e-03 -3.9646137815504585e-03 2.0377226111501695e-02 2.4915387512215587e-03 7.2539783090955767e-03 3.7416899080762941e-03 6.2035939475557911e-03 -7.6740144555046156e-04 7.4180174960027101e-04 -3.6260895402054523e-03 3.7561694973903631e-02 6.2290273917984806e-02 -1.0702013564221069e-02 -5.4493496555262783e-04 1.8979285305826599e-02 -5.4985979725401812e-03 1.0277272937761987e-03 6.1626836498342163e-03 1.0369767377714056e-02 -5.5861525918031174e-03 -6.8424414425033442e-05 2.6210992259319221e-02 -6.5246421270970592e-04 -6.5679139111545996e-03 5.0037199952161146e-03 -6.7017151889264825e-03 3.1933072147611614e-03 -8.8766851340849051e-04 3.0382190980192958e-03 2.5609798992601768e-02 1.2023522817848242e-02 -1.3704214731733000e-02 1.9038634905137242e-02 6.7656569034388547e-02 -4.4965972277583866e-03 -1.0461127810557913e-03 5.8044394021049689e-02 2.7407171362757610e-02 1.5968552586101414e-03 -1.1761129994117825e-03 -7.1941478231360934e-02 3.1331250728436344e-04 4.1202089263867037e-03 6.2825539549288545e-03 3.7385599443404589e-03 1.4652127742939114e-02 -6.6044043333694062e-03 7.8348631389597995e-03 5.0588224514636071e-03 -1.2104512616694969e-01 1.2742211168334072e-02 1.2529222800964357e-03 7.3317979648541295e-02 -1.9083567289191750e-03 -2.1029919105652883e-04 -4.2173778225702785e-02 2.3907865333020806e-02 -1.5474245272344700e-03 -6.0380247993901681e-03 -1.0103199853593295e-01 1.6690725525356498e-03 -2.7613327174413546e-03 1.5289819155972495e-03 -2.6740096077447262e-02 6.4484842817243565e-03 -1.1265512592812763e-02 3.2790003726125838e-03 2.2418856684147670e-04 -1.8115485907773399e-03 -1.7011794643587291e-03 4.1371611370293934e-03 -5.2134108726766756e-03 -1.1638013014199393e-03 5.8867246923097888e-04 3.3132623227615232e-03 -1.2175181213636144e-03 -2.7275006826957271e-03 7.6619502798462580e-04 -1.4336865222804286e-02 -2.7253440156892947e-03 -9.3208298770369735e-04 -2.6819124942417845e-04 -3.5752184939379997e-03 -5.9121177020177787e-03 -1.6318769300023780e-03 -3.4847265039687769e-04 -2.1415258368031348e-02 -1.2921841693381231e-02 3.9244414872378897e-04 2.6891796827427789e-03 2.2979350896171757e-02 1.4163909770453509e-03 -3.6339112662123435e-04 4.7523747866269617e-04 -7.8932636037505333e-03 -3.5379169880931649e-03 -2.8032088652993684e-05 -3.6779779556410541e-02 -2.0047112371370515e-03 4.2901332191384277e-03 -4.7476323145321485e-03 -9.1731501750196912e-03 -1.2740489810811495e-02 -1.8044735676364908e-03 -2.9636196785428545e-03 3.7153647680714205e-02 2.6549786429498554e-03 -1.5923644072854404e-03 -5.7694232310496274e-03 -3.3570323133114794e-05 8.0491638318369932e-04 4.0307375781015869e-04 -6.5247016244335335e-03 4.5231200335044131e-03 2.3743842117386134e-03 1.2257176287619664e-03 2.2139798731419354e-02 -2.6141866701093718e-04 -7.2624951964230661e-04 4.2388160845812997e-03 2.0301943437290859e-03 6.4523284233305705e-03 -4.0873272034856051e-03 4.1871704623861108e-03 -3.2840975194042242e-03 -1.0314872506374580e-03 1.8950430363254816e-03 -8.7593330382621610e-05 2.3204296880059809e-03 3.1836633969895705e-04 7.6431287766620172e-05 9.8572137996847005e-04 -1.4424433346969358e-03 -7.4713830520677441e-04 4.3357145761757903e-04 -1.5390175816700534e-03 -7.3289188769982538e-05 -1.2774496212197492e-03 1.6355169579859740e-04 1.3958229650783936e-03 -9.5371317493576707e-04 2.0877407120787391e-04 7.5616959306031538e-04 -3.1442381517840984e-02 -9.8615533808788305e-03 -1.0971081595362406e-02 -7.6054457563864281e-05 1.7947580461402241e-03 -2.3390113420779235e-04 -1.6531542874178642e-03 3.3064636311503172e-02 -3.6790847482564559e-03 5.5385597680391585e-03 1.1660374005975057e-03 -1.4243935852140137e-02 -1.0899735446067080e-03 -1.0026089130058990e-02 -1.4324979082372419e-03 -1.5214589388593214e-02 -6.7880665488110475e-04 3.7220451246525806e-03 1.4942743031696477e-03 1.0004279987436859e-02 2.3591130960683382e-02 2.2388983031801368e-03 -2.2598887484468755e-03 -5.4925583449601245e-03 2.9435394529661596e-04 -5.1679418751507389e-04 9.0754470314899360e-03 -6.8683454740072203e-03 -3.9381203272301213e-04 1.0054446200774489e-03 5.9553390032267839e-03 7.9714972939510533e-04 -7.1257466534185507e-04 1.2512433284706127e-03 -2.1338788852842683e-04 -1.2186736015196258e-03 2.6047116534932760e-03 1.2095043670774797e-04 2.8577754432602687e-03 -5.2120125370832229e-02 -6.8044586545253083e-04 4.2843009624360245e-03 -2.1843027211763677e-02 -1.5771738753925634e-03 1.1435522242168525e-03 -2.0048696411868055e-02 2.7374670808549828e-03 -1.7577397195943046e-03 -1.4116938010121953e-03 9.8986669802478148e-04 4.2413760466066316e-03 -1.3063054671166932e-03 4.2427157602504782e-03 -1.5470616457105395e-03 -3.6842583940587944e-03 -4.0473237109117906e-03 -1.4896776157703982e-03 8.3728980085121772e-03 2.3370035065582218e-02 4.9560089923219516e-03 1.1862593954265852e-02 -8.2332497866904691e-02 -7.3853929988950545e-03 6.5054136977627137e-03 1.1243647361850906e-02 6.5079194291337683e-02 3.6158703611137918e-03 -1.4809877868776758e-02 2.7394217596992715e-01 1.8809489059743348e-02 1.9581806010507435e-02 3.9537969924122437e-02 2.8985065739835503e-02 4.0682910378393423e-02 -2.6613751213835461e-02 4.4694348019173845e-03 -1.7727787088694968e-01 2.5448941502373945e-01 -4.8850083983625517e-02 3.7319793446616650e-02 -3.6895731072361299e-02 2.4681903597418661e-02 6.2291174783338319e-04 -1.6686048761680028e-01 4.2193686750633647e-02 -2.4369798254326051e-02 2.6658036174036597e-02 -3.2168876161604842e-01 3.2642898575633260e-03 -6.3245962400482719e-02 -1.9573205136295235e-02 5.0038709823654569e-02 -2.7799101565428086e-02 7.7709343011304610e-03 1.1820385432793009e-02 2.3277442408485907e-01 
      </Row>
      <Row Index="221">
        -3.7237007509499070e-02 9.1999035596569412e-03 1.7342772796379302e-03 4.1272722096292666e-03 7.1511406475739947e-03 1.5443705190139420e-02 1.1378331264865621e-03 1.2420591845200946e-02 -3.5929521322808355e-04 -2.1173704596769181e-02 -2.6504463828948416e-03 1.2102604818684110e-03 5.1641401866074750e-02 -8.4506378814436997e-03 8.6489508639486096e-04 1.4146402573837979e-02 3.4354399738038641e-03 1.7637013956178380e-02 -1.5992837518147996e-03 -5.4789093748303375e-02 1.5907540784690366e-03 -2.2694435426269033e-02 -5.9317977201473540e-03 -4.1397149057316396e-02 3.3472830381186952e-03 3.4232148350343884e-03 -6.7676157829690831e-04 -3.1591221703845651e-02 -5.6442423216734872e-03 -1.0118545498253806e-02 -2.6341855237360101e-03 1.7002223276704406e-04 1.0061370674282798e-02 2.0796241405288129e-05 -5.2554452461112122e-03 -4.2673477954872242e-03 -2.1385002843025414e-02 1.9116794188931974e-03 -4.2874460674031237e-02 -1.9619279172427007e-03 -6.7606750569200180e-03 4.0196920509141809e-03 -2.8399767024827938e-02 2.1997829732381402e-03 3.2198445620744698e-03 -3.8901987798681814e-03 -3.0399457100549643e-02 9.8366760458675762e-03 -1.4971412314432331e-04 -3.1807612336837987e-03 3.2589450030511863e-02 -4.3687071660954424e-03 3.6904030579801850e-03 1.8010774002095518e-02 1.6979366847259536e-03 6.0057537705603820e-03 -1.3606934786063174e-03 -4.2207410558085856e-02 3.8750803213198418e-03 7.0347274869093368e-03 -4.6092697840946772e-03 -3.6656724164702371e-02 -3.9556107575644817e-03 7.7368266253419193e-04 3.9384860803159949e-03 2.4865836345076331e-02 1.1550436185362639e-02 -1.2222648191312496e-03 -2.3532465894081402e-03 2.6996083429584150e-02 -3.7854706579260045e-03 1.4663944899001580e-03 -2.1815812515246780e-03 -1.2896960644262559e-03 1.9152087888328201e-03 -1.2353240515765307e-03 -1.0112797033468179e-02 -1.0091962854686665e-03 2.4590641160046611e-03 -7.2429326094237620e-04 -4.4413324630916684e-04 -5.5265092516309892e-04 -4.3185881068021435e-03 2.8947589450101230e-03 1.7021401918660528e-02 1.0605341479684727e-03 -1.9679467482356695e-03 -6.6739825461299696e-04 -1.1531525534032576e-02 -6.1073048014873704e-04 -1.0245503265921344e-03 -3.0654295744837051e-03 -2.7852232528489951e-04 -7.5896953146654400e-03 1.0464884342497385e-03 2.4863560044971811e-02 2.1394085299536042e-03 -4.6723449715090296e-03 7.3054042082828716e-03 1.2349076860829755e-02 -7.7917133283735666e-03 -1.0302980337750135e-02 9.2218851064822666e-03 -4.2168751027156670e-02 -8.4073758031635512e-03 -6.9968979340916029e-03 -1.5065815776215494e-03 -8.3121843115210425e-02 -3.0122535420062449e-03 -2.4229399496639749e-03 -1.0990422475021244e-02 -2.6771810031232524e-03 -5.0203113117945723e-03 -1.5786192445707142e-03 -8.7439815211104790e-03 7.7592475279288156e-03 -7.2185343758379705e-04 5.1455458807429322e-03 1.1929873090852370e-02 8.5354778202232414e-03 8.7117813510188651e-04 1.5464592398880907e-02 3.9099445939097699e-02 -5.0381986406964965e-03 6.0415565648205931e-03 1.0239608395986588e-03 6.2311077382757138e-02 -2.7290654687722946e-03 8.9013527402921795e-04 -2.1494116844434030e-02 -2.4409019322729651e-03 1.1419394378744362e-03 1.5459985706085776e-03 -1.4675899401822203e-03 -1.4804741371287188e-03 -3.9451698405699228e-04 8.7904882572484365e-04 3.9233023222817794e-03 2.9443780782543050e-04 1.5609155636616464e-04 -8.0830830168963485e-04 1.7126980550469196e-03 -1.4459624668461159e-03 6.1824285835411540e-04 -2.6392889225248102e-04 2.4051773624854519e-04 -4.9237518336088353e-04 -2.3566974384961643e-04 -6.1524515904660959e-04 7.8560469123529239e-04 -3.9423089424337442e-04 9.3503450975344557e-04 3.2451418487926875e-02 9.9883752221455180e-04 -3.5890730973631157e-03 -3.3896855586254063e-03 2.7786715366238959e-02 -4.4889608437083256e-03 -1.2430450082148020e-03 -5.5361523670177520e-03 4.2643808951964929e-02 1.5582650288830708e-02 -5.0410591192623245e-03 -1.0773139673235094e-03 -7.5030330822241836e-02 4.1112183999048660e-03 -7.6980200927112725e-04 -2.4488329844514461e-02 -8.5305964031957317e-04 -8.9072055270475164e-03 6.1074634524667642e-03 -1.5421459090124545e-02 -1.2182626113709794e-02 -1.2180855166920024e-03 -1.4778150460684564e-02 -5.1722441620076651e-02 -6.7638467991274626e-03 2.5494647671775450e-04 -2.6864889956667914e-02 -6.8174200828178988e-02 7.7624978922638532e-03 1.4948382161454471e-03 -1.2422467687276950e-03 3.3985102525502284e-02 6.6621292903629864e-03 7.2644189825535712e-04 3.6402702776439422e-02 3.0825040755156144e-05 -2.2664433424306490e-02 1.9813693980232361e-03 2.7282302020341098e-03 -2.0851511891804009e-03 1.5191875783177045e-03 7.6881225706665196e-03 3.7684792659595442e-03 1.1043546754318161e-02 5.4415415339261614e-05 6.7402750874478619e-03 2.4844003306653012e-02 -9.6343760998648734e-03 1.0193785305265272e-02 2.1605178529403388e-03 6.9719130537155033e-02 -9.7980282174245665e-03 1.8386141571077952e-03 -1.0391879854400338e-02 2.3298064113611962e-03 1.7766458361630610e-02 -4.2667830950786790e-03 3.5055425830959830e-02 4.6153743571816785e-03 2.1683261972097113e-02 2.1227903685806467e-02 -7.5365660027532921e-02 7.0588311397522363e-02 4.4404545078384386e-02 1.0458176430896096e-02 1.0208535536681674e-02 -3.4655823012301357e-02 5.1250696120897332e-02 1.8809489059695816e-02 7.1000539409184249e-01 -5.0657896866038721e-02 1.3279712121549287e-02 1.2830136338748022e-02 1.6262173998486611e-02 1.0274809372390138e-01 -1.5726425512263220e-02 1.2700416896756400e-01 -2.1051196337665223e-02 -1.6813581619311499e-02 7.1082533440490897e-03 3.7588309846063581e-02 -3.7847574926787406e-02 -3.6364097294092040e-02 2.8113932085779503e-02 1.3861192428888064e-01 -5.6042667675046530e-02 3.1226911482076177e-02 -6.8670324387700155e-03 1.2143323092010784e-01 -2.0183475847067200e-02 -3.1855992938268490e-03 5.8821321843513678e-02 -1.2829433723046346e-02 5.9169837544642293e-02 2.4008828200913893e-02 -2.7182497030459668e-01 
      </Row>
      <Row Index="222">
        8.5627605928343120e-03 -1.2430953161492009e-01 1.6414355483233223e-02 3.6639552187435670e-02 -5.1788780612748275e-02 1.2230244309705152e-02 -3.2405213660868515e-03 -6.1520755738700972e-03 1.5231354120111840e-03 -4.7720186297157359e-02 1.1399321680638855e-02 6.6145477672539220e-03 -7.7693162223228113e-04 1.3553629212580062e-01 1.4468204975521676e-03 -1.8961945308751282e-02 4.6662911825889192e-04 7.8477006100771962e-03 9.3692184974571713e-03 -8.2417151941710509e-04 2.1491394664800045e-02 -4.2941488945662076e-02 -2.8138683943165974e-03 5.5095376270645202e-03 -5.5192673539417036e-04 7.9340229649897329e-04 3.5241777504784272e-02 -3.5661012565377848e-02 -3.0187549174834322e-02 -9.5926372887633893e-03 1.6135868041122770e-04 1.5311970046541890e-02 -4.0819075375656350e-02 -4.3534467429189871e-03 -3.0436028594788889e-02 -3.8540538043138686e-03 2.8251840248963156e-03 -1.5976495583850059e-02 2.2650093426425655e-02 7.2509348105156413e-03 -3.7280616179290460e-02 1.3714680355899900e-02 6.4963006145266511e-02 -7.0629317481124554e-04 1.1960436949015052e-03 -2.7645251690499473e-02 -5.0813504406800991e-02 3.8867184387582909e-02 2.7659105935155526e-03 9.0193047842798690e-03 1.5108097117751962e-03 7.3775667880327078e-02 -1.6632994072084462e-02 -1.1281698685184395e-02 -5.2642111354606058e-02 4.1584367865616888e-03 -3.7278818335106129e-02 2.5029680036829927e-03 -5.1686517944980234e-02 7.2818862806051932e-03 -1.6856865240051921e-03 1.1871177175568548e-01 8.9751160591307055e-03 -5.5420427159407204e-03 -2.1715439533162240e-02 2.3014031530522239e-01 -5.8740566560533947e-03 1.6963390787025939e-02 -6.3514781579826693e-03 2.4526697654615737e-03 -1.7096972540682528e-02 -1.7056006834969217e-02 1.3370809724679078e-01 -1.3732275895168705e-02 1.8098113479995112e-02 -1.5293094855347134e-02 -7.3137174210846645e-03 1.0190034035594542e-02 -6.1079045019596934e-03 8.9883055237652797e-03 5.3710880368331368e-03 -2.5523665197090331e-04 -4.2785759442646471e-03 4.7978241521966503e-03 5.9703586604440750e-02 -1.1398080654367648e-02 8.5412805907116029e-04 -2.3547293740597830e-03 -2.1136917036232647e-03 -1.9943924386884013e-02 -1.4200331059224143e-03 2.6942898076715571e-03 4.3240162345761224e-03 2.4365887655342644e-03 1.9169905180877050e-03 -1.2604343670769014e-03 -4.2233979911614400e-02 -3.8322148456564238e-03 -3.2221654369047753e-03 -2.9311985212656266e-02 -5.5333483371281036e-03 2.5106399006813523e-03 3.5546402160117618e-03 -3.0406980868827505e-01 -2.4525491829330046e-02 -7.4470135738999646e-03 2.9404058364081113e-03 -5.2170138166136391e-03 -1.0713338142397627e-01 -5.3309731419076377e-03 -2.1644753654699520e-03 1.6575746733900928e-02 8.0900971304021657e-04 4.3398089768176273e-03 7.0171694659361267e-03 2.2986147299824275e-02 -1.4968239393281513e-04 -8.3846714216969827e-03 6.2395327198582075e-02 4.7568725204909287e-03 -7.4528036083003971e-03 3.6087715554573158e-04 1.9381592016965410e-01 1.0066021728046666e-02 1.0527785528850331e-02 6.6202171516755934e-04 -1.2139776191803944e-02 4.3203004649700581e-02 4.6451155290029812e-03 8.2558877852284551e-03 -7.2815166543603697e-03 1.0833012764629817e-02 -2.9388511637656482e-02 5.4076447687337829e-03 -5.2161500446649828e-03 -8.9938703017067474e-04 8.2075281997381010e-04 -2.8379336347774883e-03 -1.6389865479423706e-05 4.4692572827949241e-04 -6.8468540153410109e-03 6.3959518876228420e-03 -1.7065458057248638e-03 4.6789958386279787e-04 -2.9098424419812710e-04 1.7794824198694784e-03 -1.8960398315623992e-03 1.5978331604402179e-03 -2.1758601626359116e-03 3.2099639639279450e-04 4.6740949889649032e-04 2.1775678190306975e-03 1.2847957434458934e-02 5.9725087761072035e-02 -2.1415863767847834e-02 2.6765137836620281e-02 6.0899447735522722e-02 -8.7253152445202382e-03 1.5269609014444893e-03 1.0079677436256249e-03 2.3536365888240954e-01 1.9021080154661127e-02 -6.8324107422950992e-03 -1.3036325166916714e-02 1.5417673405485055e-03 -1.3663739979766526e-01 -6.1544461517168449e-03 5.5126063019973554e-02 4.0562381006606328e-03 -2.6661595974375426e-03 3.9347252695798602e-03 -9.2188012297306221e-03 1.6724992611417355e-02 6.4811057889970769e-03 4.8712001140624461e-03 -1.7542399959167197e-02 -3.4340602639311157e-03 3.6297118885055268e-03 9.6502001972930129e-03 -4.7465608875336573e-02 -5.1546093612725441e-04 -2.7204107074318765e-03 3.8294397117480394e-04 2.0767953573294910e-02 -9.2794127941298182e-03 -2.2394671050259933e-03 -1.9466140770825202e-02 1.1730644000333482e-03 -4.1908923473506724e-03 2.6516841285207926e-03 1.8466227677935820e-02 9.6526095688427987e-03 -1.7258431423560344e-03 3.0580009071941312e-02 -2.3013022982422415e-03 4.6868872278320109e-03 -4.3764528281878580e-03 -1.0942165530101571e-03 9.6390117352244342e-02 -1.1808041041618384e-02 1.2635607393325532e-02 -1.6613066299145116e-03 -1.0078878938222163e-02 7.4415799869906082e-02 1.6378915949299426e-03 4.4784966472104684e-02 2.0516374801632205e-02 9.9670037055331860e-03 4.1928309178814165e-04 6.0729038765575248e-02 7.6160608007556641e-03 8.2957558570906642e-03 3.2853464374009156e-02 -7.4418171169870359e-02 6.0090288723526890e-02 -2.5046472182283348e-02 -4.5081462069717138e-02 -4.5115663018504382e-01 3.4739058631081565e-02 8.8925242533236207e-02 1.9581806010272373e-02 -5.0657896865894884e-02 1.2665922829400742e+00 3.2128824658076371e-02 6.1479749989511334e-02 -1.0681648486881107e-02 7.2979042122679846e-02 -6.9240647248410198e-02 3.6630059587391045e-02 1.5430058140109593e-01 -7.5070758114947442e-02 9.9345000145194096e-02 -9.5610722610332724e-02 -1.3854366548954659e-02 -8.3778981989345858e-03 6.6809583198458089e-02 6.0190671875099067e-01 -1.4875691090000998e-01 7.2224687211648077e-03 1.1645638840877479e-02 6.4337297022337370e-02 -3.1430773426643654e-01 2.8881194674122201e-02 3.1446093197209854e-02 7.3060241772833351e-02 1.7021259805521938e-04 -8.0585380024146419e-02 -3.5526550791591099e-01 
      </Row>
      <Row Index="223">
        -3.3933947894426220e-04 7.6934148391287760e-03 1.3628998498388056e-02 1.5955041138730804e-03 -6.9632565492240520e-02 1.6255083646466231e-04 9.7879349738901056e-04 1.2614881435968617e-03 1.8454186087932908e-02 -2.1416794759946127e-03 3.6682952170691450e-03 3.4774543561923617e-03 2.5940769011079390e-03 -1.8748660072922738e-03 2.2024445752405822e-02 6.9965166246283017e-04 -4.1925630882313656e-03 6.0546016578306994e-04 -6.9230267255617154e-03 8.7972008417611207e-03 -8.3523899776340865e-03 -5.4363752878278937e-03 -5.9315083917819977e-04 1.6063822502961511e-02 -1.7654205774604477e-03 2.1359885125689739e-05 -9.4462325707973631e-03 6.1189823166746260e-05 -2.1396385129321509e-03 3.3674531833251253e-04 -1.6962970403357758e-03 3.6416604299196881e-03 -4.4708067712111938e-03 2.3661868848555062e-02 -9.5259007535114515e-04 1.6118457684864626e-03 -9.8739222492975898e-05 -4.8750967416247848e-03 9.0041565300972015e-03 -7.7373192090346432e-03 4.0165482685814435e-03 3.4569277075305327e-04 7.7115808927271864e-02 4.9162460794791030e-04 1.0412284809389050e-03 3.4472046240594315e-03 -1.9827032569631059e-03 -2.7832829493003031e-03 8.2693512121380375e-04 -3.2500525661013566e-03 1.8217791380260098e-03 -7.7875719347495834e-03 8.1345687510171794e-02 -2.4664031130357447e-03 -1.7004298629624354e-02 9.7418197348660097e-04 -8.7922174507961970e-03 1.5360552183457665e-04 3.6384714054564751e-03 1.3654176660253238e-02 -2.4677117295496959e-04 8.1036595357535962e-02 -6.3342137139987820e-04 1.6758368999168216e-03 3.4255695412900855e-03 2.0227160294166796e-02 -2.1130663377071229e-03 -2.2639243432788086e-03 -2.9541021570915517e-03 2.0107673176771729e-04 3.9906792474564412e-05 6.1995002360703877e-02 -3.4879920159612554e-03 -8.7141267584011396e-03 -6.3874133075774234e-04 -3.3916803581805419e-03 -2.8343090343875554e-04 -2.6774598379097694e-03 2.3899820677397328e-03 -8.0122034108425465e-05 -7.2749384681143024e-03 2.8796474990188531e-04 1.5177713059317680e-03 2.1012749827375166e-03 9.4388831829390618e-03 -9.6785372148008864e-04 1.2849811268988908e-03 -5.0206318319106699e-04 -8.4354093161217504e-04 -1.9215198612681107e-03 2.8362731895316866e-03 -5.9533139652621567e-04 3.0749359245924295e-03 -7.7395076289791566e-04 -3.1669815423452635e-03 -3.5509951500299064e-03 -4.3184481143827627e-03 9.7069738993614931e-04 -1.1119175021287973e-03 4.0131085483909451e-02 -2.2888367532766796e-05 2.3247841205843917e-03 5.9108036795901819e-05 -1.0318883368731574e-02 4.8228760516428951e-03 -2.0912142871093013e-03 -4.6461491343588041e-03 -4.7708227460378019e-03 -7.4741745798295473e-03 -9.1944675256374724e-03 1.3433902384584889e-03 8.8398571600435630e-03 -1.5401631539826068e-03 -4.5261302176432556e-03 9.2787460998392888e-03 2.5568734926761059e-03 -6.1793894730822856e-03 6.4259694146700077e-05 2.9553584902664277e-02 -6.6234820395794439e-04 -9.9284588393244114e-05 -6.1569640196370620e-03 -5.1518134480098982e-03 -3.3694815158506202e-03 -6.0360064917828397e-04 1.6259445093039636e-03 -2.4619186951225880e-03 6.0323675869295799e-03 1.3397223125070832e-02 -7.9822881534612200e-04 -7.7812369722261403e-03 -1.2566247051295307e-03 3.9968802814569371e-03 -2.2242093291757513e-03 1.1272232496915811e-03 -6.4737956495010450e-04 -1.9946602929524671e-04 3.0376305889906162e-03 4.1502353860298875e-04 1.8523363946037358e-04 -4.8112199785931139e-04 -3.0639433968740522e-03 -8.7550311383314443e-04 2.7035454596019697e-04 1.6566618163229636e-04 -4.0970433608169621e-04 1.1551249100168041e-03 -1.6617700648871982e-04 3.7184077856336939e-04 -5.8680883551371135e-04 -1.6564154378057201e-04 -6.7304728578471791e-04 -5.3098654782365515e-03 -3.9394698117342988e-03 -1.4766285568334585e-03 -1.4571500279093675e-03 3.8570528250058810e-03 1.4629231734751740e-03 -3.9037657751166827e-04 2.1502633746321217e-03 8.6857269784706287e-03 -1.3779115039807784e-03 -2.2290317424127754e-04 -2.9217121530378865e-03 -2.8459941591030147e-03 -1.9282195056274220e-03 -1.0222478883735892e-02 -1.6248852005952899e-03 8.4473368100071722e-03 -4.5243775651937533e-04 2.0655852724281196e-03 -6.2595133776890965e-05 -4.2205037705144027e-03 2.9837992185169915e-03 -1.2351103477990025e-03 -7.6228344610255660e-03 6.2155875222121709e-05 2.0139416354518491e-04 4.9112489478492227e-04 5.5006572571309892e-03 2.2997294250862305e-03 -3.3826462145596786e-05 -1.7024610018068209e-05 6.9016007667245891e-03 -5.9463037474157638e-04 1.1832191247144804e-04 5.4883244761613770e-04 -9.5621209717587641e-05 4.3211662319947940e-04 -1.4808603265851969e-03 4.9209910362451315e-03 5.6121321062900329e-03 2.0772532760098966e-03 1.8904815715219177e-03 1.6091529961412398e-03 -9.8538150641912280e-04 8.0991810640697760e-04 -2.4835903289457412e-03 -2.7033223080022983e-03 -1.0516912979362412e-03 1.3141051960338440e-04 2.7732432126776796e-03 1.6560736846503838e-03 3.7376546459432936e-03 2.6362357747917859e-02 -2.7048735713628607e-03 -6.1103917120493810e-03 3.6026038150998078e-04 -4.4654901871310744e-03 7.8389092619559481e-03 3.8779067267717696e-02 1.0143351559342774e-02 1.1153378986808810e-02 1.8476457491517173e-01 -2.4021886311416311e-03 -7.7741870528072474e-03 -1.0482020601809888e-02 -4.8499976123586058e-02 -1.7941340139282540e-02 1.0758154214641926e-02 3.9537969924109115e-02 1.3279712121558524e-02 3.2128824658080327e-02 1.7660347803742535e-01 -7.1902136175261699e-03 -7.0499527042697310e-02 2.3727792437621019e-03 -7.5057095357724726e-03 -2.3031644481225230e-02 -1.6924554710400122e-02 -1.6017304263518235e-02 6.6190929825375305e-03 -7.6718916426172179e-02 -3.1000197884423469e-03 2.1231172699016990e-03 -1.3439139502709752e-02 4.6365149875942993e-03 1.8230472181302772e-03 -2.4635341481721550e-03 5.3827584302474337e-03 2.1138886854925883e-02 1.5781303708416308e-02 -1.0041886881621495e-01 5.6196158425989677e-03 1.8609745962575586e-02 8.7881117897669545e-03 2.0377486780706628e-02 7.0001717615080450e-02 
      </Row>
      <Row Index="224">
        -1.5012999267695781e-02 -7.4134224474925570e-02 -2.4789784094028655e-03 1.8949554112308642e-02 -2.6452863345360983e-02 5.8196812254716207e-03 -2.2898784691670476e-03 -3.9517156651698526e-02 5.6562450627736793e-03 -3.8361134917172550e-03 3.1242505312303152e-03 5.4734082213644397e-03 7.5850698055572666e-03 1.0142237627854961e-03 -9.0935503863122727e-04 2.6951633660635532e-01 1.7606570665066809e-03 2.5993345103810933e-03 -1.2228243538652220e-02 -9.6482412698504716e-02 5.0954720122261182e-02 1.4568594842239158e-03 -1.4251913478002913e-02 3.1156316374015613e-02 -1.1959582975071409e-03 -1.6610957619176275e-03 1.8222349888287512e-02 -2.3437221820860443e-02 -3.4237565079253685e-05 -1.8464304636147899e-02 -7.7055870138781901e-03 8.0879056871398323e-03 -1.0271052385450872e-02 -6.8305036144465162e-03 -2.4460908650313784e-01 8.7976365254168430e-04 1.2142201686664300e-04 9.7749880155301450e-03 3.5054253263026122e-02 5.1906015286018459e-04 3.7339476263906324e-02 3.9093212921011422e-02 4.1985355196706209e-02 2.2269594916523028e-03 -4.0629118660281405e-03 1.0927783471515073e-02 1.4902433972822843e-01 8.3670787244523315e-03 8.0685313900390465e-03 1.1571258234394810e-02 4.2813881603806780e-03 3.3933261540381843e-02 -1.2164958508597890e-02 2.8580335015691399e-01 -1.2808040266300114e-02 3.2118369189566003e-02 7.7531795579213886e-03 -2.1092833581684900e-02 -7.5674389260899699e-02 -5.8731157688728941e-03 -1.3165209653844823e-02 8.6794723116502132e-03 -4.1056981177417518e-03 1.1659328027442406e-03 -2.1762670947762519e-02 -4.8671669889880476e-02 -6.9040287492374286e-03 -2.7017925108915458e-03 -6.3313803693486499e-03 7.9772443186071351e-03 -5.2910579379487413e-03 -7.7085181093731192e-03 -8.8303877217595583e-02 1.0673905828630370e-03 -1.0944099982523041e-02 6.0002866866801785e-03 -2.8439735991322990e-03 -2.4821976761436604e-03 2.4649215898992632e-03 3.1551203612981103e-03 -2.6316218807048902e-02 1.8670710220170640e-03 1.8250162349955782e-03 3.9955245699567765e-03 -9.6624311882852476e-03 -1.0055889512162741e-03 -4.1164661091891777e-04 -1.2585947315806589e-03 1.4735506495266093e-03 -2.9275498411270029e-03 2.5542251347392131e-04 -4.8826561994831943e-02 2.8845707532067846e-03 1.0484046795458522e-02 -1.8735953037852388e-05 5.6014863974664930e-03 -5.5898813362098149e-03 -1.3309715094993039e-02 -4.5107400333434938e-04 4.5640334889482215e-02 3.1408701385857510e-03 5.0903273362140154e-03 1.3741824567615066e-02 8.0541363787788312e-03 6.0453398782255793e-03 6.9646324671247817e-04 2.6054629704232403e-03 -4.0496959625722258e-03 1.6280810505722852e-02 2.0336206299554887e-03 -1.4076324000605389e-01 4.1062403485612742e-03 2.5935874104937931e-03 -2.1654506623064798e-03 -3.2369054423158260e-02 3.2683849762411843e-04 2.3059026767160568e-03 -2.4408609371129883e-04 -2.1148376726488182e-02 -3.5942272308152629e-03 1.2701671316298069e-04 3.6806229603622495e-03 3.5533650558436936e-03 -4.2225362503089522e-03 -2.0936674081703929e-03 1.2741210700582591e-03 2.6413446635476694e-03 -1.5858646734259411e-02 -1.6507812298215590e-03 2.2025174378588919e-02 1.8707865671513486e-03 3.9873267570750423e-02 7.7306425577607588e-03 -2.7622020672937123e-03 -2.2110714302290124e-03 -9.8752794620820226e-05 -7.7713413975216391e-05 1.8491757185019678e-03 -2.6793854993827776e-04 8.4484630924207813e-04 -3.1223174472493655e-03 -7.2231093060349284e-03 -2.0720616211577442e-03 4.8712016376175975e-04 -8.0375371083768942e-04 -2.5461156209983984e-04 -1.1011974426543506e-03 1.0018458914305961e-03 1.8508088787984375e-03 -3.1235079922976622e-04 -1.1449653141429117e-03 1.6847121049751723e-03 6.3248009968957519e-03 4.4714472606418657e-03 4.7445711670044341e-03 -7.6059557248299887e-03 2.2850555426331028e-02 2.0426598659963671e-03 3.9687019865975136e-03 2.1315588359714442e-02 -8.9077996067605109e-02 -3.2874043134199418e-03 -7.3453088971958923e-03 -1.4262769402616598e-02 -8.8904930815564831e-03 -3.4371290851138880e-02 -2.8458069890165971e-03 -2.8004294859744655e-01 -7.4459895027484593e-03 -1.5395315223177455e-02 8.5384218124977262e-03 -3.8154357235906489e-02 9.5775384263422358e-03 2.0346243698243782e-03 -1.4624670537097290e-02 2.4220554166177605e-03 1.0190911284946591e-03 2.8032022987214966e-04 9.7148947053718460e-03 -2.8137565367689132e-02 -1.3393446296726119e-03 -2.0565215363625086e-03 -4.2272343565184223e-03 4.9878284615426549e-04 3.1657182312252660e-04 -4.6745170506911379e-06 -5.9294693835886148e-02 -3.1089943104376013e-03 -1.7263191104748121e-02 1.2232726387464976e-05 -2.1530838211313796e-02 -3.0304353743473851e-02 9.7520013166588482e-03 -1.0771782592084306e-03 6.0844003086938797e-03 2.3063542067966723e-03 -3.4824226991426073e-03 -1.0936287513420521e-02 -2.5496785725540871e-03 -6.8892323875402017e-03 3.8775614992172178e-03 -4.2650731508777646e-03 -9.5642166261337442e-03 -2.3164487223635732e-02 -1.7576193048731898e-03 1.6812433880286831e-01 4.2207696243548448e-03 -2.3439636061866067e-03 -6.8536299732337861e-03 -4.2526129161353815e-02 -1.5152513846919610e-02 1.0180557167416029e-01 4.0440315083551233e-02 -2.0241526068809457e-01 -1.0393399746748818e-02 -3.3706258313354040e-02 -6.7617193445189058e-02 3.1603306925779867e-01 -2.5293393625807275e-02 2.5746558329006491e-02 2.8985065739807275e-02 1.2830136338630480e-02 6.1479749989508871e-02 -7.1902136175755280e-03 1.2160812148796329e+00 1.8065139449418233e-02 1.0413388438701751e-01 -3.1317648032160049e-02 2.5080084054137619e-01 1.1624407968442618e-01 3.6447191536504983e-02 4.8608616510038380e-02 -6.9589977570912120e-02 -2.2443714520618375e-02 2.5072459511209143e-02 -8.8196716779592288e-02 -3.9913699385518232e-02 4.9692301130892236e-03 5.3603572979650446e-03 -3.2408156545702248e-02 3.1476062082112018e-02 -1.6293913216675524e-01 1.9987600491574508e-02 8.2456816636195152e-01 2.5030780747601289e-02 -1.2988235203671061e-01 3.1932874017413619e-02 -2.2553054996211855e-01 
      </Row>
      <Row Index="225">
        8.1928648151960107e-03 -2.3332464496546579e-03 -5.0783959390190703e-03 4.0755384143897171e-03 3.3531454860994542e-03 1.2354433540068162e-03 1.9462309056920042e-03 1.1257126518592037e-02 -7.6383896649957067e-03 -9.8931111250106143e-03 -5.1934932154694760e-03 6.2558567850851121e-04 6.2350056571058108e-03 2.0682458416928836e-03 -5.3881990269557924e-03 3.6212824707115981e-03 3.4804178674814390e-02 -6.8956044637091193e-03 -2.3451616688823985e-02 -1.5285972671173036e-02 7.2721313636284687e-03 -9.0595961155225391e-03 -2.0113112721615450e-04 1.4560716584325284e-02 4.6865603721767124e-05 9.4641842072665380e-04 2.1707652203284619e-03 -3.3585614186434909e-03 -2.0059683832726605e-04 -8.2645298776906594e-03 7.9861449324238748e-03 2.1298953285521791e-03 4.0893650879509774e-03 -1.3912618471677952e-02 -1.8458742764702607e-02 -2.1531691182281015e-02 9.5914365947183666e-03 1.8004437660236461e-02 1.7546396015937146e-03 -1.9458539824481313e-02 9.7493493007898557e-03 8.9578459212090872e-03 -1.1293560426070548e-04 3.6328861710560600e-04 -6.3480251900980555e-03 -1.7283892954922886e-02 -2.7400761523451833e-02 2.0992976892287477e-02 4.1130490616519896e-03 -5.2583363883679721e-03 4.0381909550227940e-04 5.8829262870261495e-04 -3.6653227315901371e-02 2.9085635720595006e-02 1.6420965862546741e-01 8.5762471164405676e-03 1.7462878903927889e-02 1.7578021412026301e-02 -8.2341668394386013e-03 -6.3407173819739274e-03 -2.1191465996843878e-03 -1.0248583137408436e-02 -2.4456375463853541e-04 -4.5478844922767769e-03 2.0546130689184094e-03 -2.7163203432338856e-02 1.6890794372148521e-02 3.3263464247769332e-03 -1.1542483973797346e-02 2.0641459920630253e-03 -6.8238730494755880e-03 -2.6782966219360743e-02 9.7828489190721624e-03 1.0716084773198847e-01 2.9146640561901645e-04 2.3343499932706631e-02 -2.9381883595187841e-03 7.0057280444640879e-04 -3.1957180548504924e-03 7.6624730695746494e-04 -6.9448896479454925e-03 1.0606115054124544e-03 -1.6174465975933065e-03 9.8822832120318282e-04 -6.4378152639962827e-04 -1.3050195040987256e-03 -3.4849394767296014e-04 -2.6865177620065475e-03 3.2576665790367589e-04 -7.7419469156134874e-04 1.1080299956219494e-03 -2.7223139070088418e-03 -2.1877652033680202e-02 4.2614267611932703e-03 4.8347861439879090e-03 -8.6042384881453854e-03 7.4570029186141196e-03 -1.9512280557573447e-03 2.9898725917763616e-03 -1.1989202884412839e-02 -1.6844740170608701e-03 -5.3693043033262037e-03 5.6628473398787973e-03 1.6658819519187268e-02 -9.1658218832509561e-03 -2.3128927172529085e-03 -6.7906166389548189e-03 -1.9232102678908534e-03 1.0434977232935995e-02 3.5767147081608832e-04 -1.0660607317234238e-02 -7.4234881904939085e-02 6.0149001121301464e-03 1.0053664101669314e-03 -7.3995283268198306e-03 1.2141385248465968e-03 -1.2787598770219628e-02 7.3650628878538828e-03 -1.1505877859850354e-02 -2.0285476299081633e-03 1.0126044619327770e-03 7.7798212756200738e-03 1.7939397026749404e-02 3.2879103675419160e-03 -6.7929823834076168e-04 7.5596370867888462e-03 -2.1234296975296035e-03 -5.9282299921357973e-03 -9.1489184506771855e-03 -4.2532593793271067e-03 3.3545723718885187e-02 1.6023042332687986e-02 4.6249383256073570e-02 -7.1487884836160011e-04 -1.4552379653504119e-03 1.1329740469227078e-03 1.6470171672632001e-04 -2.4771345770547540e-03 1.8818773709799205e-04 -3.0524077677563895e-04 2.7669818517521262e-03 3.5191241498766139e-03 6.4450278336260127e-04 2.8663377021124559e-05 -3.7358639338630847e-04 -4.1605514298423505e-04 -2.0521071738770873e-03 -2.4778279300908298e-04 -3.1190583173719400e-04 1.1159216518246242e-03 -4.6317215201326740e-04 -2.2285844561970676e-04 -7.8402428052526535e-03 6.3734239548899931e-03 2.7203169150238904e-05 -6.1456322492960324e-03 6.6725673122085601e-03 -1.4863706375065344e-03 -5.6239407534948958e-05 -3.4735134642451503e-03 -3.8837938262834819e-02 1.4139030490385892e-02 -2.8496708093797340e-04 -9.3116402010862175e-04 -1.6886526259967550e-03 -6.6533439139314452e-03 5.3154686474170924e-03 -1.7301594524035034e-02 -4.1562416133392434e-02 6.4235799179828785e-03 1.1108029412364200e-02 2.7835348280408345e-04 -1.4739759246126666e-03 4.5460834695234542e-03 -2.7824181394423206e-03 3.1022399741025726e-03 1.0545138892366114e-03 -2.0537793340788535e-04 -5.0935691284332146e-03 9.3147986701525992e-03 -3.3176240505397095e-03 1.2301986510635746e-03 -9.2949480302358459e-04 2.9379468067600510e-03 3.8284452832428994e-04 1.0659318323672680e-03 -6.7620178720851076e-03 -3.7574547063959087e-03 -4.0467743073098698e-03 -5.2947550757246990e-03 2.1779681922731164e-03 3.5409102476725157e-05 -5.0084201988686156e-03 3.7086288013663937e-03 -4.1905213193667280e-02 -2.0034556636966769e-03 8.8249973732831659e-05 1.0659901944306598e-02 6.0693218262426810e-03 -1.2840664349099603e-02 3.5475460692783924e-04 -3.2556444352006340e-03 4.9617382946860293e-03 6.6256829302293804e-04 -1.2044734675538874e-02 4.1141043375332058e-03 9.6317177373688792e-03 -1.0898522812155052e-02 -1.1336556355726643e-04 4.4853562841468381e-02 -1.5154583788371888e-02 -1.7259296449732169e-02 3.3381890902024938e-02 -9.4194227673338002e-02 -4.7576619422840067e-03 2.1159651506534982e-02 9.4544317467139295e-03 2.0077153613490553e-01 5.4941317956414453e-03 -5.2693006602060298e-03 4.0682910378441253e-02 1.6262173998511820e-02 -1.0681648486589063e-02 -7.0499527042708537e-02 1.8065139449376322e-02 4.2137966864091897e-01 -3.6795715540618841e-02 4.1352207714707906e-02 1.6385817932732832e-02 -1.3006488216688983e-02 5.1788458082222735e-03 1.2622241160965234e-02 3.1322498771907681e-02 3.4779441936610075e-03 -1.9560268770432362e-02 4.2040789777192777e-02 -1.6690099437474477e-02 -3.0346211810247482e-02 1.9782419245792666e-02 -3.2124627286911261e-02 1.5369355103583839e-02 -4.4405771232772992e-02 4.6674644189591691e-02 4.6594612620256874e-02 -2.2199751235966755e-01 -6.6503250435891989e-02 1.3567363432259311e-01 6.6733801615770208e-02 
      </Row>
      <Row Index="226">
        -2.7011325987239262e-02 -4.8351992750251760e-02 -1.7656915722272626e-02 -1.5539634984746208e-02 1.4230540854163184e-02 7.6260239645915898e-03 -1.4532606754987347e-03 2.2599496899196603e-03 -3.4675781082256912e-03 4.4634326526731176e-03 -4.2077137296543492e-03 -3.6238942686435925e-04 9.5262121007112371e-03 6.4144320027778555e-03 -8.2350965608368049e-04 3.2587636759030730e-02 -6.7712783723574352e-03 -3.1497652649525518e-03 -3.8390273759853748e-03 -5.8188741935890298e-02 2.9842033803488974e-02 3.5906061517420484e-02 1.1111198885887970e-03 -7.0252943326987172e-03 5.1205245822327841e-03 2.9838378503552333e-03 2.1368718360286129e-03 -4.6233403078542762e-02 4.2771710035154759e-03 -7.2762367201511732e-03 -2.4359836677537994e-03 -1.8481463027110366e-02 -2.1111423536181104e-03 -1.4889948906401593e-04 -4.9547421712475892e-02 2.3569666267321881e-03 6.0525817914502018e-02 -7.4631068925478383e-03 -7.2760177409943644e-02 6.7719061045309337e-03 9.7061322300671438e-02 -2.1700163957792118e-03 2.7879973859555207e-02 6.2324231325368296e-04 2.7387877072197475e-03 -1.0615116444382636e-02 6.2989297119305482e-02 -2.3193309100183052e-03 -3.3594532109129521e-03 3.9207360950981596e-03 3.4733012309705186e-03 4.4053370907542327e-03 -4.9831995959013081e-03 6.2546496472795698e-02 -5.0784973712514336e-04 2.1609547976145210e-02 2.0852017158765189e-02 -6.7463138791781563e-02 -4.9017840531670909e-02 -3.3819784411659198e-02 1.2967772207424566e-02 1.3320087557901764e-02 -1.9512083214064113e-04 -1.9989473077403619e-03 6.4017148617870889e-03 -5.7565332016636495e-02 -3.3678540677553187e-03 -3.0272997617267899e-04 3.4760171292313770e-03 2.4730785192118576e-03 1.3200822293236429e-02 -2.2991468951832350e-03 -2.6908252611780009e-02 -3.2590492845897059e-03 -4.2579119682215859e-03 2.0307041670431500e-02 -3.5222417423533270e-03 2.5194383118999908e-03 7.0986542817609091e-03 -2.9792015358323602e-03 -2.3013264266179174e-02 -5.4946504756903537e-04 5.3050036650950146e-03 7.0847121689276982e-04 -3.1463912634906055e-02 2.3163437252110286e-03 -2.2105958828976431e-03 2.9294122355500614e-03 -8.0786264500428175e-03 -1.0443631245085731e-03 -4.0757363331185483e-04 2.8267949914831426e-03 1.1080202781780790e-03 1.6984797647992135e-02 -1.5251417972528269e-03 2.3110834298755378e-02 1.7233792650430471e-03 5.5878763571939882e-04 -7.6243290297442479e-04 -3.3321643255519978e-02 -1.4128803361323373e-03 1.0110995215109973e-02 3.5825089673637012e-03 7.1358836168762652e-02 -1.2038372701944945e-03 1.1283428932444264e-03 3.9644197238327449e-03 -4.7323095411239968e-03 4.1182390914105312e-03 -2.0788963585916488e-03 -1.3587714052704435e-02 3.8848033603857898e-03 -4.7529390387565221e-02 -6.5546706417833021e-03 -1.7986573639216720e-02 2.5147169088413870e-02 -1.7053776796151776e-03 4.0082172112628593e-03 -3.5765601749764238e-02 -3.0247888859469612e-03 3.1000966951816029e-03 2.3013893787691076e-02 -1.3326825721502131e-01 1.0541201181708019e-03 1.3778519810978265e-03 -2.6181778215408858e-03 8.8730354776699154e-03 3.0920810221699672e-03 1.3784991537000523e-03 2.3574391078482582e-02 1.7349862051666384e-03 1.7115314821162342e-01 1.5411519495789235e-03 -2.7954204896464500e-03 -1.3980222856110692e-03 -8.3059769001029172e-04 -1.5705115158811170e-04 2.5381537872970388e-03 4.8960956633967373e-04 4.1804015916964871e-04 -2.1854554115033078e-03 2.7907621604401044e-04 6.6456219278610354e-05 3.0726895692341147e-04 -1.4008417671097388e-04 -1.2296821016089506e-03 9.1991376736448496e-05 3.0634922877367170e-04 3.4542642659534085e-03 -9.3646005626477633e-04 -1.5932095584906547e-03 2.1493183612195359e-05 6.6603864696503257e-02 6.7796225308825071e-03 1.1381281352807641e-02 -3.1333042775477313e-05 3.3841480934605969e-03 1.2595355178327654e-03 4.4674102290649578e-04 -1.6454041693221066e-02 -2.2259625177527234e-02 -1.6119718784675992e-04 -4.1393417182797052e-03 2.6838755471923024e-03 -7.3867553860168036e-03 -1.0476870318927897e-02 1.0477103787336350e-03 -4.7705100287069750e-02 7.0517785653738275e-03 -5.7327044016368983e-02 7.2182293780921943e-03 -2.0754436891643746e-03 3.2899352138707205e-03 -9.9851171521491144e-03 -2.2909800362140020e-03 -3.6235717090595913e-03 -7.0529057521662164e-04 4.3372956671773599e-04 -9.5817270320069370e-03 1.2953128883870763e-02 -9.1811735582883469e-04 6.7701149290088150e-04 -5.9966014045201299e-04 -1.8960190626592599e-02 1.3342728668568025e-03 6.0785840914635543e-04 -1.5671138413036079e-02 -2.1157647049458422e-03 -1.5526677887467559e-02 -1.4283775684564778e-03 -7.8820660468993387e-03 -1.3720735282868112e-02 9.5424218577804462e-03 -2.6935228495178175e-03 8.2650168660300533e-03 1.1363083964161017e-03 1.7171504922456216e-04 1.3515053492104794e-02 -1.7317881326963838e-02 -4.2567950588348370e-03 3.0933983404525618e-03 -3.3545990566489397e-03 1.7298008173740297e-02 9.3450357565996768e-03 -6.4286660146417607e-04 1.5447598139438919e-02 -4.2683759768948398e-03 3.3581799155618978e-02 3.0490094300621509e-04 3.2860245711607478e-02 2.4719850290226088e-02 1.2760891432398946e-01 -3.8898077291565948e-03 8.2239004571021124e-02 -1.8825138353262458e-03 -3.8992999459224340e-02 2.7467974378974840e-02 -1.0920942739512124e-01 -5.7355364360350061e-03 9.2586883745715484e-03 -2.6613751213780956e-02 1.0274809372371851e-01 7.2979042122402998e-02 2.3727792437506301e-03 1.0413388438694177e-01 -3.6795715540509297e-02 6.2657648109589614e-01 7.7544215966229846e-04 2.8573905381024023e-01 2.9013632820186541e-02 1.4603917206088307e-01 -3.9614188537764716e-02 2.0361887017674659e-02 -2.8388934318725037e-02 5.0243209417784720e-02 2.6998633098560099e-02 -1.5686567191032258e-01 1.2056460983117114e-02 1.5580497267934958e-02 3.9977583792389693e-02 -6.2678788839957658e-02 1.8377351438856188e-02 6.6305586941478294e-03 1.5523155678829986e-01 6.8800945334890479e-03 -3.5185150269999499e-01 3.2031941548518031e-02 -1.1548581012531106e-01 
      </Row>
      <Row Index="227">
        2.8756049306399373e-02 1.6123859874398683e-02 3.0284613175096675e-03 1.5741215158613452e-02 -2.2141715669754453e-02 -1.2437219319176997e-02 -2.6890869816020221e-03 -4.1671496075583458e-03 2.8591835427122514e-03 -2.5768727496712891e-02 1.2078828495895559e-02 -1.1995067721047650e-03 -2.8016745095947003e-03 -7.9940701703565299e-03 -3.6815923799751026e-03 -2.8611370913497330e-02 -2.8293796228758389e-03 6.8686622570206246e-04 7.8293910507123879e-02 3.9744310254211296e-02 -7.8411129540241348e-03 8.9934845263456298e-04 5.6830975276269992e-03 -1.6705932696917780e-02 -5.4139680091486939e-03 1.3116620629470030e-03 -5.6958486491284904e-03 -1.1107025949274707e-02 -3.2894174762309165e-02 1.5684356198974868e-02 1.3480057482017083e-03 -2.2197077901390926e-03 -8.8810837268223659e-03 -5.0975669539805313e-03 7.1424998217774482e-03 1.6691243416271043e-03 -1.1822697213277195e-02 -3.6641099674310285e-02 1.2863627745739084e-02 -9.3145797375013828e-03 4.6319914473577084e-03 2.1050123541525328e-02 -6.5652481053839196e-02 1.3043552793948199e-03 1.1192448472728822e-03 3.4558990369698561e-03 2.9396027558364318e-02 -1.7703516239949146e-03 8.3844008613240262e-03 -3.2974251778937896e-03 -3.7004196456744132e-03 -1.4858491001409277e-02 -2.1445890620836933e-02 9.2046802570977769e-03 -2.5538730492273953e-02 1.2060093035255980e-03 -2.5263084322878548e-02 7.4439574692144461e-03 8.4533355912947104e-03 -6.4933680393296778e-03 -3.6051725123660006e-03 -1.8233923562671561e-02 2.4784991783553117e-03 5.0472615579011393e-04 4.4564468649582745e-03 3.0397213236975473e-02 -5.6206571407691336e-03 4.1920366306406123e-03 -3.7729713898779233e-03 1.0558345599904762e-03 1.3285669544994022e-02 -1.4717193297230147e-02 2.6324199048942454e-02 -2.4168729779740990e-02 8.3635307209161888e-04 -3.2575106021072643e-02 2.2390932645097450e-03 2.8676203007710899e-03 5.6733685654419830e-04 4.9807763176570961e-03 2.2683220849672218e-02 -8.4156275685607143e-04 2.3983445284887772e-04 2.0530044009467452e-03 -6.5698200805807128e-03 -3.0781246437361354e-03 1.3986434231985367e-03 -1.4889928437334596e-03 1.4276186013579880e-03 3.6937552984615644e-03 -3.1445769233832774e-03 -1.5921080917143844e-03 2.5517551949778040e-03 7.0884708430488802e-04 -7.8573368615753730e-03 1.2974313726097947e-02 6.8984750961705865e-03 -4.9633070186911894e-04 -2.6525529497329892e-03 -3.7199313616572111e-02 -1.3855800579514778e-03 -4.7359063423325833e-04 -1.1437242595753010e-02 7.1847425285753164e-03 -1.2379961777415448e-02 -2.4871230097655902e-03 1.5140279769279875e-03 1.2537049449355959e-03 1.1946519878990541e-02 -2.2381045420166012e-03 -5.8608753193720824e-03 7.1807805748134584e-03 -5.3110143187085537e-03 -3.9937212989719514e-02 -2.6457075735925342e-02 -4.2210417705437070e-04 -1.2834668964345312e-02 9.9269320180409622e-03 -1.0853744754424740e-02 4.0190962732109875e-03 7.6419890790243748e-04 1.5343372937045480e-02 1.6486957010319270e-02 -1.4867274645161251e-02 4.1832370273194230e-03 -5.1277379028672873e-03 -2.0987147622994595e-03 -2.0801564713060345e-02 -7.5953952647166536e-04 2.7546473917089420e-02 1.1125276683701961e-02 -3.6604030182618317e-03 -1.4088902629994456e-02 -1.1702231921103777e-03 -1.8708197912913668e-03 2.6132717865719932e-03 -7.9258622166766173e-04 3.8796913080495011e-03 1.3333428926238760e-03 5.7092973857315443e-04 3.6868218481599145e-03 1.9476442509606777e-03 5.9552140287848134e-04 4.9161236887966964e-05 -1.3198541749119318e-05 1.0839074770710236e-03 -1.1827539725000648e-04 -3.2804903380876044e-04 -1.2140053878274366e-03 -9.5424582287957529e-05 7.0594437868820494e-04 1.1299330467784883e-03 -2.7758228386175372e-02 1.2114803297037444e-03 -2.9953207321567615e-03 8.1554652039202789e-03 8.3119358411264097e-02 -1.9406404760175053e-03 7.1364893167003875e-04 1.0715299799512629e-02 -4.5464399239629749e-03 2.0603240098951654e-02 2.0510711439198355e-03 -2.1476413293082417e-03 6.4758673499350321e-03 1.3395537224182262e-02 -7.0960303774588417e-04 1.1188151370198782e-02 -4.5233701439095168e-03 1.7661892394398070e-04 -6.7855017127362083e-02 5.9278027060324368e-03 -4.8654883828101736e-03 2.6998247202746906e-03 -4.3460445226468081e-03 1.1557921866774644e-03 -2.5565588213075086e-04 7.4396443464755380e-05 -5.4824334336332492e-03 -7.9418788013716490e-03 2.0095408523261860e-03 -4.2368501151804766e-03 1.2763630560219813e-03 -1.6979095911850524e-03 1.9100966287632578e-03 3.6073226576019922e-04 -5.1134741480772794e-03 -6.7419590172941232e-04 4.3970884553386890e-03 1.0450309923628803e-02 1.4509319951140964e-02 1.2116959712536388e-04 1.8293445747098774e-02 -6.9040345397652809e-03 -6.3552712543041665e-02 7.0577493282923719e-04 -2.5269242234242373e-04 -2.7641163380857916e-03 1.3746149324379772e-02 1.7985040518278018e-02 4.7810801162359150e-04 2.8947105481105647e-03 3.4805035499434304e-03 5.7700392321570542e-03 -1.7092820221079868e-03 -9.9490140079904234e-03 1.0852794336196033e-02 -4.9468853352369058e-04 7.1707691754664377e-02 -1.0754622839474294e-02 -2.4751476873704853e-02 4.5973229431003515e-02 -1.0328243451659450e-02 -4.9289024519172608e-01 1.9993755533990024e-02 -6.5635929908169875e-03 1.5200511852920560e-02 1.1840781294501651e-01 2.6289543093077801e-02 3.6665908729390087e-02 4.4694348018603086e-03 -1.5726425512141977e-02 -6.9240647248218934e-02 -7.5057095357797593e-03 -3.1317648032119838e-02 4.1352207714664080e-02 7.7544215963298510e-04 5.0771010457405752e-01 -1.3141895750905286e-01 -1.5152604090805211e-02 1.0932241310027286e-02 5.3957666821825644e-02 7.7064113056122346e-02 4.2460244419078204e-02 -1.2149373676081363e-02 -2.7623578046451991e-02 1.5364617766680494e-02 -1.0192676274900905e-01 -6.2606782874682410e-02 1.8414938271422120e-03 -6.0088815868081600e-03 7.5398967031221037e-02 3.1292505103002619e-02 -4.3170587680256362e-02 5.5489318906357221e-02 1.1568814651328713e-02 -2.3588032682936222e-01 1.3151666671466222e-01 
      </Row>
      <Row Index="228">
        -1.4450973300788500e-01 1.5296525550771811e-01 -6.2164223750453829e-03 -1.2488031583489434e-02 -2.0247703287002761e-02 2.5658231619399841e-02 1.8193679675669872e-03 2.9435401442781561e-01 -2.8290539713154539e-02 3.4730681818378843e-02 -3.2470747106802311e-02 -1.5546309199332392e-02 -4.9440437851208663e-03 -1.2716886442624808e-02 -2.6006412590239281e-03 1.3120035317995615e-01 -4.2070074432691007e-03 8.8592919677390469e-03 -3.0793396988455318e-02 -7.8739538631789874e-01 -4.8018914956984737e-02 -5.4923154662331442e-02 4.2312678436677853e-03 -8.8739564962738271e-02 2.6896205857688260e-03 -5.1444950922807930e-03 -1.1315878876697605e-01 1.2959187559915719e-01 3.8426384350698783e-02 -4.6049421221661335e-02 -4.1298948176111239e-02 -1.2296247105683278e-02 4.4054922716883993e-02 -2.5562614232493841e-03 -3.2907978599244636e-01 -4.0219977099078819e-03 7.4626704097609631e-02 1.6877407632175156e-02 -7.7087594227730960e-01 3.2159725986637966e-03 -4.7639645154546884e-03 2.3114624566095809e-02 -6.1821245329653607e-02 -1.7136131668191723e-02 7.0436356267724598e-03 -2.7706240660852677e-01 3.3805741943054368e-01 -3.1904792309345176e-02 -2.4935899148570417e-02 7.3735277898711260e-02 3.1733429177425609e-02 6.1590784140652222e-02 -1.8411834857155362e-02 8.2505339193316540e-02 -5.6777075366198915e-04 7.7523776960346624e-02 2.2439481717352106e-02 -4.2230684284258579e-01 1.4930785693533893e-01 -2.7086653849683895e-02 4.0223937317520608e-03 9.8118569818569368e-03 -9.4427371641101487e-03 -6.0265257514835469e-03 1.8360027966376435e-01 9.2614148959562215e-03 -1.6354966457484021e-02 -8.3138441779893046e-03 1.0023714102144848e-01 4.5506722713015701e-03 2.3656408938729556e-02 -1.2858237569057351e-02 -1.5787663595205803e-01 1.2319186815439254e-02 4.0754352794681759e-02 3.3129456560698989e-02 -6.3628877889890134e-02 1.4693134187888646e-03 -2.3870717686065301e-03 -2.8757754029094806e-03 9.1077810766081457e-03 4.3843848120623530e-03 4.9378506383601223e-03 -2.5277960671463262e-02 -1.2363760920717226e-03 1.2241850045787039e-02 -3.2945321506169245e-03 1.3664234222578231e-02 -2.7625063402448580e-03 -9.5674411097634859e-04 3.9706457587443400e-04 -2.1751919279090370e-02 1.8888382239604096e-03 1.2547719496941778e-02 2.4686085236224620e-03 1.6048075920693661e-01 -2.3905676495177275e-03 4.4133373302145673e-03 -1.9287958132192640e-02 2.0781905455442118e-02 3.1508526549136051e-03 1.0635312187424563e-02 8.0460726136477589e-04 7.1202072422646978e-03 2.7072163892538414e-02 7.2208599563038933e-03 2.8941174124593752e-02 1.3878486289952141e-02 2.9305788127565457e-03 -3.8202589980056434e-03 -1.5309421281775704e-02 -2.0971797901997435e-03 3.4681165174890727e-03 -8.5954527314897056e-03 -5.5227303875125233e-01 6.5929216640704502e-02 -4.2405785147093145e-02 3.4598457660472003e-02 -2.8605585502480609e-02 -3.2742895693566976e-02 1.3712764208562017e-03 5.6459587844891468e-03 1.2699947223178487e-01 3.4504304866558380e-03 -2.3264216536562431e-02 -1.8912336843052574e-02 5.4201965670673972e-02 2.9035543248693951e-02 -2.7199917170710047e-03 -1.1209560821660780e-01 8.6897577308970436e-03 7.7941658415658588e-02 3.2249238213078457e-02 2.7206232196462787e-03 -4.4555566747282727e-03 -1.7154336464358100e-03 -1.1208778451724886e-03 7.2710919203139573e-03 1.3688929878847671e-03 1.5788835987565197e-04 -7.2382232035695937e-03 -5.5960953390945256e-03 -7.2540189116619691e-04 1.1831173938737435e-03 -9.7552009677984619e-04 2.9571618065886915e-03 1.3327595431114683e-03 2.5087668074437464e-04 -1.4562722752042845e-04 1.9348878213267737e-03 6.5693446279692369e-04 -2.1307071183477855e-03 5.1744956289357968e-01 2.9347479826434819e-03 5.6860543148559484e-02 -4.3712007940434228e-02 5.4377767539638744e-02 3.6011175651698313e-02 9.9011878042909451e-04 -1.2580377350387467e-01 -1.1453023581341260e-01 -3.2499732586126678e-02 1.7142431041061917e-02 1.0886373588582382e-02 -3.2359157990998200e-02 -2.5807090901064367e-02 6.6060848960983881e-03 -1.2166034749228261e-01 -4.0163758709376163e-03 -4.7625016503260405e-02 3.8382228828863871e-02 -6.4275553298030808e-02 -2.5372218794068147e-02 -2.2802703516363820e-02 2.7225778931059263e-03 -2.5919653938828224e-02 -1.3732163031113798e-03 1.0955243143895288e-04 -5.5604848273373086e-02 3.9348512328096774e-04 -1.2118312717064761e-02 9.3501134953852816e-03 -7.6542495497007312e-03 -6.9897849095456321e-02 -5.9060705606975503e-03 1.1175223455669554e-03 -3.5036201358163765e-02 7.0342419103173737e-03 -1.5453558161545783e-02 1.0685434350758971e-03 -8.9103754255324574e-02 7.5311902202808478e-02 -1.1156413108244223e-03 4.5335931175939370e-03 -2.1791617621389259e-02 -5.8869464097522917e-03 9.6522667096889114e-04 1.2406983548486342e-01 4.8657098529636400e-05 -1.2776182027201032e-02 -1.2110141127901902e-03 5.1770291904234822e-03 8.4565156999004409e-03 -5.8289781424579745e-03 -2.1785761809010110e-03 6.4700920260933659e-02 3.3607180903949332e-03 -1.7263339046414763e-03 -3.6381722952409053e-02 1.7145832482905771e-01 1.9540246450711374e-01 -1.8465146680087707e-01 2.0510740840477104e-01 -3.0716120398301205e-01 -1.5649736521867511e-01 -4.3265946581615700e-02 2.8428210378630303e-02 5.5930538599249624e-01 -7.7135658786198380e-02 -1.4499627018725603e-01 -1.7727787088721680e-01 1.2700416896654249e-01 3.6630059585698760e-02 -2.3031644481519675e-02 2.5080084054128715e-01 1.6385817933442071e-02 2.8573905381121611e-01 -1.3141895751003180e-01 3.1611821593444440e+00 -4.3684744213617499e-01 7.8894401873126407e-02 -5.6207781309931037e-02 3.7247353700929353e-03 -1.2256462221530490e-01 2.8848299571915592e-02 7.5014298264858681e-01 -6.5886513066199415e-02 1.6524070010129766e-01 1.3457134047799840e-01 4.9455114773388847e-01 -2.2113092195437012e-01 -6.5821709181296040e-02 2.5360896014685733e-02 6.6797685859978151e-01 -2.4903935049742643e-03 -1.7642207573661778e-01 1.9795174308794605e-01 -3.0086332633077606e+00 
      </Row>
      <Row Index="229">
        1.7236335756493193e-02 -1.0875812339528528e+00 -1.0697918872754442e-02 9.0603768597468711e-03 2.2162414898468551e-02 -1.4102703659622582e-02 -9.1769181330379670e-04 -6.1723551492998474e-01 -7.5020525236497576e-02 -4.2434584033818048e-03 -2.1869360210265022e-03 3.2132654287733889e-02 -3.7869802798203901e-03 4.6283025626266724e-02 3.0589146387194734e-04 8.5555473126986761e-03 -3.8373134537472249e-03 2.7742186665797898e-03 -9.0946693911568167e-03 4.8399078641659841e-02 8.1513747191994590e-01 3.1628019012659998e-02 5.5961046513884659e-03 1.0407023374354174e-02 -1.7182132857909156e-02 -3.1006177500396729e-04 -1.8916302277676494e-01 8.0900974679664533e-02 -1.8223346066388903e-02 8.6389263355693933e-03 4.8422686938899479e-02 -5.8335764256756302e-03 -4.6124466455984989e-02 -6.1595688355059403e-03 -1.6046705785999538e-02 4.8730919585661210e-03 -3.4655816678214879e-03 7.1775368485820917e-03 3.8951091353736360e-02 -2.4990789194465324e-01 -7.0924678160151147e-02 2.1434934416377303e-02 -1.3405611627411836e-02 -2.0519117963824166e-02 8.0722319565043922e-03 5.8043087615666056e-01 -2.0258579339663743e-01 3.4029512053458819e-02 -1.0315885447451264e-02 -1.0044519936471784e-01 -2.9719463242344028e-03 5.4390152743800241e-02 -1.4722710651119079e-02 1.2626075896860931e-04 -1.2479049803583900e-02 -6.5923294655090723e-03 -8.0981822109258746e-03 -2.9897170576996535e-03 -1.5106967612897582e+00 -4.4908116393267930e-02 -2.8289832965710075e-02 -6.1322392164532315e-02 -1.6897514114750222e-03 -5.6063508258413774e-04 -2.8639084356551148e-01 -3.6697458897653645e-01 2.8835569694530241e-02 -1.1380226070466778e-02 -1.5467408952139056e-01 -3.8201597293678544e-03 7.3723265634579706e-03 -6.9478936644310624e-03 4.5370951326863793e-02 -1.6106739653621478e-02 2.3277492838671369e-02 -1.3137715100222130e-02 5.4566787023555829e-03 -4.9337535814081290e-02 -7.8100089535918004e-03 4.4492979974858331e-03 -7.2692592297974633e-03 -8.9159769148428707e-03 2.2029360873964843e-02 4.1118555742102117e-02 -3.1155725924856104e-02 -7.8051628665354519e-03 -3.6487550117844168e-03 -2.2291747627388399e-02 -2.2900190942677029e-03 -2.1220806112385972e-03 -4.6865923681879674e-04 6.3496358215051210e-03 -2.5665982972898726e-03 5.8892958731178420e-03 -1.8755554906275660e-03 -3.1427991458252612e-02 -1.6226396550196517e-01 -3.7894312651853813e-02 -9.8715494016434618e-04 -1.8404816022735807e-02 6.6419043800716639e-03 6.9236566749290143e-02 9.0286662947533722e-02 -2.7023930324714474e-01 -9.0661692086714384e-03 -6.0301412735633926e-03 -2.8896616805159561e-02 3.6054085648906655e-03 2.8048383465070947e-02 6.0482101066459655e-03 -1.1997885545663523e-02 5.0621256466988618e-04 2.0335703176849029e-02 2.2095620766796444e-04 6.5359468229313086e-02 9.8532657193803636e-02 5.6303346409686122e-03 -5.9986885094393816e-03 6.0852908827132074e-03 6.9433315889188101e-03 -1.0080869469982734e-02 -1.7683523804091936e-01 1.0659784847067516e-01 2.6750488122913123e-02 7.3793060778881009e-03 2.3842045755588518e-02 2.8817341297790377e-03 -2.5079693290506282e-02 -2.7507103740329786e-03 1.8868347309324580e-02 -2.6049283140397927e-03 3.4208343384750185e-02 -4.1920246603442662e-03 -5.2672291559928341e-03 -8.8760611399424079e-04 2.8637117086144437e-03 3.5969388302186354e-04 4.6440235886248517e-03 1.2687163163227154e-03 -2.1440811946996200e-04 9.7940202517038180e-03 -6.2663165461005347e-03 9.5344716305161112e-04 2.5790787879297663e-04 -2.0000148132841658e-03 2.0443253310894489e-03 -2.6894526803320148e-03 1.1017605519677207e-03 2.6749814535984647e-03 -2.6340760835345794e-03 3.3835165132743432e-03 2.3676713391209084e-03 -6.6173844263976808e-02 -1.9566162084021763e-01 -5.0394077626582386e-02 2.0479862424386528e-03 1.7518228662478097e-02 -1.1432111943051999e-02 -9.1381924221370196e-03 6.1456908127447307e-01 -1.8562793198109027e-02 2.2059171595380952e-02 -4.2480881637548054e-03 -1.8378896999498219e-02 1.0011440368566462e-02 -3.2532634828849522e-02 8.8260604844375527e-04 2.0409713841307998e-02 1.7468475727889588e-03 1.5071729663465823e-02 -9.7595677856150038e-03 2.6174997595367157e-02 1.8560377691555885e-01 6.8333233305197943e-03 3.1813672449973896e-03 -1.5911223880661254e-02 -2.1307018427009269e-03 6.4187312836253424e-03 7.1469799525955294e-02 1.5023482799432428e-02 -9.1301779372524698e-03 -1.8297536663512254e-03 1.2134574429598626e-02 -7.1175649843322926e-03 -1.2301306570396658e-02 7.9775521788029641e-04 -1.2337147121450565e-02 3.4607056428277881e-03 -8.5042840488000170e-03 7.8895930316386191e-03 -4.7481474726929207e-04 -5.5683528719243813e-01 -1.6436177261743540e-02 2.0417286958787665e-03 1.7559560933537090e-02 6.4164666631525927e-03 1.5815058488128607e-03 -2.3777714385071935e-01 -6.1492506272223739e-02 2.6824091999192796e-02 -5.6376922145158275e-04 -1.0067294326934966e-02 -2.1374005453075884e-04 6.8305401759935296e-04 -8.7011455059620964e-04 3.1679382575072211e-02 3.4758375973616108e-04 1.5914078603176379e-02 1.1761338586724178e-04 7.4536765170274924e-02 1.3852647214023206e-01 7.1514366308031957e-02 -2.1258704324522391e-02 5.3639743197530461e-02 3.5707276013716489e-02 -2.3723223444049782e-01 -2.1441206779764646e-01 -1.0690654301253533e-01 1.5728904750644285e-01 1.5530873189792181e-02 2.5448941502366129e-01 -2.1051196337691088e-02 1.5430058140096992e-01 -1.6924554710355276e-02 1.1624407968442657e-01 -1.3006488216852725e-02 2.9013632820172931e-02 -1.5152604090746967e-02 -4.3684744213586502e-01 3.0216788545641644e+00 -7.6537178964985131e-02 7.1551009523168507e-02 3.2238998367900992e-02 1.0778432780726042e-01 2.6021706441290593e-01 -2.4350140504179674e+00 3.2454977222139542e-01 -1.4623690527422700e-01 1.9222831036037388e-02 -6.7599850369938475e-01 -1.5389070525977100e-02 -2.2611066193894558e-01 1.2477218968738144e-02 3.7543181470259576e-02 1.6518597628814663e-02 -8.9626994377291713e-02 -3.7817024237810803e-02 2.1961954169014797e-02 
      </Row>
      <Row Index="230">
        1.4635601982420150e-02 6.4514672069909240e-02 -1.9725457065990759e-01 -3.8316148906717057e-02 1.0832403590062878e-01 3.7003501071767753e-02 -3.0684081637225025e-04 -2.7473895845907204e-01 7.8690511222935688e-02 1.0256376199352298e-02 -1.0646876039524023e-02 -6.7829863020824332e-03 2.4857081808885018e-03 -2.0565544304433997e-02 -1.0721533671180089e-03 -1.1826140639768945e-02 -1.2552017016961344e-03 -1.8186376967036011e-02 -1.4130794920090839e-02 3.1728741103098090e-03 1.1382009233272983e-02 5.5855756642888021e-01 4.5492048396787180e-02 1.2689751529392002e-02 3.8384633134616014e-02 7.0336450329458455e-05 -5.5134639863817281e-02 2.6230262305207019e-01 3.5182214158156616e-02 -8.4643608213187949e-03 -5.5297968923122554e-03 2.7710257962789281e-03 3.1287903022122615e-03 5.1650499799197613e-03 4.6987174204149440e-04 -4.2089218889625885e-03 4.8162216428413451e-03 4.5338550317335358e-03 1.6768784397396042e-02 2.2771431988671154e-02 8.0125482931570424e-01 6.4043435314636965e-02 -1.2745913891756322e-01 1.0530593646873920e-02 -2.4431036248162563e-05 -3.9601419713358621e-02 2.6300258172145918e-01 -4.5074056101053195e-03 -2.0283345874482217e-02 1.6709728219292952e-02 4.2934138465129390e-03 -1.5253016086432036e-02 9.1741301209955495e-03 -1.5094598002471635e-02 4.6824316455778003e-03 -8.2391998170146169e-02 1.0416544473626554e-02 -2.5608105393795988e-02 5.3690823618381706e-02 -2.2035285982737596e-01 8.5427426615449775e-03 -2.8298919962323066e-01 -5.0535501709808583e-03 6.1603559141687469e-04 -2.0428819369308027e-01 -1.1757158125585643e-01 -3.7823649931603975e-02 1.1725957270702025e-02 2.0441480430079803e-02 -6.6897435572115804e-03 5.0475253258874753e-02 -1.9717199415247855e-03 -5.9589265083577203e-03 4.5912100947509416e-03 1.3607844962193694e-02 2.1464918636604657e-02 1.0451079743593716e-02 5.3243179396955664e-03 1.2515900757317897e-01 2.3379617475035169e-03 2.8793117364841997e-02 5.5478651139479439e-03 1.1419866571777230e-03 -1.5778422263816427e-02 8.3731109697968709e-02 1.8130653325494794e-02 -6.0316696054926455e-03 2.5574448601365096e-03 1.8346415365818117e-04 1.0227765771685993e-02 1.9827497004935718e-03 -1.2063713407852450e-03 -2.0184261915597163e-03 9.9032551012093462e-03 -1.0143177211125731e-03 -3.4880612628490626e-03 1.5447723548867420e-02 7.6794219847153428e-03 -6.5253526400321782e-04 -1.9719424180133338e-01 -4.2960264029396900e-03 4.6004932079601107e-03 -3.9083131700290430e-03 -1.6581781583731492e-01 8.3793278327539689e-03 8.5644380954904148e-03 8.5915017477638852e-03 2.0715244211100270e-06 1.0158383535400606e-02 2.1550503437525736e-04 -7.2644694007023281e-03 -1.8858848611527923e-03 1.9104228031889131e-02 -9.3843000422177830e-03 -2.7110651762017310e-02 1.2051253034146142e-02 1.1136607748859179e-01 2.6427504517342340e-02 -9.6085645919044248e-03 -9.2894588640846099e-03 -1.4936479817992468e-03 -5.3185945256178119e-02 1.1980438812989469e-01 -8.5492917569120908e-03 1.3260469224941514e-03 -3.1301185076787821e-03 -1.7722225277283996e-03 2.8971591728940843e-03 -6.8732489145666847e-04 1.6428162516056499e-02 -4.6888961162317236e-04 9.7573779744694111e-02 2.0420974979405246e-02 -7.9520676864275157e-03 3.1783317558001581e-03 1.9011561578238523e-03 7.2821918948423690e-04 1.9071211863119858e-02 -1.2501082770698213e-03 -7.1801181169073910e-05 3.6935715023680218e-03 -1.3953653581962162e-02 -1.8828537567776304e-04 -4.3334350453018769e-04 -1.0255743912312102e-03 -3.5050334914402768e-03 -1.7124682896852098e-03 -2.6502159139825485e-04 4.1297593327422576e-03 -1.0778510035087856e-03 1.0243372617673094e-03 1.1753175431036822e-04 4.2152524779427353e-02 -1.5090604804013918e-02 2.7995842942026006e-01 1.3942555134728932e-02 4.7732324978596169e-02 8.5551347107103853e-03 1.0308927270317805e-03 8.5704945761201468e-02 1.6134077492797166e-01 -1.1392921266348797e-02 -2.0086374596437799e-02 1.2302305713979209e-03 6.2173927558124842e-03 3.0850069087676402e-02 2.4847566851132243e-03 1.3895814924119732e-04 -2.3063187785948569e-03 -4.0922190339338541e-02 8.5147389753835109e-03 -1.4509540763539164e-02 -1.7215825761525139e-02 -1.2664078637186682e-01 -1.1314521977758119e-02 1.0585713676614761e-02 1.6179770431054563e-04 7.7162511363726427e-04 6.9151719085001284e-02 -1.0541052735021217e-01 9.2533751317315227e-03 5.8024669495448655e-03 -4.2515195892298130e-03 4.5234225425045032e-03 -9.8305031368112715e-04 -4.7719751440360050e-04 3.1096870320008740e-03 -9.9291463014046510e-04 4.0295395702334008e-04 -5.3462956421765906e-03 -8.7728651660057277e-03 2.8321656494052508e-02 -8.4031425264079695e-02 8.7711258721903662e-04 -4.5925138883199018e-02 -4.9735663541250977e-03 7.8587471767975481e-04 -1.2118133003242282e-01 1.3142571330621688e-02 1.7902855080164422e-05 -2.3435665599586316e-03 3.3705685901207552e-05 4.1075130882890082e-04 1.1207720283453439e-02 -6.2766134871884878e-04 1.0364391254538696e-04 -9.8055209615508648e-04 -4.6545399047868419e-03 -5.7156552463029121e-03 -5.3581044066746117e-02 5.1680949685422028e-02 9.7208879939575860e-02 2.6504565377881151e-03 1.5839613572115638e-01 -4.5594612487317367e-02 -2.2428140376677147e-02 -1.1529040831249801e-01 -1.1602083101047600e-02 -7.9802397749577675e-02 -1.6503958430812787e-02 -4.8850083983842496e-02 -1.6813581619296511e-02 -7.5070758115401148e-02 -1.6017304263558310e-02 3.6447191536592927e-02 5.1788458081176297e-03 1.4603917206133235e-01 1.0932241309711571e-02 7.8894401875058418e-02 -7.6537178965218722e-02 1.4860489950756530e+00 -5.3596873688686930e-02 3.2838906426702530e-01 -1.5180883954885155e-01 1.4758457123702107e-02 -5.5279954906771955e-01 2.7297637050212531e-01 9.5957043187453517e-02 -4.0641663660422947e-03 1.0155360106665413e-01 1.5348371402768277e-02 2.1622926821083649e-01 -8.7134816524135142e-03 1.1449214730824275e-04 -6.5008906599120231e-03 -3.2984304180778345e-01 7.0575456451970942e-02 -7.5215045173111661e-01 
      </Row>
      <Row Index="231">
        -1.5868966786472746e-02 -1.7081704622045168e-02 2.0525317008316335e-02 2.0449048589666291e-01 6.6675625152576190e-02 -1.0001366138217010e-01 -5.4292687450512023e-03 -4.5987832370707027e-02 -9.6419650600159529e-02 -2.3448637724554255e-02 1.2426316652665565e-02 -6.7149760769766014e-03 -1.3312027277930155e-02 -1.0146112403121944e-02 -3.1539870650901004e-03 3.2751973485035196e-02 -1.0733601803021358e-03 7.7855430368906353e-03 2.1295001145660436e-02 -2.0339274507283178e-02 5.6076914044675685e-03 -4.1696932149000721e-03 2.3596798339708635e-02 -5.6851515015301390e-02 -7.8424806595040863e-02 -1.6428386062079122e-03 -1.6044433677053466e-02 -9.7120663484866920e-02 -3.2722886127921555e-03 1.2431436289521341e-02 5.1411378384186301e-04 -9.3728639092638920e-03 8.9169108291636337e-03 4.0188174271181334e-03 -2.4266589682008344e-02 6.7844570365350673e-04 1.4175370352367683e-02 2.2625582775489261e-03 -1.1286385526621603e-03 -1.7558511042245595e-02 -2.8088339796503159e-02 2.2417424645944417e-01 -3.1331971033189643e-01 -6.1991552042463538e-03 -2.9065964958972790e-03 1.5140937557962530e-02 -1.0510132383605614e-01 4.8979684527710732e-03 1.2695572332817318e-03 -1.7967970588184112e-02 -4.2168774303912027e-03 -2.4185884148858944e-02 1.2564328139091918e-03 2.9707951342897481e-02 -1.0064955576733370e-02 1.4144446064700607e-02 -2.5969288388235326e-02 3.7114414172719545e-02 -3.2698295461702526e-02 -3.0691435527622046e-02 -4.7084448514832528e-01 -7.8543908321634687e-02 -1.1096709566446122e-02 1.1880382378278931e-02 -7.5315505397572924e-03 2.7563517045849084e-02 2.2758897125880445e-02 3.4612362354341730e-02 -8.7106616642886915e-03 6.1998498074030406e-03 -1.1365276319758956e-01 1.2431559598343744e-03 -3.6433374193752310e-02 1.3860103808871288e-02 -7.1076420281933686e-03 -1.6712526454625898e-02 4.2414908337157220e-04 6.6439504286661677e-03 5.5186940479420993e-03 7.7939588345645322e-02 -6.9034796695323294e-03 -9.5311284618923402e-03 1.3988645002351464e-03 5.9840638425685544e-03 -2.3917101926578588e-02 -1.6799924560551405e-02 3.2644657830604648e-03 -4.2758162765894198e-03 -6.2853756685595221e-03 -2.8565136212595498e-02 -3.2304501054086100e-03 6.7326531255672492e-03 2.6145650944430811e-03 5.0216601923229812e-03 -4.7384996633190249e-03 -1.2207437200251803e-02 -5.2940975405377372e-03 1.8363873694200457e-02 1.3617443360467579e-02 -1.4273421598906699e-01 2.8334067824022507e-03 6.6641962890765065e-03 1.0443701760075030e-02 4.1205051491245537e-02 -1.2499608457163497e-02 -6.3240145016451501e-03 -6.3644622659507176e-03 3.8862242116235535e-03 9.9121121000050917e-03 -2.0370185101708724e-04 1.5429368887253658e-03 1.0056693428974056e-03 3.6933385110129308e-04 -3.7035231919594069e-03 -7.5622233281695539e-04 -3.8712747958691285e-06 -7.3570985623048618e-03 -1.0442474034958618e-01 2.4462936039033392e-02 1.0928611398562415e-02 4.4871584030553892e-03 7.1646972990242128e-03 -3.2774475223484589e-02 7.1837332482602313e-03 2.9789503826374358e-03 6.6550244384374901e-03 1.0116348055324091e-02 -2.0317655427386196e-02 1.6916863111237851e-03 -8.5114479763220841e-03 3.2857498809620933e-03 -1.6175018867808175e-03 -1.2063200384145028e-02 1.4471092507352991e-03 -2.8064496171974936e-03 1.8550757071950806e-03 1.3054860907762372e-03 -3.9512932328158229e-03 1.4088608776836246e-04 4.7425061876986765e-04 -5.9254083173562715e-03 2.2032322892125188e-03 -3.0956119654981561e-03 -2.7054792271256878e-04 2.7810572876469156e-04 9.2786788845577789e-04 -3.9887457901829626e-03 6.7354310147801108e-04 -7.4007414301817745e-04 -1.1413596158264012e-03 -3.4089600277766030e-04 3.2261190604147838e-04 -3.7650903153838712e-02 5.7965939216969714e-03 -2.9278263466475107e-03 1.7736497387895808e-01 -1.0423424799667461e-01 -2.3743547574734715e-03 -4.3952222799832803e-03 3.3903579309310615e-02 -7.3998414908568372e-02 -2.8341526915333169e-02 2.0001581887103433e-02 -9.0080259125007896e-03 -6.3082507869161031e-03 -1.2422369943385249e-01 -6.9973980742658870e-03 3.0145865691096480e-03 -1.8537176426553070e-03 2.2136006392928512e-02 -1.7254817560101332e-02 5.3821671108330027e-03 3.4962217099974713e-03 7.1622171259621004e-03 1.2238872433950998e-02 1.8298797808827358e-02 6.2638513962749234e-03 2.4317929262893945e-03 2.4895982674736361e-03 5.3401911111101708e-02 -1.2378236813688923e-02 -4.5499103828705867e-03 1.8353135159166062e-03 -1.5677096094608003e-02 1.0180805808118689e-02 1.3433482161259783e-03 3.0300468423352100e-03 1.9711495997290721e-03 -2.4442944875650669e-03 4.4532537274162981e-03 1.1883560644400715e-02 -9.2717831129461997e-03 -3.7443458637988827e-03 1.1318380600976927e-02 -1.7298409525942221e-03 1.9817076093893216e-03 1.7790077037418530e-03 -1.2665874065910888e-02 -6.0223258947838948e-03 -5.2708182459122238e-03 5.7868618294037930e-03 -4.3496964533810906e-03 -5.5822763295145066e-03 -7.3889095091944981e-02 -1.9267328975582610e-03 1.9030515739439938e-02 2.9906062864600890e-03 -2.8471240162405553e-03 3.9396602612652562e-03 4.9781394567055229e-02 -1.8278692585556061e-02 -2.3289832680155827e-02 -7.0070407291113079e-01 3.9112820963833489e-01 2.5350431324965375e-03 -9.9580472205228060e-03 -2.5566906827677448e-02 9.4083255781437863e-02 8.0192692991597009e-02 4.0761991569768632e-02 3.7319793446691563e-02 7.1082533440052081e-03 9.9345000145242862e-02 6.6190929824948425e-03 4.8608616509769220e-02 1.2622241160883453e-02 -3.9614188538166770e-02 5.3957666821951952e-02 -5.6207781311586463e-02 7.1551009523578735e-02 -5.3596873688907309e-02 1.1614328664605469e+00 3.0397811123920365e-01 3.3801522576601406e-01 2.2945949437440605e-02 -6.8353863874864196e-02 -1.4110877373187680e-01 -1.8429537881629536e-02 -1.9448229964783265e-02 -5.5673981853955931e-02 -5.9369057260445050e-02 -6.1089490511092692e-01 -8.2273164726269915e-03 8.0054782871886665e-02 1.0112947390900795e-02 -5.1324132919507437e-03 -6.3922383622738055e-02 -2.0568156977019689e-01 
      </Row>
      <Row Index="232">
        7.6369019643631603e-03 1.4793271906112793e-02 -6.9469398054271991e-02 2.9493993154774412e-02 8.8628366842486983e-01 -2.5630769876439641e-02 -9.3557771946857771e-03 -7.1480284966608520e-02 -1.0061691436492615e-01 -8.2425591826363664e-02 5.5582541071048930e-04 -4.6808941964203987e-03 6.4354318854660530e-03 -2.3437563691405178e-02 -1.1277654670666409e-02 -5.1849418112466239e-03 -1.9463602028055582e-03 -9.5639573282365609e-03 -9.0349906746339206e-02 4.7375016916548773e-03 -1.4993377302770949e-02 1.2232097297998168e-01 5.4432266843093852e-02 -7.0411327274237001e-01 -7.7815903549695031e-03 -6.8590534516375177e-03 -1.2205309570874623e-02 8.0685075142544749e-02 -1.3016892238017508e-01 1.2778402758431617e-02 -1.7154876575240952e-02 -1.7172022573805970e-02 -2.1653436804676782e-02 -3.5087429441833240e-03 -3.0085033268711925e-03 -2.4332071167983763e-02 3.0550460758134501e-02 2.3161626008097680e-02 -4.4725803862880831e-02 -1.6759299574502506e-02 1.1273778514130051e-01 1.3496741314751581e-01 -1.7870226882333697e+00 1.5420090904523787e-02 2.4902221597793428e-02 -2.4790170684610202e-02 -3.2493134394610812e-01 5.7260154681705533e-02 3.3670678212639582e-02 1.2914425585326850e-02 -2.3854253009076620e-02 -4.6988939079069980e-02 -2.5696360190004208e-02 -4.6152425119365403e-03 1.7686908347929631e-02 2.6135796279331235e-02 1.0907217296314486e-01 -2.1059981021196883e-02 -1.3964166399114263e-02 -1.4009508260409109e-01 -9.0410375747567384e-02 -1.1498121747762085e+00 2.9565794424628589e-03 3.1458641256981945e-02 -5.0787664544266420e-02 -5.3568894400697076e-01 2.0466747026101739e-02 1.9968983518466821e-02 3.9503929231524321e-02 -2.3725578380391465e-02 3.0778743266693498e-02 -4.4899090735776692e-02 7.6439379269634955e-03 2.4749142271252633e-02 2.8826257387115389e-02 1.8499789235017650e-01 5.5420158904710970e-03 -9.5382960716328125e-04 3.8484623701925236e-02 8.3109781799176746e-03 2.0069755046086984e-01 -8.1619934807007286e-04 3.2289934485774385e-02 -1.2735082373906970e-03 -1.4565944064458902e-01 1.0800758383172404e-02 -6.8879108542813233e-03 3.6869156920339430e-03 -2.3784460525382960e-03 9.2177329675324216e-03 -1.4524365636984213e-02 -5.1873288908423631e-03 5.6223630517821255e-03 -1.3806631436237837e-03 1.4977565388742342e-02 7.9578039940604306e-03 -2.8173554603279305e-02 1.1671749853607284e-02 4.8587620942850018e-02 -1.2966931587911370e+00 1.0528939745784477e-02 6.8952676879845701e-02 -5.3399637498632857e-02 4.0434058761864122e-01 -1.0916032625193986e-01 1.9392066157117485e-02 2.0453757339824880e-03 -2.0432263007009288e-02 6.1263114141408559e-03 4.6446145950974280e-03 3.3671763732282034e-02 -1.2573728963856057e-02 1.6039522629785335e-02 -9.8160496574304007e-02 -1.7712291910913447e-02 1.4212677931372042e-02 4.5127492249730228e-04 -4.0361590661769996e-02 2.0763084876201776e-01 -4.9875174994514632e-04 1.0484425141142756e-02 3.2343365283152292e-03 -4.3021675500018230e-01 7.1123194660026839e-02 -2.0816694384267656e-02 -7.3942939744710487e-03 2.1979162929569099e-03 -2.0504456551753147e-03 -1.8719921557852348e-02 -1.3885426630865894e-02 6.4656014083268841e-03 1.0875212126602085e-02 2.0264839708271226e-01 2.0588900670463553e-03 -2.8130506089119253e-03 -3.4616868411863795e-03 7.2926224682631074e-05 2.3427070736464009e-03 1.1765291521386488e-03 1.8872105727647118e-03 -9.1732877033468205e-03 6.4210329993741357e-03 1.4743946555498544e-03 -1.2723040832962060e-03 1.7975988364742155e-03 4.2394921002201179e-04 8.6312156007914420e-04 4.4814496231246337e-04 -1.9458557346606793e-03 1.4356251869119627e-03 -2.7240408636668365e-03 -8.4747374018945970e-04 -4.8839095638086860e-03 8.0306452310241472e-03 4.2097418960264421e-02 4.2176691523301224e-02 1.3754918551437290e-02 -1.0440208170703291e-02 1.4929833626153216e-02 4.7983859576691545e-02 -3.3526839245672602e-01 9.1410792079075598e-02 -5.9946028218017099e-03 -3.8845839718577163e-03 5.1297883576505998e-03 2.9917948983044756e-02 -7.9469498668729502e-03 1.9023946976685191e-02 -1.2561220598055270e-03 -6.8993283902808213e-03 7.7150657210461604e-02 4.2210059281067025e-03 -2.0920482301318710e-03 -1.4328218073937471e-02 -6.8526827932908763e-03 7.8395546631903401e-02 7.8437963844635306e-04 2.7718236965318388e-03 4.6181790505119835e-03 1.4464991306104857e-01 -4.1079075143800603e-03 -5.2081800944583645e-03 -4.4369227038634773e-03 -2.1142826987558495e-03 1.2767686373430998e-02 5.2641626869657696e-04 3.0099119092952265e-04 -2.2019647574864562e-03 -5.0321094162954910e-03 -3.0493866663205582e-02 -2.5806377176908368e-02 -5.7883076867911998e-03 -2.9799380886506965e-02 -3.1272685897515140e-03 -9.2419202664183686e-02 -3.5790783996108438e-05 1.4385361077159299e-02 -3.5211484321154007e-02 -1.8803765622916979e-01 2.4439070072395132e-02 4.9546186369269669e-03 2.8080166892581714e-03 6.4619032025609729e-04 1.9725718895784311e-03 -1.0072079116633402e-02 5.6364068800281442e-03 -4.6322066312002655e-03 6.8321285526570918e-03 -8.7618661726750230e-02 7.7917765732249678e-03 7.5221323654349304e-02 -4.7897720976766422e-02 -2.7259161854549235e-01 1.8863344902447592e+00 -1.3089487307361135e-02 -2.5561345275560787e-01 3.4431508466459426e-02 -3.2928404986644799e-01 3.3906438112505177e-01 -1.3855312847269485e-02 -3.6895731071826310e-02 3.7588309845622531e-02 -9.5610722611326693e-02 -7.6718916426254322e-02 -6.9589977571439476e-02 3.1322498772088231e-02 2.0361887016938321e-02 7.7064113056556180e-02 3.7247353622299473e-03 3.2238998368597116e-02 3.2838906426556180e-01 3.0397811124029195e-01 2.4500187359962600e+00 8.9896915740414751e-02 2.8827444115218981e-01 -1.5954864553970882e-01 -1.2872751587030637e+00 -4.7849091110138792e-01 -9.3831013222106019e-02 1.7187774564944325e-01 -3.3081925764418513e-02 2.2664562870040061e-01 4.8536039868418202e-02 -3.3154591534322486e-02 -5.1722940581944599e-02 -7.7548788983595962e-02 7.8566868160180170e-01 -1.0463899477647598e+00 
      </Row>
      <Row Index="233">
        -6.5367797852161130e-03 -4.4815981097936497e-02 5.5311912783910011e-02 4.6833003199050448e-02 8.4432442421587817e-02 -3.0711882095003651e-01 -5.2934152494433923e-03 -5.8553755919512618e-03 3.1965812278295563e-02 -2.5730339800249896e-02 2.0406812427727961e-01 -8.7837415533394483e-03 1.5629782846681678e-02 1.0939300907572468e-02 -3.8358089227802095e-03 -1.4024394258045358e-02 1.9782461786851903e-03 -4.4033447850843288e-02 1.7654708494048682e-02 -8.4577519933684009e-03 3.2353540472044473e-02 -3.2087189632099000e-02 -2.6450184764894642e-02 2.5466277124403414e-02 -2.3338150321853179e-01 1.9477576214299358e-03 2.5837386515776106e-02 4.8625206738942994e-02 -3.0493189502909704e-02 1.5999404852900834e-01 -2.7988211423682352e-03 4.5421064071046041e-04 2.7356788756838373e-02 3.0028968517815807e-03 -1.9771652700990017e-02 5.0860636590107939e-03 -2.9545860641959076e-03 -1.5374876976500307e-02 1.4463694705640878e-02 -9.5141481676872530e-03 -8.4644879031084530e-02 2.8043393861726273e-02 -9.6058760134587140e-02 -6.9570907296610307e-02 5.6042165906966535e-04 2.3753954849904363e-02 -5.7767850881529359e-04 1.4924754659706826e-01 3.0206801665056016e-02 -1.7667697468250670e-02 1.6698828160653517e-02 5.8303673402947953e-03 7.0046138509396727e-03 4.8009287503283926e-03 -1.0850067914810690e-02 2.5249912508341563e-04 -2.0683400060193952e-02 2.2993935020139800e-02 -6.3969940311205162e-02 -2.7042647018234167e-03 -1.2634266376826883e-01 -8.5669458592830691e-02 -2.0571877253509036e-02 1.0560915217505684e-03 -5.8536218031752796e-03 -6.9860835309999092e-02 7.4436623642857941e-02 1.9221795357790838e-02 -1.8610191098659554e-02 -4.0350201373374833e-02 -5.6117039080446580e-02 6.1905837442197686e-03 -2.4789190695017616e-02 4.3207157016333930e-05 -1.0791628610281781e-02 -2.6056420136694902e-02 -1.0502381840685637e-02 1.2392093168053508e-03 -5.6049511641912686e-03 2.4001740151520227e-02 1.2988704391236089e-02 -4.0878089959542049e-02 -8.3432007719636877e-03 1.6888755914935438e-02 -5.4306109407296077e-03 -1.5332186802701209e-02 5.7691918943237018e-03 -2.9582999132035798e-03 9.8456222267981081e-03 -6.9935972393809012e-03 -9.0551163761644002e-04 1.8379207688312693e-04 3.8102009184224558e-03 -6.6084135390381132e-04 8.0331084928137592e-04 -1.6842526739724417e-02 -5.3308889148110800e-03 -1.2474309289948162e-02 3.0791377192177644e-03 -1.2060104584401876e-02 1.9578369709434100e-02 -2.3634543719990866e-02 4.8569200701394782e-03 1.3262222975304583e-01 -6.3905026613972987e-02 -1.7230588770332480e-02 -7.2336038166321099e-03 2.9924675858557605e-02 1.2469349370175159e-02 1.6213259625549384e-03 2.6940767136469923e-03 9.4647165871282468e-03 5.4458117515716817e-03 5.1535628388375380e-03 -5.7412224711658674e-03 -1.7441250104163822e-02 -1.7291342270638638e-02 -3.1160624302339714e-02 -7.3422792912355688e-03 2.5974545474753724e-02 6.5327705964020998e-03 7.1370761769444860e-03 -6.8922107122508403e-02 2.8684451365913976e-02 -4.7117478351645911e-02 3.4229058954955444e-03 4.3512064888771407e-02 -5.9190664733270587e-03 1.7667213760078453e-03 -1.0916730046698908e-03 -2.1837838779571539e-03 1.2612086238754715e-02 -2.1520770595433690e-02 2.7533070253068156e-03 -2.7183949738484436e-03 8.6570432463347995e-04 1.2598462426894354e-03 2.1649779502509684e-03 1.9335707539193119e-03 6.1152897455079723e-04 -5.9220374303257245e-04 6.7708939354216291e-04 -2.2200981457728575e-03 -2.5485015925348613e-03 -2.1558937918950621e-04 2.2652705418516840e-03 -2.1412020339152326e-03 2.8154489735299172e-04 -2.7187498796064115e-03 2.3818588951982729e-04 1.1632394437790412e-03 7.7311183520563376e-04 -5.8131711756763502e-02 -4.9263888414363688e-04 -1.9961167142401391e-02 3.3429010540734307e-02 -7.7969358497367788e-03 -9.1480069450151885e-02 3.4263619444770774e-03 2.2402261819167539e-02 -3.9927584561871482e-02 8.9353300888045800e-02 3.3789687819149504e-02 -2.2945004346411717e-03 4.9455534244127353e-02 -2.2435403832924288e-02 1.6314228939320521e-03 7.8187624255342814e-03 -7.7300303460567620e-03 6.9963945989801948e-03 -1.5419860450754779e-02 4.2534285542640271e-03 4.5608698049206531e-03 1.5945839248252325e-02 1.8834766077920562e-02 -5.6417297307268868e-03 4.0750173849103524e-02 -4.4386056671943397e-03 9.4756272191185431e-03 1.0881938648695799e-03 -3.6736893917082236e-02 -5.0820334037879861e-02 4.6402739493370260e-03 -1.0493369270240302e-01 -4.4740730044107715e-03 1.6112287418161464e-03 6.7709353441213205e-03 -5.4033786472279695e-04 4.6411192332163004e-03 1.2245881517497822e-02 8.3245434562576603e-03 -2.8677411736439749e-02 2.9978597778725496e-03 4.3132821752289996e-03 1.9206382536770386e-02 -2.1366816893877141e-03 -1.8842442629904577e-03 -7.1598456204742004e-03 -3.4457687764001738e-02 2.3847964871458027e-02 -1.2872343309254594e-02 -2.6492583730140318e-03 7.8443843981201612e-03 -1.6835387621145642e-02 1.9610312394113686e-03 6.2052761029994866e-04 1.2129883326838775e-03 -8.9390794923288651e-04 1.6964541513851565e-02 7.3503646933807454e-02 -5.8768417533912182e-02 1.8995066562762591e-02 -1.6491140307085200e-01 5.6674912423548440e-02 1.9234838710307647e-01 8.2254791410011893e-02 -1.4819330041562814e-02 -6.1133922196446637e-02 2.4729729957068261e-01 3.4347797614245146e-01 2.4681903597687543e-02 -3.7847574926909364e-02 -1.3854366549232403e-02 -3.1000197884060009e-03 -2.2443714521191982e-02 3.4779441938241409e-03 -2.8388934319264068e-02 4.2460244419462702e-02 -1.2256462221982374e-01 1.0778432780755987e-01 -1.5180883954894459e-01 3.3801522576550969e-01 8.9896915739682393e-02 1.1509143053065576e+00 -6.9884534304688523e-02 -4.1195712857294842e-02 -2.1874876552283085e-01 -3.9710042584040828e-01 -8.5908421218413489e-01 -9.6291559188929371e-02 -3.1179720081593976e-01 -2.0703514247501661e-01 -1.4591045625879991e-02 7.6314734823790184e-03 2.0854504815602845e-02 9.2430333542253829e-05 -1.1267153660374246e-01 2.8234644939410608e-01 
      </Row>
      <Row Index="234">
        -4.1470364509787611e-03 -1.1698380560532051e-01 9.0457624668189851e-03 5.9848016959304084e-03 1.1061812444980879e-01 1.8883696181851262e-02 3.7911941953427730e-02 -9.6324030660177584e-03 -1.1803646061133399e-01 -3.6814988625983008e-02 -1.3296244770358734e-02 1.0006327554887007e-02 1.5956080327657052e-03 1.7474890142481936e-02 -3.6435201494994240e-03 3.6752612376611538e-03 5.9377179321420254e-03 5.1597954305280247e-03 -7.2620051651630935e-03 -4.9191189730818152e-02 9.8261091909443099e-02 1.1393028123663385e-02 1.1703061016738014e-02 -1.0837300532254801e-01 2.7051228648199421e-02 -3.0651123238300236e-02 2.6064136714940567e-03 3.1256731679086158e-02 -3.6313498447062775e-02 -3.7577831578252674e-03 -9.7724319964811457e-03 2.0326911952939009e-02 -1.5878941922606138e-02 1.0912141307855672e-02 -3.9515241461284489e-02 4.6450020050479157e-03 1.5502026625467291e-02 -1.3951555839271101e-03 -3.5595288392546776e-02 -2.0444456789199705e-02 5.6671646327934866e-03 3.9378685382001066e-03 -2.2170640818026044e-01 1.8231787381602249e-02 1.0095015046239730e-01 2.6843196945161019e-02 -2.0116274306633208e-02 3.0677049095363174e-02 8.7865019851181003e-03 3.4930776395053265e-02 -4.4966237999055636e-04 2.1987812548456276e-02 1.4840237332328865e-02 1.3591223480310388e-03 -3.2707346957064232e-02 2.5292435156298587e-03 8.8583682757592541e-04 -1.8340510011753963e-02 -1.6939450808990900e-01 -1.0238104502311440e-02 -3.7353298051884032e-02 -1.7080621103640947e-01 5.3518777565737530e-03 1.7332985798229927e-01 -1.4787753652438340e-02 -3.5062826913674705e-01 2.4512984612084399e-02 4.4585311816451867e-03 3.9866357729916369e-02 -4.8339282882992052e-04 1.0508045312600522e-03 1.6353935112491058e-02 3.0021951662195789e-03 -5.8657704581168701e-03 1.9508197446365894e-02 1.4086123610539403e-02 -5.6856316132531504e-02 3.2603687308641938e-02 7.0634852849760232e-03 -3.1619850678786032e-02 -2.7156696092861310e-02 -7.4659501057655064e-03 3.0068736334130053e-01 -9.7487020492579290e-03 -1.8530693085802774e-01 2.7910362570281677e-02 -1.7153498447757765e-02 -3.8388554097319449e-03 -1.2423715995415807e-02 1.0095408002651740e-02 -3.9757522364357589e-03 2.1065561446317327e-02 1.0814940158962227e-02 -8.7043270526292460e-03 2.7745589886497557e-03 -7.1965729217811081e-02 3.7725182293812942e-04 1.2849008420452779e-02 -5.8038315327170631e-02 -1.7336563738435107e-01 -1.6044774682703378e-02 8.2165860194634044e-01 -3.5472332367654236e-03 -2.3143688523229322e-01 2.8071220971764621e-02 -2.8077878136333945e-02 -1.0459720075434553e-02 -7.2205651555247441e-04 3.9812448877937556e-02 -1.6945463903528246e-03 1.6584326588317655e-02 3.0102017983323792e-02 -1.0782981112387624e-02 -3.7621162288963839e-03 -9.3214895269222442e-03 2.2277174756713425e-02 2.6290456805830864e-03 -4.9010778169584351e-04 -1.6293839171692283e-02 2.1707936798281424e-03 -4.9136525527983657e-02 -1.7076087331742373e-02 -9.6168665169354739e-02 1.5263077384543966e-02 4.4507034795692457e-03 -6.4898448568035949e-03 -1.0909641210914339e-02 -1.2640299596027194e-02 -5.1334033265890699e-03 6.4117712649389702e-03 -9.6132117630338965e-04 1.3466284101140535e-02 9.5804767747539321e-03 2.7645826488715830e-03 -8.1635344682974564e-03 -4.1828247545842856e-04 1.2738810582381375e-03 9.2821772189871088e-03 -2.9150584610218785e-03 5.9727855636094243e-03 -5.9470813252064381e-03 -1.2519209091768832e-02 -1.8165098683480263e-03 -8.8574956250767056e-05 -6.8530123585925046e-04 -2.4954102930898475e-03 3.2400541094737834e-03 9.6040657183749795e-04 -2.9403214668253380e-03 -5.4985038091630301e-04 3.1630175722063836e-04 -8.0899951582555363e-04 -9.4486054962910071e-03 1.8857697830743092e-02 6.8360742291777576e-03 -1.1117808175618582e-02 -3.3311514541332632e-02 1.5184144478472827e-03 5.4389207192286598e-02 1.1179839592539875e-02 -1.4772040433782196e-01 2.6043197494071968e-02 -1.6948003114192062e-03 -3.0842485685947663e-03 -4.0109398490016934e-03 -2.4338041599136662e-02 2.1416347895372723e-03 1.0983094312674080e-02 1.5641278610792064e-03 4.4543493959638275e-03 1.0121520467487960e-02 -2.3045690892502080e-02 1.6406924868721084e-02 -9.0886261539360191e-03 -1.7646583902761748e-03 3.5851883029097920e-02 -3.6045526657635385e-03 5.1550936663272040e-02 -1.0783068887700864e-03 7.7739710277668017e-02 2.5888091236914157e-03 -2.7778128659606827e-03 -5.6293950137022986e-03 2.5158828221992897e-02 6.6310884259141584e-03 1.5021530183131470e-03 -6.4680191861512526e-03 -5.2861358369857558e-03 -1.4848347104222753e-02 -3.2382966627284571e-03 -2.0594407746310495e-02 -4.0491987801664742e-02 -1.0110212369436544e-02 -9.9640420912744387e-03 -2.2107114149808371e-02 3.5980618156502761e-04 1.2394195086246423e-01 -5.1552751380639639e-03 -1.1910174979918287e-01 1.5438782954016151e-02 -1.3683569753289992e-03 5.7835786637927336e-03 -2.3910110287096720e-03 7.1744832208274767e-03 6.2900786644838960e-03 2.3123537968921581e-02 1.3773998394598372e-02 1.3430274004129494e-03 -1.7963765778730711e-03 2.0648899926694009e-01 -1.0487814269492413e-02 -2.7376267641101681e-02 9.9256379879088197e-02 2.4736815808893919e-01 2.9073872398603269e-02 -2.3444432065102054e+00 3.4479481126590272e-02 1.7517529822112832e-01 -1.0241255372445579e-02 3.6734045935021165e-02 6.2291174771633706e-04 -3.6364097295751852e-02 -8.3778982044377948e-03 2.1231172697653011e-03 2.5072459510354861e-02 -1.9560268770379197e-02 5.0243209418058682e-02 -1.2149373676640790e-02 2.8848299566706870e-02 2.6021706441218839e-01 1.4758457122778346e-02 2.2945949436966373e-02 2.8827444115589773e-01 -6.9884534301939527e-02 4.5388533618282114e+00 -9.2271214769208854e-02 -3.2017837003152549e-01 -1.1521911174261756e-01 4.5098843036770253e-02 1.2065932462342177e-01 7.3162026955612997e-02 -6.0306971646329810e-02 -3.5090623275034094e-02 7.1267941351525255e-02 7.8114796881996962e-02 -2.5289491963463639e-02 3.7408054785033951e-02 -4.3459071323396241e+00 
      </Row>
      <Row Index="235">
        1.0566169383474378e-01 5.7250580797016637e-01 -3.6075476343423452e-02 -1.5686367272925411e-02 -9.6155461950676702e-02 -7.0908269157270443e-03 -2.5344762699407442e-03 1.4994349026677722e+00 -2.0016353039511958e-01 9.3490393623414884e-03 1.7711221734756477e-02 -8.5339046246263178e-03 4.3963239490141526e-03 2.5612936019256349e-02 -1.3202882234957802e-03 -7.4078629042875210e-03 5.9206512988276578e-03 1.3620013984192769e-02 -8.9367902478871067e-03 -1.5842289542788945e-01 -6.1339257686266513e-01 -2.7776495587794869e-01 -2.3896695103753515e-02 -2.6742557510095910e-02 3.0647282782801377e-03 -2.6603887426499811e-03 1.8198047747081697e-01 -1.0512955318167438e-01 3.0579788867093227e-02 1.5664860908891631e-03 -1.4357041624683431e-02 -1.7513483401907504e-03 3.3084250004408886e-02 -8.4405076885825103e-03 1.4155689811921945e-02 -6.4889535103296800e-03 9.4385109424164337e-03 2.6260532599015063e-03 -2.0657363956173971e-01 2.7892329883319356e-01 -2.7888180648283623e-01 -2.0866233274754009e-02 9.4940915203961751e-02 8.0842128285077974e-03 4.1233273938927617e-03 -8.9492338608104927e-01 1.3169811579723101e-01 -4.9882526384170345e-02 7.1735105908306007e-03 5.7380863262517678e-02 -1.2956565580559132e-02 -1.0132197762989792e-03 -3.5090136067345568e-02 -3.3431234273284885e-02 9.3889482450704165e-03 5.6027346309439757e-03 2.0537875454288701e-02 1.0995681207390007e-01 1.0541470199950280e+00 1.1415493615618777e-02 1.6664774910894686e-02 9.0671212041113225e-02 -4.5734743275128720e-03 -4.3704016527339462e-03 1.0184537005586414e+00 -1.1626615765336412e-02 -4.6598705178273359e-02 -5.5721404940139441e-03 9.9453747866415643e-02 1.6755474938781378e-02 4.2689876257044623e-03 -1.9926867219569377e-02 1.5112161658894063e-02 2.4819829905071714e-02 1.2347509425674225e-02 -2.2038571202551704e-03 -3.9494261957780052e-02 4.9088029952194967e-02 -4.3207272460174750e-02 -9.2443218326471177e-03 -8.4808339590659310e-03 5.1727079729287744e-03 -4.9799453556339628e-03 -6.2851897801987189e-02 2.9842719697231068e-02 6.6702260931204016e-03 3.4021426240403857e-03 1.2132864889574463e-02 1.3414450046750279e-03 -7.1152884832425267e-03 -3.0302539507862034e-03 4.1259941731290883e-03 -1.1223339351718320e-03 -1.2763023013244168e-03 7.1518314265779231e-03 9.1402813966768970e-02 9.9202587034044776e-02 -2.9915925455471511e-02 -1.7140925841981958e-02 8.7963284553116861e-02 -1.1070553447702081e-02 -1.8961722967596586e-02 -4.9987261251086768e-02 -7.0810450610326869e-02 2.0194548474992136e-03 -1.3973525927619988e-02 1.9898245576673048e-02 -1.0400643696370036e-03 -4.0288940001664275e-03 -3.8414721620886119e-03 2.3013083137485804e-02 -3.4516173636400527e-03 -1.0184140163319672e-02 -6.4167174348200573e-03 -1.0233776295598040e-01 -8.9896350448579715e-02 -6.9730243441018691e-02 -3.9704067460843429e-03 3.8386505366723445e-02 -2.6610116432602485e-03 -9.9266961780693913e-04 2.7115202852498321e-01 -5.5556733054180629e-02 -4.4068998130113134e-02 -1.7610984055102880e-02 -1.0357610714826708e-02 4.6797061379842270e-03 1.7510568150326422e-02 -6.1876611545173127e-04 -1.8081558585593127e-02 7.5445764620202457e-03 -1.9078759458008493e-02 8.7024038323906330e-03 9.6211832122545145e-03 -6.5039949990627760e-03 -6.7643557055749766e-03 -8.8285539371924220e-04 -5.4946721725350200e-03 -1.5783345592778227e-03 9.8238601949606191e-04 -1.7933258064136023e-02 1.6020285447414750e-02 -1.8167113786429559e-03 -1.5821389612849929e-03 4.8894915738799914e-04 -1.7749129109777342e-03 -4.7302624790068401e-04 -1.3873728883008864e-03 -4.0327780975038044e-03 4.9496210525081640e-03 -5.5349998247383805e-03 -3.4923979331582186e-03 4.1837038825050327e-02 3.0744721525596408e-01 -9.6701742168425753e-04 -5.8999876827546122e-03 -8.4661333094106783e-02 8.7032151589839651e-03 9.9192202465158766e-03 -1.0383625568873676e+00 2.6497223446039819e-01 -9.3506807831592112e-03 1.4825209499949673e-02 2.0090224677258108e-02 -1.1862239717668754e-03 -3.7968871734114173e-02 -4.0611363288937941e-04 -4.9440540620909745e-04 -4.4141547440194016e-03 -1.0764604788119785e-02 1.3276636520930307e-02 -3.3780672036925585e-02 -1.1193300114285787e-01 5.7056691424726580e-02 2.3049506029833022e-03 2.0950570272260868e-02 2.6311000877918544e-03 -1.5468304548360567e-03 -2.3962564237988926e-01 2.7977574996267407e-03 7.1019471688906211e-03 -3.5081144942934739e-03 -9.1493723282791706e-03 3.9947459508141376e-03 4.9252266887671176e-03 -4.2586494658863874e-03 -2.8646978770523468e-03 -1.5946335218891827e-03 1.7942545759794606e-04 -1.3055553076161130e-03 6.2123621792019135e-02 3.2853254960318434e-01 -1.5499900233881203e-02 -8.8537749593670806e-03 1.8809911028851961e-02 -1.0912857045484635e-02 -3.2608108150958062e-03 6.1699952226805399e-01 -6.0698790424157489e-02 -5.2903442984482928e-02 -1.0080888226175328e-02 6.2397201096218826e-03 2.8255481133126481e-03 -7.6983091367877135e-03 -2.0896345770639591e-03 -3.4569680508213380e-03 1.7782400026204459e-03 -4.5619520415127821e-03 -7.4320298036065265e-03 3.1135347484838449e-01 -4.3190402587350740e-01 -3.3814922398081076e-01 3.7279274888890851e-02 -3.0918328167723885e-03 -3.0185202644615015e-02 2.6242696906676341e-02 5.7028757343399028e-01 -7.1571199380646866e-01 -2.8162244855482177e-01 7.2668044821313504e-03 -1.6686048761689387e-01 2.8113932085662305e-02 6.6809583198012557e-02 -1.3439139502795072e-02 -8.8196716779591178e-02 4.2040789777208806e-02 2.6998633098983801e-02 -2.7623578046685714e-02 7.5014298264917822e-01 -2.4350140504181166e+00 -5.5279954906797513e-01 -6.8353863874702103e-02 -1.5954864553779380e-01 -4.1195712856400932e-02 -9.2271214769331922e-02 4.4662061522969818e+00 2.5606005086648526e-01 1.7393645311574374e-01 -1.5714252680875831e-01 3.2727653369197579e-01 -1.0749153124564592e-03 -5.8898677378187714e-02 6.7480316498533505e-02 -6.4042554963057607e-02 -3.0119634505991984e-02 6.5732378277195136e-02 3.8881694466936123e-02 -8.1210027426983744e-01 
      </Row>
      <Row Index="236">
        -1.1986919247718442e-02 -1.8034543690694171e-01 -4.5552225288391757e-02 -3.9877099622942058e-02 -4.8776958874089171e-01 4.2156498927440333e-02 -8.6153915753734989e-03 6.8222620360537611e-02 5.1334671387279851e-01 7.3325603271950562e-02 -9.3828252985846960e-03 -4.3124632793675732e-03 1.0852723707346468e-02 1.8342244725353118e-01 -3.2399886854017068e-03 -2.4831508935814650e-02 -1.2111740415305119e-02 -1.4917034111214145e-02 3.1912045609804540e-02 4.6715606946714727e-02 8.3501467263380924e-02 1.1247225696364715e-01 -2.7710977061443098e-02 3.9004804099363710e-01 5.6773652627334581e-02 1.1396314547557837e-03 -1.0172982126678942e-02 2.1279828287868785e-02 1.1496445977208025e-01 8.9220596163792631e-03 4.5848347355883945e-02 -3.5453035419867440e-02 2.0288138006009926e-03 -3.8620109340218645e-02 -2.3554522759878793e-02 -1.7138294459606046e-02 -3.2822892632994538e-02 1.9477223785742126e-03 7.6739432405891317e-02 -2.0229067361796638e-02 1.9133720072811045e-01 -2.7454681661311042e-02 1.1408986032444020e+00 -1.0449772801234491e-02 3.7429875143120128e-03 -2.1695196211224843e-02 -2.2495686747148813e-01 -1.0111077481589126e-01 -4.6836453210060469e-02 -5.9332586745074689e-02 -3.7361421077890533e-03 1.5944313924976861e-02 -8.6264929277063640e-02 7.9535862588849260e-03 5.3246999549223517e-02 -4.7100946803497828e-02 -5.5658753673015093e-02 5.0069339052850381e-02 -1.8735658758382853e-01 3.9692652628078307e-03 3.1632929847498215e-02 1.0167286069110912e+00 -1.2424188442765605e-03 -3.3947569756158202e-02 8.2635261889244305e-02 1.2007167000604309e+00 -8.1424043498932175e-02 -9.1513351951493238e-03 -8.8800007232507139e-02 1.5465715857290174e-02 -2.4359422761849348e-01 -6.4643202680258582e-02 1.0799801286923483e-02 2.7353175631045668e-02 6.8223540510468084e-03 -5.8625752173403711e-02 -3.7555760682232986e-03 2.9052912443618517e-02 3.2528733624141104e-02 -1.2496396129276832e-02 -6.8853282070339139e-02 4.3397093601672126e-03 -4.2970559600427422e-02 -1.4511933427124646e-02 5.1324005601463796e-01 -4.4638913152841297e-03 3.4789740113776446e-03 -1.1065065975164878e-02 4.9519246874342032e-03 1.3460945762516441e-02 -1.4574852043763575e-03 9.7363588934141765e-03 -1.7263239670474828e-02 -6.1796915108264239e-03 5.4810319714330147e-03 8.5249251732512743e-02 -1.3293638327375512e-01 -1.1584619375225245e-01 5.4962063244157311e-02 4.5949691298597140e-01 2.2029041268079586e-03 -3.6885127097993090e-02 8.7670479396952716e-02 -2.8734355044310753e+00 5.1950110424621165e-02 7.5345986050561753e-03 -1.1779147920304087e-02 -4.3979140567953101e-02 -1.4307184836803172e-01 -1.4944408368882806e-02 1.8967470112085105e-02 -2.0994372855870580e-02 6.4997798132059748e-02 -4.6142536900086850e-02 -8.7113937290056453e-03 3.0354894042616154e-02 8.8259374609520602e-02 -1.4155466506500708e-02 4.6833602744137043e-01 -1.0873381782299740e-02 -2.7377228698557410e-02 -2.3012831719446014e-02 1.9886590958220287e+00 -5.5750370071289204e-02 9.2629091546944931e-03 5.0814329014838289e-03 3.0705782646144361e-02 4.5433345962718308e-02 1.4209108173887097e-03 -1.2178416768084510e-02 -9.3151641747490910e-03 -4.4201445694777186e-02 -1.4912211126085095e-02 3.2661967337581366e-03 -1.8046719091886348e-03 3.7192885547705640e-03 4.5363833525182036e-03 2.0625696957875000e-02 -4.0992191951772037e-03 1.1456843003123055e-03 -2.4378730985684799e-03 -2.8832550612280378e-02 -9.5055927906815552e-03 -7.1466977748285004e-04 -2.5295731722683994e-03 2.9332819864103868e-03 -8.2426787094683346e-03 1.4522397405104942e-03 1.4879906578501578e-03 9.3057457212001107e-04 3.5604794791277566e-03 2.3920892370812991e-03 -1.4195707136537283e-02 8.6263704365568739e-02 7.6701975630227515e-02 -1.0427832856056807e-02 1.8579641758121346e-01 2.5447087526253909e-02 -3.1116197222715331e-02 -1.1738162118004947e-01 1.5304307717741346e+00 -8.5474760092441066e-02 2.1481874652328134e-03 1.4990210221843103e-02 2.1977347628938548e-02 -1.0630658835616014e-01 -5.3798867075990908e-03 -2.0839023705560011e-02 1.8111574339853692e-03 -2.5163914535061151e-02 7.9609418232381574e-03 1.8190477095114232e-02 2.8973001119406483e-02 -5.7739629936801151e-02 8.8829706623543281e-03 -2.6989592671716156e-01 -1.6147003822796213e-03 8.7884060577123613e-03 -4.6457810375413189e-03 -8.2096611588170632e-01 3.3404113112687650e-02 -1.9170497738763004e-03 1.2442281696786850e-02 -4.0081175712821715e-02 -3.1100828381024667e-02 -1.6093813177563755e-03 3.3809623061694438e-02 6.9411696768902353e-03 1.7910268122109996e-02 1.0090864406762767e-02 1.3091374123951560e-02 -9.0456656015030723e-02 -6.8097678080446533e-03 -2.3861486552915756e-03 6.0678736616624374e-02 -7.4159468011903290e-03 -1.9177916532673867e-02 4.8032946486974960e-02 5.8783482158253886e-01 -4.1485040370086212e-02 -7.5961214486735470e-03 -1.1401420827920838e-02 7.6247200646770985e-03 -3.6601914089072568e-02 -1.0016914797589094e-02 -3.3573744695036822e-05 -2.2831687525875468e-02 -1.8485241655992468e-05 -3.4042288605576482e-03 -2.6482107033730767e-01 -9.5320209250471244e-03 3.0818575787473890e-01 -8.5619760910801812e-02 -6.4925213932783787e-01 -9.5883329747165999e-02 1.5925045432919172e-01 -1.0754263019339838e-01 5.8787502737657238e-01 -2.9097698494393942e-01 -6.5900759175977930e-02 4.2193686748331238e-02 1.3861192429028407e-01 6.0190671874940782e-01 4.6365149875943756e-03 -3.9913699384431567e-02 -1.6690099439336692e-02 -1.5686567190657369e-01 1.5364617764858063e-02 -6.5886513043618145e-02 3.2454977221869541e-01 2.7297637050535517e-01 -1.4110877373509112e-01 -1.2872751586970135e+00 -2.1874876552423506e-01 -3.2017837001790017e-01 2.5606005087213646e-01 5.9886548458418751e+00 4.3014601250279705e-01 -3.9940281814568879e-02 -4.1879586300903510e-01 -6.6375459565189074e-02 -9.0626277144228506e-01 1.5614295780209142e-01 -2.1731481848845435e-02 -1.3711965914516577e-01 8.3564421912674991e-02 -2.6053455033419937e-02 -3.4367315577629465e+00 
      </Row>
      <Row Index="237">
        2.4627099018841962e-03 8.4531803062688482e-02 -1.9086012475077019e-02 -3.4478493920305830e-02 -1.0017064536550224e-01 9.8201801596444593e-02 2.6981603377078944e-03 6.5297636228740963e-02 4.6508757641837151e-02 2.3784948230554714e-01 -1.2395285035937995e-02 3.2975957973291753e-03 -1.8048737323857034e-02 -9.3845720025493018e-03 4.5710909571360508e-03 6.7923004336262194e-03 -6.7170363731881740e-03 -1.6275082842918231e-02 -3.3537130613720857e-02 -2.7010030960180342e-02 -4.7081362169309471e-02 5.5736524863528869e-02 -2.5182348763508472e-02 2.8352424748870142e-01 7.7535793415186072e-02 1.0964991267629700e-02 -4.5951677704227256e-02 -4.1813429243786615e-03 2.7125719931283021e-01 -5.4289245999207258e-03 3.3401230357266165e-03 -1.1166110662582523e-02 3.5347703463953092e-02 2.6641257707823163e-03 1.5526676852743559e-02 7.3801696939133909e-03 1.9577316635210562e-02 4.2840397271128206e-02 -1.2351037454928743e-02 -1.8216354506428445e-03 4.6248675399496619e-02 1.9401681877998511e-02 2.7823719315529605e-01 3.4716148233868371e-02 -1.9005955829348165e-02 -1.6412075475678800e-02 1.3596278299928910e-01 -3.4221747843430905e-01 -2.8092208478628256e-02 7.2297373493883654e-03 -3.6597571132865325e-02 -4.0408252908561648e-02 5.9692466031002755e-04 -5.4384127198410931e-03 -2.1412292328478078e-02 -7.7447939359008844e-03 4.8620686104673627e-02 4.1702812391575250e-03 1.1419919471643548e-01 -6.7388323508379422e-03 -1.6110445617639413e-02 3.1971933334387193e-01 3.5029497044065661e-03 -7.5319697458691159e-03 7.1200556229156220e-02 1.6177024666781281e-01 -1.3215270646810789e-01 -2.3082801576482848e-02 1.1125166902909517e-02 -8.9084083413879522e-03 1.1105436603555256e-01 4.5890738576308543e-03 -3.5950041459317461e-02 -3.0318158362637848e-02 -1.7236781349432712e-02 8.1583416850128487e-02 2.6664903090103387e-03 1.0207866648681563e-04 2.8067194253175720e-03 -8.5791014114374037e-03 -8.4646760664705556e-03 1.5037124130712690e-02 -1.3003229084766019e-02 -7.7790638462107431e-03 2.6209541482824505e-02 3.9779361544525882e-02 -1.2392202571029493e-03 2.3462714192674095e-03 -2.5180020406703023e-03 9.5781468246244339e-03 4.1110126725144441e-03 -7.0585239784591025e-03 -3.4429698608198084e-03 7.3436129421150520e-03 3.1797712526448890e-03 -3.1632926569375996e-03 2.0210805191364534e-02 2.2617885395446027e-02 -2.4825549460846308e-02 2.4928617473073156e-01 -1.7899986231304371e-02 -2.3214110032944373e-02 2.3252878682988587e-02 -1.7161208364098490e-01 1.9029119267258249e-01 9.0763856080936234e-03 1.1792461699191211e-02 3.1146120117837520e-02 5.5174195205775906e-03 6.0119725933029181e-03 -3.9026858675110243e-03 2.1591069939236318e-04 2.1177799761372129e-03 8.0163501996515091e-03 -2.4143017107969206e-02 6.8552349114822386e-03 8.1027854229061003e-03 1.0593148906871068e-02 2.1109532636746291e-02 -1.5461151953501492e-02 -8.0689619493036491e-04 1.2745180473622830e-02 1.3337525569972675e-01 -8.3915133140528328e-02 -9.0641397496111498e-03 -2.2335336847754059e-03 1.7787177188752563e-02 2.4304019834231333e-02 2.9225674538138277e-03 -1.1631555175350305e-02 6.5046190285102806e-05 2.1184494202093535e-02 6.2809704118588966e-02 -3.2443338498258020e-03 1.9903388801703475e-03 1.9484670759797804e-03 -1.2149437903678185e-03 -2.9053484934843943e-03 -1.9141383880288856e-03 -1.3010422360905985e-03 3.7115128284227784e-03 -1.1271152933950219e-02 -5.7359089691882276e-04 -2.4987253285317992e-04 9.2096770429251815e-05 -2.6133747249157749e-04 1.2856685937045701e-03 -2.4876197597669195e-04 2.9196602560588800e-03 3.5568533130184415e-04 -5.9104240833365504e-04 -2.7141629462725143e-03 4.9475978190930858e-02 -1.9636562359463983e-02 8.8481746396349426e-03 1.2037520039871547e-02 -4.5369949399153536e-02 4.0064818090664187e-02 -9.6472860296764607e-03 -4.8076697013068728e-02 1.7629703175569800e-01 -2.4065203286514295e-01 -2.1392552097165694e-02 -2.6312797726330481e-03 -6.8492302203584932e-03 3.7418147030780557e-02 -1.4222164165446707e-03 -2.7874294990865189e-02 4.3482421748397802e-03 -5.4569154145946014e-03 1.5252896754184644e-02 7.6386763788454104e-03 -9.1694233531014468e-03 -1.1536233713443256e-02 -3.1719997171891778e-03 -2.5893718942780919e-02 -7.4431745587408837e-03 -1.1725058023254187e-03 -5.9252237993352441e-03 -9.5834184126832200e-02 2.1246776835164405e-02 1.3043567042973561e-02 2.2330331216374733e-04 -4.1889714997414444e-02 -1.5240914547008129e-02 -4.3272399941952921e-04 -2.7508191533787141e-03 4.3020483018875177e-03 3.6140649519913193e-03 -1.1807118093993541e-02 -1.3004775311493688e-03 3.3894982123522321e-02 -8.1237665075047927e-03 2.4824799484043647e-03 -6.4433776661519684e-02 -9.6548623930413097e-04 -8.5446240336994259e-03 3.9741769867102497e-02 6.0156075780280260e-02 -9.4195901075905850e-02 -6.1696151289641066e-03 -4.8076505112867353e-04 -1.4003882546819862e-03 1.0326659875173762e-02 8.5473593765595345e-04 -1.3064570687962809e-02 -1.4719506920159078e-04 -1.5731135435733280e-03 -4.0491173582518317e-02 -2.8194778291539248e-02 9.6984998793375743e-04 -5.4466571751809509e-02 5.3226799536818525e-02 -5.3626604674656364e-01 -4.5439899673187401e-02 8.2850121259385359e-02 4.8623909046669050e-02 2.7023479199597800e-02 -8.4058948824942292e-01 -5.9029576333535866e-02 -2.4369798254852248e-02 -5.6042667674964908e-02 -1.4875691090044191e-01 1.8230472180233090e-03 4.9692301135584316e-03 -3.0346211810313176e-02 1.2056460983827608e-02 -1.0192676274953100e-01 1.6524070010699757e-01 -1.4623690527536937e-01 9.5957043187151730e-02 -1.8429537881533786e-02 -4.7849091109882103e-01 -3.9710042584000160e-01 -1.1521911174480248e-01 1.7393645311719652e-01 4.3014601249716322e-01 1.2041093618880976e+00 5.2457870081314771e-02 8.1589097144652692e-02 -1.5030036306683930e-01 3.1268509558428104e-01 -3.0258474303019173e-03 2.3017887866183889e-02 3.2280946729101076e-02 -9.4854893680657831e-02 2.7171366295930754e-01 -8.7635628682646549e-01 
      </Row>
      <Row Index="238">
        -1.5152053351820022e-01 -2.6894845352708696e-02 2.7944623809041946e-03 -5.8189264211649383e-03 -1.2054539271574960e-02 1.5566018097376028e-01 1.2849482915946821e-02 -3.5084859437557347e-02 4.1376568551235948e-02 -3.4866086320869120e-02 -8.6908813085199210e-01 -7.0442361618431731e-03 4.7307633662669379e-02 4.6587485811876467e-02 -2.1097616513364448e-03 -1.3047378139931842e-02 5.1920676530466331e-04 6.6503183724794829e-02 -1.9075119378635590e-02 -8.3871524141920298e-02 -9.0667381200973118e-03 -1.7932071317361964e-02 -7.8269351454552938e-03 5.6777009877866380e-02 1.3122103852619621e-01 7.1559752075853241e-03 4.0925990244173635e-02 2.3141536046974998e-02 -4.4206996367979201e-04 -5.5206239841644644e-01 -3.3067066951505963e-03 1.2010040719596399e-02 1.6451573670848055e-02 -3.1485822942949326e-03 -1.3261700181681491e-03 -1.0240909051761001e-02 -1.0022353097203368e-02 2.6210046287967248e-02 -3.2808901312347108e-02 -8.3872377689808708e-03 7.7033198069318409e-03 -8.6758468853254112e-04 1.1646985193490600e-01 3.4860994475110485e-02 4.2128784535679087e-03 6.1623169919646920e-02 6.4414466956123628e-03 -1.8054103740632071e-02 -7.9523968860148869e-02 -2.5119519280817626e-03 -1.1267196421625991e-03 1.5837117551035979e-02 2.0601319908086779e-04 8.2201660768402712e-03 5.4909896938675207e-03 1.4776462537007973e-03 4.4526598055697295e-02 -4.2722897544095639e-02 1.3534401775773117e-02 6.8063260008824344e-03 8.5468776109050154e-03 8.2997681904454529e-02 -4.8173263476348760e-03 3.6403694677057397e-03 -6.3364923474549917e-02 2.0790566063426219e-02 -9.3855835630385909e-03 -6.1298467464592693e-02 -4.8731357430364317e-03 1.3439989483977371e-02 -1.1855278218949349e-02 1.4682027229268035e-03 1.3629257323314103e-02 1.4472502666468823e-03 1.9132527426401674e-02 5.9012700736663176e-02 2.7134281582289865e-02 4.1946495513253135e-03 -1.9337367397362776e-03 -4.5100016210187395e-03 -3.5113252681310825e-02 4.2584945768465214e-02 6.7713827884763912e-03 -6.5493421143404396e-03 6.8587405360525100e-03 4.2996900867231513e-03 -9.9896602246530332e-03 -7.2137931787149417e-04 -7.9353861566270611e-03 -6.5927563762509661e-03 -1.1104985267722817e-03 -5.9873314582771578e-03 1.9350664832283523e-03 -4.5399172667315163e-03 -9.7634652163710103e-03 1.7412162056215097e-02 -2.1856159315558621e-04 1.0228807418841197e-02 -5.5025258189663681e-03 2.5020265922880591e-02 1.8547431286196070e-03 1.3570433638337608e-02 -1.1650819521746694e-02 2.6384799027019845e-02 2.2942390843163241e-02 8.4939890382207062e-02 -3.9976803359873091e-03 -8.4099771208842149e-03 9.3728097311038261e-04 -1.2865751295462087e-03 -4.0857491354569508e-03 -8.0940852938138352e-05 -1.3036840955722950e-02 -1.1224694370001224e-02 4.2569351658107428e-02 2.6184185705531667e-02 -1.5177892567456844e-02 -5.6465754672068678e-03 -4.2255490868069824e-02 9.4649478646724131e-03 -4.7620239396046204e-03 -2.9685631396052202e-02 -8.3980493634409070e-03 2.2085579404116575e-02 2.3852178779238117e-01 7.4996685069231798e-03 -1.3461160160928472e-04 -2.1621217783048485e-02 -3.0804714750928266e-03 4.4467482996646268e-03 3.3452722088232779e-03 -4.8690537925111230e-02 3.3613582568025088e-02 6.0309547798092864e-03 6.2535376641551284e-03 -1.7042407463950093e-03 2.4070156174694000e-03 1.0319629050558915e-02 2.8972337580578426e-04 -5.8017912620268383e-04 5.9757459959255107e-03 -3.0769673376985210e-03 -6.5086820495758972e-04 1.1657295406857773e-02 -7.1409588564226307e-04 -5.5611108012360282e-04 2.6112118224349851e-03 -4.8057071612831511e-04 5.4730182387623203e-03 -2.6497954127806416e-03 6.2659761035007214e-04 -3.9727894292308861e-03 4.0628567401134852e-02 8.1409873089210924e-03 -1.0295856174616681e-02 -3.8921381150195909e-03 5.6126317948992088e-03 5.9864381672771874e-02 3.7409120909627502e-04 2.9754629167173731e-02 -3.8465847530384872e-02 -3.7113293234924960e-03 -7.7380384685035275e-02 1.4629535746044486e-03 -4.4295289881414734e-03 -8.6341062476757574e-03 2.2684636595452275e-03 -1.1126465900881899e-02 -2.6224883017696120e-03 -6.8097501313540707e-03 3.5389220002601876e-02 5.2154892557425780e-02 1.3191808645947600e-02 -1.0446729696055868e-02 -3.2870318778070451e-03 -5.2906598325226525e-02 2.7340808674785860e-02 7.5087183379751732e-04 -1.9324149426543480e-02 -1.1620777113563241e-02 1.2019974888037813e-02 2.1416784466689631e-01 8.7506314928114393e-03 -1.6116347459656774e-02 -1.9203243857168373e-02 -5.4826779067946002e-04 1.5146299622970094e-04 6.3086488853602678e-03 3.9808534777229111e-03 -3.0001918838412925e-02 -3.0738778600258476e-02 1.7424361342438612e-02 5.0530619266685659e-03 -3.3947655398223336e-04 -3.6961831028020906e-02 1.7708253029177834e-02 3.8451137612740931e-04 -3.4783206159610870e-02 -1.1152921250014006e-02 -5.7881223742122625e-03 5.6575964484004995e-02 4.8754539991276574e-03 -2.3201475575334351e-03 -1.3225707111221834e-02 5.7866872883797528e-04 7.1956537780843363e-03 2.7180637849032090e-03 1.3804869105460449e-02 -3.1373172843504556e-02 -1.8323669277015264e-01 1.7536313073338208e-02 1.9926541909063553e-02 5.7350682847326841e-02 -1.1432293623695994e-01 -2.7025096768656021e-01 -5.2952309524653969e-02 -2.5439576204617426e-02 3.7962409306845524e-02 -4.7086920855908779e-02 -1.0529253481800587e+00 2.6658036173976760e-02 3.1226911481827581e-02 7.2224687212961297e-03 -2.4635341482547087e-03 5.3603572984219916e-03 1.9782419245406854e-02 1.5580497268200842e-02 -6.2606782874779415e-02 1.3457134048041827e-01 1.9222831037247534e-02 -4.0641663661980174e-03 -1.9448229964131758e-02 -9.3831013223245108e-02 -8.5908421218355069e-01 4.5098843043241021e-02 -1.5714252680950325e-01 -3.9940281815278054e-02 5.2457870081560928e-02 4.7126086296087717e+00 -1.3744048992190405e-02 -2.7873976967916748e-02 -9.5416456426674554e-02 -3.0465363932512517e-03 1.0310258096896494e-02 -8.1500123343558883e-03 9.7751131087657400e-02 1.9389752045054678e-01 -2.2012179933252946e-01 
      </Row>
      <Row Index="239">
        -1.5055846710065508e-02 3.5576402944793939e-01 9.3158779722894991e-03 -1.7440587892822185e-02 1.1593939038010548e-01 2.5107523093842232e-02 4.1104159376500471e-03 1.2887989553153512e-01 2.0245968304366535e-04 9.8461723389775876e-03 -1.4592008840439014e-03 -1.7817801902216941e-02 -2.0828966764505491e-03 -4.0568772026055383e-02 5.5493459729354655e-03 5.1565293074363749e-03 1.0903092586665353e-02 -7.9577163166300036e-03 -3.1314147121750818e-03 -8.4432226397587629e-02 -1.6938079268561412e-01 1.1283268113081890e-02 1.0023000053640541e-03 -1.0036937086138131e-01 1.7612985226748146e-02 -2.0125585171338976e-03 -2.7189349175351096e-02 3.0732740802726588e-02 9.0309591078847617e-03 -9.4503781297751721e-03 -7.3562432217552765e-02 2.3659794204928669e-03 2.5426498126276328e-03 4.7057449119532191e-03 -1.0173045550786242e-02 -1.6350477212793667e-03 2.6549844824087843e-02 -9.1310162188944499e-03 -2.5632886948609157e-02 -5.6140479625300443e-02 3.0645740551113132e-02 -2.1436107334079413e-02 -1.0491085382503318e-01 2.4878809625488385e-02 -7.2177155774223456e-03 -1.3398642931016919e-01 1.5797123874859764e-02 -1.1356330199437492e-02 2.0392339904046097e-02 1.5271968332804919e-01 -5.4864841723772928e-03 -3.4546253386591674e-02 1.2993868450166590e-02 1.2593729312119828e-02 -4.9024080767876566e-02 3.6026506716845597e-02 -3.0729119081014944e-03 -5.5350373433395994e-03 2.9456019182559701e-01 -5.5497572578737109e-03 -3.7863720022148217e-03 9.2302366384825169e-02 1.1948046013894154e-02 3.2373320711576170e-04 7.3823578484753405e-02 -9.9640693077136522e-02 8.9216717959373915e-03 1.9516157782544508e-02 2.1617119606508176e-01 -1.7098400341843789e-02 9.6794685183871215e-02 5.3525592948568956e-03 2.4868337617953262e-02 -3.0349859075525065e-02 3.6616822247839825e-02 2.2061455787692696e-02 -2.9695280031238891e-03 -3.4275759820847629e-03 6.3306592546300278e-03 -1.1643545679477472e-02 2.9328171109837473e-02 6.1176994996308270e-03 1.0696304578974804e-02 -9.1043235245988896e-03 -4.2339637569611677e-02 8.4193220307560157e-03 -1.1578211202233624e-03 2.9767188971845715e-02 6.2865818441677074e-04 8.8540107635715071e-04 1.5728550082200130e-03 -1.6064850832397948e-04 1.1368487579081141e-02 1.4717365978910019e-02 1.1345197718323902e-03 4.6436625635640993e-02 -7.3648911848746001e-03 8.8628091976085260e-03 -1.4614618775989852e-02 -1.9173170925692151e-02 1.7955767542798262e-03 2.8477929861618075e-02 -2.6014724383010890e-02 1.6350800690222611e-01 1.7961253602347294e-02 8.5892506381704259e-03 4.9745115287928639e-02 -2.9965548968607786e-03 -8.8581275174060836e-03 2.0384077088328109e-03 1.5912402184310490e-02 1.8340217532139214e-02 9.9662565905445782e-03 6.0690810522298980e-03 -8.9579946281259232e-02 3.2688258116260804e-02 -1.5651993113789286e-02 1.8690081098926739e-02 -6.5432454331919784e-02 -1.1983902503733736e-02 1.3115823411033074e-03 3.1602205155659188e-02 -1.4540854888047439e-01 -1.2070627678408337e-02 -1.0545176485930733e-02 -3.5264796328800654e-02 4.9993766214824591e-03 1.4733480619950709e-02 7.6745750159996212e-05 -9.7120049911336714e-03 -8.5652978756143444e-03 3.1343996605959247e-02 4.0484396150365295e-03 1.0286450566495131e-02 -5.5026789479900654e-03 -3.3237290851677662e-03 -9.8860861164185845e-04 -2.5653849881704556e-03 -6.8490033360542324e-04 -1.9527627864528033e-04 -7.8788800672117271e-03 2.2042748013335473e-03 1.8072265375549471e-03 -9.5171804344852760e-04 2.2231677168389270e-03 -6.2090810984576084e-04 3.1796396039241639e-03 -1.1685800743204550e-04 -2.6755015853194078e-03 1.3866678346114974e-03 -8.6149947657894466e-04 -2.0413130890645781e-03 8.7903233073748088e-02 -9.9646630615345955e-03 2.6092328751170762e-02 -7.0307940383818046e-03 2.9476502200958821e-02 9.0674891041238673e-03 5.9588880300525948e-03 -7.7762016211897933e-02 -5.4899943097359793e-02 -1.0325074384767353e-02 -4.1659707524926808e-03 2.8673706888288769e-03 -2.1765595052191389e-03 4.4048968558992069e-02 -3.9023629170753908e-03 3.0558375956112882e-03 -5.3455178410172707e-03 -1.8086213054066200e-04 7.7037211515361137e-03 -1.8777872074341451e-02 -5.5673080598066083e-02 -8.1278596331166852e-03 8.9756860368056524e-04 -1.7358418793573790e-02 -2.2710064425602305e-03 3.6101956082156272e-03 -1.5740443489156153e-02 5.0646726776260254e-02 2.0033250934013425e-03 3.0067297748377630e-04 -1.5919771490968126e-02 6.1979399681220959e-04 4.0957144838521808e-03 -7.1398964206531698e-04 -9.9073044374224928e-03 3.3117377306911971e-04 -1.4855158417967819e-02 -5.4823143690041209e-03 -2.2191130430603723e-02 1.6686027268165338e-01 -3.0189508308714474e-04 4.9537174022173946e-05 2.8194468099960512e-02 -2.5455270050012656e-03 7.6509427461909085e-03 5.2950335703439072e-02 -4.9543324800474964e-02 -6.6710457457587434e-03 7.1769598383764933e-04 1.7365997460871849e-02 -3.8020455824725914e-03 3.1691196068842464e-02 -8.5815549332128333e-04 9.1769688715288567e-03 1.1081361075640180e-02 -6.2322054600423091e-03 2.2451152012640460e-03 -1.3653982540742635e-01 2.9840871926354828e-01 -7.3829090776187975e-02 5.0083442645162124e-02 3.3733747087739774e-01 -3.2917870164671362e-02 -9.8566881264780123e-02 1.0618631305107268e-01 -7.8756899060849178e-02 -6.1302856725464989e-02 -1.3652768199481857e-02 -3.2168876161601745e-01 -6.8670324389718124e-03 1.1645638840182104e-02 5.3827584301789598e-03 -3.2408156545723266e-02 -3.2124627286680266e-02 3.9977583792519346e-02 1.8414938269628867e-03 4.9455114773309133e-01 -6.7599850369960546e-01 1.0155360106599991e-01 -5.5673981853451959e-02 1.7187774565134639e-01 -9.6291559188168632e-02 1.2065932462315723e-01 3.2727653369172405e-01 -4.1879586301609134e-01 8.1589097143207667e-02 -1.3744048992271288e-02 9.5687504173489712e-01 -1.4705401191360580e-02 4.1131964447565483e-01 -1.9308297482476838e-02 7.4037651068506183e-03 7.4964290003684320e-02 -1.1108783868733824e-01 2.2450532306219073e-02 -6.8951009396695029e-01 
      </Row>
      <Row Index="240">
        1.1661548360115948e-02 -9.1798938044283518e-03 -1.4073215975473341e-03 -2.4111869639927015e-02 -5.8506424107948041e-03 7.9887889811235985e-02 3.4579744506232496e-03 -2.5900628516934421e-03 1.1253812383723097e-02 -5.7248731910596616e-02 -2.6059992682403620e-02 8.8405366491485504e-04 8.5832713064164040e-02 3.0559528450741849e-03 6.0795619526114383e-04 9.3651265280165485e-03 5.1973013044124394e-03 1.9143099321433751e-02 -5.9792655714043831e-04 5.8670598292496767e-03 -2.1236644643767982e-03 2.8889980389540937e-03 -1.9572158921951348e-02 3.6155059859668270e-03 5.7734451749282489e-02 -2.5479406609900611e-03 1.3184358930024564e-03 2.9125004271314620e-02 -3.1006679491825957e-02 -2.6912639341244451e-02 -1.9121245330114278e-03 1.9053668173878677e-01 1.4502114623266196e-03 -6.7343587742454275e-04 6.1219426402499000e-03 -2.5999407542427831e-03 -7.9456412574608060e-02 1.0587824151093023e-02 7.4280361752976351e-02 -2.4959250575686820e-03 1.9804328726270803e-02 -1.2980007084112261e-02 7.6104940892251061e-02 1.3408935490044432e-02 1.7198711464820604e-03 -8.9311313712812923e-03 -5.7429877523827666e-02 4.9417387674252106e-02 -5.6470047069058227e-03 5.6183173287857602e-04 5.5847573761821645e-02 3.6100089374525024e-03 1.4770933151040444e-02 1.7060957553139994e-02 9.4267356561023030e-03 -1.3695221581953340e-02 -3.8171575852153083e-03 9.6383767682262089e-03 1.3493166665235782e-03 1.0620647666575389e-02 1.3450039004303069e-02 2.7819604435029868e-02 -1.0728858942111896e-02 5.8154093339933821e-03 -1.9503246276242336e-02 6.3504199390297389e-03 3.6179458630974520e-02 -8.9416439410703735e-03 -4.7863417408886728e-03 1.3210618114422057e-01 1.1282030443781711e-02 1.1194235067407687e-02 8.1850517390577027e-03 9.4309789924232647e-03 7.0713806411858843e-03 -2.9608667222098123e-03 2.6505412444269849e-03 2.3448031500655220e-03 1.6535920139798196e-03 -1.2680051099744677e-02 -1.0244301958554913e-02 9.9023665746449455e-03 7.4897025377785552e-03 -9.1472078854637484e-04 -6.4488964014600691e-03 -1.0477598919765296e-03 -5.1400554374016177e-03 -1.5027265801444284e-03 -1.9067813074989939e-03 9.0434402543780046e-03 -1.2303404431065514e-04 -3.9931598470501831e-03 -1.4415548920477701e-03 -1.8038116059438242e-02 -2.8874922289616814e-04 1.4230959701844181e-04 -5.2393855153208546e-04 2.1779568415323837e-03 1.0307143749925016e-02 -1.7786490465495547e-02 5.1913842552930647e-03 2.0202534968660191e-02 -8.1203192880259512e-04 -1.0576094542911252e-02 -3.5740583832498202e-02 9.1109111198300324e-03 1.7991795605147090e-03 -1.0261575755642909e-01 -1.5967431524568795e-02 -1.9040348864668606e-04 -3.5465327191152515e-03 -8.3549748494852333e-04 3.3844162638440034e-03 3.0624455530998441e-03 7.4449993509146814e-02 3.4243297447338061e-03 8.7946815583377913e-03 5.6537302991074342e-03 -2.5375445972469497e-02 1.8825744608409406e-03 -3.7618036185533784e-03 -2.6503985304363840e-03 -7.5252434955398489e-02 1.2139379507824849e-04 1.5725688099691305e-02 3.5779778076722654e-03 -1.3033429001656111e-01 -1.3256463135507362e-02 2.6815449875357482e-03 -8.2043021419838102e-03 -2.8536759839101720e-04 -5.0838596131188497e-02 -5.8952030757558442e-04 -2.8049525552839285e-03 5.2239930188518156e-03 -1.4629432937240143e-03 1.9706045135574704e-03 -5.6471786761480014e-03 -1.6492778815132688e-03 -1.3750655038589996e-03 4.7968400082871124e-03 -8.9138991979951024e-04 2.8399851224450599e-03 -1.0632418709389899e-03 7.9520329457514831e-04 -5.5989394651755828e-03 -1.6584883045944519e-03 -5.3106733852130135e-05 8.9805259881025386e-04 -1.3560260261487372e-03 -2.0962225411528959e-03 -8.0189734939255675e-04 -3.7130767283864802e-02 6.6019192623063688e-03 -5.5520080060344063e-03 -2.6925042679121110e-03 -2.1310949315680235e-02 3.1270180069528170e-02 1.2890755193125190e-03 -2.4329208549656346e-03 -3.9422908125583883e-02 1.5492624617616477e-02 4.6571018575861135e-03 3.1478357848476104e-03 -1.0779491201894731e-01 -1.5470171340893443e-02 1.6917781952733510e-03 -1.6030615625305430e-02 -2.0487165857984400e-03 7.7515284995949190e-03 2.4463142558364187e-03 -7.0197622398495307e-02 -6.9788891637934114e-03 3.3927301312621783e-03 -3.9153540973565895e-02 8.9199621688009378e-02 -4.3924400836236076e-02 6.0086953582304536e-03 -2.0323270511883040e-02 1.1633766497375589e-01 4.4449029986577307e-02 -2.9856098957696017e-02 -1.3154398695866654e-02 3.4851630027216313e-01 4.5980581238183459e-02 -4.5839219189378307e-03 1.5553296878669132e-02 -3.6395218280778829e-03 -3.2788883082941554e-02 7.0230441051622877e-03 2.6798179368997255e-02 1.1500193856924731e-03 -7.9397391030473774e-05 -1.0806099240564457e-03 7.5198647997597595e-03 4.8441100786823592e-04 2.5971250580145251e-03 -7.7983565979368365e-03 -2.0306236513247325e-02 9.0454033218844414e-03 1.2114198031348172e-03 1.7247985841390518e-03 -3.0222789710634017e-02 2.2206987019393505e-03 3.9864006259339559e-03 -7.5151828293737108e-04 1.2377638602866382e-04 1.3907983894718019e-02 1.0061901212185592e-03 4.2988187146449891e-02 7.8915943488363366e-03 2.6388992002560341e-02 -1.0724514457759366e-02 1.8474405509476516e-01 -7.9748216972936797e-02 -7.1053596505992009e-02 -1.8454223659698163e-03 -6.6897932913900518e-02 1.1163414790030655e-01 -7.3976355743350208e-02 3.2642898575829249e-03 1.2143323092039335e-01 6.4337297022730527e-02 2.1138886854833991e-02 3.1476062082447243e-02 1.5369355103500612e-02 -6.2678788839916177e-02 -6.0088815868078807e-03 -2.2113092195232634e-01 -1.5389070525430926e-02 1.5348371403325470e-02 -5.9369057260157732e-02 -3.3081925764911146e-02 -3.1179720081605439e-01 7.3162026960652146e-02 -1.0749153120870325e-03 -6.6375459560702871e-02 -1.5030036306625483e-01 -2.7873976967538162e-02 -1.4705401191328897e-02 1.1725907687992432e+00 -1.6050773292931780e-02 -2.0432507550105894e-02 4.6430346729542625e-02 -2.2760148047058101e-02 1.9560443452388362e-01 -6.9768213309226723e-03 -1.8622661387113093e-01 
      </Row>
      <Row Index="241">
        3.2110006961147183e-03 1.1810114333944388e-01 -5.0136386112189346e-02 -1.5151410599933990e-01 7.9105608818516915e-02 6.8158881831275483e-02 3.8202359960982230e-03 -3.0553827959891922e-02 -2.9666961815145443e-02 1.0026905547549508e-01 1.0963128095022548e-02 1.7676271879496826e-02 -1.8241026602145369e-03 -9.8586622076482805e-02 7.7236642649304577e-03 -4.1103334664835844e-02 2.8750812256131044e-03 7.8923825752788002e-03 7.1950247830622954e-02 3.2115818079983760e-02 -4.4278672159717508e-02 8.2447405255446138e-02 2.6277311455033897e-02 -8.0534392468229021e-02 5.3501714381952517e-02 1.0040529292976578e-02 -1.6224149146025768e-02 1.9265048726580797e-01 6.4338714085465640e-02 1.6042227899292993e-02 -3.7157251162812877e-02 -1.6166559531421848e-03 -5.4999221460502297e-02 1.6800919242325331e-02 8.9500545485643790e-02 7.2501997016253573e-03 -1.0604526574071627e-02 -6.2412613905433456e-02 9.7128312135618261e-03 -3.4505400510933093e-02 9.1533465874052311e-02 -5.5073144367058569e-02 -2.6306338645994531e-01 2.5120657799623858e-02 -1.2494147550729251e-02 -3.4185734706143056e-03 8.6633232090347290e-02 -1.1791783227205765e-01 2.6680878647378781e-02 5.6297305207637427e-02 -3.3617275394896756e-02 -2.2439474572764517e-01 5.7566345817080339e-02 -2.8393137676308432e-02 -1.0955023766866079e-02 1.0562813391817479e-02 -1.4385615015464800e-01 -8.7692538031219902e-02 1.7716668032825153e-01 -3.9830305464005900e-03 1.9831551297139857e-01 4.7641734002075470e-02 -2.4804110200213086e-02 8.2622307028732411e-03 8.9549865631424197e-03 -2.5603023850980922e-01 -7.0039554513031121e-03 -6.2537793203146050e-02 5.9509248736323461e-02 2.5188314733044503e-02 7.0394790168581356e-01 3.0030743991723341e-02 -1.2201913724614322e-02 -3.4408644506300372e-02 -1.5109772266493265e-02 -5.8797071457716815e-02 8.8018362996156174e-04 -2.2092420502647564e-02 1.4357039596348639e-02 -5.8190083879486876e-02 4.1130971860672064e-02 1.1082938261942704e-02 -4.7247967007308291e-03 -2.6847057532899399e-03 -8.5145796994493206e-02 4.0506876498599964e-02 -8.2501266839957212e-03 1.2785670905482466e-02 6.5949778428773410e-03 5.1137227838863750e-02 4.1446589143798659e-03 -2.9880786900674694e-02 -3.5296166448229097e-03 -4.8379187424683889e-04 6.6109088557534113e-03 5.7442917346977596e-03 -1.8933832649908333e-03 1.1581203946703651e-02 -1.4881520757625125e-02 -1.8943305624499862e-02 -1.9236253531090611e-03 -2.1313952864080461e-02 -3.1508952758803555e-02 4.6231382020925837e-01 5.1142432265951797e-02 1.2751904487362027e-02 1.9917836865906643e-02 1.6249252037830947e-03 4.5467446992273827e-03 5.8137300213764627e-03 8.6211409586933949e-03 3.5855068193875045e-03 -5.0434175716670068e-03 2.7837882909894310e-02 -3.0809057085290768e-02 -8.1790824085214986e-06 2.8896302850236755e-02 8.1899900981680679e-02 -1.0794526366229085e-01 -1.2277079584318396e-02 5.6238643827345759e-03 2.2168042164174485e-02 -3.2706180947291502e-01 -3.2406753579478816e-02 -1.6248219020369145e-02 -2.6912635044068912e-02 1.5930907039440455e-03 4.0387166173870614e-02 2.2271776933486583e-03 2.7834721041946064e-03 -5.9762016784367308e-03 -1.7031295048499557e-02 -1.1430040299818786e-01 -8.7120167125590165e-03 1.1935803779242493e-02 -4.4654541326556666e-03 -3.9931722160414171e-03 -1.7412810319793852e-03 -2.4538629999714691e-04 -1.8911331092358911e-03 1.3828692593310470e-02 -6.3880187551193781e-03 7.5782614344436765e-03 -2.2526785932746262e-03 2.4901168120101385e-03 -2.4758254757679928e-03 1.4717201123376282e-02 -1.2385342434805442e-03 -1.2642798236404094e-03 9.4931813778867044e-04 -1.5726059848980550e-03 1.4199611374024704e-03 -7.2646560764851736e-03 -1.8879422318323916e-02 2.2107785420142509e-02 -1.1153493300869949e-01 3.4352816194925508e-02 -1.4239430025690055e-02 1.0440031796806372e-02 7.3959147770739919e-03 -7.5360770657712350e-02 -2.5713785333176645e-02 -4.9844833039312711e-02 -1.2446564885937319e-02 2.8160674318421841e-02 3.5715236506057579e-01 2.0747105975205161e-03 1.2070521140155277e-02 -3.9600514683531922e-03 -1.8413115911669348e-02 -3.1811266561326587e-02 5.1400495667910384e-03 -3.2884140328463096e-02 -1.7620095154190718e-02 -2.5931885909095981e-02 2.1190645244951525e-02 4.1452789606865187e-03 -1.0086042919657368e-02 -3.6451596376906314e-03 1.5630347320348847e-02 2.3834516128024646e-02 2.7037286929737017e-03 -2.8400553858029948e-03 2.1641228038906560e-03 -2.5254890905769663e-02 3.4063118319583347e-03 -2.6959176817805686e-02 -5.8161228901707964e-03 1.8199457606762968e-02 2.4002626991352916e-02 -3.5872126479075228e-02 5.9208714880280573e-02 -1.4971107983743917e-02 -4.6800717605393220e-02 4.8338837215817235e-02 -1.2193793930523505e-02 -1.1402344795761778e-03 -1.0642245754655073e-02 -1.3074759892415702e-01 3.1677475592267905e-02 -3.3917698305089429e-02 6.1193220982125734e-03 1.9523449487838376e-02 2.5961601570260034e-01 3.6891493492040451e-03 -4.7516554560560455e-02 -1.2917115863135775e-02 -6.5672027362608928e-03 8.2069630265257931e-02 -2.6024017516045939e-02 7.4768289774276395e-02 -5.3897669815227978e-02 3.2125669328523743e-01 1.0946729422290778e-01 -6.0326656308372379e-03 4.7373063224777856e-02 4.9800437252088589e-02 -3.3522173971582842e-01 -1.4537965064868139e-01 -3.0403490738996106e-02 -6.3245962400530764e-02 -2.0183475846861032e-02 -3.1430773426753111e-01 1.5781303708385479e-02 -1.6293913216617328e-01 -4.4405771232462601e-02 1.8377351439449359e-02 7.5398967030867903e-02 -6.5821709178509408e-02 -2.2611066193973928e-01 2.1622926821069863e-01 -6.1089490511019229e-01 2.2664562870466687e-01 -2.0703514247606425e-01 -6.0306971647115654e-02 -5.8898677378418363e-02 -9.0626277145473555e-01 3.1268509558345525e-01 -9.5416456425514370e-02 4.1131964447651309e-01 -1.6050773291762133e-02 2.5036811202992775e+00 -7.4544614190307390e-02 -8.3587899667168564e-02 2.8038856535047452e-02 4.9722399601217382e-02 -4.7708110258035186e-01 -3.0586968385409558e-01 
      </Row>
      <Row Index="242">
        1.1254509569517037e-02 -8.2901634389801471e-03 -1.8978054750361961e-02 -9.8777009667402188e-04 8.7024618717803218e-02 3.3556578723347788e-03 6.1267711479241066e-04 1.6068325937461131e-02 -1.5512843198800030e-02 -2.5639333816008885e-03 -4.9511346775286697e-03 1.0017776154143086e-03 -3.3816872507308540e-03 1.4415248841422250e-02 -2.2409313906985990e-02 -6.2088707305483215e-03 -6.5412443422034634e-03 -1.7851558971617651e-03 1.5993553766774225e-02 4.7153205846886467e-03 5.7045906673893754e-03 -9.1440859156616261e-03 4.7202173556132321e-03 -1.8588343237123106e-03 4.7713874522612165e-03 6.0258551264358506e-03 6.3191046287599875e-03 6.7382258885283763e-03 9.0499581225087639e-04 -8.4941273521481342e-04 8.2722845257283961e-03 -1.9746476856755193e-03 7.1447684627186422e-03 -7.8735035248498939e-02 -5.0961931512571446e-03 -4.4841540678636826e-02 3.6517994997059267e-03 7.4593236638947624e-03 1.4489949821644468e-02 2.9918188859143768e-03 -1.3215039257997052e-02 4.8075336213571074e-03 3.1269713680098288e-02 -2.4613059836853801e-03 -1.2689853666406764e-03 -1.1661972166862850e-02 9.3512369359038672e-03 -9.3006365939887342e-03 -3.0527964560506105e-04 4.9441345844686707e-03 5.9975590732604389e-03 2.1091519283134824e-02 -1.9091784918867793e-01 -8.4424219543920188e-03 3.4454297629473107e-02 8.1709521175936991e-04 1.4657568001182661e-02 1.9956889827349555e-02 -3.8795496903770736e-03 -1.2341226601107036e-02 2.9375519650092080e-03 7.3777002245086175e-03 1.3589915214004128e-03 -3.9747929310346430e-04 1.1876463713747731e-02 3.7999979435315051e-02 -2.8401526126454607e-03 5.4301415709240436e-03 4.0523006635766676e-03 5.9518164856630501e-03 -5.1239978529220645e-03 -1.4782642299467591e-01 -7.8022379500619632e-04 1.8188681412248366e-02 6.5269149810566474e-05 5.4912386468317087e-03 8.1803762853019379e-03 1.2939186168591937e-03 -5.8536188918119764e-03 5.7325621197407139e-04 1.2573441480310601e-03 8.1856534741028700e-04 -1.8890890662961006e-03 -3.2333390918546923e-03 1.4225625077196380e-02 1.3518007915695740e-03 -1.5260998765656581e-03 1.6209548081231456e-03 2.0583631027896385e-03 3.0174645807455568e-03 -1.6334188437316204e-02 -2.6607369874771143e-03 -1.5891229502280998e-02 4.5836832898533027e-03 4.3886079881710685e-03 1.4199069479132381e-02 1.1018990700493864e-03 -4.9120673447230201e-03 5.3289241112712063e-03 -6.3802284532573889e-02 -1.1946024688092652e-03 -2.5057985948443561e-03 4.6827727505312292e-03 -3.6903886970614752e-02 -2.9436614503903849e-03 4.0654658021352028e-04 5.2671878931159445e-03 4.5848483606958628e-03 5.3281407762676807e-03 -3.0270386716472739e-02 -1.1073973631661613e-02 -4.5424233093412071e-02 3.3770645096169172e-04 4.2020870116021691e-03 -7.0345327098574120e-03 -3.5026751620834927e-03 2.2908013952246051e-03 1.0104736623266603e-03 -2.1824489195035157e-02 -5.9748495316095263e-04 -2.9066753613684595e-04 8.7771615821954189e-03 4.8510824959991511e-02 2.2205686502267418e-03 9.7652389313359570e-04 8.8385590182745322e-04 2.1459651192163890e-03 -6.4212597319904235e-03 -7.6796659697870541e-03 3.5901848240312839e-03 1.0636740149166036e-02 8.6661360037879262e-03 -6.8533989132714013e-03 1.2714926833256208e-03 -2.3925374349111038e-03 6.7434478001672125e-04 8.7875762606624450e-04 -2.3414708417684275e-03 -3.2334935866528937e-04 -2.5980209577171933e-04 1.5951914175874942e-03 4.4001373496864588e-03 4.9666155877250030e-04 -2.8247753457599778e-04 3.9338886310432234e-05 5.7119081282101065e-05 -5.9734189181272299e-05 6.6126156075762914e-04 6.2656319989055085e-04 2.0570767171190800e-03 -2.1432812427937473e-04 2.9423085523305878e-04 2.6260683010585692e-03 3.6001430204498225e-03 5.1465476508256378e-03 -9.2207908778675282e-04 -3.4964285996284053e-03 9.2965741129476080e-04 -9.9589368060437784e-05 -1.0810678889764183e-02 3.6744016643422375e-02 2.7393220297933776e-03 7.4040080652535724e-04 2.0196861318573156e-03 3.1648806979255213e-03 -1.0942222260174710e-02 -7.4010254290352365e-03 3.6192163163331625e-04 -7.4107683514152587e-03 3.4320644970016567e-03 -4.3763444779976093e-03 -8.5393609520167946e-04 7.1208568749340506e-03 -1.5904125361427823e-03 2.1833228688450113e-03 -4.3573763208102287e-03 -9.0723503846348169e-04 -2.3136352702229912e-04 -6.3385014291707231e-03 -2.4249477370081429e-02 -1.5154327570633536e-03 -1.2306727178705915e-04 9.7842787777981111e-04 -6.6871889415439246e-03 1.3346585707145562e-03 8.0378755840124845e-04 2.2327088725815347e-04 -2.7395041956627471e-03 -2.2226719814136273e-03 4.6982688290800045e-03 1.4469749665005777e-02 -3.4993224438346557e-03 -7.3154629379441373e-03 2.3868117748776611e-03 1.6123715316854685e-02 -1.2943969946202654e-04 5.8225129469211077e-04 4.6655201340321754e-03 3.2905233864569519e-02 -5.2319136686898278e-04 -1.1276405975077248e-03 1.6805174432608801e-03 2.7099130171843256e-03 4.2010012973069111e-05 -4.1173673534679378e-02 -1.8269733945871121e-03 -3.0673975190309358e-02 9.1334404725020002e-04 1.3559693382803698e-02 -1.3737077296473289e-02 -1.2905651469483470e-02 -3.3888191086918970e-02 -2.2862876571931763e-03 -3.5806443759456436e-03 -5.6491786974902838e-03 8.0772649839943467e-03 -6.9982732790873081e-03 1.3106188807198091e-02 -2.2126914148165519e-03 -1.4473108072337756e-02 -1.9573205136289684e-02 -3.1855992937514822e-03 2.8881194674187670e-02 -1.0041886881621094e-01 1.9987600491527147e-02 4.6674644189514961e-02 6.6305586941891636e-03 3.1292505103016462e-02 2.5360896014371553e-02 1.2477218968889758e-02 -8.7134816524628775e-03 -8.2273164726410775e-03 4.8536039868462388e-02 -1.4591045625835689e-02 -3.5090623274647320e-02 6.7480316498405024e-02 1.5614295780230464e-01 -3.0258474306155345e-03 -3.0465363931199592e-03 -1.9308297482544930e-02 -2.0432507550207545e-02 -7.4544614190285602e-02 3.3527742986099396e-01 -3.7547957621719107e-03 -1.9478323275810203e-01 -4.1893108477907323e-02 -4.4209524147157703e-02 -1.1911503697563015e-01 
      </Row>
      <Row Index="243">
        3.2940424044513097e-03 -4.2004708462645146e-02 7.7968120768708848e-03 2.9436235797753410e-02 -2.3335257565056611e-02 -3.5312214190837410e-03 3.9951940807889108e-04 -5.1043978554139224e-02 -2.3997845503574200e-02 5.2835792297836557e-03 4.1809439914151370e-03 6.1111641405452444e-03 8.5372057333796825e-03 2.2195889307091987e-03 5.9444860799462429e-04 2.5946544669697114e-01 4.0255774054950878e-03 6.4312571565508514e-03 -9.8790929628450319e-03 -2.6044869420655120e-01 3.8945074574018079e-02 -1.0823533205795766e-02 -1.2289303286402903e-02 2.3678348325137932e-03 -9.4681523594277728e-03 -7.7370586445142161e-03 3.1036237548080492e-03 4.0999549354169273e-03 1.7056205548786063e-03 -1.2809680690275660e-02 -1.5489755392472659e-02 1.2670000451674421e-02 1.1504721024263483e-02 -6.1517264441757202e-04 -3.9199455492753987e-01 3.5092684865709045e-03 -6.6019392284503153e-03 1.4609433060466470e-02 -3.5123694748865231e-02 -2.4672088812330628e-02 1.3870474804997812e-03 4.7715358031204524e-02 1.2556255532960581e-02 -3.8561344370968698e-03 5.2005191039043996e-03 1.1770634283067682e-02 8.9211207403104842e-02 4.5104165296553367e-03 2.1451800955931688e-03 1.2479965112183078e-02 1.0280503148288656e-02 -6.7596708406911787e-03 -1.4997761162464096e-03 4.0517939672766051e-01 -3.8913417683446028e-03 3.9472157356170053e-02 -3.9589499703947539e-03 -1.0683882709698000e-01 1.7642244338567960e-03 5.1436239334367029e-03 -2.4068345746718678e-02 6.3439102354869714e-03 -2.1768861276667550e-03 -2.5882442472942024e-03 -5.1653621366989810e-02 -6.7697438262742438e-02 -1.2608081056714182e-03 -3.6409601239461020e-03 -1.1841591516549704e-03 1.2890825619120472e-02 3.0495623639666319e-02 2.3258430452028911e-03 -2.6981014727440944e-01 -6.8439478068429982e-04 -8.9765544350039472e-03 1.9359759362396201e-03 -2.9993898998206703e-02 2.3661695815495598e-03 -1.6786370751004087e-04 7.0761646831711267e-03 -1.2336032163473454e-02 -1.1271522877958941e-03 5.2090082050705658e-03 -4.5447512015459601e-03 -4.3830601611727360e-05 1.1776903198068567e-04 2.5983433400424139e-04 -2.0547422862340348e-03 9.1811668485521081e-05 -4.7822457052923428e-04 6.4575217397652707e-05 -4.7835024315466074e-02 2.6664721183832507e-03 6.3070856884038518e-03 2.1015274421248425e-03 1.5992682197726538e-02 1.4638857755072121e-03 1.5524654585938880e-03 -1.2375216104563130e-02 2.5362753626458012e-02 2.7859684694521852e-03 1.4272126081503939e-02 5.8260641519255474e-03 8.6830302011897675e-03 4.1777193809783564e-03 1.3745990793788687e-03 6.7461230767931063e-04 -6.5303364403400468e-03 1.7256451618249985e-02 1.9963992392921029e-03 -7.2077028311666708e-02 6.2212948254615208e-03 -2.2009457316286840e-04 -8.7281510698590525e-04 -1.3155523585466447e-01 1.1922299529940755e-02 -1.1453929498432602e-02 7.9666811875085675e-03 -3.2193433827548246e-02 -5.0227465563576698e-03 -1.7233545357386512e-04 -7.9296301891152721e-03 7.5346088442129755e-03 -7.9585705351979154e-04 -1.6845524021789939e-03 1.7233931473444389e-03 7.6389231170049948e-03 -2.9195206400047802e-03 -9.0652080916198488e-04 -7.4921241636648706e-02 6.2049576841384860e-03 3.7178537665137013e-02 8.0010956850573231e-03 -7.0482289165502005e-03 -1.5341712844795657e-03 2.4920030136959849e-03 -9.8404271621115556e-04 4.1607289619646493e-03 3.9814914454496930e-05 3.6179160118348817e-04 9.0792125652995603e-04 -1.2583092266103088e-02 -2.2579633333210149e-03 4.9434544459492531e-04 -1.3152903238686188e-03 -1.5877779462558552e-03 -2.0645295163898968e-03 -7.3456112670100202e-05 1.9681379295211771e-03 1.6395195953352280e-04 -1.8557186513470346e-03 2.4535103943842847e-03 2.1582646277760242e-02 2.1107961366142458e-02 1.7194940124572983e-02 -1.0336690443798813e-02 9.5893684393060785e-03 4.5908157215823614e-03 -1.3759948751204676e-04 2.1067215048538313e-02 -8.0375668527316035e-03 -1.2062920687595548e-02 -9.2656071726531647e-04 -1.4074948335813867e-02 -1.5862837276580360e-02 -2.1473761069793262e-02 -2.3881295093982000e-03 -3.4721838811361755e-01 -1.5040436076621828e-02 -2.6258739416242110e-02 9.1362141094421465e-03 -4.5800145500043410e-02 4.4862957144664595e-03 2.2744467960955639e-03 -1.1383570351454209e-02 1.1037081821367867e-03 -4.2672935428036962e-04 1.0320908958616481e-04 4.7909411490520970e-03 1.5879227343305047e-03 -8.3641406710588395e-04 -2.4122249927558126e-03 -4.3133061768270697e-03 9.7608603051005660e-03 2.3992015119443516e-03 3.0463910188342389e-04 -7.4566199260971189e-02 -1.2451639027209194e-03 -1.1731228676256368e-02 4.0346122831044773e-03 -1.8436943867603528e-03 -1.3802806638306603e-02 4.3912642447696271e-03 1.2063690639799132e-02 -1.0690188519602600e-02 -1.3296887167078041e-03 3.0676029968716989e-03 -1.4426709711749783e-02 7.4104816048018440e-03 -4.0727726351201740e-03 1.6557872950905168e-03 2.4421831691980997e-03 -7.8747393734489302e-04 -1.5956585755930959e-02 8.0022204091906215e-04 1.2004296218394335e-01 1.0813527701626101e-02 4.1631114387821371e-03 -4.6324444686675747e-03 3.0382885839067331e-01 -8.6216711032667398e-02 -7.1974622131756316e-03 1.1421451505056093e-01 -1.9155869013301743e-01 -2.4125483218209690e-02 -3.7513412855837328e-02 -2.9313434878121714e-02 1.2802201742640856e-01 1.6112615490378873e-03 1.0561905044025044e-02 5.0038709823545469e-02 5.8821321843261137e-02 3.1446093196732194e-02 5.6196158424862697e-03 8.2456816636199193e-01 4.6594612620395652e-02 1.5523155678858719e-01 -4.3170587680485803e-02 6.6797685860023215e-01 3.7543181470125475e-02 1.1449214691208742e-04 8.0054782872360786e-02 -3.3154591532323058e-02 7.6314734835946363e-03 7.1267941353267056e-02 -6.4042554963061882e-02 -2.1731481854127238e-02 2.3017887864955039e-02 1.0310258096084879e-02 7.4037651071323096e-03 4.6430346728729872e-02 -8.3587899667987076e-02 -3.7547957620820693e-03 1.2098903885543495e+00 2.9524487825152157e-02 -1.0367862566041279e-01 2.7008800196536287e-02 -8.1018837201403648e-01 
      </Row>
      <Row Index="244">
        2.2016876175032338e-04 -1.2805916429852252e-02 4.3200408481504846e-03 6.2184238829470009e-03 -4.1093088998212186e-02 -7.1856946637898315e-03 -2.1714863678355973e-03 -9.4818706962866706e-03 1.3758364093729013e-02 9.8719862055199684e-03 3.9633396805518663e-03 1.0567910680198333e-03 -5.8215374659128360e-03 3.2943541610740996e-03 5.8056825166035242e-03 1.5789934852672646e-03 -1.1198580040127889e-02 7.9721112848930506e-04 3.6866623826707745e-02 -7.2639003403005865e-03 -4.2547132749320288e-04 1.2907511484660725e-02 -6.4191142534096761e-03 -1.0340844212500033e-02 -4.6256334504316231e-03 -8.0322496216637552e-03 1.1403956796613803e-02 -1.0178626579029522e-02 -1.7398761109919114e-03 9.2619803008649991e-03 -1.8195978217648720e-02 -4.2918401679428080e-03 -8.8884100351864885e-03 5.0624162739442730e-02 -1.0825172043742809e-02 5.9402878274437500e-02 -9.5422046357307652e-03 -2.6907351113478889e-02 1.9553916209252894e-02 6.6468507526684095e-03 -9.8758954534990950e-03 1.7894496218001654e-03 -1.3691949211062898e-02 -1.4713357762925899e-03 2.8010094364867635e-03 7.4409841245463987e-03 1.1253934069265499e-01 -2.2741358654446701e-02 -7.4126636006209071e-03 1.3917971991440986e-02 4.2600724725967709e-04 8.8968068903569203e-03 8.9440767574799240e-02 9.4475346923407581e-03 -2.1545230094749668e-01 -1.3417816444955776e-02 -1.3779543535327926e-02 6.6618767644812671e-03 -4.6797524187109085e-03 4.7155737591318067e-03 -8.7103376404792203e-03 2.5339667640266912e-02 -3.9306976893713902e-04 -2.8541031332801614e-04 -1.1232135411697430e-02 5.6110051432442520e-04 -2.3342162594959047e-02 -4.8619304992480808e-03 2.4379581690135353e-02 -3.8527223224313831e-03 1.3556368822987646e-02 7.6037099169738193e-02 5.6153379226877020e-03 -1.3726786624596574e-01 -5.6784383425684329e-03 -2.5237658137505919e-02 -1.1801211264333311e-02 6.3226581945135252e-03 2.5044458868804416e-03 -1.2292108844204419e-03 7.9903143756679916e-03 -1.2382636751407333e-03 4.4025343497891695e-03 3.8141339663478324e-03 -2.9557879319607794e-02 -9.5467026361677199e-04 1.7516363466256084e-03 2.8953735772656985e-03 -1.0535333353028195e-03 -4.8378837106350658e-03 9.8661197191756058e-03 4.3623778758503061e-03 3.4016685490295608e-02 3.5551174978935840e-05 -5.1580994424701388e-03 -2.4531726701471496e-02 -9.4745501044318434e-04 -3.0271958093348265e-05 -1.0928049575341088e-02 5.9569796037827680e-02 3.1420590265905666e-03 1.2818022030032386e-02 -7.4193469860103778e-03 2.7941867979442481e-02 1.1412112515327574e-02 5.5781845246912678e-03 1.7884960802745423e-03 1.2088115646232747e-03 -1.3286078312078706e-02 2.7241034901946119e-02 4.4993963343447577e-03 1.0202573013700331e-01 -3.8384793184161308e-04 -4.9352099891509819e-03 6.3887575658323117e-03 -3.4649770981657405e-03 5.5201411885627168e-03 -9.5394493987144117e-04 -1.3020598704334575e-02 2.5058577569039876e-03 -1.7402410328644269e-03 -3.9014667373642523e-04 -4.5145603093469891e-02 -1.1647726990918020e-02 8.0024328521394726e-04 -6.9977510765336873e-03 3.4014575326556033e-03 -7.3809343077768999e-04 6.0303177401824113e-03 1.0101966848293634e-02 -1.9007733034755114e-02 -9.7250381881866174e-03 -4.9955899506864208e-02 5.1641840205554797e-04 -5.6023325018042763e-04 -1.4452302536613771e-04 -1.1127263350770859e-03 3.2095057530947867e-03 4.8651716767064116e-04 5.6741205884181726e-04 -2.5402110502157492e-03 -2.3309220170638460e-03 -1.0994655931482575e-03 2.9997133911519790e-04 7.6531936830787225e-05 9.9184459635066934e-04 1.0279246766251872e-03 -2.2289429784655375e-04 1.7693685790432477e-04 -2.7074214381737393e-03 3.8768024564922649e-04 4.0372313916992334e-04 -7.3976612109121348e-03 -5.2132683867229523e-03 -4.8356996107621827e-04 -1.8487946913119972e-03 7.3274326349114516e-03 9.9157537019293855e-04 6.5789021391462078e-05 1.2870214421197290e-03 -3.5603888661661108e-02 -8.2572200444804688e-03 1.6413742145781241e-03 -4.0315738813406663e-03 1.6209790099584245e-03 -7.9891640755278825e-03 7.9798654837787628e-03 -8.1442894766568102e-04 2.0490325877436537e-02 -1.9191543447001085e-03 -2.5622090559454875e-02 -8.3340066929679657e-04 1.8940881674305576e-03 -1.2302916966617783e-03 1.1113031755843397e-03 2.3252699694153427e-03 -4.5188688415500299e-04 1.3132374009798206e-03 3.5403841648934953e-03 6.0862356635671272e-03 3.6838226778925127e-03 -6.8897588414476053e-04 -8.9990184711211813e-04 -6.1198938235854025e-03 1.0299072152263856e-03 -1.7355186119638443e-03 -2.9801454050692733e-03 6.5809986309158762e-03 2.5465554447618951e-03 7.0344423924321095e-03 1.1635788344134673e-03 -1.3490463510321925e-03 4.6689553633146204e-03 -1.3075563054121761e-03 2.0194221399193479e-02 5.5839585843111953e-04 9.8536019720605770e-04 -6.2435371058832002e-03 -2.7878969002653062e-02 1.9245769281136607e-03 -6.7200945727633409e-04 4.0472548590232693e-03 -4.9195493276503154e-03 5.1463448584034488e-04 2.3213381230393723e-02 1.4463156889737953e-02 5.5626718502190899e-02 6.1298436089885378e-03 1.5031936865460359e-02 2.0357612635847951e-02 7.1146013581903297e-03 5.7132493677621264e-03 2.5768901287454897e-02 -1.2685456665034450e-01 -1.4428015791490287e-03 -4.4512472057994835e-02 1.7067153861875489e-02 4.3707665943585806e-02 -6.8686444050463230e-02 -7.6642031882695576e-03 -2.7799101565516845e-02 -1.2829433723136016e-02 7.3060241772569895e-02 1.8609745962555289e-02 2.5030780747642867e-02 -2.2199751235961288e-01 6.8800945335573266e-03 5.5489318906232474e-02 -2.4903935037231609e-03 1.6518597628540688e-02 -6.5008906599377213e-03 1.0112947390811949e-02 -5.1722940581807327e-02 2.0854504815851153e-02 7.8114796882166951e-02 -3.0119634505741844e-02 -1.3711965914662350e-01 3.2280946729395639e-02 -8.1500123351071242e-03 7.4964290004027337e-02 -2.2760148047288778e-02 2.8038856535390299e-02 -1.9478323275813039e-01 2.9524487825368817e-02 4.5920722711113293e-01 2.7350725570435344e-02 -1.8330576485042083e-01 -5.3053738561020816e-02 
      </Row>
      <Row Index="245">
        -7.8402895686421458e-03 5.6829220322170977e-02 2.8210437040062639e-02 1.9457574013977973e-02 -6.5686733705798778e-02 1.3614572635023479e-03 -1.7242808060950751e-03 5.0070858506917101e-02 -1.7828031310325426e-02 -3.3518073944449556e-02 -9.9522243755777676e-03 -1.5781931417020406e-03 1.0961513828811239e-02 -1.7190863299148720e-02 2.8613644755099742e-03 9.9217279536720562e-05 -2.3860520728687386e-04 1.2114737584652491e-01 5.0574759491165348e-02 2.3380174568773282e-02 -3.9735783658871981e-02 -8.0774717366276935e-02 -3.0453047876553348e-02 2.6040751229861461e-02 -5.2530531465992507e-03 1.1291055787856462e-03 3.6363520577043420e-03 2.8068764367519677e-03 -2.4924413788493509e-02 -1.4407808044929084e-02 -2.2294190304206641e-03 6.4051694590940553e-02 2.0994860996266206e-02 6.5641209529838304e-03 2.3273748046930807e-02 -1.2973688903914083e-03 -1.9350094347932328e-01 -3.7958146871923688e-03 8.7652047981411473e-03 7.1875890519727537e-03 -1.7565699909259971e-01 -1.1030600889439668e-02 -3.5608941302326433e-02 -2.5705384082062230e-03 9.8740919137425311e-04 1.1234734975912319e-02 -4.0323020768711332e-02 -8.1833801350628815e-04 3.3460785813476251e-03 -1.6453764937971568e-02 1.0512075143890579e-02 -7.6842731518838477e-03 2.4283641423905336e-02 -4.6714195332409045e-02 -1.1247652366773740e-02 1.1033168581805752e-02 -6.5163626589652926e-02 -2.9123975097676842e-02 6.1103067491042960e-02 5.7131752619734306e-02 3.0272434398728940e-02 -1.2271414387149498e-02 3.6747227442540144e-03 4.3847269993646729e-03 3.5975422572525798e-02 1.2573146384765474e-01 7.2008260874915552e-03 -4.7972253718781051e-03 -1.8576310651813407e-02 1.7461081564393622e-02 -1.0559258158321223e-02 1.4944481569714986e-02 1.9430192117365269e-02 -1.3244281791593612e-02 7.9360677585838230e-02 -9.8818230274912933e-02 1.2596758778014593e-02 6.3390193172139543e-03 -2.4636539748419282e-04 -1.2157763600380931e-02 1.1237371233632438e-02 1.5035421459463629e-03 -2.9786874854339680e-03 7.8777914459544560e-03 4.5755302379495502e-03 -3.1303413804761454e-03 2.6475538935954142e-03 -8.8216529844063595e-03 1.2768223455645662e-02 1.0189255656287777e-02 4.9917016906957188e-04 -1.0489692354424440e-02 3.6469360104383094e-04 -7.5872048811385304e-02 1.5390732997724273e-03 8.1730778701262843e-04 1.3082014613307949e-02 -1.1448252673707523e-02 8.9316945255335598e-03 3.7591739344351525e-02 -2.9562783804223842e-03 -6.7807839726758473e-03 -2.0960866437040029e-03 -1.2151050352531754e-02 -1.4154427645053700e-02 -5.2741318260998162e-04 -7.6219268710731002e-03 -1.9219105421165030e-02 -1.6134761602027176e-02 2.4160923168354905e-03 1.6381518150571792e-02 1.1060358629488256e-02 -9.1533653368400646e-03 1.6672716998539932e-02 5.1192584747174197e-02 2.1811236218853707e-02 8.9579357746402327e-02 -5.2101587225891345e-02 6.6375082953370190e-02 6.3621954433874901e-03 -1.8344754653807074e-03 1.1323779595239201e-02 2.3855170974048101e-02 3.1910890071641107e-03 1.0482458561710917e-02 -9.4084430617289213e-03 1.7672351136503596e-02 4.4890487042259293e-02 -1.9417641305955212e-04 -5.3797288254754314e-02 -2.0519539583229603e-02 -3.5651652137895445e-01 -6.5276306223721409e-02 -1.0928266179615214e-03 -9.6868944189632510e-04 -8.6276042834599004e-04 -7.5922483191954231e-05 2.4810232704084839e-04 -5.2756681816821285e-05 -1.1570648277567589e-03 -1.4750056558160399e-03 -1.6558549710672266e-03 2.0580189258529655e-03 1.0848172240616713e-04 -9.4686592601616769e-04 -1.4784937795929991e-03 -7.8149144403768384e-04 -7.9899084593945506e-04 -7.7280628033406327e-04 -3.2283866097993473e-04 -2.7412923228397999e-04 1.9650046027851953e-03 -4.0418062438116326e-02 -1.1311748092300523e-02 -6.5244002258875541e-02 6.7205188175006106e-03 -2.7249643489451351e-02 2.3719220620625325e-04 9.9030195059423209e-05 -1.5042627863592733e-02 4.1799051717818662e-02 8.4834982678948911e-03 2.7969914750313419e-03 1.7088154666476333e-03 -1.4821958134450567e-02 2.0772526847858484e-02 2.0174732347567944e-03 3.8590815636601827e-02 6.8259775860124335e-03 1.0511855803064943e-02 -2.8318876855867963e-02 -1.2458198590163574e-02 -1.3692887729243042e-02 1.5646720206804896e-02 -1.5279044742119111e-04 2.5258463978977321e-03 -1.7979989052101840e-03 -7.8930750771449842e-05 -9.5189097749242106e-03 -1.9590638931172230e-03 1.2901043382679105e-03 1.0860865369145102e-03 3.3715741381097203e-03 5.2690269137616291e-02 -4.6098292220902804e-03 3.0003004414106083e-04 1.8373860583098905e-02 3.4990091947395946e-03 2.3354763463712697e-02 1.5392640942429162e-02 1.0718181241746574e-02 2.7368593291674823e-02 2.2359289768621123e-02 -5.2537417540918369e-03 4.8856336856105229e-02 5.6333900548254370e-03 -3.9942856191562401e-04 1.6577051917537798e-02 1.6966290422383516e-02 2.3217231588790372e-02 1.9118942370253949e-03 -4.1895532334758276e-03 -7.9584401527936811e-03 6.0240310787598979e-03 3.4279950728018167e-03 -2.1022092203822198e-02 2.8551335513917506e-04 3.4040965324590153e-02 1.6505584902946915e-02 6.3357411310231912e-02 4.0106690686457572e-02 9.9460988049359697e-02 -6.2925949206964912e-02 2.4613230666518503e-02 2.8626029035547527e-02 2.1050201841138982e-02 5.2243839333591863e-02 -1.4165763436618259e-01 6.7819748152757667e-02 -7.7990878618968695e-03 7.7709343011135969e-03 5.9169837544861402e-02 1.7021259807607162e-04 8.7881117897887096e-03 -1.2988235203654555e-01 -6.6503250435980932e-02 -3.5185150269997462e-01 1.1568814651189528e-02 -1.7642207573519658e-01 -8.9626994377187907e-02 -3.2984304180739327e-01 -5.1324132923880848e-03 -7.7548788984183159e-02 9.2430333044328126e-05 -2.5289491960254637e-02 6.5732378277534864e-02 8.3564421915155493e-02 -9.4854893680228383e-02 9.7751131087686571e-02 -1.1108783868716680e-01 1.9560443452415247e-01 4.9722399601443784e-02 -4.1893108477983547e-02 -1.0367862565994983e-01 2.7350725570563353e-02 1.1063486098559945e+00 -2.6079560699261545e-01 9.5932664450634735e-03 
      </Row>
      <Row Index="246">
        -2.3190347976661242e-02 3.8171661338366469e-03 1.2898351978603451e-02 -2.5649362390531533e-02 2.3894890144239356e-01 3.1952398434177742e-02 -1.2354550816244259e-03 2.3274348962623037e-03 -3.5865445574539079e-02 7.4739517899371444e-02 -3.6528738943194416e-02 5.9078059041574038e-03 7.2236798614089825e-03 -2.1857322111780431e-02 4.3090618270550107e-03 2.8481848679053234e-02 2.9362485420075503e-02 -2.8001641321393711e-02 -2.5097278885843693e-01 -3.2379131752839796e-02 7.6685418610480394e-03 1.0764212280562901e-03 -1.8367212525967763e-02 -1.0581304243780032e-01 2.1420443888661767e-02 4.3494834342506453e-03 -1.2542548659316699e-02 4.6209435585132130e-02 8.8385747512408019e-02 -4.0791898740809074e-02 2.9913871543922887e-03 3.6302500086405343e-03 6.0546973005167128e-02 7.1240122122717686e-03 -1.3380357405700760e-02 -2.3174484557394306e-02 6.5624969871273531e-02 1.3765954964425375e-01 -2.3017000572897517e-02 1.0437609418003646e-02 3.3044700770596513e-02 -3.6596359875618267e-02 -3.7518623786632554e-01 2.9060846331383505e-03 6.5779161010761644e-03 -2.8141116434207691e-02 -2.5719228270324690e-02 -3.3055762549353274e-02 -1.8255243302175206e-02 -5.2807590246050085e-03 1.1204214264420309e-02 7.9821063021597860e-02 2.9944118816205623e-02 1.3596441816164900e-02 1.0196600317656124e-01 -1.7592221992654450e-02 3.2708405504770444e-01 1.5492057423227124e-02 -4.9624167907439398e-03 -2.2151115391354392e-02 -4.2674943817266886e-04 -7.9455122577240161e-02 -1.8619737917482393e-03 1.0184732955898390e-02 -4.5423264913129202e-03 8.6558870479907402e-02 7.9160524809088750e-03 -9.8641614078702755e-03 -1.9091371075307811e-03 2.0079645743529273e-03 -1.0516303056644660e-01 1.4224287379430933e-02 -9.2904620696456774e-03 7.0295216313910891e-02 -4.6456380180119772e-02 3.8155044280505190e-01 3.4646517275653821e-03 3.2655644057880684e-03 1.0463258551006216e-02 -1.0308361415519732e-02 9.7849636976211116e-02 8.4197392369395642e-03 7.4618369977925911e-03 6.5805887296521703e-03 -3.8195794941638717e-02 2.1296782611083032e-02 -2.7569608605486629e-03 2.0484660199768800e-03 -5.5268633934847933e-03 -3.9966080490669575e-03 -2.4697379623315613e-03 -7.0565948955113589e-03 -4.3977081035650178e-03 8.2652450256101850e-03 1.7683532343743813e-02 -6.1641016076290356e-03 1.4466490163670964e-03 1.2802956991357861e-02 2.0891226587169437e-02 -5.3276422000730883e-01 -8.7694598403981194e-04 1.1196080534636487e-02 -8.7898290805022983e-03 -4.6325053975766028e-02 7.2102021426260765e-03 1.0577978490008438e-02 -3.9577298415705009e-04 -6.7408755709923128e-03 -9.3980556947784732e-03 6.7805343411204630e-03 1.3541356851143771e-02 -3.3501955426352481e-02 1.5693774906466978e-02 -1.1233195850082270e-01 2.3334114852678944e-02 1.8532640281981483e-02 -3.8939216431327472e-02 -1.7479134718385386e-02 3.6494649505113441e-01 -1.1816243361180971e-02 7.7142876452644740e-03 -5.3340165924559979e-03 5.1476137155402002e-02 3.7517363014232127e-02 -1.9235590501230616e-02 1.0581610646722833e-03 8.2534188773537159e-04 6.0858154885734483e-02 -1.5648576579938400e-02 -3.3192049783451916e-02 -5.4275797249556564e-03 5.7953307487738137e-02 4.3732382790719670e-01 6.4122870387479797e-03 7.6837294841292092e-04 5.3433407672487387e-04 1.7022834900167413e-03 -4.1609228549667546e-03 -4.9468969496250376e-04 4.6382187907803660e-04 -2.5260608346262189e-03 -1.9026702446008036e-03 -3.5719140362264479e-03 1.3130447955365864e-03 6.3974272128799049e-05 1.3845037006930284e-03 -3.1709494000768598e-03 7.1919899435245703e-04 1.0615425062332901e-03 1.8068928122183456e-03 -8.1153262564831463e-06 -7.3941719089094735e-03 6.4727990279011993e-02 -4.9015371198239399e-03 9.7794839545900514e-04 -1.3842598375205128e-02 1.1663408498943931e-01 8.3228095540845287e-03 5.3122747586539718e-03 -7.9820869529528549e-03 2.1777603039223603e-03 -3.2994034756330365e-02 -9.7567211995043153e-03 2.8268735700281503e-03 -9.5677241300832772e-03 -3.6555619367990677e-02 -6.2690716002255509e-03 -3.7189456101747731e-02 -1.5223289319437783e-02 -1.2785721401146612e-02 1.7853125466488595e-01 -1.0236689365480611e-02 -2.4214740537829016e-03 5.3334352097831328e-03 3.6868541522200315e-03 -1.9775824944272880e-02 9.4369594716869898e-05 1.3606767737053271e-03 7.0813580607054227e-03 -2.9232493304047757e-02 -4.8306353126159607e-03 1.3047861606401395e-02 9.2429218079947972e-05 -7.4826966603932935e-03 -1.0102862866378987e-02 2.1037841832253538e-03 7.8123178718247921e-03 7.1108379226113225e-03 -1.6340521655450045e-02 -7.6244003917275927e-02 -1.3393226134641445e-02 -1.1694680087371845e-02 9.2964658970718927e-03 2.0238287213961398e-02 -1.7360471460207777e-01 3.1190683414824929e-03 -1.4975676446972314e-03 1.1648575476963893e-02 1.8648098020272008e-02 -7.0382672451614475e-02 2.1806949855649894e-02 4.8134106964819144e-04 -6.2599153553782802e-03 -9.6122784138304856e-02 1.3067635266935877e-02 1.1691589062399158e-02 -9.7492113284716291e-03 1.9136380832405087e-03 -2.3979811239362597e-01 -8.5070473054609574e-02 3.1200839366233635e-02 -1.0385790923304522e-02 3.4625886205792988e-03 4.9054990132117637e-01 -4.2681223243668361e-02 -5.2877981697451171e-02 5.1820363664412061e-02 -1.8324874957015930e-01 -1.4530560081974933e-01 -5.6475694562285628e-02 1.1820385432921632e-02 2.4008828200444976e-02 -8.0585380024659647e-02 2.0377486780587123e-02 3.1932874017080337e-02 1.3567363432263752e-01 3.2031941548332887e-02 -2.3588032682902993e-01 1.9795174308364599e-01 -3.7817024237650543e-02 7.0575456450951535e-02 -6.3922383622434076e-02 7.8566868160213499e-01 -1.1267153660285122e-01 3.7408054779720840e-02 3.8881694466295080e-02 -2.6053455037062689e-02 2.7171366295763760e-01 1.9389752045161882e-01 2.2450532305383436e-02 -6.9768213311386306e-03 -4.7708110258179820e-01 -4.4209524146841456e-02 2.7008800195416460e-02 -1.8330576485077327e-01 -2.6079560699269616e-01 1.8185689383412982e+00 -1.1817078012681814e+00 
      </Row>
      <Row Index="247">
        1.7223657851778229e-01 5.0267932969223494e-02 1.0428863470249894e-01 5.7032036531491581e-02 -4.2402524025027333e-01 -4.8806932897164756e-02 -3.0246185522797120e-02 -2.9410797944852618e-01 -1.8208106383185729e-01 -1.8530208773382853e-01 7.9662627640056272e-02 3.7577491831874976e-03 -6.1963177524153590e-02 -7.9384903715732147e-02 1.3667780149084319e-02 -1.3224506658919744e-01 -5.8065333850254586e-04 -7.3240536142193946e-04 1.1900453287799484e-01 8.1056300617541410e-01 -7.9380888693420637e-02 -2.4706535304160937e-01 1.0679765736261171e-02 2.0690693590507436e-01 -6.0241672965356763e-02 2.3288759067422865e-02 1.3948981365297453e-01 -4.2007011198057320e-01 -2.3195857769922723e-01 4.1196757924309324e-02 6.0340458514115625e-02 -8.9731470301555927e-02 -6.0324573504610624e-02 2.1731343885347254e-02 3.7132141812255526e-01 2.4726816883522740e-02 -1.0332111998321736e-02 -8.2031533448708061e-02 6.6151674314590725e-01 7.4833684055903404e-02 -3.2633122995957109e-01 -1.4378780458059559e-01 6.9885585291286390e-01 -1.0080290811517401e-02 -1.0896784785156299e-01 2.9076883938463638e-01 -4.7912086861529701e-02 2.4902300992837390e-01 4.7226806124777809e-02 -1.1303467311897286e-01 -2.0653311698985988e-02 3.0842261037969720e-02 7.6032538940115302e-02 -1.2986204048537364e-01 6.9271877342686139e-02 -3.6684909817703448e-02 -1.1737174028202979e-01 3.9108653863544873e-01 7.4927442101918540e-02 1.7755239996631111e-01 1.6701618502421400e-01 -4.2415329947125713e-02 3.8462589295972904e-02 -1.6922931373545680e-01 -2.2594906326148134e-01 -2.5229906846445260e-01 8.2992074832041851e-02 4.2337230224863909e-02 -1.5146793734066399e-01 -6.9908736439989738e-02 -2.1172395154897528e-01 7.2953402956386526e-02 1.8711006449209222e-01 2.9463872683336945e-02 -6.9048696460278336e-02 -2.6270757608258855e-01 1.1277401213884630e-01 -5.3537051935443003e-02 -8.4625838243291174e-02 5.1713643629678674e-02 -1.1213617385187868e-01 -7.4578708861062770e-03 -2.7719984106756373e-01 3.6493219993197101e-02 -1.1289259683125863e-01 -8.7472691302142636e-02 2.6576310340513665e-02 -1.2633247031152095e-02 6.9288429214161562e-03 -4.7373430138968775e-02 1.4130905232276336e-02 2.5802129443905031e-02 -1.1484055620180733e-02 1.8266691710920213e-02 -2.8802199586063448e-02 -1.4774444336010539e-01 1.3546340792557476e-01 6.1696661187995772e-02 8.4235713757840891e-03 6.6888422093298239e-01 4.0088137090965592e-03 -8.1087482464833005e-01 -3.7560896453004311e-02 2.1694626183898365e+00 -1.3006132699660888e-01 -2.1453656383770392e-02 -3.2221948051037230e-02 6.7176589886278643e-02 6.9374983918520483e-02 4.3392531724024686e-03 -4.1744935206599720e-02 -3.2473127312333094e-02 -7.1569931872495607e-02 1.3134424263037059e-01 5.2428125903779410e-01 -1.3250457632694790e-01 -6.1281673041387208e-02 1.4493816135527526e-02 -5.1183414019247508e-01 4.1826911172332837e-02 5.5722034883322613e-02 8.2296421760088556e-03 -1.2581511038086219e+00 2.5358512874946754e-02 3.1167509948151151e-02 4.2600795522700130e-02 -4.4501850082694527e-02 -1.0291232610954570e-01 2.0232317074057315e-02 1.5088988370789025e-01 1.3820185407272811e-02 9.5824722853070643e-03 -2.7511596272372452e-01 -8.6501784486766042e-03 9.0140310677051527e-03 3.0720726528742914e-03 -5.1506078088409540e-03 -3.2515230924268779e-02 6.4488715449433909e-03 -5.9965883005565421e-03 1.3330761185195716e-02 5.1927439791477292e-02 8.3624617633513143e-03 2.1216428923076930e-03 9.2275206881349547e-04 7.3758596269757337e-04 -2.7477489264708943e-03 -2.4594701302896316e-03 2.2472972141124314e-03 -3.1769282143336852e-03 5.4336307081570556e-04 5.6647717390056473e-03 -4.6023853154833771e-01 -8.1145447643225843e-02 -1.8224114370465827e-01 7.4950341000481480e-03 -1.5998608197430286e-01 -4.8586437018903750e-02 -4.2769975123209125e-02 1.9218431336580322e-01 -8.8049787672531110e-01 1.5712193481003889e-01 1.4458081373563858e-02 -2.1684999437833197e-03 4.3207195508540241e-02 -1.4376392650683245e-02 4.7517506458144010e-03 1.7111976398859596e-01 1.1148298979153592e-02 7.8159107360498803e-02 -1.4416915367941024e-01 1.0400348594769682e-01 5.7691312024203967e-03 1.0101454363603324e-01 2.0713818847947429e-02 1.2564572782085293e-01 4.8041225806993992e-03 -5.5959328905178296e-02 6.5805695474622894e-02 5.0800745570672134e-01 -4.6615459406938342e-02 -2.7218185060084998e-04 1.2286174422437846e-02 -3.7038987223104378e-02 2.0889602916912664e-02 -1.8934117842156067e-03 1.8312805110895169e-02 -1.0241741023053197e-02 2.9010796210095113e-02 2.7994457332383149e-02 1.0200955022214586e-01 1.4686627728944135e-02 5.6291845596662338e-02 1.2445379440139348e-02 1.0948931148181096e-01 1.5087343683910940e-02 -1.1171855079007931e-01 -1.3904030212671517e-01 -1.8243968896635998e-01 7.3899440098412622e-02 1.5414201371999642e-02 -1.0614943323140141e-02 9.0034430190866210e-04 -4.3324858973377567e-02 7.5690053831315995e-03 -9.0902971864461612e-02 -5.3476726421632509e-03 -2.0623752452113009e-02 1.5837345754100551e-01 -1.1876057825279385e-01 -2.8754877859286587e-01 -7.5176942855903484e-03 5.8487095946532452e-02 -6.7841942674966571e-01 2.5040892720523411e-01 2.3170344215638861e+00 -4.6479876299961642e-02 -8.4532625852048948e-01 6.2291097892446867e-01 2.6577012249555665e-01 2.3277442408705351e-01 -2.7182497030289543e-01 -3.5526550790560130e-01 7.0001717615780223e-02 -2.2553054996214428e-01 6.6733801616408961e-02 -1.1548581012970560e-01 1.3151666671774098e-01 -3.0086332633195165e+00 2.1961954172240894e-02 -7.5215045172956119e-01 -2.0568156976978003e-01 -1.0463899477845460e+00 2.8234644938730669e-01 -4.3459071323534371e+00 -8.1210027427313491e-01 -3.4367315577146096e+00 -8.7635628682508893e-01 -2.2012179932540521e-01 -6.8951009397351504e-01 -1.8622661386049966e-01 -3.0586968385960933e-01 -1.1911503697568859e-01 -8.1018837201577965e-01 -5.3053738560383534e-02 9.5932664516005239e-03 -1.1817078012820073e+00 1.2406661202022438e+01 
      </Row>
    </InverseHessian>
  </Weights>
</MethodSetup>
